{
  "version": "1.0",
  "truncation": null,
  "padding": null,
  "added_tokens": [
    {
      "id": 0,
      "content": "[UNK]",
      "single_word": false,
      "lstrip": false,
      "rstrip": false,
      "normalized": false,
      "special": true
    },
    {
      "id": 1,
      "content": "[PAD]",
      "single_word": false,
      "lstrip": false,
      "rstrip": false,
      "normalized": false,
      "special": true
    },
    {
      "id": 2,
      "content": "[CLS]",
      "single_word": false,
      "lstrip": false,
      "rstrip": false,
      "normalized": false,
      "special": true
    },
    {
      "id": 3,
      "content": "[SEP]",
      "single_word": false,
      "lstrip": false,
      "rstrip": false,
      "normalized": false,
      "special": true
    }
  ],
  "normalizer": null,
  "pre_tokenizer": {
    "type": "ByteLevel",
    "add_prefix_space": false,
    "trim_offsets": true,
    "use_regex": true
  },
  "post_processor": {
    "type": "ByteLevel",
    "add_prefix_space": true,
    "trim_offsets": false,
    "use_regex": true
  },
  "decoder": {
    "type": "ByteLevel",
    "add_prefix_space": true,
    "trim_offsets": true,
    "use_regex": true
  },
  "model": {
    "type": "BPE",
    "dropout": null,
    "unk_token": "[UNK]",
    "continuing_subword_prefix": null,
    "end_of_word_suffix": null,
    "fuse_unk": false,
    "byte_fallback": false,
    "ignore_merges": false,
    "vocab": {
      "[UNK]": 0,
      "[PAD]": 1,
      "[CLS]": 2,
      "[SEP]": 3,
      "!": 4,
      "\"": 5,
      "#": 6,
      "$": 7,
      "%": 8,
      "&": 9,
      "'": 10,
      "(": 11,
      ")": 12,
      "*": 13,
      "+": 14,
      ",": 15,
      "-": 16,
      ".": 17,
      "/": 18,
      "0": 19,
      "1": 20,
      "2": 21,
      "3": 22,
      "4": 23,
      "5": 24,
      "6": 25,
      "7": 26,
      "8": 27,
      "9": 28,
      ":": 29,
      ";": 30,
      "<": 31,
      "=": 32,
      ">": 33,
      "?": 34,
      "@": 35,
      "A": 36,
      "B": 37,
      "C": 38,
      "D": 39,
      "E": 40,
      "F": 41,
      "G": 42,
      "H": 43,
      "I": 44,
      "J": 45,
      "K": 46,
      "L": 47,
      "M": 48,
      "N": 49,
      "O": 50,
      "P": 51,
      "Q": 52,
      "R": 53,
      "S": 54,
      "T": 55,
      "U": 56,
      "V": 57,
      "W": 58,
      "X": 59,
      "Y": 60,
      "Z": 61,
      "[": 62,
      "\\": 63,
      "]": 64,
      "^": 65,
      "_": 66,
      "`": 67,
      "a": 68,
      "b": 69,
      "c": 70,
      "d": 71,
      "e": 72,
      "f": 73,
      "g": 74,
      "h": 75,
      "i": 76,
      "j": 77,
      "k": 78,
      "l": 79,
      "m": 80,
      "n": 81,
      "o": 82,
      "p": 83,
      "q": 84,
      "r": 85,
      "s": 86,
      "t": 87,
      "u": 88,
      "v": 89,
      "w": 90,
      "x": 91,
      "y": 92,
      "z": 93,
      "{": 94,
      "|": 95,
      "}": 96,
      "~": 97,
      "¡": 98,
      "¢": 99,
      "£": 100,
      "¤": 101,
      "¥": 102,
      "¦": 103,
      "§": 104,
      "¨": 105,
      "©": 106,
      "ª": 107,
      "«": 108,
      "¬": 109,
      "®": 110,
      "¯": 111,
      "°": 112,
      "±": 113,
      "²": 114,
      "³": 115,
      "´": 116,
      "µ": 117,
      "¶": 118,
      "·": 119,
      "¸": 120,
      "¹": 121,
      "º": 122,
      "»": 123,
      "¼": 124,
      "½": 125,
      "¾": 126,
      "¿": 127,
      "À": 128,
      "Á": 129,
      "Â": 130,
      "Ã": 131,
      "Ä": 132,
      "Å": 133,
      "Æ": 134,
      "Ç": 135,
      "È": 136,
      "É": 137,
      "Ê": 138,
      "Ë": 139,
      "Ì": 140,
      "Í": 141,
      "Î": 142,
      "Ï": 143,
      "Ð": 144,
      "Ñ": 145,
      "Ò": 146,
      "Ó": 147,
      "Ô": 148,
      "Õ": 149,
      "Ö": 150,
      "×": 151,
      "Ø": 152,
      "Ù": 153,
      "Ú": 154,
      "Û": 155,
      "Ü": 156,
      "Ý": 157,
      "Þ": 158,
      "ß": 159,
      "à": 160,
      "á": 161,
      "â": 162,
      "ã": 163,
      "ä": 164,
      "å": 165,
      "æ": 166,
      "ç": 167,
      "è": 168,
      "é": 169,
      "ê": 170,
      "ë": 171,
      "ì": 172,
      "í": 173,
      "î": 174,
      "ï": 175,
      "ð": 176,
      "ñ": 177,
      "ò": 178,
      "ó": 179,
      "ô": 180,
      "õ": 181,
      "ö": 182,
      "÷": 183,
      "ø": 184,
      "ù": 185,
      "ú": 186,
      "û": 187,
      "ü": 188,
      "ý": 189,
      "þ": 190,
      "ÿ": 191,
      "Ā": 192,
      "ā": 193,
      "Ă": 194,
      "ă": 195,
      "Ą": 196,
      "ą": 197,
      "Ć": 198,
      "ć": 199,
      "Ĉ": 200,
      "ĉ": 201,
      "Ċ": 202,
      "ċ": 203,
      "Č": 204,
      "č": 205,
      "Ď": 206,
      "ď": 207,
      "Đ": 208,
      "đ": 209,
      "Ē": 210,
      "ē": 211,
      "Ĕ": 212,
      "ĕ": 213,
      "Ė": 214,
      "ė": 215,
      "Ę": 216,
      "ę": 217,
      "Ě": 218,
      "ě": 219,
      "Ĝ": 220,
      "ĝ": 221,
      "Ğ": 222,
      "ğ": 223,
      "Ġ": 224,
      "ġ": 225,
      "Ģ": 226,
      "ģ": 227,
      "Ĥ": 228,
      "ĥ": 229,
      "Ħ": 230,
      "ħ": 231,
      "Ĩ": 232,
      "ĩ": 233,
      "Ī": 234,
      "ī": 235,
      "Ĭ": 236,
      "ĭ": 237,
      "Į": 238,
      "į": 239,
      "İ": 240,
      "ı": 241,
      "Ĳ": 242,
      "ĳ": 243,
      "Ĵ": 244,
      "ĵ": 245,
      "Ķ": 246,
      "ķ": 247,
      "ĸ": 248,
      "Ĺ": 249,
      "ĺ": 250,
      "Ļ": 251,
      "ļ": 252,
      "Ľ": 253,
      "ľ": 254,
      "Ŀ": 255,
      "ŀ": 256,
      "Ł": 257,
      "ł": 258,
      "Ń": 259,
      "Ġt": 260,
      "Ġa": 261,
      "in": 262,
      "he": 263,
      "re": 264,
      "on": 265,
      "er": 266,
      "Ġthe": 267,
      "Ġs": 268,
      "at": 269,
      "Ġo": 270,
      "nd": 271,
      "Ġw": 272,
      "Ġc": 273,
      "it": 274,
      "es": 275,
      "or": 276,
      "en": 277,
      "is": 278,
      "ou": 279,
      "Ġf": 280,
      "Ġp": 281,
      "ing": 282,
      "an": 283,
      "Ġb": 284,
      "al": 285,
      "ed": 286,
      "Ġand": 287,
      "Ġto": 288,
      "Ġm": 289,
      "Ġin": 290,
      "ar": 291,
      "Ġof": 292,
      "ic": 293,
      "Ġd": 294,
      "ion": 295,
      "le": 296,
      "as": 297,
      "om": 298,
      "Ġh": 299,
      "Ġth": 300,
      "ent": 301,
      "il": 302,
      "Ġe": 303,
      "ro": 304,
      "Ġre": 305,
      "ve": 306,
      "Ġl": 307,
      "st": 308,
      "ct": 309,
      "Ġy": 310,
      "Ġn": 311,
      "et": 312,
      "Ġg": 313,
      "ĠT": 314,
      "ly": 315,
      "ĠI": 316,
      "Ġyou": 317,
      "Ġis": 318,
      "ĠS": 319,
      "Ġfor": 320,
      "Ġbe": 321,
      "id": 322,
      "ot": 323,
      "ut": 324,
      "Ġon": 325,
      "ur": 326,
      "ol": 327,
      "ra": 328,
      "ĠC": 329,
      "ĠA": 330,
      "us": 331,
      "ce": 332,
      "ow": 333,
      "im": 334,
      "ation": 335,
      "ch": 336,
      "ig": 337,
      "ay": 338,
      "ver": 339,
      "el": 340,
      "ith": 341,
      "Ġst": 342,
      "Ġthat": 343,
      "am": 344,
      "ir": 345,
      "Ġwith": 346,
      "ad": 347,
      "ĠM": 348,
      "ul": 349,
      "ers": 350,
      "Ġit": 351,
      "Ġpro": 352,
      "Ġas": 353,
      "Ġhe": 354,
      "Ġal": 355,
      "Ġan": 356,
      "ĠP": 357,
      "ĠB": 358,
      "un": 359,
      "se": 360,
      "if": 361,
      "Ġare": 362,
      "Ġcon": 363,
      "Ġwh": 364,
      "ill": 365,
      "ge": 366,
      "ter": 367,
      "'s": 368,
      "Ġor": 369,
      "ĠThe": 370,
      "ess": 371,
      "Ġcom": 372,
      "ment": 373,
      "ke": 374,
      "ate": 375,
      "Ġha": 376,
      "ist": 377,
      "ĠW": 378,
      "ĠH": 379,
      "her": 380,
      "Ġwe": 381,
      "Ġ1": 382,
      "ab": 383,
      "pp": 384,
      "od": 385,
      "ri": 386,
      "est": 387,
      "Ġex": 388,
      "ore": 389,
      "ĠD": 390,
      "ac": 391,
      "ant": 392,
      "th": 393,
      "Ġsu": 394,
      "rom": 395,
      "Ġde": 396,
      "ĠR": 397,
      "ĠF": 398,
      "ity": 399,
      "op": 400,
      "Ġat": 401,
      "Ġwas": 402,
      "Ġ(": 403,
      "ld": 404,
      "qu": 405,
      "Ġse": 406,
      "Ġyour": 407,
      "igh": 408,
      "ive": 409,
      "Ġv": 410,
      "res": 411,
      "Ġne": 412,
      "Ġcan": 413,
      "Ġ2": 414,
      "ort": 415,
      "ies": 416,
      "oc": 417,
      "pe": 418,
      "ĠL": 419,
      "ain": 420,
      "em": 421,
      "ĠG": 422,
      "ĠE": 423,
      "Ġby": 424,
      "um": 425,
      "os": 426,
      "art": 427,
      "Ġfrom": 428,
      "Ġhave": 429,
      "and": 430,
      "ust": 431,
      "Ġch": 432,
      "Ġus": 433,
      "Ġr": 434,
      "ĠN": 435,
      "nt": 436,
      "Ġsh": 437,
      "iv": 438,
      "all": 439,
      "ud": 440,
      "ial": 441,
      "ure": 442,
      "ome": 443,
      "Ġle": 444,
      "Ġthis": 445,
      "Ġnot": 446,
      "ard": 447,
      "Ġu": 448,
      "ight": 449,
      "ĠO": 450,
      "ect": 451,
      "Ġwor": 452,
      "Ġpl": 453,
      "our": 454,
      "ide": 455,
      "out": 456,
      "Ġwill": 457,
      "ost": 458,
      "rou": 459,
      "Ġab": 460,
      "ould": 461,
      "ere": 462,
      "per": 463,
      "ag": 464,
      "ions": 465,
      "ine": 466,
      "gh": 467,
      "Ġen": 468,
      "ak": 469,
      "ast": 470,
      "are": 471,
      "age": 472,
      "Ġcomp": 473,
      "Ġad": 474,
      "og": 475,
      "ĠJ": 476,
      "pt": 477,
      "ie": 478,
      "ok": 479,
      "ff": 480,
      "Ġall": 481,
      "00": 482,
      "ell": 483,
      "Ġim": 484,
      "ip": 485,
      "Ġ\"": 486,
      "Ġtheir": 487,
      "Ġhas": 488,
      "ally": 489,
      "Ġj": 490,
      "able": 491,
      "ich": 492,
      "ther": 493,
      "ice": 494,
      "Ġk": 495,
      "du": 496,
      "ear": 497,
      "iz": 498,
      "Ġint": 499,
      "ated": 500,
      "ĠU": 501,
      "pl": 502,
      "Ġgo": 503,
      "Ġwhe": 504,
      "act": 505,
      "ack": 506,
      "cc": 507,
      "ire": 508,
      "Ġinc": 509,
      "ake": 510,
      "Ġmore": 511,
      "so": 512,
      "ry": 513,
      "ong": 514,
      "Ġdo": 515,
      "orm": 516,
      "ĠIn": 517,
      "Ġme": 518,
      "ind": 519,
      "âĢ": 520,
      "Ġcont": 521,
      "ĠTh": 522,
      "Ġbut": 523,
      "Ġte": 524,
      "ans": 525,
      "Ġcl": 526,
      "ign": 527,
      "ous": 528,
      "The": 529,
      "ance": 530,
      "Ġout": 531,
      "ia": 532,
      "ook": 533,
      "ult": 534,
      "ations": 535,
      "ime": 536,
      "ite": 537,
      "Ġthey": 538,
      "ru": 539,
      "one": 540,
      "Ġso": 541,
      "Ġres": 542,
      "Ġup": 543,
      "ber": 544,
      "Ġwhich": 545,
      "Ġun": 546,
      "Ġwork": 547,
      "Ġalso": 548,
      "ical": 549,
      "Ġman": 550,
      "very": 551,
      "ĠK": 552,
      "ail": 553,
      "ach": 554,
      "reat": 555,
      "vel": 556,
      "Ġapp": 557,
      "Ġour": 558,
      "Ġimp": 559,
      "ĠSt": 560,
      "Ġfe": 561,
      "Ġone": 562,
      "ib": 563,
      "Ġ20": 564,
      "form": 565,
      "ary": 566,
      "Ġabout": 567,
      "Ġother": 568,
      "ike": 569,
      "ap": 570,
      "ace": 571,
      "'t": 572,
      "Ġ19": 573,
      "ase": 574,
      "ĠY": 575,
      "Ġmy": 576,
      "Ġoff": 577,
      "erv": 578,
      "ence": 579,
      "ame": 580,
      "av": 581,
      "Ġwho": 582,
      "ue": 583,
      "ition": 584,
      "ass": 585,
      "ep": 586,
      "Ġdis": 587,
      "Ġhis": 588,
      "ĠIt": 589,
      "Ġper": 590,
      "Ġtra": 591,
      "Ġsome": 592,
      "ount": 593,
      "Ġqu": 594,
      "ll": 595,
      "ction": 596,
      "ile": 597,
      "ree": 598,
      "ks": 599,
      "Ġpart": 600,
      "Ġar": 601,
      "ress": 602,
      "end": 603,
      "Ġev": 604,
      "ub": 605,
      "Ġtime": 606,
      "Ġany": 607,
      "Ġsp": 608,
      "ents": 609,
      "ĠV": 610,
      "ĠCh": 611,
      "ose": 612,
      "ces": 613,
      "ord": 614,
      "ors": 615,
      "Ġspe": 616,
      "own": 617,
      "ish": 618,
      "Ġthem": 619,
      "ove": 620,
      "ark": 621,
      "Ġrec": 622,
      "Ġnew": 623,
      "ings": 624,
      "Ġpre": 625,
      "ays": 626,
      "Ġprov": 627,
      "Ġover": 628,
      "Ġyear": 629,
      "Ġro": 630,
      "Ġcomm": 631,
      "Ġwere": 632,
      "Ġsc": 633,
      "Ġlike": 634,
      "ck": 635,
      "ond": 636,
      "ild": 637,
      "ick": 638,
      "ound": 639,
      "lp": 640,
      "Ġkn": 641,
      "lud": 642,
      "ater": 643,
      "Ġbeen": 644,
      "Ġpe": 645,
      "ens": 646,
      "Ġits": 647,
      "Ġ3": 648,
      "ang": 649,
      "Ġhad": 650,
      "âĢĵ": 651,
      "Ġ201": 652,
      "Ġhelp": 653,
      "Ġdes": 654,
      "Ġacc": 655,
      "Ġthere": 656,
      "Ġhow": 657,
      "Ġag": 658,
      "Ġneed": 659,
      "ss": 660,
      "fere": 661,
      "ood": 662,
      "vers": 663,
      "Ġwhen": 664,
      "int": 665,
      "ory": 666,
      "Ġget": 667,
      "ian": 668,
      "wn": 669,
      "ĠThis": 670,
      "ob": 671,
      "red": 672,
      "tern": 673,
      "Ġinclud": 674,
      "oy": 675,
      "Ġher": 676,
      "ov": 677,
      "mer": 678,
      "low": 679,
      "Ġind": 680,
      "Ġsa": 681,
      "ific": 682,
      "rough": 683,
      "ric": 684,
      "ough": 685,
      "nder": 686,
      "te": 687,
      "ual": 688,
      "Ġwould": 689,
      "ople": 690,
      "Ġif": 691,
      "Ġcol": 692,
      "Ġinto": 693,
      "Ġadd": 694,
      "ne": 695,
      "Ġbec": 696,
      "irst": 697,
      "ities": 698,
      "Ġam": 699,
      "Ġmay": 700,
      "Ġthan": 701,
      "ram": 702,
      "Ġwhat": 703,
      "ments": 704,
      "ful": 705,
      "lic": 706,
      "Ġuse": 707,
      "rit": 708,
      "ates": 709,
      "Ġ-": 710,
      "ning": 711,
      "les": 712,
      "Ġprodu": 713,
      "Ġserv": 714,
      "ons": 715,
      "use": 716,
      "ious": 717,
      "Ġem": 718,
      "Ġjust": 719,
      "Ġtr": 720,
      "Ġpeople": 721,
      "Ġcons": 722,
      "ink": 723,
      "hed": 724,
      "cial": 725,
      "amp": 726,
      "Ġmake": 727,
      "fter": 728,
      "Ġact": 729,
      "Ġco": 730,
      "Ġbu": 731,
      "ĠWe": 732,
      "old": 733,
      "Ġthese": 734,
      "pport": 735,
      "ft": 736,
      "lect": 737,
      "Ġtw": 738,
      "Ġdif": 739,
      ").": 740,
      "Ġthrough": 741,
      "Ġsuch": 742,
      "Ġfirst": 743,
      "Ġbet": 744,
      "ĠRe": 745,
      "ĠHe": 746,
      "ating": 747,
      "round": 748,
      "Ġmost": 749,
      "ew": 750,
      "Ġunder": 751,
      "ph": 752,
      "Ġreg": 753,
      "Ġsy": 754,
      "Ġwell": 755,
      "ced": 756,
      "ĠâĢĵ": 757,
      "Ġexper": 758,
      "Ġno": 759,
      "ade": 760,
      "Ġrel": 761,
      "we": 762,
      "ices": 763,
      "ise": 764,
      "Ġeff": 765,
      "Ġbl": 766,
      "Ġrep": 767,
      "Ġra": 768,
      "ract": 769,
      "ting": 770,
      "ject": 771,
      "als": 772,
      "olog": 773,
      "Ġonly": 774,
      "ased": 775,
      "Ġ4": 776,
      "ility": 777,
      "ational": 778,
      "ert": 779,
      "Ġinv": 780,
      "Ġph": 781,
      "Ġstud": 782,
      "ool": 783,
      "ures": 784,
      "Ġloc": 785,
      "oth": 786,
      "ng": 787,
      "ange": 788,
      "uring": 789,
      "Ġpers": 790,
      "Ġatt": 791,
      "velop": 792,
      "ife": 793,
      "cess": 794,
      "Ġknow": 795,
      "Ġshe": 796,
      "Ġplay": 797,
      "ular": 798,
      "Ġmany": 799,
      "Ġ5": 800,
      "hen": 801,
      "ĠUn": 802,
      "iss": 803,
      "ative": 804,
      "Ġlook": 805,
      "ily": 806,
      "xt": 807,
      "iew": 808,
      "ience": 809,
      "iness": 810,
      "any": 811,
      "Ġback": 812,
      "Ġevery": 813,
      "gan": 814,
      "Ġfl": 815,
      "Ġpos": 816,
      "),": 817,
      "ath": 818,
      "fore": 819,
      "stem": 820,
      "Ġinform": 821,
      "hip": 822,
      "alth": 823,
      "Ġsee": 824,
      "ause": 825,
      "erm": 826,
      "row": 827,
      "bs": 828,
      "Ġtwo": 829,
      "Ġdec": 830,
      "aking": 831,
      "ts": 832,
      "Ġcould": 833,
      "ward": 834,
      "pect": 835,
      "Ġrem": 836,
      "aw": 837,
      "ible": 838,
      "Ġwhere": 839,
      "Ġbus": 840,
      "Ġsm": 841,
      "get": 842,
      "urn": 843,
      "elf": 844,
      "Ġke": 845,
      "ics": 846,
      "Ġinst": 847,
      "Ġpr": 848,
      "Ġhigh": 849,
      "Ġass": 850,
      "chn": 851,
      "Ġdiffere": 852,
      "Ġwant": 853,
      "Ġac": 854,
      "Ġway": 855,
      "Ġgreat": 856,
      "ied": 857,
      "ĠYou": 858,
      "Ġdevelop": 859,
      "ont": 860,
      "its": 861,
      "Ġshould": 862,
      "Ġmed": 863,
      "ower": 864,
      "Ġyears": 865,
      "ited": 866,
      "ys": 867,
      "Ġpol": 868,
      "Ġpo": 869,
      "eth": 870,
      "Ġcre": 871,
      "Ġsec": 872,
      "arch": 873,
      "rib": 874,
      "Ġfin": 875,
      "Ġafter": 876,
      "Ġown": 877,
      "Ġset": 878,
      "Ġ200": 879,
      "ident": 880,
      "Ġent": 881,
      "hes": 882,
      "Ġused": 883,
      "ient": 884,
      "ener": 885,
      "Ġgood": 886,
      "uch": 887,
      "Ġcar": 888,
      "Ġvery": 889,
      "Ġdesign": 890,
      "omm": 891,
      "day": 892,
      "Ġperson": 893,
      "ork": 894,
      "Ġcommun": 895,
      "Ġinformation": 896,
      "Ġins": 897,
      "Th": 898,
      "Ġtrans": 899,
      "Ġthen": 900,
      "Ġeven": 901,
      "..": 902,
      "iet": 903,
      "Ġprog": 904,
      "Ġart": 905,
      "Ġfind": 906,
      "ĠSe": 907,
      "Ġstart": 908,
      "Ġgu": 909,
      "air": 910,
      "ty": 911,
      "Ġrequ": 912,
      "land": 913,
      "ality": 914,
      "Ġsystem": 915,
      "Ġbest": 916,
      "ock": 917,
      "Ġmod": 918,
      "ren": 919,
      "chool": 920,
      "Ġsign": 921,
      "Ġdisc": 922,
      "Ġbusiness": 923,
      "Ġav": 924,
      "cy": 925,
      "ĠWh": 926,
      "ten": 927,
      "ever": 928,
      "Ġright": 929,
      "up": 930,
      "Ġprovid": 931,
      "Ġsupport": 932,
      "Ġlong": 933,
      "ict": 934,
      "Ġmade": 935,
      "ues": 936,
      "Ġfam": 937,
      "line": 938,
      "ble": 939,
      "Ġlead": 940,
      "arket": 941,
      "io": 942,
      "Ġpres": 943,
      "Ġmin": 944,
      "Ġsur": 945,
      "tle": 946,
      "Ġtechn": 947,
      "Ġsoc": 948,
      "Ġproduct": 949,
      "Ġdown": 950,
      "Ġhome": 951,
      "Ġdet": 952,
      "ĠDe": 953,
      "Ġworld": 954,
      "Ġmem": 955,
      "Ġtake": 956,
      "ĠPro": 957,
      "Ġday": 958,
      "ural": 959,
      "Ġdifferent": 960,
      "ank": 961,
      "Ġbr": 962,
      "ax": 963,
      "ivers": 964,
      "led": 965,
      "Ġvis": 966,
      "Ġbeing": 967,
      "Ġform": 968,
      "und": 969,
      "ser": 970,
      "istant": 971,
      "Ġnow": 972,
      "ustom": 973,
      "other": 974,
      "ives": 975,
      "ional": 976,
      "ize": 977,
      "Ġche": 978,
      "Ġlife": 979,
      "ash": 980,
      "Ġhealth": 981,
      "Ġ6": 982,
      "ness": 983,
      "ner": 984,
      "ven": 985,
      "Ġsim": 986,
      "ĠAl": 987,
      "Ġmuch": 988,
      "Ġinter": 989,
      "Ġed": 990,
      "ines": 991,
      "ix": 992,
      "arm": 993,
      "Ġwhile": 994,
      "Ġshow": 995,
      "Ġmon": 996,
      "Ġdon": 997,
      "ene": 998,
      "Ġprovide": 999,
      "Ġbefore": 1000,
      "Ġexp": 1001,
      "Ġread": 1002,
      "Ġsk": 1003,
      "Ġimport": 1004,
      "Ġend": 1005,
      "Ġcomple": 1006,
      "uc": 1007,
      "ving": 1008,
      "ered": 1009,
      "Ġnum": 1010,
      "Ġadv": 1011,
      "Ġeach": 1012,
      "Ġspec": 1013,
      "ata": 1014,
      "Ġ'": 1015,
      "ĠAr": 1016,
      "ollow": 1017,
      "In": 1018,
      "ĠIf": 1019,
      "ween": 1020,
      "ĠAs": 1021,
      "az": 1022,
      "Ġsub": 1023,
      "Ġagain": 1024,
      "Ġop": 1025,
      "Ġthose": 1026,
      "arn": 1027,
      "Ġbecause": 1028,
      "Ġstr": 1029,
      "Ġsaid": 1030,
      "ale": 1031,
      "ized": 1032,
      "Ġpub": 1033,
      "roup": 1034,
      "ins": 1035,
      "iqu": 1036,
      "way": 1037,
      "Ġcount": 1038,
      "Ġprogram": 1039,
      "Ġext": 1040,
      "ages": 1041,
      "'re": 1042,
      "Ġteam": 1043,
      "ually": 1044,
      "Ġcare": 1045,
      "Ġbetween": 1046,
      "ason": 1047,
      "Ġthink": 1048,
      "Ġcur": 1049,
      "Ġfound": 1050,
      "Ġcall": 1051,
      "ug": 1052,
      "ull": 1053,
      "meric": 1054,
      "Ġaut": 1055,
      "Ġvar": 1056,
      "Ġgra": 1057,
      "ution": 1058,
      "ted": 1059,
      "Ġret": 1060,
      "Ġincluding": 1061,
      "ouse": 1062,
      "cept": 1063,
      "Ġdid": 1064,
      "Ġeffect": 1065,
      "ssistant": 1066,
      "Ġcustom": 1067,
      "ĠNew": 1068,
      "Ġprof": 1069,
      "ather": 1070,
      "ĠFor": 1071,
      "Ġhere": 1072,
      "Ġhand": 1073,
      "ier": 1074,
      "ology": 1075,
      "Ġprocess": 1076,
      "ince": 1077,
      "Ġmarket": 1078,
      "ature": 1079,
      "irect": 1080,
      "User": 1081,
      "der": 1082,
      "Ġhim": 1083,
      "Ġeas": 1084,
      "gy": 1085,
      "Assistant": 1086,
      "Ġcle": 1087,
      "Ġorgan": 1088,
      "Ġ&": 1089,
      "Ġaround": 1090,
      "ĠSh": 1091,
      "Ġbo": 1092,
      "Ġser": 1093,
      "Ġfil": 1094,
      "Ġchar": 1095,
      "Ġdoes": 1096,
      "ists": 1097,
      "Ġdef": 1098,
      "Ġduring": 1099,
      "Ġusing": 1100,
      "ved": 1101,
      "Ġboth": 1102,
      "Ġlar": 1103,
      "ute": 1104,
      "Ġinf": 1105,
      "ĠAnd": 1106,
      "ave": 1107,
      "ĠAn": 1108,
      "akes": 1109,
      "iel": 1110,
      "ĠCan": 1111,
      "Ġfollow": 1112,
      "oun": 1113,
      "ining": 1114,
      "Ġmain": 1115,
      "ism": 1116,
      "dition": 1117,
      "Ġmus": 1118,
      "ential": 1119,
      "Ġ7": 1120,
      "Ġgl": 1121,
      "Ġchild": 1122,
      "ĠThey": 1123,
      "Ġgener": 1124,
      "els": 1125,
      "ĠAmeric": 1126,
      "imes": 1127,
      "alk": 1128,
      "Ġbook": 1129,
      "ple": 1130,
      "ah": 1131,
      ".\"": 1132,
      "erest": 1133,
      "ĠLe": 1134,
      "Ġsol": 1135,
      "Ġval": 1136,
      "pr": 1137,
      "Ġwee": 1138,
      "ĠAd": 1139,
      "riend": 1140,
      "ars": 1141,
      "Ġ$": 1142,
      "Ġplace": 1143,
      "ants": 1144,
      "ĠHow": 1145,
      "orn": 1146,
      "Ġty": 1147,
      "20": 1148,
      "Ġcent": 1149,
      "Ġlit": 1150,
      "Ġbuild": 1151,
      "ien": 1152,
      "Ġref": 1153,
      "ern": 1154,
      "Ġ8": 1155,
      "atch": 1156,
      "Ġpartic": 1157,
      "ĠCl": 1158,
      "vern": 1159,
      "lease": 1160,
      "Ġappro": 1161,
      "Ġ10": 1162,
      "Ġfew": 1163,
      "Ġpur": 1164,
      "Ġimportant": 1165,
      "eng": 1166,
      "Ġpost": 1167,
      "view": 1168,
      "gg": 1169,
      "read": 1170,
      "Ġcour": 1171,
      "ruct": 1172,
      "Ġwater": 1173,
      "ivid": 1174,
      "ired": 1175,
      "Ġplan": 1176,
      "Ġprom": 1177,
      "Ġ18": 1178,
      "Ġ.": 1179,
      "Ġopt": 1180,
      "oad": 1181,
      "19": 1182,
      "ĠBe": 1183,
      "Ġsmall": 1184,
      "ways": 1185,
      "Ġavail": 1186,
      "con": 1187,
      "de": 1188,
      "Ġresult": 1189,
      "Ġconc": 1190,
      "Ġstill": 1191,
      "Ġdel": 1192,
      "Ġallow": 1193,
      "Ġtop": 1194,
      "ets": 1195,
      "ished": 1196,
      "Ġfun": 1197,
      "Ġincre": 1198,
      "Ġsame": 1199,
      "bers": 1200,
      "stand": 1201,
      "Ġpat": 1202,
      "feren": 1203,
      "Ġlast": 1204,
      "iving": 1205,
      "Ġcompany": 1206,
      "Ġexperience": 1207,
      "rent": 1208,
      "Ġide": 1209,
      "iron": 1210,
      "Ġpract": 1211,
      "Ġdata": 1212,
      "Ġeng": 1213,
      "ering": 1214,
      "Ġfree": 1215,
      "Ġlist": 1216,
      "Ġlove": 1217,
      "Ġsom": 1218,
      "Ġiss": 1219,
      "Ġproject": 1220,
      "Ġreally": 1221,
      "Ġfeel": 1222,
      "Ġsocial": 1223,
      "com": 1224,
      "Ġpri": 1225,
      "Ġperform": 1226,
      "Ġgroup": 1227,
      "Ġcontin": 1228,
      "This": 1229,
      "au": 1230,
      "Ġdist": 1231,
      "orts": 1232,
      "'ve": 1233,
      "Ġinterest": 1234,
      "Ġschool": 1235,
      "Ġresp": 1236,
      "oot": 1237,
      "ling": 1238,
      "Ġrun": 1239,
      "ross": 1240,
      "ral": 1241,
      "iversity": 1242,
      "ital": 1243,
      "Ġob": 1244,
      "ames": 1245,
      "arly": 1246,
      "Ġthough": 1247,
      "ccess": 1248,
      "Ġbel": 1249,
      "ton": 1250,
      "We": 1251,
      "ves": 1252,
      "ined": 1253,
      "ield": 1254,
      "ision": 1255,
      "ms": 1256,
      "uss": 1257,
      "Ġreal": 1258,
      "ĠInd": 1259,
      "ware": 1260,
      "Ġwrit": 1261,
      "Ġconf": 1262,
      "ĠEx": 1263,
      "Ġservice": 1264,
      "oh": 1265,
      "Ġaccess": 1266,
      "ik": 1267,
      "Ġrest": 1268,
      "Ġpop": 1269,
      "Ġpoint": 1270,
      "Ġfact": 1271,
      "Ġposs": 1272,
      "Ġfamily": 1273,
      "Ġimpro": 1274,
      "less": 1275,
      "Ġavailable": 1276,
      "ertain": 1277,
      "man": 1278,
      "Ġopen": 1279,
      "Ġkeep": 1280,
      "'m": 1281,
      "âĢĶ": 1282,
      "Ġcho": 1283,
      "Ġservices": 1284,
      "Ġthree": 1285,
      "ically": 1286,
      "000": 1287,
      "ploy": 1288,
      "Ġnumber": 1289,
      "vent": 1290,
      "ote": 1291,
      "Ġlevel": 1292,
      "ĠThere": 1293,
      "Ġ9": 1294,
      "aj": 1295,
      "Ġexpl": 1296,
      "ĠSc": 1297,
      "Ġcor": 1298,
      "'ll": 1299,
      ",\"": 1300,
      "ense": 1301,
      "Ġredu": 1302,
      "ody": 1303,
      "ĠOn": 1304,
      "Ġpower": 1305,
      "Ġrese": 1306,
      "Ġest": 1307,
      "reen": 1308,
      "iety": 1309,
      "nect": 1310,
      "Ġstate": 1311,
      "Ġrece": 1312,
      "Ġprot": 1313,
      "Ġpass": 1314,
      "cing": 1315,
      "Ġcost": 1316,
      "Ġtoo": 1317,
      "Ġstand": 1318,
      "ĠPl": 1319,
      "Ġgrow": 1320,
      "self": 1321,
      "viron": 1322,
      "Ġbra": 1323,
      "Ġindust": 1324,
      "Ġdirect": 1325,
      "ĠTe": 1326,
      "Ġve": 1327,
      "iver": 1328,
      "ividual": 1329,
      "ĠCom": 1330,
      "pend": 1331,
      "Ġdri": 1332,
      "ĠShe": 1333,
      "Ġlot": 1334,
      "Ġclass": 1335,
      "ared": 1336,
      "be": 1337,
      "ately": 1338,
      "ĠBut": 1339,
      "Ġwithout": 1340,
      "ury": 1341,
      "ĠCol": 1342,
      "Ġlocal": 1343,
      "Ġarea": 1344,
      "ior": 1345,
      "Ġgoing": 1346,
      "Ġhapp": 1347,
      "Ġbetter": 1348,
      "Ġca": 1349,
      "Ġalways": 1350,
      "ery": 1351,
      "Ġsit": 1352,
      "Ġimpact": 1353,
      "Ġcult": 1354,
      "ability": 1355,
      "Ġsure": 1356,
      "Ġstre": 1357,
      "por": 1358,
      "Ġoper": 1359,
      "outh": 1360,
      "Ġaff": 1361,
      "Ġwebs": 1362,
      "ients": 1363,
      "Ġinvest": 1364,
      "Ġfriend": 1365,
      "Ġindividual": 1366,
      "Ġpay": 1367,
      "Ġlight": 1368,
      "Ġmust": 1369,
      "rol": 1370,
      "Ġproper": 1371,
      "Ġhist": 1372,
      "Ġequ": 1373,
      "Ġmonth": 1374,
      "Ġsuccess": 1375,
      "ĠSp": 1376,
      "Ġsecond": 1377,
      "oss": 1378,
      "Ġcreate": 1379,
      "ries": 1380,
      "Ġspecific": 1381,
      "Ġ199": 1382,
      "Ġtry": 1383,
      "ron": 1384,
      "ample": 1385,
      "Ġaddition": 1386,
      "Ġonline": 1387,
      "aut": 1388,
      "Ġpublic": 1389,
      "Ġprofess": 1390,
      "ization": 1391,
      "ĠQ": 1392,
      "Ġfac": 1393,
      "Ġcome": 1394,
      "ĠZ": 1395,
      "vironment": 1396,
      "inal": 1397,
      "to": 1398,
      "Ġcr": 1399,
      "ĠIs": 1400,
      "ee": 1401,
      "ards": 1402,
      "Ġwithin": 1403,
      "Ġactiv": 1404,
      "Ġthings": 1405,
      "lish": 1406,
      "Ġcreat": 1407,
      "Ġable": 1408,
      "itive": 1409,
      "ĠBl": 1410,
      "tain": 1411,
      "Ġmusic": 1412,
      "Ġunderstand": 1413,
      "Ġpersonal": 1414,
      "ique": 1415,
      "ocus": 1416,
      "Ġbro": 1417,
      "Ġgovern": 1418,
      "Ġproble": 1419,
      "Ġfood": 1420,
      "ration": 1421,
      "itions": 1422,
      "Ġpot": 1423,
      "ium": 1424,
      "Ġinclude": 1425,
      "Ġspecial": 1426,
      "Ġchang": 1427,
      "ases": 1428,
      "Ġquest": 1429,
      "eg": 1430,
      "ird": 1431,
      "thing": 1432,
      "Ġsl": 1433,
      "Ġoften": 1434,
      "Ġmaking": 1435,
      "Ġgive": 1436,
      "rist": 1437,
      "cl": 1438,
      "cent": 1439,
      "Ġconst": 1440,
      "work": 1441,
      "ething": 1442,
      "Ġhum": 1443,
      "Ġbre": 1444,
      "Wh": 1445,
      "Ġens": 1446,
      "port": 1447,
      "Ġhead": 1448,
      "ats": 1449,
      "veral": 1450,
      "Ġcurrent": 1451,
      "ĠCon": 1452,
      "ider": 1453,
      "Ġstudents": 1454,
      "ify": 1455,
      "orth": 1456,
      "ills": 1457,
      "co": 1458,
      "Ġsince": 1459,
      "the": 1460,
      "Ġquality": 1461,
      "Ġtri": 1462,
      "Ġchange": 1463,
      "agement": 1464,
      "Ġair": 1465,
      "Ġanother": 1466,
      "Ġbene": 1467,
      "Ġoffer": 1468,
      "oney": 1469,
      "ĠFr": 1470,
      "Ġi": 1471,
      "Ġmov": 1472,
      "Ġlittle": 1473,
      "ogra": 1474,
      "conom": 1475,
      "lection": 1476,
      "Ġmet": 1477,
      "Ġsay": 1478,
      "aterial": 1479,
      "Ġbelie": 1480,
      "Ġdem": 1481,
      "Ġsignific": 1482,
      "Ġintern": 1483,
      "Ġnext": 1484,
      "Ġeduc": 1485,
      "Ġmight": 1486,
      "It": 1487,
      "Ġless": 1488,
      "Ġsupp": 1489,
      "Ġelect": 1490,
      "Ġlarge": 1491,
      "ember": 1492,
      "Ġcommunity": 1493,
      "ope": 1494,
      "Ġorder": 1495,
      "Ġtest": 1496,
      "ources": 1497,
      "Ġworking": 1498,
      "Ġgame": 1499,
      "me": 1500,
      "ĠAll": 1501,
      "Ġsomething": 1502,
      "Ġfull": 1503,
      "Ġview": 1504,
      "Ġconnect": 1505,
      "Ġdep": 1506,
      "ĠPh": 1507,
      "ĠAmerican": 1508,
      "ĠSo": 1509,
      "Ġunt": 1510,
      "Ġpresent": 1511,
      "ina": 1512,
      "Ġproducts": 1513,
      "Ġseveral": 1514,
      "Ġresearch": 1515,
      "Ġput": 1516,
      "ĠAt": 1517,
      "joy": 1518,
      "ention": 1519,
      "ours": 1520,
      "Ġenvironment": 1521,
      "ator": 1522,
      "Ġold": 1523,
      "Ġchall": 1524,
      "ified": 1525,
      "oint": 1526,
      "Ġlet": 1527,
      "Ġbenef": 1528,
      "Ġwin": 1529,
      "Ġfocus": 1530,
      "Ġlearn": 1531,
      "Ġdevelopment": 1532,
      "Ġexam": 1533,
      "Ġvisit": 1534,
      "Ġener": 1535,
      "Ġagainst": 1536,
      "rop": 1537,
      "Ġmat": 1538,
      "omen": 1539,
      "Ġsaf": 1540,
      "Ġwebsite": 1541,
      "Ġemploy": 1542,
      "Ġbig": 1543,
      "ĠEng": 1544,
      "Ġjob": 1545,
      "Ġhard": 1546,
      "oci": 1547,
      "Ġevent": 1548,
      "Ġbased": 1549,
      "Ġbeh": 1550,
      "Ġneeds": 1551,
      "Ġel": 1552,
      "Ġdetail": 1553,
      "Ġgr": 1554,
      "Ġleg": 1555,
      "ission": 1556,
      "Ġsing": 1557,
      "Ġnever": 1558,
      "Ġmeet": 1559,
      "lement": 1560,
      "Ġlaw": 1561,
      "ains": 1562,
      "Ġmar": 1563,
      "ised": 1564,
      "Ġcap": 1565,
      "Ġmaterial": 1566,
      "ode": 1567,
      "ems": 1568,
      "Ġterm": 1569,
      "Ġuntil": 1570,
      "ĠThese": 1571,
      "let": 1572,
      "Ġexample": 1573,
      "wards": 1574,
      "ump": 1575,
      "Ġphot": 1576,
      "oor": 1577,
      "Ġname": 1578,
      "Ġsite": 1579,
      "If": 1580,
      "ec": 1581,
      "ination": 1582,
      "ann": 1583,
      "ĠHowever": 1584,
      "Ġroom": 1585,
      "Ġapplic": 1586,
      "iven": 1587,
      "Ġreport": 1588,
      "10": 1589,
      "ĠComm": 1590,
      "Ġsignificant": 1591,
      "Ġmedia": 1592,
      "Ġchildren": 1593,
      "ories": 1594,
      "ipp": 1595,
      "ĠUniversity": 1596,
      "ived": 1597,
      "Ġbas": 1598,
      "gin": 1599,
      "yle": 1600,
      "Ġprotect": 1601,
      "ĠUS": 1602,
      "Ġdays": 1603,
      "Ġenergy": 1604,
      "Ġsal": 1605,
      "pportun": 1606,
      "osed": 1607,
      "ently": 1608,
      "ĠOr": 1609,
      "Ġtreat": 1610,
      "Ġess": 1611,
      "Ġrecord": 1612,
      "fect": 1613,
      "Ġmove": 1614,
      "Ġland": 1615,
      "aster": 1616,
      "Ġann": 1617,
      "Ġtoget": 1618,
      "Ġpain": 1619,
      "ley": 1620,
      "Ġtogether": 1621,
      "med": 1622,
      "Ġalong": 1623,
      "Ġweek": 1624,
      "ged": 1625,
      "ush": 1626,
      "here": 1627,
      "sh": 1628,
      "Ġdev": 1629,
      "Ġfr": 1630,
      "Ġtoday": 1631,
      "ĠMan": 1632,
      "Ġident": 1633,
      "illion": 1634,
      "by": 1635,
      "Ġ12": 1636,
      "ger": 1637,
      "Ġmembers": 1638,
      "ex": 1639,
      "Ġinvol": 1640,
      "Ġopportun": 1641,
      "atures": 1642,
      "hor": 1643,
      "Ġdra": 1644,
      "Ġfour": 1645,
      "ĠMar": 1646,
      "ĠGo": 1647,
      "Ġenjoy": 1648,
      "ental": 1649,
      "br": 1650,
      "Ġindustry": 1651,
      "uro": 1652,
      "50": 1653,
      "bo": 1654,
      "ising": 1655,
      "Ġknown": 1656,
      "ĠCo": 1657,
      "ajor": 1658,
      "Ġbecome": 1659,
      "Ġothers": 1660,
      "ĠUnited": 1661,
      "ograph": 1662,
      "ĠRes": 1663,
      "Ġlim": 1664,
      "Ġanal": 1665,
      "arl": 1666,
      "ples": 1667,
      "Ġcomplete": 1668,
      "Ġvide": 1669,
      "Ġlooking": 1670,
      "Ġcase": 1671,
      "aring": 1672,
      "angu": 1673,
      "lev": 1674,
      "Ġtru": 1675,
      "Ġeconom": 1676,
      "Ġturn": 1677,
      "ĠCent": 1678,
      "Ġimprove": 1679,
      "Ġpossible": 1680,
      "ĠWith": 1681,
      "Ġpa": 1682,
      "Ġcharact": 1683,
      "inc": 1684,
      "uture": 1685,
      "room": 1686,
      "of": 1687,
      "anies": 1688,
      "ateg": 1689,
      "min": 1690,
      "Ġaccount": 1691,
      "Ġask": 1692,
      "Ġtechnology": 1693,
      "Ġcity": 1694,
      "Ġtyp": 1695,
      "Ġseason": 1696,
      "ency": 1697,
      "Ġeasy": 1698,
      "Ġfore": 1699,
      "Ġnon": 1700,
      "ane": 1701,
      "Ġtre": 1702,
      "ances": 1703,
      "Ġtimes": 1704,
      "ids": 1705,
      "\".": 1706,
      "ball": 1707,
      "Ġcourse": 1708,
      "lished": 1709,
      "ott": 1710,
      "Ġcamp": 1711,
      "Ġpast": 1712,
      "side": 1713,
      "utes": 1714,
      "Ġhouse": 1715,
      "utions": 1716,
      "ĠChrist": 1717,
      "ĠTo": 1718,
      "Ġline": 1719,
      "Ġtool": 1720,
      "Ġgovernment": 1721,
      "Ġmoney": 1722,
      "Ġocc": 1723,
      "ips": 1724,
      "Ġcompet": 1725,
      "Ġcontrol": 1726,
      "Ġla": 1727,
      "Ġtem": 1728,
      "Ġpotential": 1729,
      "Ġbeaut": 1730,
      "ead": 1731,
      "ney": 1732,
      "Ġmult": 1733,
      "ommend": 1734,
      "mber": 1735,
      "Ġgot": 1736,
      "Ġpolic": 1737,
      "arent": 1738,
      "ĠWhen": 1739,
      "Ġbody": 1740,
      "Ġlow": 1741,
      "atural": 1742,
      "Ġcheck": 1743,
      "icle": 1744,
      "urther": 1745,
      "Ġorig": 1746,
      "ript": 1747,
      "ians": 1748,
      "ret": 1749,
      "Ġnet": 1750,
      "Ġes": 1751,
      "fort": 1752,
      "sc": 1753,
      "Ġaway": 1754,
      "Ġparticular": 1755,
      "ably": 1756,
      "Ġmind": 1757,
      "Ġhaving": 1758,
      "Ġpolit": 1759,
      "ĠTr": 1760,
      "resent": 1761,
      "Ġaddress": 1762,
      "Ġsw": 1763,
      "Ġrequire": 1764,
      "Ġbuy": 1765,
      "âĢ¦": 1766,
      "ai": 1767,
      "Ġensure": 1768,
      "Ġkey": 1769,
      "Ġshort": 1770,
      "app": 1771,
      "rodu": 1772,
      "ored": 1773,
      "Ġside": 1774,
      "Ġstory": 1775,
      "ohn": 1776,
      "Ġrange": 1777,
      "iam": 1778,
      "abor": 1779,
      "Ġ15": 1780,
      "atic": 1781,
      "fer": 1782,
      "ording": 1783,
      "Ġfuture": 1784,
      "pecial": 1785,
      "Ġreview": 1786,
      "ĠWor": 1787,
      "over": 1788,
      "iod": 1789,
      "Ġrecommend": 1790,
      "Ġeffective": 1791,
      "Ġ198": 1792,
      "Ġmajor": 1793,
      "Ġexpect": 1794,
      "fact": 1795,
      "iting": 1796,
      "You": 1797,
      "Ġvarious": 1798,
      "Ġsoft": 1799,
      "Ġcountry": 1800,
      "vious": 1801,
      "Ġcompanies": 1802,
      ".,": 1803,
      "ulation": 1804,
      "ots": 1805,
      "Ġleft": 1806,
      "lu": 1807,
      "Ġenc": 1808,
      "ights": 1809,
      "enn": 1810,
      "ĠThat": 1811,
      "urity": 1812,
      "Ġstudy": 1813,
      "ding": 1814,
      "ides": 1815,
      "Ġfund": 1816,
      "ER": 1817,
      "Ġcertain": 1818,
      "ilities": 1819,
      "aff": 1820,
      "ferences": 1821,
      "Ġ0": 1822,
      "osp": 1823,
      "Ġvers": 1824,
      "Ġrelations": 1825,
      "ured": 1826,
      "Ġissues": 1827,
      "Ġmil": 1828,
      "aim": 1829,
      "Ġword": 1830,
      "load": 1831,
      "mit": 1832,
      "Ġmeans": 1833,
      "Ġareas": 1834,
      "ĠDo": 1835,
      "Ġacross": 1836,
      "arning": 1837,
      "Ġperfect": 1838,
      "Ġexperien": 1839,
      "ĠAm": 1840,
      "Ġhig": 1841,
      "ĠWhat": 1842,
      "Ġstep": 1843,
      "Ġris": 1844,
      "uck": 1845,
      "Ġwhy": 1846,
      "une": 1847,
      "Ġlive": 1848,
      "chie": 1849,
      "ilt": 1850,
      "ethod": 1851,
      "ape": 1852,
      "ray": 1853,
      "Ġrespons": 1854,
      "icial": 1855,
      "Ġclean": 1856,
      "cer": 1857,
      "ĠMay": 1858,
      "Ġspace": 1859,
      "Ġdesc": 1860,
      "Ġcontent": 1861,
      "ches": 1862,
      "Ġkind": 1863,
      "augh": 1864,
      "Ġlater": 1865,
      "Ġtravel": 1866,
      "Ġcomb": 1867,
      "Ġsound": 1868,
      "Ġpar": 1869,
      "Ġcontact": 1870,
      "As": 1871,
      "Ġaud": 1872,
      "30": 1873,
      "Ġfeatures": 1874,
      "ication": 1875,
      "Ġfilm": 1876,
      "rap": 1877,
      "ogn": 1878,
      "Ġoffers": 1879,
      "Ġstrong": 1880,
      "ĠComp": 1881,
      "Ġcalled": 1882,
      "Ġbrand": 1883,
      "Ġunique": 1884,
      "Ġfollowing": 1885,
      "anks": 1886,
      "Ġhistory": 1887,
      "Ġquick": 1888,
      "son": 1889,
      "Ġshare": 1890,
      "Ġhold": 1891,
      "Ġmakes": 1892,
      "Ġhuman": 1893,
      "Ġchalleng": 1894,
      "Ġlangu": 1895,
      "Ġdue": 1896,
      "oring": 1897,
      "St": 1898,
      "Ġtraining": 1899,
      "imate": 1900,
      "Ġ30": 1901,
      "Ġbuilding": 1902,
      "Ġtradition": 1903,
      "Ġdone": 1904,
      "Ġestab": 1905,
      "Ġreturn": 1906,
      "ones": 1907,
      "ĠJohn": 1908,
      "aces": 1909,
      "Ġearly": 1910,
      "ĠSu": 1911,
      "ĠTra": 1912,
      "Ġtell": 1913,
      "Ġfield": 1914,
      "ĠFl": 1915,
      "ows": 1916,
      "sel": 1917,
      "Ġsugg": 1918,
      "Ġcou": 1919,
      "Ġmean": 1920,
      "Ġsuggest": 1921,
      "Ġworks": 1922,
      "err": 1923,
      "ges": 1924,
      "rict": 1925,
      "Ġfoot": 1926,
      "ĠEn": 1927,
      "irc": 1928,
      "acy": 1929,
      "Ġcrit": 1930,
      "ready": 1931,
      "ift": 1932,
      "Ġprovides": 1933,
      "alf": 1934,
      "ancial": 1935,
      "aging": 1936,
      "Ġwind": 1937,
      "Ġpage": 1938,
      "Ġcover": 1939,
      "arr": 1940,
      "Ġenough": 1941,
      "Ġinit": 1942,
      "af": 1943,
      "Ġfav": 1944,
      "ister": 1945,
      "ĠIntern": 1946,
      "Ġrole": 1947,
      "ĠMed": 1948,
      "ĠGu": 1949,
      "ners": 1950,
      "Ġpriv": 1951,
      "Ġwon": 1952,
      "Ġsum": 1953,
      "Ġseries": 1954,
      "Ġcommon": 1955,
      "Ġport": 1956,
      "Ġprofessional": 1957,
      "Ġnatural": 1958,
      "Ġdiff": 1959,
      "ĠStates": 1960,
      "Ġet": 1961,
      "stain": 1962,
      "par": 1963,
      "oid": 1964,
      "ĠNational": 1965,
      "18": 1966,
      "Ġcomes": 1967,
      "Ġcustomers": 1968,
      "Ġphys": 1969,
      "inks": 1970,
      "ĠNo": 1971,
      "iful": 1972,
      "Ġevents": 1973,
      "asing": 1974,
      "Ġwomen": 1975,
      "ĠEuro": 1976,
      "lege": 1977,
      "...": 1978,
      "Ġstarted": 1979,
      "Ġmeas": 1980,
      "ibility": 1981,
      "ource": 1982,
      "Ġmen": 1983,
      "Ġmot": 1984,
      "Ġachie": 1985,
      "Ġtext": 1986,
      "Ġsustain": 1987,
      "Ġmethod": 1988,
      "Ġtour": 1989,
      "Ġever": 1990,
      "mb": 1991,
      "ster": 1992,
      "for": 1993,
      "ĠGod": 1994,
      "Ġthing": 1995,
      "Ġyoung": 1996,
      "Ġamong": 1997,
      "Ġhot": 1998,
      "Ġinstall": 1999,
      "ĠAust": 2000,
      "Ġalready": 2001,
      "Ġstay": 2002,
      "ĠX": 2003,
      "Ġvol": 2004,
      "ĠSy": 2005,
      "che": 2006,
      "Ġdr": 2007,
      "Ġpack": 2008,
      "Ġconsider": 2009,
      "Ġpurch": 2010,
      "Ġwr": 2011,
      "idd": 2012,
      "Ġbring": 2013,
      "Ġnight": 2014,
      "Ġpopular": 2015,
      "urs": 2016,
      "hers": 2017,
      "Ġ11": 2018,
      "Ġdiscuss": 2019,
      "Ġeducation": 2020,
      "Ġ16": 2021,
      "ued": 2022,
      "nam": 2023,
      "urch": 2024,
      "Ġrelationship": 2025,
      "ĠOne": 2026,
      "ĠInst": 2027,
      "att": 2028,
      "ĠSouth": 2029,
      "ino": 2030,
      "ober": 2031,
      "ither": 2032,
      "ze": 2033,
      "aken": 2034,
      "duct": 2035,
      "Ġappear": 2036,
      "Ġdeal": 2037,
      "Ġcontrib": 2038,
      "Ġ197": 2039,
      "Ġmanagement": 2040,
      "ony": 2041,
      "!!": 2042,
      "Ġperiod": 2043,
      "ĠCount": 2044,
      "back": 2045,
      "Ġ17": 2046,
      "ledge": 2047,
      "Ġfriends": 2048,
      "ched": 2049,
      "Ġrepl": 2050,
      "Ġfar": 2051,
      "Ġvideo": 2052,
      "Ġamount": 2053,
      "Ġce": 2054,
      "Ġtook": 2055,
      "Ġgetting": 2056,
      "Ġways": 2057,
      "ream": 2058,
      "ĠMy": 2059,
      "sw": 2060,
      "Ġleast": 2061,
      "ĠOur": 2062,
      "ĠWorld": 2063,
      "ĠCar": 2064,
      "ĠâĢĶ": 2065,
      "mp": 2066,
      "ruction": 2067,
      "Ġvalue": 2068,
      "icult": 2069,
      "ging": 2070,
      "ler": 2071,
      "ĠBy": 2072,
      "Ġprice": 2073,
      "ĠPr": 2074,
      "Ġperformance": 2075,
      "Ġsystems": 2076,
      "not": 2077,
      "Ġonce": 2078,
      "raft": 2079,
      "Ġauthor": 2080,
      "Ġ2018": 2081,
      "Ġbit": 2082,
      "ference": 2083,
      "IN": 2084,
      "Ġplease": 2085,
      "Ġself": 2086,
      "Ġparticip": 2087,
      "artment": 2088,
      "Ġgiven": 2089,
      "lex": 2090,
      "most": 2091,
      "Ġclose": 2092,
      "cell": 2093,
      "ffic": 2094,
      "Ġsingle": 2095,
      "Ġtype": 2096,
      "Ġant": 2097,
      "Ġnear": 2098,
      "Ġnews": 2099,
      "Ġfre": 2100,
      "idence": 2101,
      "Ġcal": 2102,
      "Ġdoing": 2103,
      "Ġbar": 2104,
      "Ġsearch": 2105,
      "Ġneg": 2106,
      "oura": 2107,
      "ĠAfter": 2108,
      "ĠEurope": 2109,
      "illed": 2110,
      "atform": 2111,
      "Ġbreak": 2112,
      "Ġhours": 2113,
      "ĠSchool": 2114,
      "Ġproblem": 2115,
      "Ġtaking": 2116,
      "Ġbegin": 2117,
      "Ġcoll": 2118,
      "Ġmom": 2119,
      "Ġsuper": 2120,
      "Ġjo": 2121,
      "apt": 2122,
      "Ġresults": 2123,
      "ensive": 2124,
      "ung": 2125,
      "ĠFe": 2126,
      "Ġhowever": 2127,
      "Ġrepresent": 2128,
      "Ġpie": 2129,
      "Ġcut": 2130,
      "Ġabove": 2131,
      "Ġtax": 2132,
      "Ġcred": 2133,
      "aps": 2134,
      "Ġbelow": 2135,
      "Ġpress": 2136,
      "Ġskills": 2137,
      "Ġey": 2138,
      "ĠApp": 2139,
      "Ġfurther": 2140,
      "ĠAf": 2141,
      "Ġcame": 2142,
      "Ġindividuals": 2143,
      "Ġlo": 2144,
      "Ġlearning": 2145,
      "Ġstore": 2146,
      "ops": 2147,
      "Ġmillion": 2148,
      "Ġtalk": 2149,
      "Ġwalk": 2150,
      "Ġstyle": 2151,
      "pecially": 2152,
      "ĠDes": 2153,
      "ters": 2154,
      "Ġcond": 2155,
      "Ġexamples": 2156,
      "12": 2157,
      "Ġconsum": 2158,
      "aur": 2159,
      "ilar": 2160,
      "Ġincrease": 2161,
      "Ġtot": 2162,
      "Ġdig": 2163,
      "Ġsong": 2164,
      "Ġchanges": 2165,
      "ators": 2166,
      "ĠRep": 2167,
      "\",": 2168,
      "ĠHere": 2169,
      "Ġmess": 2170,
      "Ġprop": 2171,
      "Ġexc": 2172,
      "Ġminutes": 2173,
      "book": 2174,
      "Ġlanguage": 2175,
      "ĠBr": 2176,
      "Ġdifficult": 2177,
      "Ġheart": 2178,
      "Ġste": 2179,
      "though": 2180,
      "Ġincludes": 2181,
      "ĠPol": 2182,
      "obal": 2183,
      "Ġreason": 2184,
      "yl": 2185,
      "Ġ196": 2186,
      "Ġdesigned": 2187,
      "Ġactivities": 2188,
      "cle": 2189,
      "Ġfinancial": 2190,
      "rew": 2191,
      "Ġemail": 2192,
      "Ġimplement": 2193,
      "nov": 2194,
      "resh": 2195,
      "Ġz": 2196,
      "ocu": 2197,
      "Ġengine": 2198,
      "ires": 2199,
      "Ġreduce": 2200,
      "Ġbeautiful": 2201,
      "Ġresources": 2202,
      "ufact": 2203,
      "ival": 2204,
      "ees": 2205,
      "Ġmag": 2206,
      "Ġwide": 2207,
      "Ġgames": 2208,
      "Ġmodel": 2209,
      "ĠNorth": 2210,
      "Ġ14": 2211,
      "Ġmonths": 2212,
      "Ġactually": 2213,
      "irt": 2214,
      "Ġfit": 2215,
      "Ġcharacter": 2216,
      "Ġseen": 2217,
      "Ġclear": 2218,
      "ĠCity": 2219,
      "Ġliving": 2220,
      "Ġnecess": 2221,
      "ask": 2222,
      "fully": 2223,
      "aving": 2224,
      "Ġidea": 2225,
      "Ġmaintain": 2226,
      "Ġdam": 2227,
      "Ġoil": 2228,
      "ĠServ": 2229,
      "Ġcommit": 2230,
      "For": 2231,
      "Ġplayers": 2232,
      "Ġinflu": 2233,
      "Ġage": 2234,
      "Ġcreated": 2235,
      "Ġassoci": 2236,
      "Ġplatform": 2237,
      "ained": 2238,
      "Ġhope": 2239,
      "Ġquestions": 2240,
      "Ġaffect": 2241,
      "Ġwriting": 2242,
      "ises": 2243,
      "Ġbed": 2244,
      "now": 2245,
      "Ġthought": 2246,
      "Ġface": 2247,
      "erc": 2248,
      "Ġselect": 2249,
      "Ġcustomer": 2250,
      "opp": 2251,
      "ĠCal": 2252,
      "ification": 2253,
      "wh": 2254,
      "go": 2255,
      "ĠBrit": 2256,
      "vert": 2257,
      "Ġprograms": 2258,
      "oman": 2259,
      "Ġwa": 2260,
      "Ġ,": 2261,
      "Ġstruct": 2262,
      "'d": 2263,
      "urance": 2264,
      "Ġhy": 2265,
      "omes": 2266,
      "Ġfive": 2267,
      "Ġclaim": 2268,
      "Ġsitu": 2269,
      "aching": 2270,
      "ese": 2271,
      "Ġrequired": 2272,
      "Ġgrowth": 2273,
      "ĠMin": 2274,
      "my": 2275,
      "ĠYork": 2276,
      "roll": 2277,
      "ĠAss": 2278,
      "ES": 2279,
      "uff": 2280,
      "Ġtrack": 2281,
      "gest": 2282,
      "val": 2283,
      "Ġproperty": 2284,
      "Ġblog": 2285,
      "Ġsimple": 2286,
      "irm": 2287,
      "Ġupd": 2288,
      "ON": 2289,
      "Ġanim": 2290,
      "Ġoptions": 2291,
      "aged": 2292,
      "Ġprovided": 2293,
      "arget": 2294,
      "ĠCanad": 2295,
      "AT": 2296,
      "Ġdidn": 2297,
      "irl": 2298,
      "Ġtraditional": 2299,
      "Ġbecame": 2300,
      "selves": 2301,
      "What": 2302,
      "Ġwhether": 2303,
      "istic": 2304,
      "Ġhost": 2305,
      "Ġjour": 2306,
      "ctor": 2307,
      "Ġdepend": 2308,
      "ended": 2309,
      "AR": 2310,
      "An": 2311,
      "ites": 2312,
      "ĠPart": 2313,
      "Ġ100": 2314,
      "play": 2315,
      "ply": 2316,
      "ression": 2317,
      "eral": 2318,
      "Ġpromot": 2319,
      "Ġrecogn": 2320,
      "ĠChe": 2321,
      "Ġcard": 2322,
      "Ġweb": 2323,
      "ĠCont": 2324,
      "15": 2325,
      "Ġdeterm": 2326,
      "Ġdetails": 2327,
      "Ġwond": 2328,
      "izing": 2329,
      "Ġpict": 2330,
      "Ġsomeone": 2331,
      "There": 2332,
      "ille": 2333,
      "iate": 2334,
      "Ġfeature": 2335,
      "Ġexist": 2336,
      "ĠSome": 2337,
      "Ġthroughout": 2338,
      "anced": 2339,
      "ĠGra": 2340,
      "li": 2341,
      "ison": 2342,
      "Ġdeb": 2343,
      "Ġregular": 2344,
      "Ġeverything": 2345,
      "unch": 2346,
      "ĠNe": 2347,
      "ĠGe": 2348,
      "anc": 2349,
      "ables": 2350,
      "Ġsize": 2351,
      "olution": 2352,
      "idge": 2353,
      "Ġcaus": 2354,
      "Ġwhole": 2355,
      "Ġespecially": 2356,
      "Ġyet": 2357,
      "ĠHis": 2358,
      "Ġgen": 2359,
      "rown": 2360,
      "umb": 2361,
      "Ġbenefits": 2362,
      "ĠBo": 2363,
      "Ġ13": 2364,
      "AN": 2365,
      "ided": 2366,
      "Ġideas": 2367,
      "Ġ[": 2368,
      "Ġfunction": 2369,
      "Ġprevent": 2370,
      "Ġlocated": 2371,
      "Ġproduction": 2372,
      "ety": 2373,
      "oll": 2374,
      "Ġsat": 2375,
      "Ġcirc": 2376,
      "elt": 2377,
      "adem": 2378,
      "Ġrele": 2379,
      "Ġdoesn": 2380,
      "Ġstaff": 2381,
      "ĠState": 2382,
      "Ġcomput": 2383,
      "Ġcolor": 2384,
      "astic": 2385,
      "Ġcountries": 2386,
      "ried": 2387,
      "Ġpractice": 2388,
      "oon": 2389,
      "Ġwent": 2390,
      "Ġnetwork": 2391,
      "ĠJan": 2392,
      "Ġmember": 2393,
      "ĠPe": 2394,
      "Ġflow": 2395,
      "Ġrespect": 2396,
      "Ġcontinue": 2397,
      "Ġlikely": 2398,
      "ĠWar": 2399,
      "Ġcollect": 2400,
      "Ġpositive": 2401,
      "Ġknowledge": 2402,
      "Ġposition": 2403,
      "come": 2404,
      "nce": 2405,
      "Ġmodern": 2406,
      "Ġprep": 2407,
      "Ġprior": 2408,
      "elling": 2409,
      "Ġhappen": 2410,
      "Ġsense": 2411,
      "Ġentire": 2412,
      "Ġchoose": 2413,
      "usion": 2414,
      "obile": 2415,
      "Ġrisk": 2416,
      "ĠAustral": 2417,
      "Ġbat": 2418,
      "Ġmaterials": 2419,
      "Ġlat": 2420,
      "Ġessential": 2421,
      "Ġsecurity": 2422,
      "Ġdi": 2423,
      "Ġtown": 2424,
      "Ġthird": 2425,
      "Ġinsp": 2426,
      "Ġtable": 2427,
      "face": 2428,
      "How": 2429,
      "Ġfront": 2430,
      "irth": 2431,
      "Ġwhite": 2432,
      "Ġ24": 2433,
      "Ġblack": 2434,
      "Ġparent": 2435,
      "Ġneeded": 2436,
      "Ġaction": 2437,
      "Ġusers": 2438,
      "ublic": 2439,
      "Ġtaken": 2440,
      "Ġ2019": 2441,
      "Ġoffice": 2442,
      "aced": 2443,
      "gra": 2444,
      "Ġcook": 2445,
      "ana": 2446,
      "Ġpolitical": 2447,
      "Ġstat": 2448,
      "Ġdeath": 2449,
      "Ġdocu": 2450,
      "Ġgeneral": 2451,
      "ĠGerm": 2452,
      "atives": 2453,
      "ands": 2454,
      "Ġleading": 2455,
      "orpor": 2456,
      "Ġeffic": 2457,
      "icro": 2458,
      "Ġsimilar": 2459,
      "Ġ25": 2460,
      "Ġcareer": 2461,
      "Ġeither": 2462,
      "Ġmach": 2463,
      "Ġbal": 2464,
      "Ġyourself": 2465,
      "Ġfinal": 2466,
      "ĠCounty": 2467,
      "Ġheld": 2468,
      "Ġconcern": 2469,
      "Ġsoftware": 2470,
      "Ġcomfort": 2471,
      "Ġbuilt": 2472,
      "Ġreceived": 2473,
      "Ġmanufact": 2474,
      "erson": 2475,
      "ef": 2476,
      "Ġprint": 2477,
      "ĠAfric": 2478,
      "time": 2479,
      "Ġregard": 2480,
      "Ġveh": 2481,
      "iple": 2482,
      "Ġproviding": 2483,
      "ibr": 2484,
      "ague": 2485,
      "Ġlog": 2486,
      "Ġautom": 2487,
      "Ġparty": 2488,
      "Ġprevious": 2489,
      "Ġwall": 2490,
      "ological": 2491,
      "Ġpaper": 2492,
      "Ġfail": 2493,
      "Ġbelieve": 2494,
      "Ġadditional": 2495,
      "itc": 2496,
      "Ġpercent": 2497,
      "isc": 2498,
      "hing": 2499,
      "Ġsays": 2500,
      "ĠMe": 2501,
      "itor": 2502,
      "ps": 2503,
      "Ġroad": 2504,
      "ground": 2505,
      "oph": 2506,
      "Ġ2017": 2507,
      "iday": 2508,
      "ĠYour": 2509,
      "Ġmarketing": 2510,
      "ĠSoc": 2511,
      "ume": 2512,
      "Ġdescrib": 2513,
      "Ġloss": 2514,
      "Ġapproach": 2515,
      "ĠApr": 2516,
      "osing": 2517,
      "ĠSec": 2518,
      "Ġissue": 2519,
      "Ġtowards": 2520,
      "ĠÂ": 2521,
      "based": 2522,
      "Ġcell": 2523,
      "Ġpractices": 2524,
      "ole": 2525,
      "Ġobject": 2526,
      "ĠReferences": 2527,
      "Ġeveryone": 2528,
      "When": 2529,
      "Ġorganiz": 2530,
      "Ġmor": 2531,
      "Ġfall": 2532,
      "ĠBar": 2533,
      "Ġled": 2534,
      "Ġproblems": 2535,
      "ĠAg": 2536,
      "Ġintrodu": 2537,
      "Ġencoura": 2538,
      "ĠReg": 2539,
      "Ġred": 2540,
      "Ġsent": 2541,
      "Ġvariety": 2542,
      "11": 2543,
      "Ġtarget": 2544,
      "Ġhigher": 2545,
      "Ġoriginal": 2546,
      "Ġmiss": 2547,
      "icles": 2548,
      "Ġtreatment": 2549,
      "Ġuser": 2550,
      "ĠWill": 2551,
      "ysis": 2552,
      "ĠBra": 2553,
      "bum": 2554,
      "overed": 2555,
      "itch": 2556,
      "ĠNot": 2557,
      "aign": 2558,
      "Ġprob": 2559,
      "Ġfavor": 2560,
      "Ġansw": 2561,
      "ĠJu": 2562,
      "oved": 2563,
      "Ġinteg": 2564,
      "Ġquestion": 2565,
      "Ġagree": 2566,
      "Ġtit": 2567,
      "ĠGl": 2568,
      "Ġarch": 2569,
      "hern": 2570,
      "Ġful": 2571,
      "ĠSm": 2572,
      "cil": 2573,
      "Ġfeed": 2574,
      "Ġground": 2575,
      "ests": 2576,
      "Ġcultural": 2577,
      "ivity": 2578,
      "Ġofficial": 2579,
      "Ġdownload": 2580,
      "Ġhalf": 2581,
      "ĠPark": 2582,
      "Ġcoun": 2583,
      "Ġspend": 2584,
      "pro": 2585,
      "hib": 2586,
      "etimes": 2587,
      "Ġincluded": 2588,
      "Ġrather": 2589,
      "Ġversion": 2590,
      "Ġability": 2591,
      "Ġ|": 2592,
      "Ġinternational": 2593,
      "bit": 2594,
      "ring": 2595,
      "Ġaccept": 2596,
      "Ġsubject": 2597,
      "Ġassist": 2598,
      "apan": 2599,
      "ĠEd": 2600,
      "Ġadded": 2601,
      "era": 2602,
      "ey": 2603,
      "Ġ2016": 2604,
      "Ġchallenges": 2605,
      "Ġpric": 2606,
      "minist": 2607,
      "Ġlink": 2608,
      "AS": 2609,
      "Ġlay": 2610,
      "Ġgroups": 2611,
      "ĠInc": 2612,
      "uary": 2613,
      "Ġmedical": 2614,
      "Ġfamil": 2615,
      "Ġsle": 2616,
      "reme": 2617,
      "Ġextra": 2618,
      "Ġpick": 2619,
      "16": 2620,
      "Ġabs": 2621,
      "eter": 2622,
      "ternal": 2623,
      "Ġconditions": 2624,
      "ĠHigh": 2625,
      "Ġprim": 2626,
      "iation": 2627,
      "Ġemot": 2628,
      "empt": 2629,
      "Ġlinks": 2630,
      "Ġsens": 2631,
      "Ġbegan": 2632,
      "Ġele": 2633,
      "Ġsix": 2634,
      "Ġalmost": 2635,
      "Ġdou": 2636,
      "na": 2637,
      "Ġ/": 2638,
      "Ġaccording": 2639,
      "200": 2640,
      "atory": 2641,
      "Ġdest": 2642,
      "ĠAug": 2643,
      "Ġpurp": 2644,
      "Ġnational": 2645,
      "itation": 2646,
      "Ġprojects": 2647,
      "ĠPre": 2648,
      "ĠApril": 2649,
      "azing": 2650,
      "Ġlevels": 2651,
      "Ġdefin": 2652,
      "Ġtools": 2653,
      "Ġsoon": 2654,
      "Ġ50": 2655,
      "Ġpoints": 2656,
      "Ġplayed": 2657,
      "Ġapplication": 2658,
      "Ġsimply": 2659,
      "urg": 2660,
      "Ġill": 2661,
      "Ġleaders": 2662,
      "Ġcomplex": 2663,
      "ĠQu": 2664,
      "Ġpan": 2665,
      "ipment": 2666,
      "Ġseem": 2667,
      "ĠMarch": 2668,
      "Ġquite": 2669,
      "Ġrout": 2670,
      "Ġstra": 2671,
      "ĠPres": 2672,
      "Ġskin": 2673,
      "Ġsafe": 2674,
      "ĠOct": 2675,
      "eal": 2676,
      "iol": 2677,
      "Ġfire": 2678,
      "17": 2679,
      "Ġcreating": 2680,
      "Ġrad": 2681,
      "Ġeffects": 2682,
      "ming": 2683,
      "ĠSw": 2684,
      "ha": 2685,
      "Ġculture": 2686,
      "Ġtakes": 2687,
      "Ġdeep": 2688,
      "OR": 2689,
      "Ġallows": 2690,
      "Ġstrateg": 2691,
      "Ġreceive": 2692,
      "ĠEnglish": 2693,
      "ĠWest": 2694,
      "Ġtypes": 2695,
      "Ġeconomic": 2696,
      "ĠAb": 2697,
      "Ġopportunity": 2698,
      "Ġusually": 2699,
      "Ġinde": 2700,
      "Ġformer": 2701,
      "Ġclients": 2702,
      "iber": 2703,
      "Ġtou": 2704,
      "Ġhon": 2705,
      "Ġoutside": 2706,
      "Ġanything": 2707,
      "ĠWhile": 2708,
      "Ġrelated": 2709,
      "Ġcannot": 2710,
      "aily": 2711,
      "Ġut": 2712,
      "Ġimm": 2713,
      "rect": 2714,
      "Ġshows": 2715,
      "Ġpolicy": 2716,
      "ĠArt": 2717,
      "ĠSept": 2718,
      "Ġcommunities": 2719,
      "Ġgoals": 2720,
      "nal": 2721,
      "Ġdom": 2722,
      "ox": 2723,
      "ager": 2724,
      "urb": 2725,
      "Ġcontract": 2726,
      "ux": 2727,
      "ĠMc": 2728,
      "Ġcele": 2729,
      "Ġcause": 2730,
      "ĠPer": 2731,
      "Ġphone": 2732,
      "Ġmix": 2733,
      "Ġopportunities": 2734,
      "Ġcampaign": 2735,
      "Ġap": 2736,
      "Ġlower": 2737,
      "Ġlives": 2738,
      "verage": 2739,
      "Ġrecent": 2740,
      "Ġnecessary": 2741,
      "Ch": 2742,
      "Ġavoid": 2743,
      "aining": 2744,
      "Ġbase": 2745,
      "Ġwatch": 2746,
      "Ġmatter": 2747,
      "head": 2748,
      "amed": 2749,
      "ulations": 2750,
      "Ġrate": 2751,
      "Ġworked": 2752,
      "Ġtrying": 2753,
      "Ġprivate": 2754,
      "imately": 2755,
      "Ġterms": 2756,
      "Ġtotal": 2757,
      "Ġbirth": 2758,
      "Ġalbum": 2759,
      "14": 2760,
      "hold": 2761,
      "Ġinvolved": 2762,
      "ude": 2763,
      "Ġannoun": 2764,
      "nds": 2765,
      "itchen": 2766,
      "ĠOff": 2767,
      "To": 2768,
      "uge": 2769,
      "ĠBu": 2770,
      "Ġwood": 2771,
      "ĠJune": 2772,
      "Ġspecies": 2773,
      "arth": 2774,
      "Ġglobal": 2775,
      "Ġdraw": 2776,
      "Ġfast": 2777,
      "aves": 2778,
      "Ġhelps": 2779,
      "Ġteac": 2780,
      "Ġregion": 2781,
      "ively": 2782,
      "cks": 2783,
      "sy": 2784,
      "Ġrights": 2785,
      "Ġdeg": 2786,
      "ĠStud": 2787,
      "Ġbehind": 2788,
      "Ġaware": 2789,
      "Ġcy": 2790,
      "22": 2791,
      "ĠJapan": 2792,
      "Ġbox": 2793,
      "Ġcop": 2794,
      "uted": 2795,
      "Ġachieve": 2796,
      "rated": 2797,
      "oud": 2798,
      "ales": 2799,
      "Ġbusinesses": 2800,
      "IS": 2801,
      "ules": 2802,
      "Ġforward": 2803,
      "bor": 2804,
      "Ġattack": 2805,
      "Ġmental": 2806,
      "reg": 2807,
      "light": 2808,
      "imum": 2809,
      "just": 2810,
      "Ġplant": 2811,
      "ceed": 2812,
      "itary": 2813,
      "Ġimage": 2814,
      "airs": 2815,
      "erve": 2816,
      "Ġsales": 2817,
      "Ġep": 2818,
      "Ġheav": 2819,
      "Ġdecision": 2820,
      "ĠBritish": 2821,
      "ĠEl": 2822,
      "Ġlocation": 2823,
      "ography": 2824,
      "Ġlonger": 2825,
      "ief": 2826,
      "iring": 2827,
      "Ġetc": 2828,
      "Ġsafety": 2829,
      "Ġitems": 2830,
      "pper": 2831,
      "Ġri": 2832,
      "Ġcosts": 2833,
      "Ġquickly": 2834,
      "Ġtrue": 2835,
      "Ġcurrently": 2836,
      "ĠDep": 2837,
      "ĠTw": 2838,
      "rast": 2839,
      "Ġnorm": 2840,
      "Ġwords": 2841,
      "ĠAir": 2842,
      "Ġsustainable": 2843,
      "Ġspeak": 2844,
      "ĠInternational": 2845,
      "ĠHer": 2846,
      "ĠMus": 2847,
      "Ġbehav": 2848,
      "Ġgoal": 2849,
      "Ġemb": 2850,
      "ED": 2851,
      "Ġwonder": 2852,
      "care": 2853,
      "Ġopp": 2854,
      "rate": 2855,
      "Ġsuccessful": 2856,
      "Ġstreng": 2857,
      "mm": 2858,
      "Ġexcell": 2859,
      "Ġinnov": 2860,
      "Ġtips": 2861,
      "uel": 2862,
      "cast": 2863,
      "Ġfig": 2864,
      "ĠAct": 2865,
      "Ġparts": 2866,
      "lying": 2867,
      "Ġeasily": 2868,
      "EN": 2869,
      "Ġbi": 2870,
      "Ġ194": 2871,
      "where": 2872,
      "ham": 2873,
      "hel": 2874,
      "Ġstri": 2875,
      "Ġgreen": 2876,
      "Ġhol": 2877,
      "ĠAugust": 2878,
      "Ġreleased": 2879,
      "Ġemer": 2880,
      "idered": 2881,
      "ĠSeptember": 2882,
      "Ġrunning": 2883,
      "ĠFin": 2884,
      "Ġtransport": 2885,
      "ogle": 2886,
      "ening": 2887,
      "Ġpromote": 2888,
      "rug": 2889,
      "Ġphysical": 2890,
      "Ġdate": 2891,
      "ached": 2892,
      "Ġtrust": 2893,
      "Ġhistor": 2894,
      "Ġunderstanding": 2895,
      "Ġcredit": 2896,
      "Ġsun": 2897,
      "Ġworth": 2898,
      "ĠKing": 2899,
      "Ġorganization": 2900,
      "Ġbooks": 2901,
      "rench": 2902,
      "Ġshall": 2903,
      "Ġupon": 2904,
      "AL": 2905,
      "Ġpret": 2906,
      "Ġwar": 2907,
      "IT": 2908,
      "reet": 2909,
      "ĠPar": 2910,
      "rec": 2911,
      "ĠDr": 2912,
      "Ġcoming": 2913,
      "Ġelse": 2914,
      "Ġarticle": 2915,
      "Ġwanted": 2916,
      "Ġreading": 2917,
      "ovember": 2918,
      "ĠAc": 2919,
      "Ġbad": 2920,
      "iddle": 2921,
      "Ġexerc": 2922,
      "ondon": 2923,
      "AC": 2924,
      "Ġoption": 2925,
      "Ġlate": 2926,
      "Ġstandard": 2927,
      "Ġmatch": 2928,
      "Ġwritten": 2929,
      "Ġinteract": 2930,
      "Ġstru": 2931,
      "Ġvia": 2932,
      "hood": 2933,
      "sequ": 2934,
      "Ġround": 2935,
      "Ġdrive": 2936,
      "Ġorganizations": 2937,
      "Ġoverall": 2938,
      "isions": 2939,
      "Ġpatients": 2940,
      "Ġfram": 2941,
      "ĠAmerica": 2942,
      "Ġ2015": 2943,
      "Ġsolutions": 2944,
      "onst": 2945,
      "Ġago": 2946,
      "Ġchoice": 2947,
      "13": 2948,
      "Ġswe": 2949,
      "iques": 2950,
      "Ġobs": 2951,
      "Ġstress": 2952,
      "iction": 2953,
      "ĠCons": 2954,
      "oes": 2955,
      "ĠHar": 2956,
      "Ġready": 2957,
      "ĠPa": 2958,
      "Ġhappy": 2959,
      "ĠDon": 2960,
      "Ġdigital": 2961,
      "ĠYes": 2962,
      "Ġattention": 2963,
      "itect": 2964,
      "ĠOctober": 2965,
      "irit": 2966,
      "Ġsqu": 2967,
      "earch": 2968,
      "Ġinside": 2969,
      "ĠJuly": 2970,
      "Ġcapt": 2971,
      "Ġthemselves": 2972,
      "Ġdeveloped": 2973,
      "Ġequipment": 2974,
      "ishing": 2975,
      "ae": 2976,
      "Ġcand": 2977,
      "Ġinj": 2978,
      "ĠJanuary": 2979,
      "iable": 2980,
      "erous": 2981,
      "Ġleave": 2982,
      "useum": 2983,
      "Ġstudent": 2984,
      "Ġmultiple": 2985,
      "Ġanalysis": 2986,
      "ĠHouse": 2987,
      "Ġinsurance": 2988,
      "ĠRed": 2989,
      "Ġsource": 2990,
      "Ġconsidered": 2991,
      "Ġfarm": 2992,
      "Ġdise": 2993,
      "Ġfile": 2994,
      "Ġhighly": 2995,
      "So": 2996,
      "cember": 2997,
      "Ġconduct": 2998,
      "Ġamazing": 2999,
      "ades": 3000,
      "Ġinstead": 3001,
      "Ġclub": 3002,
      "ĠIndia": 3003,
      "icated": 3004,
      "Ġlegal": 3005,
      "25": 3006,
      "Ġsche": 3007,
      "rs": 3008,
      "Ġscreen": 3009,
      "Ġboard": 3010,
      "ĠAcc": 3011,
      "ĠJust": 3012,
      "vey": 3013,
      "Ġexperiences": 3014,
      "put": 3015,
      "ĠCenter": 3016,
      "ĠDav": 3017,
      "ension": 3018,
      "Ġprobably": 3019,
      "Ġefforts": 3020,
      "Ġarri": 3021,
      "Ġsaw": 3022,
      "Ġfresh": 3023,
      "oe": 3024,
      "off": 3025,
      "Ġclick": 3026,
      "Ġweight": 3027,
      "Ġinteresting": 3028,
      "Ġsend": 3029,
      "Ġdog": 3030,
      "ĠNovember": 3031,
      "lin": 3032,
      "Ġpark": 3033,
      "Ġsave": 3034,
      "Ġaim": 3035,
      "Ġweeks": 3036,
      "Ġlif": 3037,
      "Ġmoment": 3038,
      "Ġsepar": 3039,
      "icate": 3040,
      "Ġfloor": 3041,
      "Ġcode": 3042,
      "Ġcollabor": 3043,
      "Ġconsist": 3044,
      "ky": 3045,
      "iment": 3046,
      "Ġsn": 3047,
      "atur": 3048,
      "Ġbud": 3049,
      "ĠUK": 3050,
      "dd": 3051,
      "Ġreach": 3052,
      "Our": 3053,
      "orage": 3054,
      "Ġrev": 3055,
      "IC": 3056,
      "Ġpattern": 3057,
      "Ġcases": 3058,
      "Ġsil": 3059,
      "Ġlost": 3060,
      "ription": 3061,
      "aches": 3062,
      "Ġanaly": 3063,
      "And": 3064,
      "ctions": 3065,
      "dom": 3066,
      "Ġdiv": 3067,
      "iff": 3068,
      "Ġmount": 3069,
      "illing": 3070,
      "Ġones": 3071,
      "Ġ2014": 3072,
      "ences": 3073,
      "ĠFeb": 3074,
      "ĠSan": 3075,
      "Ġdaily": 3076,
      "Ġqual": 3077,
      "Ġnature": 3078,
      "Ġcommunication": 3079,
      "ĠRuss": 3080,
      "ĠLondon": 3081,
      "ĠVal": 3082,
      "Ġenvironmental": 3083,
      "ivil": 3084,
      "Ġplans": 3085,
      "Ġpublished": 3086,
      "izes": 3087,
      "Ġcool": 3088,
      "Ġgradu": 3089,
      "like": 3090,
      "asons": 3091,
      "ule": 3092,
      "Ġmass": 3093,
      "Ġarg": 3094,
      "Ġhair": 3095,
      "pite": 3096,
      "Ġcat": 3097,
      "pped": 3098,
      "ĠUse": 3099,
      "ĠAssoci": 3100,
      "Ġsection": 3101,
      "Ġattract": 3102,
      "Ġidentify": 3103,
      "new": 3104,
      "Ġexact": 3105,
      "Ġhealthy": 3106,
      "amb": 3107,
      "Ġmention": 3108,
      "ĠMon": 3109,
      "idents": 3110,
      "Ġestablished": 3111,
      "Ġcommer": 3112,
      "ption": 3113,
      "Ġprogress": 3114,
      "ĠDecember": 3115,
      "ĠII": 3116,
      "Ġincreased": 3117,
      "oice": 3118,
      "itable": 3119,
      "Ġcollection": 3120,
      "Ġspeed": 3121,
      "ection": 3122,
      "Ġstop": 3123,
      "Ġcenter": 3124,
      "Ġseems": 3125,
      "Ġitself": 3126,
      "Ġparticularly": 3127,
      "Ġisn": 3128,
      "Ġattend": 3129,
      "enge": 3130,
      "Ġfa": 3131,
      "pri": 3132,
      "ama": 3133,
      "Ġlatest": 3134,
      "king": 3135,
      "bon": 3136,
      "Ġded": 3137,
      "Ġsold": 3138,
      "Ġdisplay": 3139,
      "aly": 3140,
      "ĠInt": 3141,
      "Ġcelebr": 3142,
      "Ġrestaur": 3143,
      "Ġsolution": 3144,
      "Ġlimited": 3145,
      "aries": 3146,
      "oke": 3147,
      "Ġcomputer": 3148,
      "Ġsummer": 3149,
      "Ġtold": 3150,
      "Ġcross": 3151,
      "Ġaltern": 3152,
      "Ġkids": 3153,
      "ĠEm": 3154,
      "Ġpath": 3155,
      "estern": 3156,
      "Ġexec": 3157,
      "Ġnice": 3158,
      "Ġemployees": 3159,
      "Ġsociety": 3160,
      "Ġrequest": 3161,
      "Ġexpert": 3162,
      "Ġmeeting": 3163,
      "Ġlab": 3164,
      "Ġplaying": 3165,
      "year": 3166,
      "ties": 3167,
      "Ġ21": 3168,
      "Ġcondition": 3169,
      "Ġnegative": 3170,
      "Ġaudience": 3171,
      "ĠAut": 3172,
      "ara": 3173,
      "Ġenh": 3174,
      "Ġsources": 3175,
      "But": 3176,
      "Ġpartners": 3177,
      "Ġpretty": 3178,
      "ĠChina": 3179,
      "asc": 3180,
      "On": 3181,
      "ĠBro": 3182,
      "rel": 3183,
      "23": 3184,
      "Ġconcept": 3185,
      "Ġanyone": 3186,
      "wood": 3187,
      "Ġparents": 3188,
      "itely": 3189,
      "ica": 3190,
      "Ġ40": 3191,
      "ĠCollege": 3192,
      "Ġpolicies": 3193,
      "Ġhelped": 3194,
      "ington": 3195,
      "cies": 3196,
      "ĠSer": 3197,
      "Ġband": 3198,
      "Ġpurchase": 3199,
      "onse": 3200,
      "Ġincreasing": 3201,
      "Ġslow": 3202,
      "Ġmobile": 3203,
      "Ġreflect": 3204,
      "ĠBlack": 3205,
      "Ġbroad": 3206,
      "Ġimmed": 3207,
      "ĠGeor": 3208,
      "Ġviol": 3209,
      "Ġhit": 3210,
      "Ġ#": 3211,
      "ĠSte": 3212,
      "Ġconstruction": 3213,
      "Ġball": 3214,
      "Ġuses": 3215,
      "Ġdistrib": 3216,
      "mon": 3217,
      "Ġcentury": 3218,
      "Ġexplore": 3219,
      "igation": 3220,
      "Ġschools": 3221,
      "Ġcru": 3222,
      "hips": 3223,
      "arden": 3224,
      "Ġdevice": 3225,
      "Ġgirl": 3226,
      "Al": 3227,
      "board": 3228,
      "Ġimages": 3229,
      "het": 3230,
      "Ġsell": 3231,
      "Ġfootball": 3232,
      "ought": 3233,
      "Ġhous": 3234,
      "Ġdirectly": 3235,
      "Ġult": 3236,
      "Ġexcellent": 3237,
      "ĠIndian": 3238,
      "ford": 3239,
      "Ġexcept": 3240,
      "Ġattempt": 3241,
      "ervation": 3242,
      "ipe": 3243,
      "Ġrelease": 3244,
      "ĠGr": 3245,
      "Ġserved": 3246,
      "ruary": 3247,
      "Ġassociated": 3248,
      "ĠFrom": 3249,
      "Ġtechniques": 3250,
      "Ġcouple": 3251,
      "place": 3252,
      "Ġiniti": 3253,
      "Ġnothing": 3254,
      "key": 3255,
      "ampions": 3256,
      "nes": 3257,
      "iding": 3258,
      "ĠHealth": 3259,
      "Ġplayer": 3260,
      "With": 3261,
      "Ġsess": 3262,
      "ĠAng": 3263,
      "iles": 3264,
      "Ġadminist": 3265,
      "ĠKe": 3266,
      "Ġdocument": 3267,
      "Ġwarm": 3268,
      "Ġcam": 3269,
      "oses": 3270,
      "Ġbath": 3271,
      "Ġrecently": 3272,
      "ĠHist": 3273,
      "Ġexpress": 3274,
      "He": 3275,
      "itute": 3276,
      "ĠDay": 3277,
      "Ġcommercial": 3278,
      "Ġbank": 3279,
      "ĠFrench": 3280,
      "RE": 3281,
      "arter": 3282,
      "Ġcert": 3283,
      "iforn": 3284,
      "Ġfavorite": 3285,
      "ĠPresident": 3286,
      "Ġtouch": 3287,
      "ĠCoun": 3288,
      "Ġfactors": 3289,
      "Ġlooks": 3290,
      "Ġjud": 3291,
      "Ġfelt": 3292,
      "Ġtast": 3293,
      "Ġnut": 3294,
      "rest": 3295,
      "Ġple": 3296,
      "Ġnamed": 3297,
      "Ġrent": 3298,
      "Ġx": 3299,
      "ologies": 3300,
      "Ġfully": 3301,
      "chan": 3302,
      "21": 3303,
      "Ġ2012": 3304,
      "Ġ2013": 3305,
      "ications": 3306,
      "Ġcorrect": 3307,
      "Ġord": 3308,
      "Ġsurround": 3309,
      "At": 3310,
      "ĠCour": 3311,
      "Ġindepend": 3312,
      "Ġrequirements": 3313,
      "Ġaverage": 3314,
      "rought": 3315,
      "Ġhands": 3316,
      "Ġfrequ": 3317,
      "OS": 3318,
      "Ġliter": 3319,
      "Ġprofession": 3320,
      "Ġstrugg": 3321,
      "ĠSee": 3322,
      "su": 3323,
      "Ġpiece": 3324,
      "ĠPhil": 3325,
      "oming": 3326,
      "ifornia": 3327,
      "Ġrelig": 3328,
      "ditionally": 3329,
      "ĠMich": 3330,
      "Ġinterested": 3331,
      "60": 3332,
      "Ġwrite": 3333,
      "Ġappl": 3334,
      "Ġenter": 3335,
      "Ġ195": 3336,
      "Ġpopulation": 3337,
      "ĠCanada": 3338,
      "umn": 3339,
      "Ġsometimes": 3340,
      "lands": 3341,
      "alu": 3342,
      "ĠLa": 3343,
      "Ġlack": 3344,
      "Ġgiving": 3345,
      "Ġdisp": 3346,
      "Ġplanning": 3347,
      "Ġdecided": 3348,
      "pre": 3349,
      "ĠSim": 3350,
      "Ġ2010": 3351,
      "Ġkitchen": 3352,
      "Ġsubst": 3353,
      "ĠTV": 3354,
      "agn": 3355,
      "One": 3356,
      "ari": 3357,
      "Ġaspect": 3358,
      "Ġconvers": 3359,
      "Ġaward": 3360,
      "ĠGoogle": 3361,
      "ederal": 3362,
      "Ġdark": 3363,
      "Ġregist": 3364,
      "Ġobtain": 3365,
      "Ġborn": 3366,
      "Ġactivity": 3367,
      "ams": 3368,
      "ellow": 3369,
      "ma": 3370,
      "ĠCommun": 3371,
      "ĠNet": 3372,
      "Ġremember": 3373,
      "):": 3374,
      "Ġwed": 3375,
      "ĠEast": 3376,
      "Ġson": 3377,
      "ville": 3378,
      "Ġcra": 3379,
      "Ġtemper": 3380,
      "Ġgold": 3381,
      "Ġasked": 3382,
      "ords": 3383,
      "Ġdamage": 3384,
      "ĠGener": 3385,
      "ĠFebruary": 3386,
      "Ġmid": 3387,
      "Ġtal": 3388,
      "ĠIm": 3389,
      "ruit": 3390,
      "sych": 3391,
      "AM": 3392,
      "Ġestablish": 3393,
      "duc": 3394,
      "Ġsteps": 3395,
      "ĠRec": 3396,
      "Ġopin": 3397,
      "Ġchance": 3398,
      "Ġsites": 3399,
      "Ġfight": 3400,
      "omp": 3401,
      "Ġcourt": 3402,
      "ashion": 3403,
      "Ġdoor": 3404,
      "Ġstorage": 3405,
      "Ġplaces": 3406,
      "Ġblock": 3407,
      "mas": 3408,
      "Ġnote": 3409,
      "ira": 3410,
      "Ġtrade": 3411,
      "Ġhear": 3412,
      "gar": 3413,
      "Ġpred": 3414,
      "ength": 3415,
      "yond": 3416,
      "Ġmother": 3417,
      "Ġgrowing": 3418,
      "Ġbott": 3419,
      "Ġsleep": 3420,
      "Ġresponse": 3421,
      "ĠCalifornia": 3422,
      "Ġmachine": 3423,
      "mar": 3424,
      "ronic": 3425,
      "Ġapplications": 3426,
      "Ġter": 3427,
      "uk": 3428,
      "Ġfair": 3429,
      "ĠGroup": 3430,
      "Ġmeaning": 3431,
      "Ġcompletely": 3432,
      "ĠTH": 3433,
      "Ġroll": 3434,
      "hens": 3435,
      "Ġinvestment": 3436,
      "oyal": 3437,
      "Ġvill": 3438,
      "ĠPlease": 3439,
      "ĠPort": 3440,
      "ĠNow": 3441,
      "iverse": 3442,
      "Ġacqu": 3443,
      "Ġextreme": 3444,
      "Ġstudies": 3445,
      "Ġappropri": 3446,
      "Ġlic": 3447,
      "Ġgives": 3448,
      "ext": 3449,
      "Ġwel": 3450,
      "Ġappoint": 3451,
      "Ġresponsible": 3452,
      "40": 3453,
      "Ġadvant": 3454,
      "hest": 3455,
      "Ġsus": 3456,
      "ĠEuropean": 3457,
      "Ġ2011": 3458,
      "Ġbur": 3459,
      "Ġbudget": 3460,
      "Ġdy": 3461,
      "Ġadop": 3462,
      "ĠTrans": 3463,
      "aby": 3464,
      "Ġeth": 3465,
      "ek": 3466,
      "imin": 3467,
      "Ġmorning": 3468,
      "ĠPat": 3469,
      "Ġearn": 3470,
      "ĠWind": 3471,
      "Ġneigh": 3472,
      "Ġeffort": 3473,
      "rapy": 3474,
      "Ġincorpor": 3475,
      "Ġver": 3476,
      "Ġsubs": 3477,
      "Ġclimate": 3478,
      "Ġstarting": 3479,
      "ĠGreat": 3480,
      "ĠDist": 3481,
      "Ġhor": 3482,
      "Ġsale": 3483,
      "Ġdeliver": 3484,
      "Ġguide": 3485,
      "Ġglass": 3486,
      "etic": 3487,
      "Ġgas": 3488,
      "ĠMore": 3489,
      "Ġsituation": 3490,
      "Ġconsult": 3491,
      "Ġprec": 3492,
      "Ġdemand": 3493,
      "Ġexpected": 3494,
      "Ġheat": 3495,
      "ald": 3496,
      "Ġinstit": 3497,
      "ĠBus": 3498,
      "Ġscient": 3499,
      "Ġstrategies": 3500,
      "Ġarchitect": 3501,
      "Ġmark": 3502,
      "Ġshown": 3503,
      "Ġmax": 3504,
      "tee": 3505,
      "Ġmilitary": 3506,
      "Ġrock": 3507,
      "Ġelectric": 3508,
      "wor": 3509,
      "Ġphotos": 3510,
      "Ġvalues": 3511,
      "Ġdry": 3512,
      "oo": 3513,
      "Ġfix": 3514,
      "Ġprem": 3515,
      "Ġserious": 3516,
      "ĠOf": 3517,
      "ĠCor": 3518,
      "zy": 3519,
      "Ġmovement": 3520,
      "Ġfamilies": 3521,
      "Ġ22": 3522,
      "Ġmyself": 3523,
      "olute": 3524,
      "anch": 3525,
      "uth": 3526,
      "Ġwild": 3527,
      "Ġmessage": 3528,
      "ĠOver": 3529,
      "ĠMany": 3530,
      "Ġassess": 3531,
      "Ġaccur": 3532,
      "ĠDirect": 3533,
      "Ġapply": 3534,
      "ivery": 3535,
      "opping": 3536,
      "house": 3537,
      "Ġapprec": 3538,
      "Ġcas": 3539,
      "ĠUs": 3540,
      "ĠAustralia": 3541,
      "Ġdrug": 3542,
      "Ġinitial": 3543,
      "Ġactive": 3544,
      "Ġreported": 3545,
      "oul": 3546,
      "oms": 3547,
      "Ġbag": 3548,
      "istics": 3549,
      "ĠAlso": 3550,
      "icip": 3551,
      "Ġreve": 3552,
      "Ġing": 3553,
      "ospital": 3554,
      "Ġdifference": 3555,
      "All": 3556,
      "Ġsatis": 3557,
      "Ġdefinitely": 3558,
      "Ġteams": 3559,
      "Ġcritical": 3560,
      "Ġten": 3561,
      "Ġstation": 3562,
      "Ġadapt": 3563,
      "Ġcollege": 3564,
      "Ġstories": 3565,
      "ĠPri": 3566,
      "mission": 3567,
      "porary": 3568,
      "wise": 3569,
      "Ġsuff": 3570,
      "Ġmethods": 3571,
      "Ġscience": 3572,
      "ĠDis": 3573,
      "EC": 3574,
      "Ġafford": 3575,
      "Ġrates": 3576,
      "Ġharm": 3577,
      "Ġcarry": 3578,
      "mat": 3579,
      "rag": 3580,
      "Ġoccur": 3581,
      "Ġprices": 3582,
      "itude": 3583,
      "term": 3584,
      "ĠService": 3585,
      "ooth": 3586,
      "Ġstructure": 3587,
      "Ġpurpose": 3588,
      "Ġbenefit": 3589,
      "Ġpressure": 3590,
      "Ġvot": 3591,
      "enty": 3592,
      "ĠStreet": 3593,
      "Ġbackground": 3594,
      "Ġsurpr": 3595,
      "Ġsurface": 3596,
      "aker": 3597,
      "Ġpowerful": 3598,
      "ĠFirst": 3599,
      "Ġblood": 3600,
      "ĠAre": 3601,
      "Ġthreat": 3602,
      "Ġoffering": 3603,
      "Ġadjust": 3604,
      "ĠGovern": 3605,
      "Ġstock": 3606,
      "ĠCr": 3607,
      "arc": 3608,
      "Ġdemonst": 3609,
      "Ġrelev": 3610,
      "rial": 3611,
      "Ġthinking": 3612,
      "osition": 3613,
      "Ġartists": 3614,
      "Ġhuge": 3615,
      "more": 3616,
      "sp": 3617,
      "Ġsetting": 3618,
      "Ġdeveloping": 3619,
      "Ġtrip": 3620,
      "ĠTechn": 3621,
      "Ġanswer": 3622,
      "Ġgoes": 3623,
      "Ġsports": 3624,
      "Ġsupply": 3625,
      "Ġserve": 3626,
      "alt": 3627,
      "ened": 3628,
      "Ġfeeling": 3629,
      "Ġspirit": 3630,
      "ĠDepartment": 3631,
      "que": 3632,
      "Ġwaste": 3633,
      "Ġstrength": 3634,
      "estival": 3635,
      "Ġaw": 3636,
      "arily": 3637,
      "Ġstage": 3638,
      "Ġvict": 3639,
      "Ġscore": 3640,
      "ibly": 3641,
      "used": 3642,
      "right": 3643,
      "Ġdevices": 3644,
      "ny": 3645,
      "ĠWilliam": 3646,
      "My": 3647,
      "Ġdecor": 3648,
      "Ġtitle": 3649,
      "ett": 3650,
      "field": 3651,
      "aught": 3652,
      "Ġcontain": 3653,
      "Ġmoved": 3654,
      "Ġchallenge": 3655,
      "Ġ23": 3656,
      "Ġtransfer": 3657,
      "Ġpow": 3658,
      "Ġgave": 3659,
      "aint": 3660,
      "Ġ28": 3661,
      "Ġchem": 3662,
      "Ġgreater": 3663,
      "Ġoptim": 3664,
      "haps": 3665,
      "utive": 3666,
      "Ġrenew": 3667,
      "Ġclient": 3668,
      "Ġrelationships": 3669,
      "urt": 3670,
      "Ġvac": 3671,
      "ĠRem": 3672,
      "Ġcompon": 3673,
      "Ġinterview": 3674,
      "Ġreplace": 3675,
      "Ġdream": 3676,
      "Ġbeyond": 3677,
      "ĠCompany": 3678,
      "oper": 3679,
      "Ġeye": 3680,
      "Ġsurv": 3681,
      "Ġbrought": 3682,
      "Ġstates": 3683,
      "Ġeasier": 3684,
      "ils": 3685,
      "error": 3686,
      "ID": 3687,
      "ocol": 3688,
      "Ġknew": 3689,
      "Ġlargest": 3690,
      "ĠEduc": 3691,
      "Ġorigin": 3692,
      "Ġevidence": 3693,
      "Ġearl": 3694,
      "olf": 3695,
      "arant": 3696,
      "ida": 3697,
      "Ġefficient": 3698,
      "Ġimag": 3699,
      "Ġadult": 3700,
      "levision": 3701,
      "tery": 3702,
      "Ġessay": 3703,
      "usive": 3704,
      "Ġallowed": 3705,
      "Ġadvert": 3706,
      "Ġmoving": 3707,
      "Ġfurn": 3708,
      "osure": 3709,
      "Ġprinc": 3710,
      "Ġoffered": 3711,
      "Ġfather": 3712,
      "Ġund": 3713,
      "Ġproduced": 3714,
      "omb": 3715,
      "Ġproduce": 3716,
      "ĠDesign": 3717,
      "iant": 3718,
      "Ġmanage": 3719,
      "Ġge": 3720,
      "olic": 3721,
      "Ġexperienced": 3722,
      "gram": 3723,
      "ĠBook": 3724,
      "Ġpatient": 3725,
      "Ġacadem": 3726,
      "Ġguid": 3727,
      "Ġvehicle": 3728,
      "aper": 3729,
      "These": 3730,
      "Ġble": 3731,
      "Ġadvice": 3732,
      "change": 3733,
      "Ġrefer": 3734,
      "force": 3735,
      "ĠChurch": 3736,
      "Ġsty": 3737,
      "ĠFace": 3738,
      "Ġrequires": 3739,
      "ĠPal": 3740,
      "ĠSch": 3741,
      "wide": 3742,
      "24": 3743,
      "ĠIr": 3744,
      "ĠLaw": 3745,
      "Ġelements": 3746,
      "Ġbalance": 3747,
      "OT": 3748,
      "Ġproced": 3749,
      "ancing": 3750,
      "Ġtrad": 3751,
      "Ġfirm": 3752,
      "Ġspent": 3753,
      "friend": 3754,
      "PS": 3755,
      "ffee": 3756,
      "Ġowners": 3757,
      "Ġarr": 3758,
      "Ġcompleted": 3759,
      "ĠMor": 3760,
      "lam": 3761,
      "ĠAssociation": 3762,
      "Ġnovel": 3763,
      "Ġcateg": 3764,
      "unt": 3765,
      "iture": 3766,
      "Ġjourney": 3767,
      "zz": 3768,
      "ĠExternal": 3769,
      "US": 3770,
      "Ġexhib": 3771,
      "Ġdegree": 3772,
      "ipped": 3773,
      "Ġload": 3774,
      "Ġpicture": 3775,
      "Ġflav": 3776,
      "venue": 3777,
      "gen": 3778,
      "nown": 3779,
      "Ġcharacters": 3780,
      "ĠOther": 3781,
      "oly": 3782,
      "Ġchurch": 3783,
      "unte": 3784,
      "ico": 3785,
      "Ġ:": 3786,
      "Ġweather": 3787,
      "ĠGerman": 3788,
      "Ġhealthcare": 3789,
      "Ġdress": 3790,
      "Ġgar": 3791,
      "Ġcontinued": 3792,
      "ares": 3793,
      "ĠProf": 3794,
      "Ġexpand": 3795,
      "Ġfem": 3796,
      "Ġtransform": 3797,
      "ulated": 3798,
      "Ġevalu": 3799,
      "ĠAdditionally": 3800,
      "ĠThanks": 3801,
      "Ġsav": 3802,
      "Ġrespond": 3803,
      "Ġfab": 3804,
      "Ġimportance": 3805,
      "ibrary": 3806,
      "Ġwrong": 3807,
      "ĠLeague": 3808,
      "Ġspot": 3809,
      "Ġ--": 3810,
      "ĠHome": 3811,
      "Ġlarger": 3812,
      "Cl": 3813,
      "set": 3814,
      "Ġcandid": 3815,
      "ĠRiver": 3816,
      "Ġchanged": 3817,
      "Ġdiet": 3818,
      "ocks": 3819,
      "Ġstrate": 3820,
      "erved": 3821,
      "istry": 3822,
      "Ġstrategy": 3823,
      "band": 3824,
      "ĠBel": 3825,
      "ĠCouncil": 3826,
      "ĠMost": 3827,
      "ĠMod": 3828,
      "hy": 3829,
      "80": 3830,
      "abin": 3831,
      "Ġhop": 3832,
      "Ġexisting": 3833,
      "Ġsmart": 3834,
      "antly": 3835,
      "Ġfine": 3836,
      "Ġcontinu": 3837,
      "vis": 3838,
      "Ġoutd": 3839,
      "Ġannounced": 3840,
      "ĠThen": 3841,
      "Ġremain": 3842,
      "EO": 3843,
      "Ġconnection": 3844,
      "Ġeyes": 3845,
      "Ġvirt": 3846,
      "odes": 3847,
      "ĠChristmas": 3848,
      "Over": 3849,
      "Ġ2008": 3850,
      "born": 3851,
      "ancy": 3852,
      "Ġ2009": 3853,
      "Ġforms": 3854,
      "Ġmechan": 3855,
      "Ġvisual": 3856,
      "Ġhour": 3857,
      "ĠDem": 3858,
      "Ġspread": 3859,
      "vest": 3860,
      "ĠWash": 3861,
      "Ġflex": 3862,
      "Ġmer": 3863,
      "Ġlines": 3864,
      "Ġblue": 3865,
      "ĠHol": 3866,
      "ael": 3867,
      "Ġheard": 3868,
      "Ġprefer": 3869,
      "Ġ60": 3870,
      "Ġbasic": 3871,
      "Sh": 3872,
      "Ġmeasure": 3873,
      "enior": 3874,
      "ipping": 3875,
      "Ġdelivery": 3876,
      "ago": 3877,
      "issions": 3878,
      "Ġinstruct": 3879,
      "Ġpeace": 3880,
      "ĠGreen": 3881,
      "ĠJames": 3882,
      "Ġcopy": 3883,
      "Ġprimary": 3884,
      "Ġcomfortable": 3885,
      "aling": 3886,
      "ĠPaul": 3887,
      "ĠPlay": 3888,
      "ĠRo": 3889,
      "ĠPeople": 3890,
      "ĠAI": 3891,
      "ender": 3892,
      "rote": 3893,
      "Ġfeet": 3894,
      "ses": 3895,
      "inary": 3896,
      "Ġcast": 3897,
      "ocr": 3898,
      "Ġbeginning": 3899,
      "Ġrelevant": 3900,
      "Ġdisease": 3901,
      "Ġappropriate": 3902,
      "Ġtick": 3903,
      "ĠDuring": 3904,
      "Ġcorpor": 3905,
      "Ġpoll": 3906,
      "Ġbehavior": 3907,
      "Ġ27": 3908,
      "Ġmis": 3909,
      "Ġtried": 3910,
      "Ġregarding": 3911,
      "Ġdescribed": 3912,
      "dule": 3913,
      "aughter": 3914,
      "Ġdead": 3915,
      "Ġmeasures": 3916,
      "ĠAnt": 3917,
      "Ġpolice": 3918,
      "Ġincome": 3919,
      "ructure": 3920,
      "ĠDevelop": 3921,
      "ulate": 3922,
      "Ġprotection": 3923,
      "Ġinternet": 3924,
      "OM": 3925,
      "Ġfilms": 3926,
      "Ġcomment": 3927,
      "ester": 3928,
      "Ġsuppl": 3929,
      "Ġhighest": 3930,
      "Ġsouth": 3931,
      "ĠResearch": 3932,
      "inese": 3933,
      "Ġcompared": 3934,
      "ĠJack": 3935,
      "Ġoperations": 3936,
      "99": 3937,
      "Ġalthough": 3938,
      "Ġsett": 3939,
      "Ġmodels": 3940,
      "Ġec": 3941,
      "Ġworkers": 3942,
      "Ġfashion": 3943,
      "Ġhelping": 3944,
      "Ġpen": 3945,
      "ĠMr": 3946,
      "Ġtrain": 3947,
      "aming": 3948,
      "Ġreducing": 3949,
      "fit": 3950,
      "Ġrelax": 3951,
      "Ġbasis": 3952,
      "iency": 3953,
      "Ġlimit": 3954,
      "Ġnorth": 3955,
      "Ġrace": 3956,
      "Ġentry": 3957,
      "ĠOp": 3958,
      "order": 3959,
      "Ġeat": 3960,
      "ĠOut": 3961,
      "Ġlength": 3962,
      "Ġ26": 3963,
      "Ġpaid": 3964,
      "ĠBest": 3965,
      "Ġplants": 3966,
      "Ġtur": 3967,
      "Ġcreative": 3968,
      "Ġconflic": 3969,
      "idential": 3970,
      "Ġoffic": 3971,
      "Ġhotel": 3972,
      "Ġmanufacture": 3973,
      "Ġhimself": 3974,
      "unk": 3975,
      "Ġeconomy": 3976,
      "Ġcash": 3977,
      "Be": 3978,
      "ricult": 3979,
      "eds": 3980,
      "ĠSystem": 3981,
      "EL": 3982,
      "rehens": 3983,
      "ĠEngland": 3984,
      "Ġwish": 3985,
      "Ġtruly": 3986,
      "Ġcapital": 3987,
      "Ġreviews": 3988,
      "Ġutil": 3989,
      "Ġaf": 3990,
      "Ġhomes": 3991,
      "ĠGold": 3992,
      "ously": 3993,
      "ĠSl": 3994,
      "Ġforest": 3995,
      "Ġcharge": 3996,
      "ube": 3997,
      "Ġunit": 3998,
      "Ġforce": 3999,
      "Ġperspect": 4000,
      "Ġsecure": 4001,
      "Ġencourage": 4002,
      "equ": 4003,
      "ris": 4004,
      "ĠSund": 4005,
      "ned": 4006,
      "Ġfinally": 4007,
      "rael": 4008,
      "Ġexactly": 4009,
      "ĠCourt": 4010,
      "iately": 4011,
      "Ġ2007": 4012,
      "ĠJe": 4013,
      "Ġadvance": 4014,
      "Ġbreat": 4015,
      "oday": 4016,
      "Ġnumbers": 4017,
      "Ġcit": 4018,
      "vin": 4019,
      "Ġcivil": 4020,
      "akers": 4021,
      "Ġ193": 4022,
      "ĠFacebook": 4023,
      "Ġposted": 4024,
      "acity": 4025,
      "lusion": 4026,
      "Ġdied": 4027,
      "Ġchann": 4028,
      "mitted": 4029,
      "Ġmicro": 4030,
      "ĠInter": 4031,
      "Ġstandards": 4032,
      "Ġwonderful": 4033,
      "70": 4034,
      "ĠYear": 4035,
      "Ġwoman": 4036,
      "Ġpet": 4037,
      "Ġgenerally": 4038,
      "Ġfat": 4039,
      "Ġboy": 4040,
      "Ġannual": 4041,
      "rupt": 4042,
      "Ġemp": 4043,
      "eria": 4044,
      "ĠJes": 4045,
      "ij": 4046,
      "ĠAv": 4047,
      "tra": 4048,
      "itar": 4049,
      "craft": 4050,
      "OU": 4051,
      "Ġmovie": 4052,
      "Ġwedding": 4053,
      "Ġwasn": 4054,
      "life": 4055,
      "Ġdat": 4056,
      "Ġvoice": 4057,
      "rey": 4058,
      "ĠMet": 4059,
      "Ġloved": 4060,
      "Ġgets": 4061,
      "ĠMac": 4062,
      "Ġshared": 4063,
      "ault": 4064,
      "igate": 4065,
      "Ġfeedback": 4066,
      "Ġuseful": 4067,
      "Ġfear": 4068,
      "ĠRepublic": 4069,
      "Ġtraffic": 4070,
      "ĠWhite": 4071,
      "Ġconcerns": 4072,
      "Ġingred": 4073,
      "ĠAfrica": 4074,
      "Ġhelpful": 4075,
      "Ġgrand": 4076,
      "icious": 4077,
      "Ġweeke": 4078,
      "ĠMarket": 4079,
      "Ġcompetition": 4080,
      "Ġfollowed": 4081,
      "ĠDavid": 4082,
      "anging": 4083,
      "see": 4084,
      "Ġwait": 4085,
      "Ġnav": 4086,
      "Ġpages": 4087,
      "isl": 4088,
      "ocal": 4089,
      "ĠEvery": 4090,
      "Ġcertainly": 4091,
      "ĠSocial": 4092,
      "ĠMem": 4093,
      "ĠFlor": 4094,
      "Ġcolors": 4095,
      "coming": 4096,
      "iar": 4097,
      "ressive": 4098,
      "Ġactions": 4099,
      "Ġtechnologies": 4100,
      "Ġadvanced": 4101,
      "ĠRoad": 4102,
      "Ġshop": 4103,
      "ĠBusiness": 4104,
      "Ġgift": 4105,
      "ĠHall": 4106,
      "Ġprofessionals": 4107,
      "After": 4108,
      "Ġang": 4109,
      "Ġreasons": 4110,
      "Ġideal": 4111,
      "Ġexercise": 4112,
      "ĠCle": 4113,
      "Ġjoin": 4114,
      "Ġcompl": 4115,
      "tenance": 4116,
      "rim": 4117,
      "ĠChar": 4118,
      "ET": 4119,
      "Ġgraph": 4120,
      "reed": 4121,
      "Ġselection": 4122,
      "ston": 4123,
      "ĠSol": 4124,
      "Ġearlier": 4125,
      "Ġanimals": 4126,
      "Ġparties": 4127,
      "Ġbelief": 4128,
      "Ġphoto": 4129,
      "Ġpictures": 4130,
      "ĠFil": 4131,
      "ĠUp": 4132,
      "Ġshape": 4133,
      "BC": 4134,
      "inated": 4135,
      "Ġveget": 4136,
      "Ġdouble": 4137,
      "ĠAfrican": 4138,
      ".-": 4139,
      "ĠGood": 4140,
      "atively": 4141,
      "Ġdrop": 4142,
      "igned": 4143,
      "Ġwine": 4144,
      "Ġtim": 4145,
      "bl": 4146,
      "Ġjobs": 4147,
      "ĠFree": 4148,
      "Ġimmediately": 4149,
      "Ġmission": 4150,
      "ĠLet": 4151,
      "ĠProgram": 4152,
      "Ġlearned": 4153,
      "ĠQue": 4154,
      "Ġturned": 4155,
      "orial": 4156,
      "ellig": 4157,
      "Ġnation": 4158,
      "ĠClub": 4159,
      "ĠChinese": 4160,
      "ĠWashington": 4161,
      "ĠDel": 4162,
      "Ġbird": 4163,
      "othing": 4164,
      "Ġfinished": 4165,
      "Ġcraft": 4166,
      "Ġstraight": 4167,
      "Ġreports": 4168,
      "Ġdang": 4169,
      "Ġpayment": 4170,
      "Ġmaster": 4171,
      "des": 4172,
      "Ġminim": 4173,
      "Ġguarant": 4174,
      "Ġ2006": 4175,
      "Ġviews": 4176,
      "Ġinfluence": 4177,
      "ĠMex": 4178,
      "Ġrank": 4179,
      "Ġpartner": 4180,
      "Ġdetermine": 4181,
      "yn": 4182,
      "inter": 4183,
      "bu": 4184,
      "ios": 4185,
      "Ġwrote": 4186,
      "Ġcoffee": 4187,
      "Ġeffectively": 4188,
      "sec": 4189,
      "ĠServices": 4190,
      "inner": 4191,
      "Ġstuff": 4192,
      "ander": 4193,
      "phas": 4194,
      "Ġcentral": 4195,
      "acing": 4196,
      "Ġsharing": 4197,
      "Ġepis": 4198,
      "ĠCong": 4199,
      "AP": 4200,
      "iers": 4201,
      "ĠIsland": 4202,
      "add": 4203,
      "ĠFound": 4204,
      "Ġoccas": 4205,
      "ĠSing": 4206,
      "Ġlik": 4207,
      "Ġrepair": 4208,
      "Ġfocused": 4209,
      "Ġdecisions": 4210,
      "Ġalone": 4211,
      "Ġtechnical": 4212,
      "Ġmiddle": 4213,
      "aled": 4214,
      "Ġcaused": 4215,
      "AD": 4216,
      "Ġrich": 4217,
      "Ġcalc": 4218,
      "Ġsweet": 4219,
      "Ġgarden": 4220,
      "Ġfamous": 4221,
      "rastructure": 4222,
      "irection": 4223,
      "IL": 4224,
      "ĠDan": 4225,
      "Ġcancer": 4226,
      "Ġsaying": 4227,
      "Ġpsych": 4228,
      "Ġdrink": 4229,
      "ĠMag": 4230,
      "Ġtelevision": 4231,
      "Ġpieces": 4232,
      "ĠSure": 4233,
      "Ġnormal": 4234,
      "ĠEven": 4235,
      "Ġdriving": 4236,
      "reek": 4237,
      "ĠIsrael": 4238,
      "90": 4239,
      "icine": 4240,
      "Ġcomprehens": 4241,
      "ĠGeneral": 4242,
      "Ġthous": 4243,
      "ech": 4244,
      "Ġstatus": 4245,
      "iling": 4246,
      "outhern": 4247,
      "Ġmotiv": 4248,
      "Ġpaint": 4249,
      "Ġfinish": 4250,
      "ounds": 4251,
      "Ex": 4252,
      "Ġbul": 4253,
      "ĠMal": 4254,
      "Ġplaced": 4255,
      "Ġonto": 4256,
      "ĠMount": 4257,
      "Ġbeauty": 4258,
      "down": 4259,
      "Ġnumerous": 4260,
      "Ġfish": 4261,
      "Ġgain": 4262,
      "Ġden": 4263,
      "part": 4264,
      "Ġsongs": 4265,
      "ĠSpe": 4266,
      "cel": 4267,
      "Ġbecoming": 4268,
      "Ġclos": 4269,
      "Ġimpl": 4270,
      "rig": 4271,
      "abilities": 4272,
      "ĠEach": 4273,
      "ĠParty": 4274,
      "Ġbottom": 4275,
      "rief": 4276,
      "ym": 4277,
      "Ġanc": 4278,
      "Ġleader": 4279,
      "Ġdirector": 4280,
      "Ġsounds": 4281,
      "ĠSuper": 4282,
      "Ġpoor": 4283,
      "Ġtend": 4284,
      "action": 4285,
      "semb": 4286,
      "Ph": 4287,
      "Ġdecl": 4288,
      "ĠOnce": 4289,
      "ĠInstitute": 4290,
      "ING": 4291,
      "Ġmentioned": 4292,
      "ĠFriday": 4293,
      "Ġheavy": 4294,
      "cription": 4295,
      "ĠChristian": 4296,
      "Ġapprox": 4297,
      "Ġfinding": 4298,
      "ĠTex": 4299,
      "ĠEducation": 4300,
      "inct": 4301,
      "Ġrules": 4302,
      "ĠSam": 4303,
      "Ġdedicated": 4304,
      "Ġalternative": 4305,
      "Ġcounter": 4306,
      "ki": 4307,
      "Ġsymb": 4308,
      "Ġ2000": 4309,
      "itors": 4310,
      "ĠHot": 4311,
      "Re": 4312,
      "ula": 4313,
      "ĠCare": 4314,
      "ception": 4315,
      "Ġsand": 4316,
      "Ġnotice": 4317,
      "Ġclin": 4318,
      "Ġbrain": 4319,
      "icians": 4320,
      "Ġhom": 4321,
      "Ġlandsc": 4322,
      "Ġwhose": 4323,
      "Ġadvantage": 4324,
      "Ġstatement": 4325,
      "ommod": 4326,
      "iny": 4327,
      "mark": 4328,
      "Ġhabit": 4329,
      "ĠInternet": 4330,
      "ka": 4331,
      "Ġdesigns": 4332,
      "aturday": 4333,
      "Ġwife": 4334,
      "orthern": 4335,
      "Ġscen": 4336,
      "Ġentertain": 4337,
      "Ġeight": 4338,
      "ĠMil": 4339,
      "Is": 4340,
      "Ġsch": 4341,
      "Ġletter": 4342,
      "Ġsort": 4343,
      "ĠÂ£": 4344,
      "Ġahead": 4345,
      "undred": 4346,
      "Ġvalu": 4347,
      "ĠThank": 4348,
      "Ġopening": 4349,
      "ĠGet": 4350,
      "imb": 4351,
      "ado": 4352,
      "Ġsmaller": 4353,
      "Ġpool": 4354,
      "Ġanti": 4355,
      "olutely": 4356,
      "Ġcontains": 4357,
      "Ġir": 4358,
      "leg": 4359,
      "iced": 4360,
      "Ġschedule": 4361,
      "Ġteaching": 4362,
      "Ġrob": 4363,
      "ĠAdd": 4364,
      "ĠAcadem": 4365,
      "agram": 4366,
      "Ġhar": 4367,
      "Ġdetailed": 4368,
      "Ġvolunte": 4369,
      "ĠList": 4370,
      "works": 4371,
      "Ġseven": 4372,
      "overy": 4373,
      "Ġopened": 4374,
      "Ġartist": 4375,
      "Ġchanging": 4376,
      "Ġcry": 4377,
      "ĠBay": 4378,
      "Ġlots": 4379,
      "cean": 4380,
      "Ġmemory": 4381,
      "Ġslight": 4382,
      "encies": 4383,
      "Ġplatforms": 4384,
      "apter": 4385,
      "Ġretail": 4386,
      "itter": 4387,
      "ĠMart": 4388,
      "ĠClass": 4389,
      "Ġnearly": 4390,
      "ĠMake": 4391,
      "Ġtesting": 4392,
      "Ġfiles": 4393,
      "Ġbow": 4394,
      "ĠBer": 4395,
      "iveness": 4396,
      "Ġconven": 4397,
      "Ġtypically": 4398,
      "28": 4399,
      "ĠSince": 4400,
      "Ġwear": 4401,
      "Ġshoot": 4402,
      "Ġtask": 4403,
      "Ġallowing": 4404,
      "Ġsmooth": 4405,
      "Ġcold": 4406,
      "Ġinstru": 4407,
      "Ġcovered": 4408,
      "ros": 4409,
      "Ġlisted": 4410,
      "Ġprincip": 4411,
      "Ġanx": 4412,
      "Ġdram": 4413,
      "emporary": 4414,
      "ĠBank": 4415,
      "Ġperformed": 4416,
      "udd": 4417,
      "Ġfacilities": 4418,
      "26": 4419,
      "ĠDiv": 4420,
      "ĠJew": 4421,
      "ST": 4422,
      "Ġcars": 4423,
      "Ġincred": 4424,
      "Ġelection": 4425,
      "ĠHistory": 4426,
      "Ġprocesses": 4427,
      "Ġextremely": 4428,
      "ĠWhe": 4429,
      "Ġpromoting": 4430,
      "Ġremains": 4431,
      "Ġvisitors": 4432,
      "Ġnames": 4433,
      "Ġemphas": 4434,
      "ĠIN": 4435,
      "iences": 4436,
      "Ġmill": 4437,
      "Ġtherefore": 4438,
      "ĠRich": 4439,
      "ya": 4440,
      "ĠPC": 4441,
      "Ġtransportation": 4442,
      "standing": 4443,
      "Ġpros": 4444,
      "Ġenhance": 4445,
      "Ġemotional": 4446,
      "nel": 4447,
      "ona": 4448,
      "ĠChampions": 4449,
      "ĠSunday": 4450,
      "Ġsea": 4451,
      "ĠPost": 4452,
      "urban": 4453,
      "pping": 4454,
      "âĢ¢": 4455,
      "ĠAN": 4456,
      "Ġtransl": 4457,
      "ĠCup": 4458,
      "Ġwindow": 4459,
      "Ġexcl": 4460,
      "Ġpresented": 4461,
      "Ġcarbon": 4462,
      "ĠFrance": 4463,
      "Ġsector": 4464,
      "Ġjournal": 4465,
      "Ġawareness": 4466,
      "Ġcards": 4467,
      "Ġbaby": 4468,
      "Ġleadership": 4469,
      "Ġcapacity": 4470,
      "ken": 4471,
      "Ġdur": 4472,
      "rab": 4473,
      "roy": 4474,
      "Ġbillion": 4475,
      "Ġcities": 4476,
      "Ġestate": 4477,
      "Ġice": 4478,
      "Ġreality": 4479,
      "Ġexperts": 4480,
      "Ġresidents": 4481,
      "ĠUnion": 4482,
      "Ġremov": 4483,
      "Ġfant": 4484,
      "Ġbrother": 4485,
      "atically": 4486,
      "That": 4487,
      "Ġpassed": 4488,
      "vere": 4489,
      "Ġremove": 4490,
      "ĠBoard": 4491,
      "ĠFore": 4492,
      "Ġproperties": 4493,
      "enses": 4494,
      "ĠWed": 4495,
      "ĠVol": 4496,
      "Ġremind": 4497,
      "Ġvehicles": 4498,
      "Ġadding": 4499,
      "ĠJesus": 4500,
      "rian": 4501,
      "Ġthanks": 4502,
      "ĠMicro": 4503,
      "ius": 4504,
      "Ġdistrict": 4505,
      "IP": 4506,
      "Ġdirection": 4507,
      "tion": 4508,
      "raw": 4509,
      "ĠRober": 4510,
      "Ġshap": 4511,
      "45": 4512,
      "Ġhandle": 4513,
      "Ġtree": 4514,
      "ĠLou": 4515,
      "ĠCam": 4516,
      "Ġacademic": 4517,
      "uries": 4518,
      "Ġdoub": 4519,
      "75": 4520,
      "ĠOffice": 4521,
      "ĠMary": 4522,
      "Pro": 4523,
      "Ġmetal": 4524,
      "Ġsteel": 4525,
      "ĠTur": 4526,
      "ĠSaturday": 4527,
      "lim": 4528,
      "Ġaccommod": 4529,
      "Ġbrow": 4530,
      "Ġconsequ": 4531,
      "ĠJapanese": 4532,
      "Ġlabor": 4533,
      "Ġcomprehensive": 4534,
      "Ġindependent": 4535,
      "Ġinfrastructure": 4536,
      "Ġweekend": 4537,
      "Ġpush": 4538,
      "ĠAlthough": 4539,
      "ĠSal": 4540,
      "ĠIT": 4541,
      "Ġshot": 4542,
      "ĠArch": 4543,
      "Ġshopping": 4544,
      "ĠIts": 4545,
      "ĠWork": 4546,
      "going": 4547,
      "Ġstar": 4548,
      "fl": 4549,
      "Ġinterests": 4550,
      "Ġingredients": 4551,
      "Ġmaintenance": 4552,
      "Ġfigure": 4553,
      "ĠSur": 4554,
      "35": 4555,
      "antic": 4556,
      "ĠProv": 4557,
      "za": 4558,
      "Ġdial": 4559,
      "Ġprote": 4560,
      "ĠPet": 4561,
      "ĠDistrict": 4562,
      "rees": 4563,
      "ero": 4564,
      "Ġtemperature": 4565,
      "icks": 4566,
      "Ġinfluen": 4567,
      "Ġbuildings": 4568,
      "Ġselected": 4569,
      "enture": 4570,
      "Ġmaybe": 4571,
      "ĠWell": 4572,
      "Ġclasses": 4573,
      "Ġthank": 4574,
      "Ġcouldn": 4575,
      "icon": 4576,
      "ota": 4577,
      "Ġfabric": 4578,
      "MS": 4579,
      "Ġitem": 4580,
      "ĠWindows": 4581,
      "Ġdiverse": 4582,
      "Ġpassion": 4583,
      "Ġdoll": 4584,
      "Ġmist": 4585,
      "Ġdiscover": 4586,
      "Ġcup": 4587,
      "Ġ29": 4588,
      "Ġthoughts": 4589,
      "OL": 4590,
      "Ġwat": 4591,
      "Ġflu": 4592,
      "Ġfaith": 4593,
      "ĠCertain": 4594,
      "Ġdepending": 4595,
      "asks": 4596,
      "ixt": 4597,
      "atever": 4598,
      "Ġpresence": 4599,
      "Ġfriendly": 4600,
      "ĠPlan": 4601,
      "Ġmiles": 4602,
      "Ġowner": 4603,
      "phone": 4604,
      "ĠCamp": 4605,
      "Ġmo": 4606,
      "ĠSub": 4607,
      "Ġseparate": 4608,
      "Ġformat": 4609,
      "Ġrestaurant": 4610,
      "Ġcells": 4611,
      "Ġforeign": 4612,
      "ĠSpr": 4613,
      "ĠMusic": 4614,
      "ĠTexas": 4615,
      "Ġstreet": 4616,
      "ĠMuseum": 4617,
      "NA": 4618,
      "water": 4619,
      "ĠMo": 4620,
      "ĠWeb": 4621,
      "Ġunc": 4622,
      "Ġpresident": 4623,
      "Ġtherapy": 4624,
      "inger": 4625,
      "formation": 4626,
      "ĠRock": 4627,
      "azon": 4628,
      "Ġruns": 4629,
      "Ġcleaning": 4630,
      "isation": 4631,
      "Ġcontinues": 4632,
      "Ġbecomes": 4633,
      "Ġtrou": 4634,
      "Ġplus": 4635,
      "Ġcitiz": 4636,
      "Ġcontroll": 4637,
      "Ġcontext": 4638,
      "Ġrain": 4639,
      "Ġcombination": 4640,
      "Ġfurniture": 4641,
      "Ġargu": 4642,
      "Ġprepared": 4643,
      "atin": 4644,
      "Ġfederal": 4645,
      "roid": 4646,
      "Ġwinter": 4647,
      "Ġpatterns": 4648,
      "Ġinstance": 4649,
      "Ġfans": 4650,
      "ĠAward": 4651,
      "ĠProfess": 4652,
      "Ġhundred": 4653,
      "Ġunits": 4654,
      "Ġvideos": 4655,
      "eed": 4656,
      "ipl": 4657,
      "ĠMat": 4658,
      "Ġfuel": 4659,
      "ĠGermany": 4660,
      "ĠAlex": 4661,
      "ĠCentral": 4662,
      "Ġarticles": 4663,
      "ĠMond": 4664,
      "Ġjoined": 4665,
      "Ġolder": 4666,
      "ĠWood": 4667,
      "Ġ2005": 4668,
      "Ġcourses": 4669,
      "oration": 4670,
      "'.": 4671,
      "Ġreligious": 4672,
      "Ġsym": 4673,
      "Ġcrucial": 4674,
      "Ġreturned": 4675,
      "Ġidentity": 4676,
      "ĠAccording": 4677,
      "ĠAngel": 4678,
      "Ġdance": 4679,
      "Ġhistorical": 4680,
      "Ġintroduced": 4681,
      "icy": 4682,
      "Ġstick": 4683,
      "Ġleaves": 4684,
      "iance": 4685,
      "Ġplastic": 4686,
      "rie": 4687,
      "anta": 4688,
      "Ġlooked": 4689,
      "fficient": 4690,
      "Ġholiday": 4691,
      "Ġcore": 4692,
      "ĠLife": 4693,
      ".)": 4694,
      "amin": 4695,
      "ĠGrand": 4696,
      "Ġagricult": 4697,
      "ĠCanadian": 4698,
      "free": 4699,
      "men": 4700,
      "Ġdiscount": 4701,
      "Ġhyd": 4702,
      "Ġcamera": 4703,
      "Ġgrant": 4704,
      "Ġscene": 4705,
      "ĠPublic": 4706,
      "Ġsolid": 4707,
      "Ġment": 4708,
      "ĠSum": 4709,
      "eared": 4710,
      "Ġfill": 4711,
      "Ġwants": 4712,
      "known": 4713,
      "unning": 4714,
      "bour": 4715,
      "Ġrat": 4716,
      "Ġkeeping": 4717,
      "Ġroof": 4718,
      "Ġaffordable": 4719,
      "Ġquarter": 4720,
      "29": 4721,
      "Ġseek": 4722,
      "Ġtrees": 4723,
      "Ġeventually": 4724,
      "Ġfunds": 4725,
      "Ġer": 4726,
      "ĠAny": 4727,
      "vention": 4728,
      "ucle": 4729,
      "Ġfunding": 4730,
      "Ġder": 4731,
      "uty": 4732,
      "la": 4733,
      "oma": 4734,
      "ooking": 4735,
      "orrow": 4736,
      "Ġvision": 4737,
      "ĠIS": 4738,
      "Ġ+": 4739,
      "Ġrenewable": 4740,
      "van": 4741,
      "etry": 4742,
      "27": 4743,
      "Ġbright": 4744,
      "Ġdaughter": 4745,
      "Ġsoil": 4746,
      "Ġbeg": 4747,
      "ĠScience": 4748,
      "Ġresponsibility": 4749,
      "Ġchemical": 4750,
      "ĠWater": 4751,
      "Ġoutdoor": 4752,
      "Ġpreviously": 4753,
      "Ġlaws": 4754,
      "Do": 4755,
      "cause": 4756,
      "ĠExp": 4757,
      "CC": 4758,
      "ena": 4759,
      "Ġsched": 4760,
      "ded": 4761,
      "Ġhus": 4762,
      "hab": 4763,
      "apers": 4764,
      "Ġactual": 4765,
      "Ġdu": 4766,
      "itz": 4767,
      "Ġadvoc": 4768,
      "Ġvillage": 4769,
      "ifying": 4770,
      "While": 4771,
      "ĠBen": 4772,
      "Ġcloud": 4773,
      "Ġbutton": 4774,
      "rd": 4775,
      "ĠLit": 4776,
      "Ġtag": 4777,
      "Ġsession": 4778,
      "IG": 4779,
      "ĠManagement": 4780,
      "ĠFlorida": 4781,
      "omas": 4782,
      "Ġpractical": 4783,
      "Ġengage": 4784,
      "tt": 4785,
      "Ġdriver": 4786,
      "Ġinitiatives": 4787,
      "100": 4788,
      "Ġdistance": 4789,
      "friendly": 4790,
      "Ġsymbol": 4791,
      "Ġclassic": 4792,
      "ĠTy": 4793,
      "Ġrecommended": 4794,
      "88": 4795,
      "Ġbill": 4796,
      "Ġthus": 4797,
      "Â®": 4798,
      "Ġbathroom": 4799,
      "Ġconnected": 4800,
      "Ġupdate": 4801,
      "Ġexpensive": 4802,
      "ĠEngine": 4803,
      "Ġbedroom": 4804,
      "Ġaspects": 4805,
      "Ġrepe": 4806,
      "Ġrail": 4807,
      "Ġship": 4808,
      "ĠArmy": 4809,
      "Ġsets": 4810,
      "No": 4811,
      "Ġrap": 4812,
      "ĠSociety": 4813,
      "Ġrare": 4814,
      "Ġ2004": 4815,
      "Ġisland": 4816,
      "rical": 4817,
      "ĠTheir": 4818,
      "Ġtow": 4819,
      "Ġgun": 4820,
      "ĠAustralian": 4821,
      "ittee": 4822,
      "ĠWestern": 4823,
      "Ġappeal": 4824,
      "Ġillust": 4825,
      "Ġsecret": 4826,
      "ĠChic": 4827,
      "Overall": 4828,
      "Ad": 4829,
      "azine": 4830,
      "ĠLake": 4831,
      "Ġluck": 4832,
      "Ġ190": 4833,
      "Ġperhaps": 4834,
      "Ġ31": 4835,
      "EM": 4836,
      "Ġcontribute": 4837,
      "ĠGeorge": 4838,
      "Ġlov": 4839,
      "Ġmedium": 4840,
      "fast": 4841,
      "ician": 4842,
      "ĠCur": 4843,
      "Ġbound": 4844,
      "Ġleaving": 4845,
      "pet": 4846,
      "iration": 4847,
      "Ġtheme": 4848,
      "Ġreduced": 4849,
      "Ġteachers": 4850,
      "Ġcoast": 4851,
      "Ġguests": 4852,
      "?\"": 4853,
      "Ġmotor": 4854,
      "Ġresist": 4855,
      "isco": 4856,
      "Ġchart": 4857,
      "ĠMichael": 4858,
      "ĠRead": 4859,
      "ĠMont": 4860,
      "Ġextensive": 4861,
      "Ġphil": 4862,
      "ĠSk": 4863,
      "Ġoperating": 4864,
      "ĠBat": 4865,
      "Ġkept": 4866,
      "unately": 4867,
      "Ġhighlight": 4868,
      "anish": 4869,
      "irgin": 4870,
      "Ġmanager": 4871,
      "gency": 4872,
      "allery": 4873,
      "ishes": 4874,
      "ĠHy": 4875,
      "ĠElect": 4876,
      "Ġtalent": 4877,
      "Ġ80": 4878,
      "ĠCertainly": 4879,
      "Ġsequ": 4880,
      "Ġclosed": 4881,
      "Ġestim": 4882,
      "Ġassistance": 4883,
      "Ġaren": 4884,
      "ĠIns": 4885,
      "urd": 4886,
      "Ġlaun": 4887,
      "ĠKore": 4888,
      "ĠCommission": 4889,
      "Ġdro": 4890,
      "Ġ90": 4891,
      "Ġwebsites": 4892,
      "ĠOb": 4893,
      "Ġcabin": 4894,
      "Ġrooms": 4895,
      "Ðµ": 4896,
      "ĠAnn": 4897,
      "Ġinnovative": 4898,
      "Ġclaims": 4899,
      "ĠSun": 4900,
      "ĠVis": 4901,
      "Ġdatab": 4902,
      "ctors": 4903,
      "Ġrecords": 4904,
      "Ġinstallation": 4905,
      "Ġarrange": 4906,
      "Ġ=": 4907,
      "Ġconstruct": 4908,
      "Ġchallenging": 4909,
      "thlet": 4910,
      "Ġbiggest": 4911,
      "ores": 4912,
      "ada": 4913,
      "ĠMa": 4914,
      "ĠSa": 4915,
      "uce": 4916,
      "ĠLand": 4917,
      "osh": 4918,
      "ette": 4919,
      "Ġtalking": 4920,
      "hent": 4921,
      "Ġcomments": 4922,
      "Ġtaste": 4923,
      "ĠMad": 4924,
      "Ġvaluable": 4925,
      "Ġrise": 4926,
      "esome": 4927,
      "uled": 4928,
      "alian": 4929,
      "Ġvary": 4930,
      "Ġ2020": 4931,
      "Ġseeing": 4932,
      "ilding": 4933,
      "Ġapplied": 4934,
      "Ġmarkets": 4935,
      "ĠSen": 4936,
      "Ġimproved": 4937,
      "ĠRet": 4938,
      "Ġdespite": 4939,
      "ĠLord": 4940,
      "osis": 4941,
      "Ġrecommendations": 4942,
      "Ġmajority": 4943,
      "uman": 4944,
      "Ġlaunch": 4945,
      "Ġregulations": 4946,
      "century": 4947,
      "ĠDet": 4948,
      "Ġanimal": 4949,
      "Ġinvolves": 4950,
      "Ġpal": 4951,
      "alls": 4952,
      "Ġcalls": 4953,
      "Ġrecip": 4954,
      "bert": 4955,
      "ĠTor": 4956,
      "Ġsigned": 4957,
      "ano": 4958,
      "ifications": 4959,
      "ĠAP": 4960,
      "erry": 4961,
      "point": 4962,
      "Ġdetect": 4963,
      "Ġteacher": 4964,
      "ĠJo": 4965,
      "Ġschol": 4966,
      "ship": 4967,
      "ĠRoman": 4968,
      "Ġfol": 4969,
      "Ġseat": 4970,
      "Ġradio": 4971,
      "Ġimpacts": 4972,
      "azz": 4973,
      "Ġtopic": 4974,
      "edy": 4975,
      "Ġsurg": 4976,
      "Ġlux": 4977,
      "osen": 4978,
      "ompl": 4979,
      "ĠDown": 4980,
      "berg": 4981,
      "asure": 4982,
      "ĠMiss": 4983,
      "ĠJour": 4984,
      "Ġindic": 4985,
      "Ġtail": 4986,
      "Ġearth": 4987,
      "road": 4988,
      "Ġsympt": 4989,
      "well": 4990,
      "Ġefficiency": 4991,
      "Ġpray": 4992,
      "comes": 4993,
      "Ġesc": 4994,
      "ĠBre": 4995,
      "Ġagreement": 4996,
      "ĠConst": 4997,
      "ĠHel": 4998,
      "Ġproperly": 4999,
      "rain": 5000,
      "ĠLove": 5001,
      "Ġcoverage": 5002,
      "ystem": 5003,
      "Ġoperation": 5004,
      "65": 5005,
      "iated": 5006,
      "Ġsem": 5007,
      "Ġeducational": 5008,
      "Ġegg": 5009,
      "ĠBig": 5010,
      "Ġappears": 5011,
      "199": 5012,
      "Ġpull": 5013,
      "ĠRob": 5014,
      "verse": 5015,
      "arp": 5016,
      "lymp": 5017,
      "mes": 5018,
      "Ġanxiety": 5019,
      "Ġworksh": 5020,
      "ĠOh": 5021,
      "inding": 5022,
      "mosp": 5023,
      "ror": 5024,
      "Ġquant": 5025,
      "Un": 5026,
      "Ġsupporting": 5027,
      "Ġaffected": 5028,
      "Ġforces": 5029,
      "Ġdynam": 5030,
      "Ġapproximately": 5031,
      "ĠMain": 5032,
      "Ġspring": 5033,
      "word": 5034,
      "Ġmap": 5035,
      "Ġcompar": 5036,
      "Ġserver": 5037,
      "estic": 5038,
      "asy": 5039,
      "uses": 5040,
      "roud": 5041,
      "cious": 5042,
      "Ġmagn": 5043,
      "Ġserving": 5044,
      "Ġevening": 5045,
      "ĠRel": 5046,
      "ION": 5047,
      "gal": 5048,
      "Ġtoward": 5049,
      "Ġsignificantly": 5050,
      "TS": 5051,
      "ĠFranc": 5052,
      "Ġhospital": 5053,
      "icken": 5054,
      "Ġconference": 5055,
      "Ġcris": 5056,
      "eless": 5057,
      "Ġhusband": 5058,
      "Ġplenty": 5059,
      "Ġspecifically": 5060,
      "Ġimproving": 5061,
      "ĠNor": 5062,
      "ront": 5063,
      "soft": 5064,
      "ĠDef": 5065,
      "Con": 5066,
      "ĠUSA": 5067,
      "Ġelement": 5068,
      "Ġexchange": 5069,
      "ĠRoyal": 5070,
      "ĠDevelopment": 5071,
      "Ġflat": 5072,
      "Ġdisapp": 5073,
      "500": 5074,
      "ĠPower": 5075,
      "elines": 5076,
      "Ġmanaged": 5077,
      "ying": 5078,
      "Ġvalid": 5079,
      "Ġneighbor": 5080,
      "Ġwalking": 5081,
      "Ġtruth": 5082,
      "Ġdecre": 5083,
      "Ġbuying": 5084,
      "ĠSil": 5085,
      "Ġbeach": 5086,
      "ĠDec": 5087,
      "ĠMonday": 5088,
      "ĠChild": 5089,
      "ĠEv": 5090,
      "Ġcentre": 5091,
      "uit": 5092,
      "Ġspl": 5093,
      "Ġsenior": 5094,
      "Ġ70": 5095,
      "Ġmeant": 5096,
      "Ġreached": 5097,
      "ini": 5098,
      "Ġinjury": 5099,
      "Ġpair": 5100,
      "Ġurban": 5101,
      "Ġinvolve": 5102,
      "ãģ": 5103,
      "Ġlegisl": 5104,
      "Ġmale": 5105,
      "Ġcream": 5106,
      "ĠScott": 5107,
      "Ġfan": 5108,
      "Ġmulti": 5109,
      "box": 5110,
      "Now": 5111,
      "Ġplays": 5112,
      "ĠNav": 5113,
      "By": 5114,
      "body": 5115,
      "Ġdiagn": 5116,
      "UR": 5117,
      "Ġexciting": 5118,
      "Ġengagement": 5119,
      "Ġvote": 5120,
      "Ġcheap": 5121,
      "Ġminimum": 5122,
      "Ġmaximum": 5123,
      "ĠPress": 5124,
      "They": 5125,
      "ĠMark": 5126,
      "Ġintellig": 5127,
      "Ġdiversity": 5128,
      "gment": 5129,
      "Ġgone": 5130,
      "Ġchair": 5131,
      "agers": 5132,
      "Ġotherwise": 5133,
      "ĠUnder": 5134,
      "ĠStar": 5135,
      "ĠOpen": 5136,
      "CA": 5137,
      "Ġjoint": 5138,
      "Ġbrands": 5139,
      "burg": 5140,
      "Ġdepartment": 5141,
      "ĠBlue": 5142,
      "illa": 5143,
      "ĠBur": 5144,
      "top": 5145,
      "Ġspect": 5146,
      "Ġconcent": 5147,
      "ĠCarol": 5148,
      "eper": 5149,
      "rad": 5150,
      "yc": 5151,
      "Ġarm": 5152,
      "Ġdiscovered": 5153,
      "Ġrecipe": 5154,
      "Ġended": 5155,
      "Ġwire": 5156,
      "ĠCommittee": 5157,
      "Ġstone": 5158,
      "ĠFoundation": 5159,
      "Ġmuseum": 5160,
      "ĠBill": 5161,
      "Ġsuitable": 5162,
      "Ġminor": 5163,
      "--": 5164,
      "Ġloan": 5165,
      "Ġaccompl": 5166,
      "Ġfilled": 5167,
      "Ġsugar": 5168,
      "ĠSom": 5169,
      "Ġsnow": 5170,
      "Ġoccup": 5171,
      "Ġtrail": 5172,
      "Ġ2003": 5173,
      "Ġraised": 5174,
      "Ġspending": 5175,
      "Ġsupported": 5176,
      "Ġleads": 5177,
      "Ġmarried": 5178,
      "Ġreput": 5179,
      "Ġframe": 5180,
      "Ġwilling": 5181,
      "Ġimplemented": 5182,
      "crib": 5183,
      "Ġwaiting": 5184,
      "Ġregularly": 5185,
      "ĠDirector": 5186,
      "Ġforget": 5187,
      "Ġunivers": 5188,
      "oles": 5189,
      "pm": 5190,
      "ola": 5191,
      "Ġhappened": 5192,
      "Ġshel": 5193,
      "Ġtele": 5194,
      "ĠForm": 5195,
      "ulty": 5196,
      "umin": 5197,
      "Ġcircum": 5198,
      "iability": 5199,
      "Ġscale": 5200,
      "Ġmanufacturing": 5201,
      "Ġsolar": 5202,
      "istan": 5203,
      "ĠLear": 5204,
      "Ġmanner": 5205,
      "Ġrisks": 5206,
      "win": 5207,
      "itness": 5208,
      "Ġindustrial": 5209,
      "resp": 5210,
      "writ": 5211,
      "Ġhousing": 5212,
      "Ġpredict": 5213,
      "Ġcommitted": 5214,
      "Ġnotes": 5215,
      "ĠCongress": 5216,
      "Ġwelcome": 5217,
      "ĠChicago": 5218,
      "arge": 5219,
      "Ġexplain": 5220,
      "ĠProject": 5221,
      "iest": 5222,
      "Ġconfig": 5223,
      "Ġfacility": 5224,
      "ĠGovernment": 5225,
      "ĠMill": 5226,
      "Ġremote": 5227,
      "ĠNews": 5228,
      "unction": 5229,
      "ĠOlymp": 5230,
      "ĠCap": 5231,
      "Ġexpertise": 5232,
      "Ġ35": 5233,
      "ĠCommunity": 5234,
      "Ġconclusion": 5235,
      "Ġwinning": 5236,
      "bed": 5237,
      "Ġtasks": 5238,
      "Ġgeneration": 5239,
      "Ġprocessing": 5240,
      "rete": 5241,
      "Ġdoctor": 5242,
      "omy": 5243,
      "ĠRussian": 5244,
      "ĠFam": 5245,
      "Ġsurrounding": 5246,
      "IM": 5247,
      "rier": 5248,
      "ĠTour": 5249,
      "Ġswitch": 5250,
      "ails": 5251,
      "Ġpanel": 5252,
      "Ġtempl": 5253,
      "Ġorganic": 5254,
      "Ġcomponents": 5255,
      "Ġatmosp": 5256,
      "Ġcritic": 5257,
      "ĠMass": 5258,
      "Ġapart": 5259,
      "Ġcoach": 5260,
      "33": 5261,
      "Ġshower": 5262,
      "Ġbattle": 5263,
      "Ġedge": 5264,
      "ĠWomen": 5265,
      "ĠHill": 5266,
      "Ġlisten": 5267,
      "Ġcrow": 5268,
      "Ġposts": 5269,
      "LE": 5270,
      "Ġrecorded": 5271,
      "Ġhaven": 5272,
      "Ġcolle": 5273,
      "Ġinternal": 5274,
      "Ġfold": 5275,
      "Ġscientific": 5276,
      "Ġfoods": 5277,
      "lor": 5278,
      "Don": 5279,
      "Ġlocations": 5280,
      "Ġformed": 5281,
      "Ġinspired": 5282,
      "ĠMer": 5283,
      "Ġslightly": 5284,
      "Ġconsid": 5285,
      "ensions": 5286,
      "Ġshowing": 5287,
      "Ġdecide": 5288,
      "Ġthick": 5289,
      "ita": 5290,
      "ĠMot": 5291,
      "Ġreliable": 5292,
      "Ġbrief": 5293,
      "Ġthousands": 5294,
      "ffect": 5295,
      "Ġyouth": 5296,
      "ĠMel": 5297,
      "Ġchoices": 5298,
      "ĠHam": 5299,
      "Ġsport": 5300,
      "ogue": 5301,
      "Ġengaging": 5302,
      "Ġopinion": 5303,
      "Ġpul": 5304,
      "Ġcatch": 5305,
      "Ġdefe": 5306,
      "ĠEarth": 5307,
      "ĠBecause": 5308,
      "ĠCD": 5309,
      "ĠBrown": 5310,
      "Ġpackage": 5311,
      "Ġ...": 5312,
      "riage": 5313,
      "Ġplug": 5314,
      "Ġindustries": 5315,
      "ĠTHE": 5316,
      "inations": 5317,
      "Ġjustice": 5318,
      "ria": 5319,
      "Ġteach": 5320,
      "itage": 5321,
      "Ġmostly": 5322,
      "ĠWhy": 5323,
      "Ġstret": 5324,
      "Ġfemale": 5325,
      "Please": 5326,
      "ĠEst": 5327,
      "ĠBet": 5328,
      "Ġemployee": 5329,
      "Ġinstitutions": 5330,
      "han": 5331,
      "Here": 5332,
      "Ġpoly": 5333,
      "Ġboost": 5334,
      "Ġfruit": 5335,
      "Ġregions": 5336,
      "orough": 5337,
      "ĠJose": 5338,
      "ĠPan": 5339,
      "Ġstores": 5340,
      "Ġagency": 5341,
      "Ġperspective": 5342,
      "ala": 5343,
      "Ġsurvey": 5344,
      "Ġinstalled": 5345,
      "Ġstyles": 5346,
      "ĠRad": 5347,
      "Ġjump": 5348,
      "BS": 5349,
      "estyle": 5350,
      "Ġdocuments": 5351,
      "Ġsymptoms": 5352,
      "Ġcombined": 5353,
      "Ġcart": 5354,
      "Ġupgra": 5355,
      "Ġprovider": 5356,
      "Ġconsumers": 5357,
      "ĠCath": 5358,
      "ending": 5359,
      "Ġcreation": 5360,
      "Ġancient": 5361,
      "Ġadvertising": 5362,
      "ĠRobert": 5363,
      "inn": 5364,
      "ĠVict": 5365,
      "Ġreaders": 5366,
      "Ġshowed": 5367,
      "Ġtopics": 5368,
      "Ġappearance": 5369,
      "Ġreference": 5370,
      "Ġupdated": 5371,
      "Ġraise": 5372,
      "outs": 5373,
      "Your": 5374,
      "rics": 5375,
      "Ġhonest": 5376,
      "ĠCheck": 5377,
      "Ġcontemporary": 5378,
      "Ġcolour": 5379,
      "Ġfields": 5380,
      "Ġrule": 5381,
      "Pl": 5382,
      "ĠVirgin": 5383,
      "ĠAtt": 5384,
      "Ġcommitment": 5385,
      "Ġparticipate": 5386,
      "Ġlose": 5387,
      "paper": 5388,
      "Ġrapid": 5389,
      "Ġprepare": 5390,
      "ario": 5391,
      "ums": 5392,
      "ads": 5393,
      "Ġvan": 5394,
      "ĠSmith": 5395,
      "bre": 5396,
      "Ġbrown": 5397,
      "ĠAcademy": 5398,
      "Ġselling": 5399,
      "ĠItalian": 5400,
      "Ġvirtual": 5401,
      "Ġproud": 5402,
      "Ġclearly": 5403,
      "Ġcompetitive": 5404,
      "ĠSet": 5405,
      "Ġking": 5406,
      "Ġproviders": 5407,
      "Ġeating": 5408,
      "Ġtea": 5409,
      "Ġ2002": 5410,
      "eline": 5411,
      "Ġsatisf": 5412,
      "Ġfee": 5413,
      "ĠHave": 5414,
      "Ġresearc": 5415,
      "oga": 5416,
      "Ġcollaboration": 5417,
      "Ġmenu": 5418,
      "odies": 5419,
      "Ġlaunched": 5420,
      "Ġaccessible": 5421,
      "ĠZeal": 5422,
      "Ġappeared": 5423,
      "IV": 5424,
      "Ġcommand": 5425,
      "Ar": 5426,
      "Ġengineering": 5427,
      "Ġbask": 5428,
      "Ġnom": 5429,
      "ĠTop": 5430,
      "Ġobvious": 5431,
      "Ġroute": 5432,
      "Ġbattery": 5433,
      "Ġgather": 5434,
      "with": 5435,
      "ĠAmazon": 5436,
      "ĠOnline": 5437,
      "night": 5438,
      "Ġgoods": 5439,
      "Ġdining": 5440,
      "ĠFort": 5441,
      "yer": 5442,
      "Ġcere": 5443,
      "ĠFrank": 5444,
      "ĠAtl": 5445,
      "atre": 5446,
      "Ġflight": 5447,
      "ĠDemocr": 5448,
      "ĠMaster": 5449,
      "Ġcorporate": 5450,
      "Ġbeliefs": 5451,
      "umber": 5452,
      "ras": 5453,
      "actions": 5454,
      "44": 5455,
      "uting": 5456,
      "othes": 5457,
      "',": 5458,
      "Ġfees": 5459,
      "ĠWil": 5460,
      "ifts": 5461,
      "ĠSpanish": 5462,
      "Ġcorner": 5463,
      "fol": 5464,
      "ĠZealand": 5465,
      "Ġrevenue": 5466,
      "Ġultimately": 5467,
      "PA": 5468,
      "Ġcasino": 5469,
      "Ġemotions": 5470,
      "ĠApple": 5471,
      "ocolate": 5472,
      "Ġepisode": 5473,
      "ĠValley": 5474,
      "Ġthrow": 5475,
      "Ġswim": 5476,
      "ursday": 5477,
      "Ġiron": 5478,
      "II": 5479,
      "Ġappreciate": 5480,
      "rating": 5481,
      "Des": 5482,
      "ĠTown": 5483,
      "ĠTake": 5484,
      "mary": 5485,
      "Ġdelicious": 5486,
      "Ġvisiting": 5487,
      "Ġhappens": 5488,
      "Ð¾": 5489,
      "Ġfeatured": 5490,
      "However": 5491,
      "Ġreb": 5492,
      "ĠCat": 5493,
      "Ġsituations": 5494,
      "Ġelimin": 5495,
      "Ġcooking": 5496,
      "ĠFire": 5497,
      "Ġtransp": 5498,
      "Ġshowc": 5499,
      "Ġtrial": 5500,
      "itoring": 5501,
      "pes": 5502,
      "spe": 5503,
      "ĠMexico": 5504,
      "ĠLiving": 5505,
      "ressed": 5506,
      "ua": 5507,
      "ĠTeam": 5508,
      "Ġwindows": 5509,
      "BA": 5510,
      "Ġseeking": 5511,
      "rive": 5512,
      "ĠCustom": 5513,
      "idden": 5514,
      "Ġexcited": 5515,
      "Ġupdates": 5516,
      "ups": 5517,
      "ilit": 5518,
      "ĠOrgan": 5519,
      "Ġmissing": 5520,
      "igan": 5521,
      "Ġerror": 5522,
      "ĠTrump": 5523,
      "ĠWall": 5524,
      "prene": 5525,
      "being": 5526,
      "gor": 5527,
      "ĠFurther": 5528,
      "Ġfreed": 5529,
      "osal": 5530,
      "Ġstarts": 5531,
      "icing": 5532,
      "Ġrot": 5533,
      "Ġbought": 5534,
      "ĠPerson": 5535,
      "Ġpump": 5536,
      "Ġspiritual": 5537,
      "Ġconfidence": 5538,
      "Ġparticipants": 5539,
      "Ġadults": 5540,
      "aturing": 5541,
      "Ġmort": 5542,
      "gl": 5543,
      "Ġresol": 5544,
      "Ġuniversity": 5545,
      "Ġsquare": 5546,
      "Ġdistribution": 5547,
      "ĠLouis": 5548,
      "lets": 5549,
      "agon": 5550,
      "Ġthr": 5551,
      "aren": 5552,
      "Ġriver": 5553,
      "ĠRev": 5554,
      "ĠAsia": 5555,
      "DA": 5556,
      "Ġmel": 5557,
      "Ġride": 5558,
      "Ġauthent": 5559,
      "Ġfaced": 5560,
      "coh": 5561,
      "reprene": 5562,
      "Ġconstit": 5563,
      "uis": 5564,
      "onds": 5565,
      "Ġwriter": 5566,
      "Ġinvestig": 5567,
      "oors": 5568,
      "ĠPhot": 5569,
      "ĠBi": 5570,
      "Ġ1990": 5571,
      "ĠST": 5572,
      "ĠHen": 5573,
      "Ġlived": 5574,
      "OW": 5575,
      "gn": 5576,
      "ograp": 5577,
      "55": 5578,
      "uesday": 5579,
      "Ġbrings": 5580,
      "32": 5581,
      "hetic": 5582,
      "De": 5583,
      "Ġcitizens": 5584,
      "Ġresource": 5585,
      "een": 5586,
      "Ġrid": 5587,
      "ĠInf": 5588,
      "Ġtheory": 5589,
      "Ġroutine": 5590,
      "ady": 5591,
      "Ġintended": 5592,
      "ĠStep": 5593,
      "Ġpainting": 5594,
      "Ġenjoyed": 5595,
      "ĠMinister": 5596,
      "Ġprofile": 5597,
      "ĠJournal": 5598,
      "Ġcoord": 5599,
      "Ġaccurate": 5600,
      "ĠTom": 5601,
      "Ġpurposes": 5602,
      "Ġconflict": 5603,
      "ĠDivision": 5604,
      "ĠTem": 5605,
      "Ġcauses": 5606,
      "Ġconducted": 5607,
      "Ġtechnique": 5608,
      "isms": 5609,
      "ĠSqu": 5610,
      "Ġdesk": 5611,
      "Ġowned": 5612,
      "Ġwhatever": 5613,
      "RA": 5614,
      "Ġchain": 5615,
      "sembly": 5616,
      "Ġdepart": 5617,
      "Ġadministr": 5618,
      "Ġmusical": 5619,
      "Ġ500": 5620,
      "Ġwatching": 5621,
      "Ġinstructions": 5622,
      "Ġblend": 5623,
      "Ġmit": 5624,
      "ĠTime": 5625,
      "arsh": 5626,
      "Ġsuccessfully": 5627,
      "Ġdiscussion": 5628,
      "Ġign": 5629,
      "eder": 5630,
      "Ġregul": 5631,
      "Ġminute": 5632,
      "ĠProt": 5633,
      "Ġrestaurants": 5634,
      "Ġfactor": 5635,
      "Ġfunctions": 5636,
      "Ġabsolutely": 5637,
      "Ġdestroy": 5638,
      "gers": 5639,
      "Ġgender": 5640,
      "Ġarchitecture": 5641,
      "rat": 5642,
      "Ġdinner": 5643,
      "Ġproposed": 5644,
      "Ġnegot": 5645,
      "Ġfra": 5646,
      "orders": 5647,
      "ĠCentre": 5648,
      "Ġamb": 5649,
      "ĠArts": 5650,
      "ĠColor": 5651,
      "Ġinvent": 5652,
      "Ġdebt": 5653,
      "ĠLim": 5654,
      "otes": 5655,
      "cles": 5656,
      "oty": 5657,
      "hi": 5658,
      "igen": 5659,
      "Ġpossess": 5660,
      "nces": 5661,
      "ĠOld": 5662,
      "Ġwest": 5663,
      "Ġnucle": 5664,
      "osoph": 5665,
      "osystem": 5666,
      "SS": 5667,
      "Ġdatabase": 5668,
      "Ġinput": 5669,
      "Ġtrends": 5670,
      "Ġworry": 5671,
      "iors": 5672,
      "Ġven": 5673,
      "ĠSecurity": 5674,
      "Ġoutcomes": 5675,
      "Ġbeat": 5676,
      "isher": 5677,
      "ĠâĢ¦": 5678,
      "ĠBoth": 5679,
      "Ġwhom": 5680,
      "ĠLike": 5681,
      "related": 5682,
      "Ġfell": 5683,
      "cers": 5684,
      "den": 5685,
      "Ġmail": 5686,
      "pected": 5687,
      "Ġdetermined": 5688,
      "Ġworldwide": 5689,
      "ĠData": 5690,
      "Ġgirls": 5691,
      "Ġdifferences": 5692,
      "Ġfamiliar": 5693,
      "Ġopinions": 5694,
      "no": 5695,
      "Ġdish": 5696,
      "Ġroles": 5697,
      "fortunately": 5698,
      "nesday": 5699,
      "Ġmut": 5700,
      "ĠToday": 5701,
      "Ġur": 5702,
      "Ġneighborhood": 5703,
      "Ð°": 5704,
      "Ġapps": 5705,
      "Ġ2001": 5706,
      "astern": 5707,
      "Ġfounded": 5708,
      "ĠTechnology": 5709,
      "Ġwealth": 5710,
      "ĠAnother": 5711,
      "arian": 5712,
      "ĠTre": 5713,
      "ĠLight": 5714,
      "Ġmeal": 5715,
      "igration": 5716,
      "ĠTwo": 5717,
      "Ġregistered": 5718,
      "rid": 5719,
      "Ġproceed": 5720,
      "Ġevol": 5721,
      "Ġphotograph": 5722,
      "Ġaid": 5723,
      "Ġadministration": 5724,
      "iled": 5725,
      "Ġfantastic": 5726,
      "Ġeast": 5727,
      "New": 5728,
      "Ġ(\"": 5729,
      "Ġspons": 5730,
      "Ġcategory": 5731,
      "Ġaccident": 5732,
      ");": 5733,
      "Ġseemed": 5734,
      "Ġprotein": 5735,
      "Ġbusy": 5736,
      "Ġcarried": 5737,
      "ĠSpecial": 5738,
      "ii": 5739,
      "rance": 5740,
      "ste": 5741,
      "ĠImp": 5742,
      "ĠThomas": 5743,
      "Ġconservation": 5744,
      "Ġtrend": 5745,
      "Ġlighting": 5746,
      "Ġinterior": 5747,
      "ĠLos": 5748,
      "Ġconsequences": 5749,
      "Can": 5750,
      "col": 5751,
      "Ġinformed": 5752,
      "Ġseconds": 5753,
      "Ġinnovation": 5754,
      "Ġemergency": 5755,
      "Ġscript": 5756,
      "lines": 5757,
      "ĠDen": 5758,
      "ĠClick": 5759,
      "gage": 5760,
      "Ġsam": 5761,
      "ĠOper": 5762,
      "Ġtransition": 5763,
      "west": 5764,
      "orter": 5765,
      "arliam": 5766,
      "erg": 5767,
      "arrant": 5768,
      "ensity": 5769,
      "ĠSar": 5770,
      "quality": 5771,
      "Ġresolution": 5772,
      "Ġresulting": 5773,
      "Ġsides": 5774,
      "Ġautomatically": 5775,
      "34": 5776,
      "ibilities": 5777,
      "Ġsustainability": 5778,
      "Ġconsumer": 5779,
      "Ġupper": 5780,
      "Ġguitar": 5781,
      "Ġbelieved": 5782,
      "Ġbon": 5783,
      "ingu": 5784,
      "Ġfourth": 5785,
      "Ġaccounts": 5786,
      "36": 5787,
      "Ġlandscape": 5788,
      "CH": 5789,
      "Ġenable": 5790,
      "Ġelectronic": 5791,
      "Ġcontrast": 5792,
      "ĠUN": 5793,
      "Ġtrib": 5794,
      "ĠFestival": 5795,
      "Ġfro": 5796,
      "Ġbelong": 5797,
      "Ġsettings": 5798,
      "cher": 5799,
      "ĠBeach": 5800,
      "Ġflowers": 5801,
      "Ġstated": 5802,
      "ĠAM": 5803,
      "Ġknows": 5804,
      "She": 5805,
      "Ġbot": 5806,
      "otic": 5807,
      "Ġdistinct": 5808,
      "Ġaudio": 5809,
      "Ġdepth": 5810,
      "ĠCall": 5811,
      "aks": 5812,
      "Ġcovers": 5813,
      "ivered": 5814,
      "Ġju": 5815,
      "Ġpollution": 5816,
      "iat": 5817,
      "Ġdiss": 5818,
      "rition": 5819,
      "Some": 5820,
      "Ġrecovery": 5821,
      "ĠCast": 5822,
      "Ġstructures": 5823,
      "ĠParis": 5824,
      "kin": 5825,
      "Ġinterp": 5826,
      "can": 5827,
      "Ġsigns": 5828,
      "Ġfeelings": 5829,
      "Ġban": 5830,
      "ĠArab": 5831,
      "ĠThursday": 5832,
      "ĠThrough": 5833,
      "arliament": 5834,
      "zil": 5835,
      "Ġtests": 5836,
      "Ġtaught": 5837,
      "ĠPM": 5838,
      "ĠPay": 5839,
      "Ġfaster": 5840,
      "Ġthemes": 5841,
      "Ġobl": 5842,
      "Ġfle": 5843,
      "Ġquiet": 5844,
      "Ġsignal": 5845,
      "aid": 5846,
      "ĠTuesday": 5847,
      "iminal": 5848,
      "Ġexposure": 5849,
      "Ġexcess": 5850,
      "ĠCard": 5851,
      "Ġputting": 5852,
      "erts": 5853,
      "umes": 5854,
      "ĠStand": 5855,
      "Ġlabel": 5856,
      "iner": 5857,
      "Ġnearby": 5858,
      "Ġsettle": 5859,
      "Ġvul": 5860,
      "liance": 5861,
      "Ġatmosphere": 5862,
      "Ġkilled": 5863,
      "oker": 5864,
      "Ġarts": 5865,
      "Ġdoors": 5866,
      "Ġsimpl": 5867,
      "Another": 5868,
      "ĠSecond": 5869,
      "mal": 5870,
      "Ġdump": 5871,
      "Ġdim": 5872,
      "ĠCO": 5873,
      "Ġguess": 5874,
      "Ġlights": 5875,
      "!!!": 5876,
      "aser": 5877,
      "ĠBack": 5878,
      "ĠVictor": 5879,
      "Ġsuit": 5880,
      "Ġdeals": 5881,
      "Ġourselves": 5882,
      "Ġsessions": 5883,
      "igr": 5884,
      "Ġidentified": 5885,
      "Ġremoved": 5886,
      "Ġlibrary": 5887,
      "ĠEnd": 5888,
      "Ġsyn": 5889,
      "Ġecosystem": 5890,
      "Ġforced": 5891,
      "RO": 5892,
      "ĠIndust": 5893,
      "ĠPeter": 5894,
      "Ġfailure": 5895,
      "95": 5896,
      "pass": 5897,
      "Ġemissions": 5898,
      "Ġvolume": 5899,
      "Ġacid": 5900,
      "Ġequal": 5901,
      "Ġpriorit": 5902,
      "Ġwouldn": 5903,
      "Ġfavour": 5904,
      "Ġfeels": 5905,
      "ĠAC": 5906,
      "Ġholding": 5907,
      "ias": 5908,
      "Ġremaining": 5909,
      "Ġongoing": 5910,
      "ĠLead": 5911,
      "Ġwalls": 5912,
      "Ġchosen": 5913,
      "Ġhouses": 5914,
      "Ġconversation": 5915,
      "Ġcolon": 5916,
      "cript": 5917,
      "Ġtrading": 5918,
      "ĠGames": 5919,
      "Ġunless": 5920,
      "Ġensuring": 5921,
      "Ġfif": 5922,
      "Ġfort": 5923,
      "holders": 5924,
      "osit": 5925,
      "Ġspaces": 5926,
      "Ġ45": 5927,
      "nament": 5928,
      "rite": 5929,
      "Ġton": 5930,
      "how": 5931,
      "Ġadvis": 5932,
      "Ġofficials": 5933,
      "Ġcircumst": 5934,
      "obe": 5935,
      "nergy": 5936,
      "ĠIll": 5937,
      "ĠProduct": 5938,
      "Ġrural": 5939,
      "Ġdiam": 5940,
      "ĠKeep": 5941,
      "Ġimplementation": 5942,
      "Ġbreath": 5943,
      "Ġdrivers": 5944,
      "ĠRussia": 5945,
      "ker": 5946,
      "prise": 5947,
      "ait": 5948,
      "gia": 5949,
      "zen": 5950,
      "Ġshipping": 5951,
      "LC": 5952,
      "Ġcultures": 5953,
      "Ġbirths": 5954,
      "Ġfrequently": 5955,
      "Ġmeat": 5956,
      "ansion": 5957,
      "ĠCre": 5958,
      "cknow": 5959,
      "Ġmonitor": 5960,
      "Ġoriginally": 5961,
      "Ġbike": 5962,
      "Ġring": 5963,
      "Ġguidance": 5964,
      "ban": 5965,
      "omet": 5966,
      "ĠLong": 5967,
      "Ġdesire": 5968,
      "Ġexpectations": 5969,
      "Ġpositions": 5970,
      "which": 5971,
      "IA": 5972,
      "Ġtun": 5973,
      "Ġdecades": 5974,
      "ĠKingdom": 5975,
      "Ġweap": 5976,
      "Ġjoy": 5977,
      "!\"": 5978,
      "ĠFood": 5979,
      "lo": 5980,
      "Ġcrew": 5981,
      "Ġincl": 5982,
      "Ġlayer": 5983,
      "SA": 5984,
      "ĠMedia": 5985,
      "Ġwriters": 5986,
      "under": 5987,
      "ighter": 5988,
      "ĠMicrosoft": 5989,
      "Ġtrained": 5990,
      "ĠUl": 5991,
      "ĠTwitter": 5992,
      "ament": 5993,
      "oster": 5994,
      "Ġbasket": 5995,
      "Ġrelatively": 5996,
      "Ġoccasion": 5997,
      "Ġliqu": 5998,
      "Ġcommunicate": 5999,
      "ĠWednesday": 6000,
      "Ġkid": 6001,
      "Ġoutput": 6002,
      "Ġburn": 6003,
      "Ġdelivered": 6004,
      "while": 6005,
      "Ġrub": 6006,
      "ĠEnter": 6007,
      "ĠID": 6008,
      "ĠPac": 6009,
      "Thanks": 6010,
      "Ġspeech": 6011,
      "making": 6012,
      "Ġwidely": 6013,
      "fulness": 6014,
      "ĠHaw": 6015,
      "ĠMedical": 6016,
      "ĠStart": 6017,
      "Ġliterature": 6018,
      "flow": 6019,
      "ĠDi": 6020,
      "Ġagencies": 6021,
      "print": 6022,
      "Ġbutter": 6023,
      "Ġmode": 6024,
      "Ġimprovement": 6025,
      "Ġfasc": 6026,
      "Ġfailed": 6027,
      "Ġsevere": 6028,
      "Ġdescription": 6029,
      "ĠCas": 6030,
      "ĠBas": 6031,
      "Ġfestival": 6032,
      "Ġsex": 6033,
      "Ġscholars": 6034,
      "Ġupl": 6035,
      "list": 6036,
      "Ġvictim": 6037,
      "inating": 6038,
      "Ġassign": 6039,
      "Ġawesome": 6040,
      "Ġstudio": 6041,
      "ĠOl": 6042,
      "Ġfulf": 6043,
      "uration": 6044,
      "ĠTax": 6045,
      "ĠLab": 6046,
      "Ġkill": 6047,
      "ĠAdv": 6048,
      "gu": 6049,
      "Ġshut": 6050,
      "Ġserves": 6051,
      "ĠLo": 6052,
      "Ġsuggestions": 6053,
      "Ġprocedures": 6054,
      "Ġreplaced": 6055,
      "athy": 6056,
      "Ġconver": 6057,
      "Ġregister": 6058,
      "Ġinsights": 6059,
      "Ġconsidering": 6060,
      "66": 6061,
      "faction": 6062,
      "ĠTO": 6063,
      "Ġped": 6064,
      "ĠReal": 6065,
      "Ġglad": 6066,
      "Ġrecognized": 6067,
      "race": 6068,
      "Ġregional": 6069,
      "reens": 6070,
      "Ġweak": 6071,
      "Ġguys": 6072,
      "Ġcheese": 6073,
      "39": 6074,
      "Ġperman": 6075,
      "Ġapproved": 6076,
      "Ġmaintaining": 6077,
      "Ġlifestyle": 6078,
      "itt": 6079,
      "Ġsubmit": 6080,
      "orge": 6081,
      "Ġhearing": 6082,
      "ĠTri": 6083,
      "Ġnative": 6084,
      "Ġagg": 6085,
      "ran": 6086,
      "\")": 6087,
      "Ġcarefully": 6088,
      "Ġlovely": 6089,
      "ĠDig": 6090,
      "ĠGen": 6091,
      "Ġpil": 6092,
      "opy": 6093,
      "ĠReview": 6094,
      "Ġobjects": 6095,
      "From": 6096,
      "Ġfishing": 6097,
      "Ġfly": 6098,
      "utch": 6099,
      "Ġsalt": 6100,
      "Ġbringing": 6101,
      "Ġforg": 6102,
      "Ġclothing": 6103,
      "Ġuns": 6104,
      "td": 6105,
      "77": 6106,
      "ownt": 6107,
      "85": 6108,
      "Sp": 6109,
      "va": 6110,
      "Ġsample": 6111,
      "Ġnoted": 6112,
      "Ġmountain": 6113,
      "Ġgrade": 6114,
      "ushed": 6115,
      "Ġarrived": 6116,
      "Ġsac": 6117,
      "Ġsupplies": 6118,
      "Ġconstantly": 6119,
      "Ġreform": 6120,
      "Ġfacing": 6121,
      "cohol": 6122,
      "Ġ1999": 6123,
      "Ġaircraft": 6124,
      "Ġprivacy": 6125,
      "ĠDou": 6126,
      "Ġguarantee": 6127,
      "Ġsuc": 6128,
      "Ġhousehold": 6129,
      "Ġbowl": 6130,
      "hand": 6131,
      "Ġcooper": 6132,
      "Ġâ": 6133,
      "ĠWord": 6134,
      "Ġorganized": 6135,
      "ora": 6136,
      "ĠInformation": 6137,
      "Ġrealize": 6138,
      "ĠSeries": 6139,
      "Ġleague": 6140,
      "ĠVirginia": 6141,
      "LA": 6142,
      "Ġgenerate": 6143,
      "hem": 6144,
      "Ġextended": 6145,
      "gorith": 6146,
      "anda": 6147,
      "aked": 6148,
      "Ġeditor": 6149,
      "Ġmanaging": 6150,
      "ĠShow": 6151,
      "Ġprospect": 6152,
      "Ġtight": 6153,
      "Ġsurf": 6154,
      "Ġbridge": 6155,
      "Ġsubsequ": 6156,
      "umni": 6157,
      "Ġpossibly": 6158,
      "Ġethical": 6159,
      "abled": 6160,
      "asts": 6161,
      "Ġcomplic": 6162,
      "Ġpurchased": 6163,
      "Ġrecognize": 6164,
      "Ġathlet": 6165,
      "rome": 6166,
      "ĠCy": 6167,
      "Ġawarded": 6168,
      "acks": 6169,
      "ĠMartin": 6170,
      "ĠIre": 6171,
      "Ġagent": 6172,
      "Ġflavor": 6173,
      "Ġwal": 6174,
      "Ġdie": 6175,
      "unicip": 6176,
      "what": 6177,
      "arrow": 6178,
      "usher": 6179,
      "Ġbreakfast": 6180,
      "Ġcrop": 6181,
      "Ġicon": 6182,
      "Ġexternal": 6183,
      "Ġfeaturing": 6184,
      "Ġmessages": 6185,
      "Ġfitness": 6186,
      "nic": 6187,
      "ĠWal": 6188,
      "Ġholds": 6189,
      "Ġemployment": 6190,
      "unting": 6191,
      "ĠSwed": 6192,
      "Ġcandidates": 6193,
      "Ġconsistent": 6194,
      "ears": 6195,
      "ĠNetwork": 6196,
      "Ġsurgery": 6197,
      "rates": 6198,
      "Ġpu": 6199,
      "hus": 6200,
      "Ġstake": 6201,
      "Ġstanding": 6202,
      "Ġpaying": 6203,
      "etime": 6204,
      "Ġgro": 6205,
      "Ġanywhere": 6206,
      "Ġchicken": 6207,
      "Ġasking": 6208,
      "Ġresearchers": 6209,
      "ĠHead": 6210,
      "Ġdirected": 6211,
      "luding": 6212,
      "Ġstream": 6213,
      "Ġfreedom": 6214,
      "Ġgrew": 6215,
      "Ġstars": 6216,
      "ĠWay": 6217,
      "Ġcampaigns": 6218,
      "ĠAT": 6219,
      "Ġcommission": 6220,
      "oral": 6221,
      "Ġgreatest": 6222,
      "profit": 6223,
      "Ġinstrument": 6224,
      "37": 6225,
      "Ġmedicine": 6226,
      "hors": 6227,
      "Ġacknow": 6228,
      "Ġmonitoring": 6229,
      "Ġwinner": 6230,
      "Ġ?": 6231,
      "ato": 6232,
      "ĠMiddle": 6233,
      "bur": 6234,
      "Ġentreprene": 6235,
      "Ġvital": 6236,
      "GB": 6237,
      "anged": 6238,
      "Ġ1980": 6239,
      "ĠOF": 6240,
      "Ġreceiving": 6241,
      "Ġran": 6242,
      "Ġkm": 6243,
      "Ġinspiration": 6244,
      "uts": 6245,
      "ican": 6246,
      "ially": 6247,
      "Ġcalling": 6248,
      "Ġalt": 6249,
      "ĠFollow": 6250,
      "ĠTest": 6251,
      "Ġspeaking": 6252,
      "Ġsucceed": 6253,
      "FL": 6254,
      "ĠTherefore": 6255,
      "Ġelected": 6256,
      "Why": 6257,
      "Ġportion": 6258,
      "Ġpun": 6259,
      "Ġplanned": 6260,
      "ĠTim": 6261,
      "Ġvulner": 6262,
      "oston": 6263,
      "Ġprotected": 6264,
      "Ġpresentation": 6265,
      "Ġnetworks": 6266,
      "ersey": 6267,
      "Ġsole": 6268,
      "Bl": 6269,
      "Ġreplacement": 6270,
      "Ġroot": 6271,
      "Ġlock": 6272,
      "ĠGal": 6273,
      "Ġmovies": 6274,
      ":-": 6275,
      "ĠWhether": 6276,
      "Ġimpressive": 6277,
      "Ġmeditation": 6278,
      "47": 6279,
      "Ġplanet": 6280,
      "Ġrental": 6281,
      "asters": 6282,
      "wing": 6283,
      "Ġexperiment": 6284,
      "Ġtotally": 6285,
      "Ġtro": 6286,
      "Ġexpression": 6287,
      "ĠIP": 6288,
      "anges": 6289,
      "Ġpasseng": 6290,
      "Ġdogs": 6291,
      "Ġrom": 6292,
      "Ġprocedure": 6293,
      "ga": 6294,
      "38": 6295,
      "ĠFoot": 6296,
      "Ġskill": 6297,
      "Ġchat": 6298,
      "Ġfrag": 6299,
      "ĠSaf": 6300,
      "ĠMen": 6301,
      "Ġsitting": 6302,
      "IF": 6303,
      "Ġocean": 6304,
      "ĠCorpor": 6305,
      "ĠScot": 6306,
      "ĠConference": 6307,
      "ĠCatholic": 6308,
      "ĠHon": 6309,
      "Ġnarr": 6310,
      "Ġremained": 6311,
      "Ġrein": 6312,
      "Ġcompos": 6313,
      "orney": 6314,
      "Ġsupports": 6315,
      "ĠAngeles": 6316,
      "Ġheight": 6317,
      "Ġprompt": 6318,
      "Ġsoul": 6319,
      "Ġdishes": 6320,
      "Ġmixed": 6321,
      "bal": 6322,
      "Ġboat": 6323,
      "Ġmilk": 6324,
      "Ġcutting": 6325,
      "Ġmoist": 6326,
      "rum": 6327,
      "Ġyellow": 6328,
      "Thank": 6329,
      "Ġguest": 6330,
      "Sc": 6331,
      "ava": 6332,
      "Ġsauce": 6333,
      "Ġfoundation": 6334,
      "met": 6335,
      "Ġthorough": 6336,
      "ev": 6337,
      "Ġrealized": 6338,
      "Ġparking": 6339,
      "xy": 6340,
      "Ġcorresp": 6341,
      "Ġentertainment": 6342,
      "Ġfacilit": 6343,
      "Ġentered": 6344,
      "Ġsilver": 6345,
      "Ġviolence": 6346,
      "Ġtough": 6347,
      "Ġvoc": 6348,
      "Ġchannel": 6349,
      "ĠIde": 6350,
      "emic": 6351,
      "ĠNY": 6352,
      "ĠSand": 6353,
      "Ġdeploy": 6354,
      "ixture": 6355,
      "Ġbegins": 6356,
      "Ġedition": 6357,
      "ĠFamily": 6358,
      "ĠEconom": 6359,
      "Ġvit": 6360,
      "Ġunf": 6361,
      "Ġclosely": 6362,
      "ĠFind": 6363,
      "kins": 6364,
      "ĠExt": 6365,
      "Ġgrown": 6366,
      "Ġaccepted": 6367,
      "Ġissued": 6368,
      "ulpt": 6369,
      "Ġagreed": 6370,
      "ĠCross": 6371,
      "ĠJud": 6372,
      "Ġoperate": 6373,
      "ĠBrazil": 6374,
      "Ġdefined": 6375,
      "Ġcrowd": 6376,
      "mond": 6377,
      "Ġnine": 6378,
      "Ġrevealed": 6379,
      "Ġmouth": 6380,
      "ogen": 6381,
      "Ġmoments": 6382,
      "Ġcompr": 6383,
      "Ġprinciples": 6384,
      "ao": 6385,
      "Ġorders": 6386,
      "Ġsizes": 6387,
      "Ġshift": 6388,
      "erves": 6389,
      "DF": 6390,
      "Ġcharges": 6391,
      "Ġcapable": 6392,
      "cont": 6393,
      "iations": 6394,
      "Ġsan": 6395,
      "Ġexecutive": 6396,
      "Ġterrit": 6397,
      "Ġmal": 6398,
      "Ġconvenient": 6399,
      "ani": 6400,
      "ĠCho": 6401,
      "Ġtables": 6402,
      "Ġguidelines": 6403,
      "ĠWild": 6404,
      "ĠRail": 6405,
      "fe": 6406,
      "ĠBal": 6407,
      "Ġconv": 6408,
      "Ġchocolate": 6409,
      "Ġbroken": 6410,
      "ĠCharles": 6411,
      "Ġrestrict": 6412,
      "stone": 6413,
      "ĠPenn": 6414,
      "48": 6415,
      "ĠInvest": 6416,
      "Ġelev": 6417,
      "ura": 6418,
      "Ġherself": 6419,
      "Ġconfirm": 6420,
      "49": 6421,
      "Ġalgorith": 6422,
      "Ġast": 6423,
      "ternoon": 6424,
      "Ġfixed": 6425,
      "but": 6426,
      "Ġwheel": 6427,
      "Ġmining": 6428,
      "Ġclinical": 6429,
      "ĠVer": 6430,
      "Ġappointed": 6431,
      "Ġlunch": 6432,
      "ĠSoft": 6433,
      "En": 6434,
      "ĠĊ": 6435,
      "ographic": 6436,
      "Ġsister": 6437,
      "ĠIslam": 6438,
      "Ġvast": 6439,
      "ella": 6440,
      "weight": 6441,
      "Ġjew": 6442,
      "Ġdomain": 6443,
      "ĠSecret": 6444,
      "ĠIreland": 6445,
      "Ġchief": 6446,
      "Ġincredible": 6447,
      "Ġdraft": 6448,
      "Ġauthority": 6449,
      "Ġcreates": 6450,
      "Ġknowing": 6451,
      "unior": 6452,
      "Ġcommonly": 6453,
      "Ġpublish": 6454,
      "Ġcircumstances": 6455,
      "Ġwarrant": 6456,
      "ĠMach": 6457,
      "Ġcausing": 6458,
      "Ġmachines": 6459,
      "Ġdivid": 6460,
      "Ġalign": 6461,
      "Ġkick": 6462,
      "Ġmeetings": 6463,
      "SP": 6464,
      "Ġstunning": 6465,
      "ĠExper": 6466,
      "Ġprepar": 6467,
      "Ġtickets": 6468,
      "ocket": 6469,
      "Ġ1998": 6470,
      "Ġlistening": 6471,
      "Ġappointment": 6472,
      "zer": 6473,
      "Ġinfluenced": 6474,
      "Ġvir": 6475,
      "orable": 6476,
      "Ġentirely": 6477,
      "Americ": 6478,
      "ĠInstead": 6479,
      "Ġmine": 6480,
      "Ġmanual": 6481,
      "Ġbread": 6482,
      "Ġpreferences": 6483,
      "ĠConf": 6484,
      "Ġ1970": 6485,
      "Ġmainly": 6486,
      "Ġretire": 6487,
      "Ġreputation": 6488,
      "Ġwitness": 6489,
      "Ġnor": 6490,
      "Ġattacks": 6491,
      "Ġincreasingly": 6492,
      "mail": 6493,
      "Ġends": 6494,
      "ĠAmericans": 6495,
      "Ġframew": 6496,
      "ĠHuman": 6497,
      "Ġengaged": 6498,
      "Ġprofit": 6499,
      "Ġofficers": 6500,
      "Ġdiscl": 6501,
      "Ġsaving": 6502,
      "ĠEnergy": 6503,
      "obby": 6504,
      "Ġextend": 6505,
      "Ġexercises": 6506,
      "Ġsusp": 6507,
      "eries": 6508,
      "Ġcapture": 6509,
      "Ġwid": 6510,
      "Ġflood": 6511,
      "Ġresistance": 6512,
      "ĠMP": 6513,
      "Ġdepression": 6514,
      "igenous": 6515,
      "Ġchoosing": 6516,
      "Ġtourism": 6517,
      "Ġflexible": 6518,
      "Ġfilter": 6519,
      "Ġcrime": 6520,
      "Ġtreated": 6521,
      "Ġcycle": 6522,
      "Ġpremium": 6523,
      "oom": 6524,
      "Ġ*": 6525,
      "Ġluxury": 6526,
      "Res": 6527,
      "ĠBoston": 6528,
      "ĠFund": 6529,
      "Ġplate": 6530,
      "Ġdangerous": 6531,
      "ĠId": 6532,
      "resents": 6533,
      "Ġtut": 6534,
      "ĠCarolina": 6535,
      "iary": 6536,
      "uke": 6537,
      "ĠWho": 6538,
      "Ġauto": 6539,
      "Ġreduction": 6540,
      "Ġtack": 6541,
      "Ġpure": 6542,
      "Ġshares": 6543,
      "Ġinterpret": 6544,
      "ĠItaly": 6545,
      "Ġillness": 6546,
      "Ġtwice": 6547,
      "Ġlicense": 6548,
      "Ġcandidate": 6549,
      "ÂŃ": 6550,
      "Ġkinds": 6551,
      "Le": 6552,
      "Ġcriminal": 6553,
      "Ġconsumption": 6554,
      "ĠEmp": 6555,
      "Ġreferred": 6556,
      "Ġben": 6557,
      "osc": 6558,
      "Ġrecognition": 6559,
      "iments": 6560,
      "opped": 6561,
      "Ġmassive": 6562,
      "Ġchampions": 6563,
      "Ġrough": 6564,
      "Ġneck": 6565,
      "ĠStr": 6566,
      "Ġmuscle": 6567,
      "Ġaccomp": 6568,
      "Ġintelligence": 6569,
      "Ġachieved": 6570,
      "Ġintegrated": 6571,
      "ĠAwards": 6572,
      "Ġattended": 6573,
      "Ġmonthly": 6574,
      "ĠSupport": 6575,
      "alle": 6576,
      "TA": 6577,
      "Ġannounce": 6578,
      "ĠLibrary": 6579,
      "Ġpolitics": 6580,
      "Ġprimarily": 6581,
      "inally": 6582,
      "gs": 6583,
      "yan": 6584,
      "lete": 6585,
      "irmed": 6586,
      "Ġlanguages": 6587,
      "bra": 6588,
      "kes": 6589,
      "TH": 6590,
      "ĠAL": 6591,
      "Ġofficer": 6592,
      "Acc": 6593,
      "ĠColumb": 6594,
      "Ġdegrees": 6595,
      "ĠCould": 6596,
      "ĠCult": 6597,
      "ĠJim": 6598,
      "Just": 6599,
      "look": 6600,
      "Ġwet": 6601,
      "Ġhyp": 6602,
      "ĠJewish": 6603,
      "inder": 6604,
      "inate": 6605,
      "Ġcaught": 6606,
      "ĠAp": 6607,
      "Ġdeaths": 6608,
      "Ġtone": 6609,
      "Ġrepresents": 6610,
      "ĠHotel": 6611,
      "iking": 6612,
      "Ġperfectly": 6613,
      "Ġqualified": 6614,
      "46": 6615,
      "hire": 6616,
      "Ġtrig": 6617,
      "ĠPrem": 6618,
      "Ġtiss": 6619,
      "Ġflag": 6620,
      "Ġease": 6621,
      "Ġmatters": 6622,
      "lights": 6623,
      "inent": 6624,
      "ospit": 6625,
      "Once": 6626,
      "Ġteeth": 6627,
      "Ġlicens": 6628,
      "ĠYoung": 6629,
      "achel": 6630,
      "Ġinvestors": 6631,
      "ĠConnect": 6632,
      "Ġsubstant": 6633,
      "Ġstations": 6634,
      "ĠCharl": 6635,
      "Ġstruggle": 6636,
      "Ġdefense": 6637,
      "ideo": 6638,
      "Ġtracks": 6639,
      "Ġregistration": 6640,
      "Ġobst": 6641,
      "Ġhundreds": 6642,
      "Ġtreatments": 6643,
      "Ġhire": 6644,
      "iano": 6645,
      "Ġavailability": 6646,
      "Ġconcerned": 6647,
      "Ġsuggested": 6648,
      "ĠLtd": 6649,
      "Ġearned": 6650,
      "Ġ2022": 6651,
      "ĠNov": 6652,
      "Ġfigures": 6653,
      "Ġcloser": 6654,
      "ĠBefore": 6655,
      "Ġobtained": 6656,
      "ossible": 6657,
      "Ġphilosoph": 6658,
      "riers": 6659,
      "Ġsearching": 6660,
      "Ġcrisis": 6661,
      "real": 6662,
      "Ġ300": 6663,
      "Ġassessment": 6664,
      "Ġ1996": 6665,
      "Ġinterface": 6666,
      "Ġpartnership": 6667,
      "och": 6668,
      "ansas": 6669,
      "Ġbirthday": 6670,
      "Ġchannels": 6671,
      "Ġdiseases": 6672,
      "heast": 6673,
      "eller": 6674,
      "Ġassum": 6675,
      "ĠMax": 6676,
      "ocated": 6677,
      "Ġcollected": 6678,
      "merce": 6679,
      "Ġadventure": 6680,
      "Ġrecyc": 6681,
      "Ġdoubt": 6682,
      "agues": 6683,
      "ĠTrust": 6684,
      "IR": 6685,
      "Ġformal": 6686,
      "Ġconnections": 6687,
      "Ġeveryday": 6688,
      "Ġ1997": 6689,
      "Ġ>": 6690,
      "ĠSpain": 6691,
      "Are": 6692,
      "Ġaffil": 6693,
      "App": 6694,
      "rich": 6695,
      "ĠHD": 6696,
      "Ġscored": 6697,
      "Ġprison": 6698,
      "Ġmovements": 6699,
      "Ġ32": 6700,
      "Ġhumans": 6701,
      "ĠRichard": 6702,
      "active": 6703,
      "ĠAND": 6704,
      "Ġcorn": 6705,
      "ĠBoy": 6706,
      "Ġshoes": 6707,
      "Every": 6708,
      "uality": 6709,
      "ĠAndroid": 6710,
      "Ġafternoon": 6711,
      "Ġhardware": 6712,
      "ĠCoast": 6713,
      "Ġdestination": 6714,
      "Ġphase": 6715,
      "Ġconcrete": 6716,
      "Ġreporting": 6717,
      "Ġtypical": 6718,
      "Ġattrib": 6719,
      "Ġsatisfaction": 6720,
      "Ġarrest": 6721,
      "Ġcampus": 6722,
      "lers": 6723,
      "31": 6724,
      "Ġcelebrate": 6725,
      "Ġdating": 6726,
      "agra": 6727,
      "Ġperforming": 6728,
      "Ġusage": 6729,
      "Ġexclusive": 6730,
      "Me": 6731,
      "anes": 6732,
      "ĠAud": 6733,
      "Ġassets": 6734,
      "Ġpayments": 6735,
      "Ġmagazine": 6736,
      "Ġera": 6737,
      "Ġgovernments": 6738,
      "Ġovercome": 6739,
      "abet": 6740,
      "Ġproductivity": 6741,
      "Ġelig": 6742,
      "Not": 6743,
      "Ġinfo": 6744,
      "oup": 6745,
      "Ġvs": 6746,
      "Ġturns": 6747,
      "ĠSouthern": 6748,
      "Ġbirds": 6749,
      "fa": 6750,
      "Ġmarriage": 6751,
      "appy": 6752,
      "ĠCode": 6753,
      "Ġenforce": 6754,
      "Ġrecording": 6755,
      "Ġlinked": 6756,
      "ĠMid": 6757,
      "ĠMichigan": 6758,
      "ĠPhilipp": 6759,
      "Ġclassroom": 6760,
      "Se": 6761,
      "Ġsky": 6762,
      "inem": 6763,
      "ĠTimes": 6764,
      "Ġunable": 6765,
      "Ġteen": 6766,
      "89": 6767,
      "Ġsuggests": 6768,
      "ĠSports": 6769,
      "Ġgrass": 6770,
      "iana": 6771,
      "Ġcomponent": 6772,
      "ĠEp": 6773,
      "Ġfaculty": 6774,
      "ether": 6775,
      "ĠCEO": 6776,
      "awa": 6777,
      "Com": 6778,
      "Ġalcohol": 6779,
      "Ġimplementing": 6780,
      "Ġreasonable": 6781,
      "Ġisol": 6782,
      "ĠAdminist": 6783,
      "Ġgear": 6784,
      "ĠHospital": 6785,
      "ĠNorthern": 6786,
      "Ġfrust": 6787,
      "Ġstorm": 6788,
      "Ġstretch": 6789,
      "class": 6790,
      "Ġintroduction": 6791,
      "ĠGlobal": 6792,
      "Ġfest": 6793,
      "icket": 6794,
      "Ġhonor": 6795,
      "Ġtells": 6796,
      "yard": 6797,
      "ilst": 6798,
      "ĠEr": 6799,
      "irms": 6800,
      "Ġhero": 6801,
      "Ġspr": 6802,
      "ĠPract": 6803,
      "Ġupcoming": 6804,
      "ĠChair": 6805,
      "Ġdebut": 6806,
      "ĠChief": 6807,
      "Ġinvestigation": 6808,
      "ĠDev": 6809,
      "ĠPlus": 6810,
      "Ġcompens": 6811,
      "Ġturning": 6812,
      "Ġconstant": 6813,
      "Ġcontest": 6814,
      "Ġincent": 6815,
      "ĠChampionship": 6816,
      "irty": 6817,
      "ulous": 6818,
      "alled": 6819,
      "Ġdescribe": 6820,
      "cking": 6821,
      "whel": 6822,
      "Ġlosing": 6823,
      "Ġpod": 6824,
      "ĠFederal": 6825,
      "Ġrug": 6826,
      "Ġclar": 6827,
      "Ġdomestic": 6828,
      "OC": 6829,
      "ndom": 6830,
      "ĠGame": 6831,
      "una": 6832,
      "ĠKent": 6833,
      "ingly": 6834,
      "Ġrear": 6835,
      "Ġerr": 6836,
      "Ġfarmers": 6837,
      "Ġscheduled": 6838,
      "host": 6839,
      "Ġadm": 6840,
      "ĠOnly": 6841,
      "Ġlessons": 6842,
      "ĠCarl": 6843,
      "SE": 6844,
      "bi": 6845,
      "lock": 6846,
      "Ġalongside": 6847,
      "PR": 6848,
      "Ġfollows": 6849,
      "%.": 6850,
      "Ġapparent": 6851,
      "rence": 6852,
      "rency": 6853,
      "Ġcounty": 6854,
      "date": 6855,
      "ione": 6856,
      "isters": 6857,
      "Ġauthorities": 6858,
      "Ġequipped": 6859,
      "rations": 6860,
      "Ġpra": 6861,
      "ĠAff": 6862,
      "ĠGar": 6863,
      "Ġairport": 6864,
      "Ġmotion": 6865,
      "ye": 6866,
      "Ġpotentially": 6867,
      "Ġcorrespond": 6868,
      "Phone": 6869,
      "ĠVill": 6870,
      "Ġanswers": 6871,
      "Ġmatches": 6872,
      "Ġ1960": 6873,
      "Ġvegetables": 6874,
      "asp": 6875,
      "Ġsavings": 6876,
      "Ġyounger": 6877,
      "Ġbanks": 6878,
      "Ġrow": 6879,
      "ta": 6880,
      "ĠEU": 6881,
      "luded": 6882,
      "stra": 6883,
      "Ġdates": 6884,
      "Ġreward": 6885,
      "Ġeffectiveness": 6886,
      "Ġexpenses": 6887,
      "Ġdrugs": 6888,
      "64": 6889,
      "SC": 6890,
      "Ġmood": 6891,
      "Ġ2021": 6892,
      "ENT": 6893,
      "Ġtraditions": 6894,
      "ĠJohnson": 6895,
      "Ġinjuries": 6896,
      "Ġliber": 6897,
      "ĠUsing": 6898,
      "edia": 6899,
      "Ġsummary": 6900,
      "ĠPacific": 6901,
      "inity": 6902,
      "ĠForce": 6903,
      "ĠRest": 6904,
      "rans": 6905,
      "sm": 6906,
      "ardens": 6907,
      "zing": 6908,
      "onic": 6909,
      "Ġinner": 6910,
      "Ġversions": 6911,
      "Ġabsor": 6912,
      "Ġhall": 6913,
      "Ġnuclear": 6914,
      "Ġdesired": 6915,
      "Ġveter": 6916,
      "vy": 6917,
      "ditional": 6918,
      "Ġbigger": 6919,
      "Ġnoise": 6920,
      "Ġincreases": 6921,
      "ache": 6922,
      "Ġrice": 6923,
      "Ġtall": 6924,
      "67": 6925,
      "ĠOk": 6926,
      "ĠBed": 6927,
      "Ġenthus": 6928,
      "ĠÐ": 6929,
      "Ġclothes": 6930,
      "Ġsculpt": 6931,
      "Ġvictory": 6932,
      "Get": 6933,
      "ĠJeff": 6934,
      "net": 6935,
      "erving": 6936,
      "Ġpricing": 6937,
      "Ġestimated": 6938,
      "Ġrelief": 6939,
      "Ġguard": 6940,
      "Ġsight": 6941,
      "Ġthread": 6942,
      "ĠDisc": 6943,
      "Ġawards": 6944,
      "anger": 6945,
      "Ġbodies": 6946,
      "Ġcolumn": 6947,
      "gend": 6948,
      "Ġunlike": 6949,
      "Ġdefend": 6950,
      "dden": 6951,
      "Ġdollars": 6952,
      "ĠFilm": 6953,
      "ĠMur": 6954,
      "ĠJul": 6955,
      "ĠHistor": 6956,
      "Ġauthentic": 6957,
      "??": 6958,
      "Ġhistoric": 6959,
      "Ġstrategic": 6960,
      "ĠIrish": 6961,
      "Ġpregn": 6962,
      "stream": 6963,
      "Ġconfident": 6964,
      "ĠDownload": 6965,
      "uine": 6966,
      "ĠFarm": 6967,
      "Ġpursu": 6968,
      "Ġkeeps": 6969,
      "Ġincorporate": 6970,
      "Ġproducing": 6971,
      "Ġmob": 6972,
      "Ġagriculture": 6973,
      "ĠFrancisco": 6974,
      "Ġinn": 6975,
      "UT": 6976,
      "made": 6977,
      "ĠHa": 6978,
      "ĠCert": 6979,
      "ĠQueen": 6980,
      "¿½": 6981,
      "Ġinsight": 6982,
      "Go": 6983,
      "ĠKey": 6984,
      "Ġconvey": 6985,
      "Ġhosting": 6986,
      "Ġresidential": 6987,
      "Ġguy": 6988,
      "ï¿½": 6989,
      "Cont": 6990,
      "tics": 6991,
      "Ġapproaches": 6992,
      "ĠWalk": 6993,
      "ĠLive": 6994,
      "Ġrandom": 6995,
      "ĠFair": 6996,
      "Ġeleg": 6997,
      "ĠAR": 6998,
      "Ġjudge": 6999,
      "Ġhorse": 7000,
      "Ġreader": 7001,
      "Ġdynamic": 7002,
      "Ġfo": 7003,
      "Ġpowers": 7004,
      "ĠCA": 7005,
      "Ġru": 7006,
      "Ġinteractive": 7007,
      "ellect": 7008,
      "Ġreject": 7009,
      "ĠLast": 7010,
      "Ġcontributed": 7011,
      "Ġexploring": 7012,
      "Ġloyal": 7013,
      "ennis": 7014,
      "OP": 7015,
      "ĠLittle": 7016,
      "ĠChildren": 7017,
      "ĠHand": 7018,
      "ĠLook": 7019,
      "Ġenem": 7020,
      "ĠJones": 7021,
      "bits": 7022,
      "ĠPen": 7023,
      "reement": 7024,
      "Ġupload": 7025,
      "Ġnarrow": 7026,
      "Ġdivision": 7027,
      "Ġabilities": 7028,
      "Ġmanufacturer": 7029,
      "Ġborder": 7030,
      "Ġpenal": 7031,
      "ĠCivil": 7032,
      "Ġreturns": 7033,
      "Ġaims": 7034,
      "Ġvend": 7035,
      "ĠOrder": 7036,
      "ĠGreek": 7037,
      "Ġtank": 7038,
      "endar": 7039,
      "amm": 7040,
      "Ġcertified": 7041,
      "Yes": 7042,
      "ulf": 7043,
      "Ġconsists": 7044,
      "ushing": 7045,
      "Ġamounts": 7046,
      "Ġkit": 7047,
      "Ġsudden": 7048,
      "ĠKen": 7049,
      "Ġcommittee": 7050,
      "using": 7051,
      "cend": 7052,
      "Ġdesigner": 7053,
      "Ġarms": 7054,
      "ĠEnvironment": 7055,
      "Ġgolf": 7056,
      "ĠWrit": 7057,
      "Ġoverwhel": 7058,
      "OD": 7059,
      "Ġnoticed": 7060,
      "Ġcompare": 7061,
      "ĠDespite": 7062,
      "ĠSpring": 7063,
      "then": 7064,
      "Ġgent": 7065,
      "Ġalumni": 7066,
      "Ġpersonnel": 7067,
      "Ġmarine": 7068,
      "Ġpapers": 7069,
      "anguage": 7070,
      "Ġpin": 7071,
      "ĠAri": 7072,
      "ĠLine": 7073,
      "Ġwearing": 7074,
      "Ġseats": 7075,
      "vironments": 7076,
      "Ġbroadcast": 7077,
      "Ġstands": 7078,
      "Ġclimb": 7079,
      "Ġordered": 7080,
      "ĠDub": 7081,
      "ĠLiber": 7082,
      "ruption": 7083,
      "Ġdelay": 7084,
      "sing": 7085,
      "Ġdepends": 7086,
      "ieties": 7087,
      "worth": 7088,
      "ĠOhio": 7089,
      "state": 7090,
      "Ġ189": 7091,
      "ĠHenry": 7092,
      "Ġyes": 7093,
      "Ġinfect": 7094,
      "Ġcos": 7095,
      "ocation": 7096,
      "Ġheritage": 7097,
      "Ġperformances": 7098,
      "Ġwithd": 7099,
      "ĠEarly": 7100,
      "Ġintegration": 7101,
      "Ġfighting": 7102,
      "ĠPo": 7103,
      "Ġmanufacturers": 7104,
      "ati": 7105,
      "Ġcontributions": 7106,
      "Ġcouncil": 7107,
      "Ġdownt": 7108,
      "ĠAD": 7109,
      "Ġagents": 7110,
      "Ġ@": 7111,
      "ĠBang": 7112,
      "Ġmeals": 7113,
      "Ġsouthern": 7114,
      "Ġ48": 7115,
      "Ġcoup": 7116,
      "PC": 7117,
      "Ġmand": 7118,
      "othe": 7119,
      "otton": 7120,
      "Ġbless": 7121,
      "Ġsolve": 7122,
      "utional": 7123,
      "Ġoutstanding": 7124,
      "Ġsplit": 7125,
      "front": 7126,
      "makers": 7127,
      "icit": 7128,
      "ĠYOU": 7129,
      "ĠSea": 7130,
      "Ġimagine": 7131,
      "level": 7132,
      "Ġcake": 7133,
      "Ġcable": 7134,
      "uation": 7135,
      "Ġdeeper": 7136,
      "apping": 7137,
      "Step": 7138,
      "Ġindeed": 7139,
      "Ġdrawing": 7140,
      "Ġrevolution": 7141,
      "ĠBudd": 7142,
      "Ġodd": 7143,
      "orry": 7144,
      "osa": 7145,
      "ĠPlace": 7146,
      "Ġbeneficial": 7147,
      "Ġmir": 7148,
      "ĠKn": 7149,
      "Ġpharm": 7150,
      "Ġsensitive": 7151,
      "uten": 7152,
      "ĠCost": 7153,
      "imal": 7154,
      "Ġrely": 7155,
      "Ġmini": 7156,
      "ĠJersey": 7157,
      "Ġtrouble": 7158,
      "oted": 7159,
      "gypt": 7160,
      "hemat": 7161,
      "Ġfiled": 7162,
      "Ġtruck": 7163,
      "gent": 7164,
      "Ġadds": 7165,
      "Ġcharged": 7166,
      "ĠOverall": 7167,
      "ĠPoint": 7168,
      "ĠBow": 7169,
      "ĠWhere": 7170,
      "Ġnutri": 7171,
      "ila": 7172,
      "Ġbes": 7173,
      "ĠSup": 7174,
      "ĠLeg": 7175,
      "Ġstreets": 7176,
      "roduction": 7177,
      "ĠPak": 7178,
      "Ġgenerated": 7179,
      "Ġsufficient": 7180,
      "bury": 7181,
      "Ġsupposed": 7182,
      "Ġwildlife": 7183,
      "Ġsheet": 7184,
      "Ġpassing": 7185,
      "ĠIran": 7186,
      "Ġauthors": 7187,
      "arks": 7188,
      "Ġregardless": 7189,
      "Ġimmediate": 7190,
      "Ġcoc": 7191,
      "okes": 7192,
      "Ġapartment": 7193,
      "Ġterror": 7194,
      "ĠSanta": 7195,
      "Ġconfirmed": 7196,
      "bridge": 7197,
      "Ġrepresented": 7198,
      "she": 7199,
      "Ġhidden": 7200,
      "Let": 7201,
      "bles": 7202,
      "ĠKh": 7203,
      "liers": 7204,
      "Ġnormally": 7205,
      "Ġsurprise": 7206,
      "Ġdiscussed": 7207,
      "Ġnutrition": 7208,
      "ĠExec": 7209,
      "Ġcounsel": 7210,
      "Ġbags": 7211,
      "Ġalle": 7212,
      "ĠNon": 7213,
      "Ġtech": 7214,
      "Ġprogramme": 7215,
      "Ġpopulations": 7216,
      "Ġgod": 7217,
      "Ġleather": 7218,
      "ĠInstagram": 7219,
      "Ġstim": 7220,
      "ĠColl": 7221,
      "ĠGeorgia": 7222,
      "Ġfinance": 7223,
      "ĠEqu": 7224,
      "Ġspin": 7225,
      "Ġpersonally": 7226,
      "Ġhappening": 7227,
      "eling": 7228,
      "ĠTreat": 7229,
      "ĠVan": 7230,
      "Ġsynt": 7231,
      "Ġwestern": 7232,
      "ĠDie": 7233,
      "Ġgained": 7234,
      "Ġusual": 7235,
      "Ġpercentage": 7236,
      "Ġexceed": 7237,
      "Ġaccord": 7238,
      "isk": 7239,
      "Ġprogramming": 7240,
      "Ġdealing": 7241,
      "Ġfocusing": 7242,
      "ĠAsian": 7243,
      "Ġenvironments": 7244,
      "Ġ1995": 7245,
      "Ġaccomplish": 7246,
      "rovers": 7247,
      "Ġcreativity": 7248,
      "Ġliquid": 7249,
      "42": 7250,
      "Ġhip": 7251,
      "Ġincident": 7252,
      "Ġelectricity": 7253,
      "Ġattached": 7254,
      "Ġloans": 7255,
      "Ġpersonality": 7256,
      "car": 7257,
      "Ġletters": 7258,
      "Ġstopped": 7259,
      "Ġinitially": 7260,
      "MA": 7261,
      "Many": 7262,
      "ĠKorea": 7263,
      "Ġfellow": 7264,
      "ĠJoe": 7265,
      "ĠRecords": 7266,
      "UN": 7267,
      "ĠWin": 7268,
      "Ġmixture": 7269,
      "ĠLatin": 7270,
      "Ġsad": 7271,
      "First": 7272,
      "Ġthin": 7273,
      "Ġgarage": 7274,
      "Ġworkplace": 7275,
      "Ġprinting": 7276,
      "Ġdental": 7277,
      "Ġextension": 7278,
      "Ġvibr": 7279,
      "Ġmemories": 7280,
      "Ġ1994": 7281,
      "ĠPersonal": 7282,
      "Rem": 7283,
      "Ġslot": 7284,
      "ĠMaybe": 7285,
      "Ġstatistics": 7286,
      "ĠJackson": 7287,
      "More": 7288,
      "Ġda": 7289,
      "olit": 7290,
      "Ġparam": 7291,
      "ĠHor": 7292,
      "Ġrose": 7293,
      "Ġstronger": 7294,
      "Ġprecise": 7295,
      "Ġdelight": 7296,
      "ĠUk": 7297,
      "ificate": 7298,
      "ĠWilliams": 7299,
      "Ġchronic": 7300,
      "ugh": 7301,
      "ĠPack": 7302,
      "ĠSummer": 7303,
      "ucky": 7304,
      "05": 7305,
      "Ġtracking": 7306,
      "wo": 7307,
      "hered": 7308,
      "away": 7309,
      "Ġgraduate": 7310,
      "ogether": 7311,
      "Ġresulted": 7312,
      "ĠManager": 7313,
      "EE": 7314,
      "Ġcapabilities": 7315,
      "ĠMike": 7316,
      "Ġjack": 7317,
      "ropical": 7318,
      "Ġ36": 7319,
      "Ġcenters": 7320,
      "Ġstored": 7321,
      "Ġremoval": 7322,
      "Ġstudied": 7323,
      "Ġeco": 7324,
      "Ġvisited": 7325,
      "Ġpossibility": 7326,
      "Ġportfol": 7327,
      "mony": 7328,
      "Ġok": 7329,
      "Ġscientists": 7330,
      "Ġelectrical": 7331,
      "Ġtab": 7332,
      "oviet": 7333,
      "Ġheavily": 7334,
      "uma": 7335,
      "Ġscheme": 7336,
      "ĠNOT": 7337,
      "Ġ75": 7338,
      "ĠCreat": 7339,
      "Ġticket": 7340,
      "ĠRemember": 7341,
      "Ġdecline": 7342,
      "Ġpermanent": 7343,
      "Ġpreparation": 7344,
      "Ġtub": 7345,
      "Ġbact": 7346,
      "Ġdeck": 7347,
      "Ġsharp": 7348,
      "Ġobserved": 7349,
      "Ġslowly": 7350,
      "ockey": 7351,
      "ĠEngineering": 7352,
      "Ġol": 7353,
      "ĠAccess": 7354,
      "ĠPass": 7355,
      "Ġunex": 7356,
      "ĠBritain": 7357,
      "oured": 7358,
      "oven": 7359,
      "ĠLee": 7360,
      "Ġpurs": 7361,
      "Ġbond": 7362,
      "Ġtaxes": 7363,
      "ĠTer": 7364,
      "ĠOR": 7365,
      "Ġmusicians": 7366,
      "ĠMic": 7367,
      "Ġseasons": 7368,
      "Ġworse": 7369,
      "Ġundert": 7370,
      "Ġextract": 7371,
      "Ġtested": 7372,
      "ĠContact": 7373,
      "Ġbasketball": 7374,
      "Ind": 7375,
      "long": 7376,
      "Ġages": 7377,
      "VD": 7378,
      "Ġrig": 7379,
      "ĠNight": 7380,
      "Ġpersonalized": 7381,
      "Ġphotography": 7382,
      "Any": 7383,
      "illy": 7384,
      "Ġbeer": 7385,
      "Ġcontrolled": 7386,
      "ikes": 7387,
      "ĠSmall": 7388,
      "Ġtact": 7389,
      "ĠSaint": 7390,
      "rip": 7391,
      "Ġexpansion": 7392,
      "Ġmere": 7393,
      "verty": 7394,
      "ĠFre": 7395,
      "ĠMuslim": 7396,
      "Ġ..": 7397,
      "urning": 7398,
      "celer": 7399,
      "arters": 7400,
      "ja": 7401,
      "you": 7402,
      "ĠEll": 7403,
      "Ġassistant": 7404,
      "Ġraw": 7405,
      "yers": 7406,
      "Ġtap": 7407,
      "itution": 7408,
      "ĠWeek": 7409,
      "Ġnorthern": 7410,
      "Ġhandling": 7411,
      "Ġmur": 7412,
      "Ġbear": 7413,
      "Ġindex": 7414,
      "Ġimpossible": 7415,
      "intage": 7416,
      "Ġlogo": 7417,
      "Ġmissed": 7418,
      "ognitive": 7419,
      "ĠSupp": 7420,
      "Ġmagic": 7421,
      "uling": 7422,
      "ĠWorks": 7423,
      "Ġassociation": 7424,
      "rick": 7425,
      "ĠFord": 7426,
      "Ġpoverty": 7427,
      "Ġsignificance": 7428,
      "person": 7429,
      "ĠChris": 7430,
      "olec": 7431,
      "alse": 7432,
      "Ġproof": 7433,
      "86": 7434,
      "Since": 7435,
      "Ġtournament": 7436,
      "ĠFour": 7437,
      "ventional": 7438,
      "Ġclubs": 7439,
      "Ġdemonstrate": 7440,
      "Ġgallery": 7441,
      "Ġenables": 7442,
      "lyn": 7443,
      "Ġmembership": 7444,
      "Ġlimits": 7445,
      "Ġnewly": 7446,
      "Ġboys": 7447,
      "Am": 7448,
      "wan": 7449,
      "Ġinches": 7450,
      "Ġinvesting": 7451,
      "American": 7452,
      "Ġvert": 7453,
      "ĠSign": 7454,
      "Ġtexture": 7455,
      "idays": 7456,
      "raction": 7457,
      "cific": 7458,
      "dy": 7459,
      "amber": 7460,
      "Ġdispl": 7461,
      "ĠPolit": 7462,
      "Most": 7463,
      "Ġvent": 7464,
      "ĠiPhone": 7465,
      "aturally": 7466,
      "itled": 7467,
      "ĠJac": 7468,
      "ĠJoseph": 7469,
      "ifies": 7470,
      "Ġparticipation": 7471,
      "Ġhospit": 7472,
      "ĠMembers": 7473,
      "Ġdefault": 7474,
      "Ġframework": 7475,
      "Ġhealing": 7476,
      "ĠPop": 7477,
      "ĠEgypt": 7478,
      "Ġcoal": 7479,
      "stery": 7480,
      "onto": 7481,
      "ĠMah": 7482,
      "ello": 7483,
      "Ġmillions": 7484,
      "adium": 7485,
      "ĠEastern": 7486,
      "Ġgenuine": 7487,
      "ĠBC": 7488,
      "Ġcong": 7489,
      "Ġpicked": 7490,
      "Ġstability": 7491,
      "ĠFinally": 7492,
      "cue": 7493,
      "rep": 7494,
      "ĠNE": 7495,
      "ĠUt": 7496,
      "ulum": 7497,
      "Ġminimal": 7498,
      "ĠCe": 7499,
      "ĠMcC": 7500,
      "Ġtemplate": 7501,
      "Ġille": 7502,
      "phy": 7503,
      "ĠTry": 7504,
      "Ġfocuses": 7505,
      "ĠFootball": 7506,
      "Ġoven": 7507,
      "Ġunion": 7508,
      "According": 7509,
      "oking": 7510,
      "ĠSenate": 7511,
      "ĠWrite": 7512,
      "ensus": 7513,
      "AA": 7514,
      "ih": 7515,
      "Ġdevelopers": 7516,
      "ĠControl": 7517,
      "ĠDC": 7518,
      "Ġmanagers": 7519,
      "ĠReport": 7520,
      "war": 7521,
      "Ġfru": 7522,
      "ĠLog": 7523,
      "ĠThus": 7524,
      "ĠAuthor": 7525,
      "Ġphen": 7526,
      "aning": 7527,
      "Su": 7528,
      "ĠThose": 7529,
      "ĠDigital": 7530,
      "Ġsmell": 7531,
      "ĠCR": 7532,
      "ĠExpl": 7533,
      "Ġpurchasing": 7534,
      "ificial": 7535,
      "76": 7536,
      "fall": 7537,
      "Ġengines": 7538,
      "Ġseed": 7539,
      "Ġadopted": 7540,
      "words": 7541,
      "Ġnone": 7542,
      "Ġpm": 7543,
      "elly": 7544,
      "Ġacts": 7545,
      "Ġmunicip": 7546,
      "Ġforth": 7547,
      "Ġvo": 7548,
      "oned": 7549,
      "Ġshops": 7550,
      "ĠViet": 7551,
      "ĠBuilding": 7552,
      "ĠDom": 7553,
      "ulating": 7554,
      "ĠLy": 7555,
      "ĠBul": 7556,
      "Ġstrict": 7557,
      "do": 7558,
      "asant": 7559,
      "comm": 7560,
      "lessly": 7561,
      "Ġbrowser": 7562,
      "ĠFull": 7563,
      "Ġcompliance": 7564,
      "ĠPhys": 7565,
      "Ġconcepts": 7566,
      "Ġly": 7567,
      "Ġcomparison": 7568,
      "ologist": 7569,
      "Che": 7570,
      "pan": 7571,
      "Ġconscious": 7572,
      "Ġlargely": 7573,
      "ĠPolice": 7574,
      "zes": 7575,
      "Ġseeds": 7576,
      "Ġoccurs": 7577,
      "Ġyield": 7578,
      "osite": 7579,
      "law": 7580,
      "Ġchapter": 7581,
      "Tra": 7582,
      "Â°": 7583,
      "Ġplot": 7584,
      "Ġ1992": 7585,
      "ĠOpt": 7586,
      "iro": 7587,
      "Ġoffices": 7588,
      "Ġintense": 7589,
      "Ġmac": 7590,
      "Ġflash": 7591,
      "Ġargument": 7592,
      "orgeous": 7593,
      "Ġrepresentation": 7594,
      "Ġaimed": 7595,
      "ML": 7596,
      "org": 7597,
      "berry": 7598,
      "ĠStan": 7599,
      "Ġinitiative": 7600,
      "Ġsin": 7601,
      "Ġsections": 7602,
      "duate": 7603,
      "Ġgifts": 7604,
      "Ġaccessories": 7605,
      "elcome": 7606,
      "afe": 7607,
      "ĠSEO": 7608,
      "ĠStation": 7609,
      "Ġgenerations": 7610,
      "âĢ¦.": 7611,
      "].": 7612,
      "ĠCreek": 7613,
      "ĠBase": 7614,
      "Ġfunctional": 7615,
      "Ġ1993": 7616,
      "ĠConsider": 7617,
      "Ġscan": 7618,
      "aints": 7619,
      "ĠTru": 7620,
      "Ġclaimed": 7621,
      "Ġhotels": 7622,
      "Last": 7623,
      "Ġcuis": 7624,
      "ĠSoviet": 7625,
      "Ġneut": 7626,
      "Ġeggs": 7627,
      "Ġduty": 7628,
      "Ġanticip": 7629,
      "ĠRose": 7630,
      "terior": 7631,
      "Ġ400": 7632,
      "Ġoccurred": 7633,
      "eah": 7634,
      "Ġactors": 7635,
      "Ġprioritize": 7636,
      "raq": 7637,
      "Ġgrab": 7638,
      "Ġmm": 7639,
      "Ġshock": 7640,
      "Ġphotograp": 7641,
      "adow": 7642,
      "Ġacting": 7643,
      "Ġcategories": 7644,
      "esterday": 7645,
      "Ġhydro": 7646,
      "uct": 7647,
      "Ġeld": 7648,
      "Ġsecondary": 7649,
      "ĠPriv": 7650,
      "Ġrating": 7651,
      "ĠMarketing": 7652,
      "ĠTit": 7653,
      "ĠField": 7654,
      "Ġflexibility": 7655,
      "iece": 7656,
      "athan": 7657,
      "ĠSteve": 7658,
      "ellectual": 7659,
      "Ġvacation": 7660,
      "Ġbonus": 7661,
      "onym": 7662,
      "Ġsoph": 7663,
      "Ġcharacteristics": 7664,
      "Ġinvited": 7665,
      "Ġencouraged": 7666,
      "uan": 7667,
      "Tube": 7668,
      "Ġconsideration": 7669,
      "aven": 7670,
      "inois": 7671,
      "Ġpreferred": 7672,
      "ãĤ": 7673,
      "plete": 7674,
      "Ġdescript": 7675,
      "rage": 7676,
      "Ġreligion": 7677,
      "Ġpill": 7678,
      "Ġviewed": 7679,
      "Ġpanels": 7680,
      "Ġfairly": 7681,
      "ca": 7682,
      "Ġgraphics": 7683,
      "Ġextent": 7684,
      "Ġphr": 7685,
      "Ġjoining": 7686,
      "ĠEmpire": 7687,
      "56": 7688,
      "Ġstaying": 7689,
      "ali": 7690,
      "ĠJon": 7691,
      "Ġfavourite": 7692,
      "Ġtox": 7693,
      "Ġdecade": 7694,
      "sect": 7695,
      "ampion": 7696,
      "Ġswimming": 7697,
      "Ġther": 7698,
      "VE": 7699,
      "ĠIC": 7700,
      "Ġproven": 7701,
      "ĠTraining": 7702,
      "ba": 7703,
      "Ġtitles": 7704,
      "Ġmerch": 7705,
      "ĠDaniel": 7706,
      "Ġexplained": 7707,
      "Ġzone": 7708,
      "Ġconcert": 7709,
      "Ġaccuracy": 7710,
      "ĠTerm": 7711,
      "ĠStudies": 7712,
      "87": 7713,
      "cons": 7714,
      "Ġhaz": 7715,
      "Ġ150": 7716,
      "ĠEs": 7717,
      "Ġcontrovers": 7718,
      "Ġprinted": 7719,
      "ĠAgreement": 7720,
      "Ġbatter": 7721,
      "Ġanalyze": 7722,
      "Ġtor": 7723,
      "Ġremark": 7724,
      "Ġdebate": 7725,
      "alog": 7726,
      "Ġyards": 7727,
      "Ġhabitat": 7728,
      "Ġsamples": 7729,
      "Ġads": 7730,
      "Ġaddressing": 7731,
      "ĠRam": 7732,
      "Ġnotable": 7733,
      "eping": 7734,
      "ounter": 7735,
      "Ġcodes": 7736,
      "Ġtelling": 7737,
      "Ġhosted": 7738,
      "Ġbars": 7739,
      "ĠPub": 7740,
      "01": 7741,
      "iform": 7742,
      "apore": 7743,
      "Ġattractive": 7744,
      "Ġsought": 7745,
      "ĠProm": 7746,
      "Ġindicate": 7747,
      "Ġmarked": 7748,
      "ĠON": 7749,
      "teen": 7750,
      "ĠPakistan": 7751,
      "ĠCH": 7752,
      "Ġinstruction": 7753,
      "Ġultimate": 7754,
      "ĠOffic": 7755,
      "Ġrecipes": 7756,
      "ĠSong": 7757,
      "illiant": 7758,
      "Ġpackaging": 7759,
      "ĠColorado": 7760,
      "step": 7761,
      "ĠLow": 7762,
      "Ġlegislation": 7763,
      "lywood": 7764,
      "ĠMult": 7765,
      "Ġoperated": 7766,
      "Ġcombat": 7767,
      "Ġpip": 7768,
      "Ġrhy": 7769,
      "Ġpowder": 7770,
      "Ġchose": 7771,
      "ĠHard": 7772,
      "Ġnavigate": 7773,
      "iser": 7774,
      "Ġshell": 7775,
      "Ġinch": 7776,
      "ĠIII": 7777,
      "Ġtransaction": 7778,
      "ĠFinancial": 7779,
      "ĠForest": 7780,
      "Ġobjective": 7781,
      "izer": 7782,
      "ĠWebs": 7783,
      "Ġbottle": 7784,
      "MC": 7785,
      "ĠHope": 7786,
      "uster": 7787,
      "Ġstudying": 7788,
      "Ġexistence": 7789,
      "Ġloves": 7790,
      "Ġvisible": 7791,
      "Ġsinger": 7792,
      "Ġpit": 7793,
      "ĠNote": 7794,
      "Ġintent": 7795,
      "ĠStat": 7796,
      "Ġstatements": 7797,
      "stal": 7798,
      "Ġdisappoint": 7799,
      "Ġtherap": 7800,
      "ĠRh": 7801,
      "bar": 7802,
      "Ġformation": 7803,
      "Ġcontinuing": 7804,
      "Ġsuffering": 7805,
      "Ġdreams": 7806,
      "ilarly": 7807,
      "Ġretirement": 7808,
      "Ġfindings": 7809,
      "Ġapproval": 7810,
      "ĠTable": 7811,
      "Ġabuse": 7812,
      "lude": 7813,
      "ĠCond": 7814,
      "ĠRE": 7815,
      "ĠPot": 7816,
      "ĠSmart": 7817,
      "ĠGuide": 7818,
      "Today": 7819,
      "Ġbatt": 7820,
      "ĠStudents": 7821,
      "dney": 7822,
      "Ġid": 7823,
      "Ġfirms": 7824,
      "ĠBall": 7825,
      "Ġarrive": 7826,
      "ading": 7827,
      "Ġactor": 7828,
      "Ġacquired": 7829,
      "Int": 7830,
      "Ġtours": 7831,
      "Ġinequ": 7832,
      "aka": 7833,
      "Ġlegs": 7834,
      "Ġwhenever": 7835,
      "Ġfacts": 7836,
      "Ġquote": 7837,
      "Ġweapons": 7838,
      "43": 7839,
      "Ġkil": 7840,
      "ĠSystems": 7841,
      "ĠApplic": 7842,
      "Ġmold": 7843,
      "Ġcontaining": 7844,
      "ints": 7845,
      "Ġalbums": 7846,
      "Ġunderst": 7847,
      "ĠArea": 7848,
      "ji": 7849,
      "Ġtiny": 7850,
      "Ġtom": 7851,
      "itud": 7852,
      "iger": 7853,
      "Ġevolution": 7854,
      "amps": 7855,
      "ĠSupreme": 7856,
      "Ġsail": 7857,
      "Ġyoga": 7858,
      "amental": 7859,
      "Ġexplan": 7860,
      "ĠTravel": 7861,
      "erning": 7862,
      "Ġlapt": 7863,
      "ĠJustice": 7864,
      "Ġhang": 7865,
      "ĠAndrew": 7866,
      "Ġdrama": 7867,
      "Ġpriority": 7868,
      "Ġwooden": 7869,
      "Or": 7870,
      "Ġ!": 7871,
      "ĠSon": 7872,
      "69": 7873,
      "ĠBon": 7874,
      "Ġsaved": 7875,
      "rently": 7876,
      "Ġpassage": 7877,
      "Well": 7878,
      "Ġempt": 7879,
      "Ġcommunications": 7880,
      "Ġfactory": 7881,
      "Ġworkshops": 7882,
      "ĠLocal": 7883,
      "Ġcharm": 7884,
      "Ġweekly": 7885,
      "Ġevaluate": 7886,
      "ĠCook": 7887,
      "uls": 7888,
      "Ġapplicable": 7889,
      "Ġseriously": 7890,
      "ĠSite": 7891,
      "uter": 7892,
      "ĠAccount": 7893,
      "quir": 7894,
      "ĠExecutive": 7895,
      "ĠVideo": 7896,
      "yo": 7897,
      "ador": 7898,
      "Ġinvolving": 7899,
      "adel": 7900,
      "Ġresil": 7901,
      "Ġexception": 7902,
      "ĠHoly": 7903,
      "Ġlatter": 7904,
      "ĠSometimes": 7905,
      "mers": 7906,
      "ĠBible": 7907,
      "Ġarmy": 7908,
      "ĠRoom": 7909,
      "orous": 7910,
      "Ġdesigners": 7911,
      "Ġflour": 7912,
      "Ġmarg": 7913,
      "TC": 7914,
      "ns": 7915,
      "ĊĊ": 7916,
      "Ġpromotion": 7917,
      "ĠBrook": 7918,
      "Ġcolleagues": 7919,
      "rem": 7920,
      "Ġassigned": 7921,
      "Ġspecialist": 7922,
      "59": 7923,
      "Ġstable": 7924,
      "aze": 7925,
      "Ġpoem": 7926,
      "Ġinspire": 7927,
      "ĠIllinois": 7928,
      "Ġadequ": 7929,
      "Ġfraud": 7930,
      "Ġprove": 7931,
      "ĠSn": 7932,
      "ĠUr": 7933,
      "Ġbranch": 7934,
      "Ġexhibition": 7935,
      "ĠDemocratic": 7936,
      "Ġhur": 7937,
      "elled": 7938,
      "Ġcalm": 7939,
      "Ġspeaker": 7940,
      "78": 7941,
      "site": 7942,
      "ĠIraq": 7943,
      "Ġadj": 7944,
      "Ġstring": 7945,
      "Ġshooting": 7946,
      "ĠCorporation": 7947,
      "orne": 7948,
      "Ġfrequency": 7949,
      "Ġerrors": 7950,
      "Ġdust": 7951,
      "Ġdriven": 7952,
      "ĠSS": 7953,
      "79": 7954,
      "Ġvess": 7955,
      "ĠGirl": 7956,
      "Ġskilled": 7957,
      "Ġprofessor": 7958,
      "stein": 7959,
      "aste": 7960,
      "Ġelections": 7961,
      "41": 7962,
      "Ġlisting": 7963,
      "aya": 7964,
      "ĠRef": 7965,
      "Ġaside": 7966,
      "odge": 7967,
      "ĠOx": 7968,
      "oken": 7969,
      "ĠCirc": 7970,
      "ĠLin": 7971,
      "Ġtransactions": 7972,
      "Ġpresents": 7973,
      "Ġcompat": 7974,
      "bell": 7975,
      "Ġbass": 7976,
      "cover": 7977,
      "Ġincredibly": 7978,
      "Dr": 7979,
      "Qu": 7980,
      "da": 7981,
      "ĠRights": 7982,
      "Ġachieving": 7983,
      "abetes": 7984,
      "sis": 7985,
      "Ġheating": 7986,
      "Ġworkshop": 7987,
      "ĠBridge": 7988,
      "Ġceremony": 7989,
      "ĠSP": 7990,
      "ĠCommon": 7991,
      "ĠMountain": 7992,
      "Ġstain": 7993,
      "ĠDNA": 7994,
      "ĠVe": 7995,
      "haust": 7996,
      "eding": 7997,
      "TV": 7998,
      "âĦ": 7999,
      "Ġrepresentative": 8000,
      "Ġvolunteer": 8001,
      "Ġunknown": 8002,
      "Ġsuperior": 8003,
      "Ġuniversities": 8004,
      "aters": 8005,
      "raid": 8006,
      "ifer": 8007,
      "Ġheads": 8008,
      "Ġhook": 8009,
      "ĠPR": 8010,
      "ĠModern": 8011,
      "ls": 8012,
      "Ġcareful": 8013,
      "ĠProfessional": 8014,
      "ĠObama": 8015,
      "ĠAS": 8016,
      "asting": 8017,
      "Ġproducer": 8018,
      "Ġnurs": 8019,
      "AY": 8020,
      "Ġevaluation": 8021,
      "bro": 8022,
      "Ġproposal": 8023,
      "iche": 8024,
      "ĠSat": 8025,
      "ĠMatt": 8026,
      "Ġrecruit": 8027,
      "ĠBox": 8028,
      "Ġwave": 8029,
      "Ġreaching": 8030,
      "ĠPerform": 8031,
      "Ġdivided": 8032,
      "Ġobstac": 8033,
      "Ġlies": 8034,
      "ĠSpace": 8035,
      "Ġbelieves": 8036,
      "Ġpace": 8037,
      "Ġdisorders": 8038,
      "Ġcriteria": 8039,
      "Ġperiods": 8040,
      "ĠAirport": 8041,
      "ĠAvenue": 8042,
      "Ġunexpected": 8043,
      "DS": 8044,
      "ĠWow": 8045,
      "Ġwhilst": 8046,
      "ĠView": 8047,
      "Ġcontrols": 8048,
      "ĠSoftware": 8049,
      "Ġdemands": 8050,
      "Ġinteraction": 8051,
      "Ġhighlights": 8052,
      "Ġexpressed": 8053,
      "ĠFar": 8054,
      "ĠKong": 8055,
      "Ġdiscip": 8056,
      "Ġcontained": 8057,
      "Ġobjectives": 8058,
      "Ġdeeply": 8059,
      "Ġportfolio": 8060,
      "abeth": 8061,
      "ĠSky": 8062,
      "Ġunw": 8063,
      "Ġblocks": 8064,
      "ĠFred": 8065,
      "ĠPrime": 8066,
      "Ġartistic": 8067,
      "Add": 8068,
      "Ġsurve": 8069,
      "Ġequival": 8070,
      "Ġsupplement": 8071,
      "Ġimprovements": 8072,
      "Ġblank": 8073,
      "ĠMobile": 8074,
      "ylvan": 8075,
      "uction": 8076,
      "Ġsick": 8077,
      "Ġgram": 8078,
      "ĠSuch": 8079,
      "ĠRun": 8080,
      "Ġeligible": 8081,
      "Ġsubmitted": 8082,
      "Ġgranted": 8083,
      "Ġemphasis": 8084,
      "burgh": 8085,
      "Ġdent": 8086,
      "Ġmindfulness": 8087,
      "Ġgall": 8088,
      "Ġaband": 8089,
      "Ġenjoying": 8090,
      "Ġaccordance": 8091,
      "Ġrefuge": 8092,
      "Ġmaintained": 8093,
      "Ġcertification": 8094,
      "Ġadvantages": 8095,
      "AF": 8096,
      "Ġblow": 8097,
      "Ġagricultural": 8098,
      "racy": 8099,
      "Ġwash": 8100,
      "Ġpitch": 8101,
      "ĠSir": 8102,
      "ĠWales": 8103,
      "ĠDun": 8104,
      "ĠAsh": 8105,
      "backs": 8106,
      "Ġpoker": 8107,
      "Ġmeaningful": 8108,
      "pack": 8109,
      "Ġwaters": 8110,
      "Ġgentle": 8111,
      "ults": 8112,
      "ĠScotland": 8113,
      "ĠLu": 8114,
      "ĠProfessor": 8115,
      "Ġrenov": 8116,
      "ĠThree": 8117,
      "Ġmoder": 8118,
      "ĠConc": 8119,
      "Ġtemperatures": 8120,
      "riger": 8121,
      "Ġlists": 8122,
      "Ġresort": 8123,
      "Ġscr": 8124,
      "Ġbreast": 8125,
      "Ġattorney": 8126,
      "Ġhoriz": 8127,
      "Ġhoping": 8128,
      "Ġfascinating": 8129,
      "ffective": 8130,
      "ĠBob": 8131,
      "ĠLED": 8132,
      "Ġexceptional": 8133,
      "Ġmeets": 8134,
      "Ġstruggling": 8135,
      "Ġrepeated": 8136,
      "ĠParliament": 8137,
      "ĠKnow": 8138,
      "rimination": 8139,
      "Ġdrawn": 8140,
      "Ġentrance": 8141,
      "Ġacquis": 8142,
      "ĠToronto": 8143,
      "Ġtissue": 8144,
      "ĠEth": 8145,
      "Ġattending": 8146,
      "Ġsoldiers": 8147,
      "iversary": 8148,
      "ĠGuard": 8149,
      "tes": 8150,
      "inf": 8151,
      "ĠYouTube": 8152,
      "Ġdefinition": 8153,
      "Ġmedication": 8154,
      "Ġstakeholders": 8155,
      "Te": 8156,
      "Ġchances": 8157,
      "Ġforever": 8158,
      "Ġharmful": 8159,
      "BI": 8160,
      "ĠEnt": 8161,
      "Ġapplying": 8162,
      "Ġdism": 8163,
      "Ġ1991": 8164,
      "erman": 8165,
      "aylor": 8166,
      "irts": 8167,
      "ceived": 8168,
      "Ġrespectively": 8169,
      "ĠNavy": 8170,
      "Ġtip": 8171,
      "shire": 8172,
      "Ġenterprise": 8173,
      "ĠGolden": 8174,
      "Ġgrat": 8175,
      "__": 8176,
      "ylvania": 8177,
      "iter": 8178,
      "ĠPu": 8179,
      "Ġ1950": 8180,
      "Ġregulatory": 8181,
      "âĦ¢": 8182,
      "sen": 8183,
      "Ġimplications": 8184,
      "inch": 8185,
      "ĠSarah": 8186,
      "Ġspark": 8187,
      "ĠPortug": 8188,
      "ĠLind": 8189,
      "REE": 8190,
      "Ð¸": 8191,
      "ĠHong": 8192,
      "yal": 8193,
      "Ġbomb": 8194,
      "Ġexposed": 8195,
      "found": 8196,
      "Ġgym": 8197,
      "Ġtrick": 8198,
      "Ġcarrying": 8199,
      "vas": 8200,
      "epend": 8201,
      "ko": 8202,
      "ĠIce": 8203,
      "Ġblind": 8204,
      "Ġgreatly": 8205,
      "Ġrapidly": 8206,
      "ĠOrig": 8207,
      "Ġcovering": 8208,
      "Ġdisplayed": 8209,
      "Ġscenes": 8210,
      "Ġmyth": 8211,
      "ĠBh": 8212,
      "Ġmoves": 8213,
      "Ġtooth": 8214,
      "ĠKitchen": 8215,
      "ĠFurthermore": 8216,
      "achus": 8217,
      "ĠNext": 8218,
      "Ġphilosophy": 8219,
      "Ġneighb": 8220,
      "Ġlimitations": 8221,
      "nda": 8222,
      "Ġships": 8223,
      "Ġinstruments": 8224,
      "ĠCreate": 8225,
      "iances": 8226,
      "Ġpoetry": 8227,
      "Ġwalked": 8228,
      "enth": 8229,
      "Ġ33": 8230,
      "Ġadoption": 8231,
      "Ġflying": 8232,
      "Ġperspectives": 8233,
      "onom": 8234,
      "Ġtwe": 8235,
      "Ġdropped": 8236,
      "UL": 8237,
      "Ġpersons": 8238,
      "Ġhel": 8239,
      "ĠCa": 8240,
      "ĠSydney": 8241,
      "ĠMS": 8242,
      "Ġalter": 8243,
      "Ġimmers": 8244,
      "imp": 8245,
      "Ġenroll": 8246,
      "Ġescape": 8247,
      "Ġpink": 8248,
      "Ġgaming": 8249,
      "Ġsmile": 8250,
      "ĠAlbert": 8251,
      "Ġsolo": 8252,
      "Ġtargeted": 8253,
      "ĠBuild": 8254,
      "rove": 8255,
      "that": 8256,
      "Ġsuppliers": 8257,
      "ĠGallery": 8258,
      "Ġlect": 8259,
      "Ġrelative": 8260,
      "Ġorganis": 8261,
      "Ġchecking": 8262,
      "riculum": 8263,
      "ĠArm": 8264,
      "Ġaffects": 8265,
      "ĠDar": 8266,
      "Ġroads": 8267,
      "ĠSingapore": 8268,
      "Ġfalse": 8269,
      "ership": 8270,
      "Ġrequirement": 8271,
      "Ġtomat": 8272,
      "Ab": 8273,
      "Ġspots": 8274,
      "Ġensures": 8275,
      "brid": 8276,
      "HS": 8277,
      "Ġworst": 8278,
      "Ġelectron": 8279,
      "Ġsending": 8280,
      "Ġoutcome": 8281,
      "ĠiP": 8282,
      "Ġdamaged": 8283,
      "RS": 8284,
      "ĠSection": 8285,
      "Ġsuffered": 8286,
      "ĠRadio": 8287,
      "ĠSecretary": 8288,
      "Ġconcerning": 8289,
      "lamm": 8290,
      "Ġactively": 8291,
      "Ġfinds": 8292,
      "Ġpublication": 8293,
      "Ġboxes": 8294,
      "olid": 8295,
      "ĠRay": 8296,
      "Ġrising": 8297,
      "ĠAbout": 8298,
      "Ġemerging": 8299,
      "bration": 8300,
      "Ġprominent": 8301,
      "Ġfaces": 8302,
      "Ġshowcase": 8303,
      "antry": 8304,
      "Ġforecast": 8305,
      "Ġpleased": 8306,
      "DP": 8307,
      "Ġcro": 8308,
      "Ġfiber": 8309,
      "acc": 8310,
      "Ġspoke": 8311,
      "Ġbreaks": 8312,
      "Ġsomewhat": 8313,
      "Ġmile": 8314,
      "Ġlie": 8315,
      "Ġconflicts": 8316,
      "Ġconstructed": 8317,
      "Ġwider": 8318,
      "urse": 8319,
      "including": 8320,
      "Ġnewspaper": 8321,
      "Ġcalendar": 8322,
      "Ġsubjects": 8323,
      "Ġbreaking": 8324,
      "ĠWatch": 8325,
      "ĠSpirit": 8326,
      "ĠMedicine": 8327,
      "organ": 8328,
      "ela": 8329,
      "Ġrequests": 8330,
      "Ġprotocol": 8331,
      "Ġlaid": 8332,
      "Ġjewel": 8333,
      "Ġcoaching": 8334,
      "Ġpromise": 8335,
      "Ġmaxim": 8336,
      "ĠIdeas": 8337,
      "ĠOnt": 8338,
      "Ġtraveling": 8339,
      "ĠBrand": 8340,
      "isp": 8341,
      "ĠStore": 8342,
      "ĠBattle": 8343,
      "MP": 8344,
      "ĠCro": 8345,
      "GA": 8346,
      "uing": 8347,
      "Ġlawyer": 8348,
      "Ġfundamental": 8349,
      "Ġenforcement": 8350,
      "gian": 8351,
      "etts": 8352,
      "ools": 8353,
      "Ġcontribution": 8354,
      "Ġdecrease": 8355,
      "ĠVictoria": 8356,
      "chester": 8357,
      "Ġsegment": 8358,
      "Ġgorgeous": 8359,
      "Ġfolks": 8360,
      "RC": 8361,
      "Ġunus": 8362,
      "68": 8363,
      "ĠTurn": 8364,
      "Ġyard": 8365,
      "Ġafraid": 8366,
      "ipt": 8367,
      "ĠJr": 8368,
      "ĠRepublican": 8369,
      "ailable": 8370,
      "ĠTransport": 8371,
      "Ġbench": 8372,
      "Oh": 8373,
      "zona": 8374,
      "otive": 8375,
      "ĠThough": 8376,
      "Ġsurprised": 8377,
      "Ġdrinking": 8378,
      "empl": 8379,
      "Ġrecover": 8380,
      "Ġacceler": 8381,
      "Ġexpanded": 8382,
      "Ġpp": 8383,
      "Ġcorrectly": 8384,
      "rell": 8385,
      "ĠGarden": 8386,
      "aped": 8387,
      "ĠSus": 8388,
      "ĠEss": 8389,
      "ouch": 8390,
      "Ġzero": 8391,
      "Ġfiction": 8392,
      "ĠRen": 8393,
      "Ġadministrative": 8394,
      "hol": 8395,
      "sylvania": 8396,
      "Ġcute": 8397,
      "ĠSem": 8398,
      "Ġentrepreneurs": 8399,
      "Ġstages": 8400,
      "Ġalive": 8401,
      "fits": 8402,
      "Ġaer": 8403,
      "esh": 8404,
      "weet": 8405,
      "GE": 8406,
      "ĠLabor": 8407,
      "Ġvulnerable": 8408,
      "Ġreaction": 8409,
      "Ġaddiction": 8410,
      "Ġyesterday": 8411,
      "ĠMu": 8412,
      "58": 8413,
      "Ġexport": 8414,
      "Ġinteractions": 8415,
      "ials": 8416,
      "ĠLat": 8417,
      "sem": 8418,
      "assion": 8419,
      "bing": 8420,
      "uties": 8421,
      "Ġlend": 8422,
      "Ġchemicals": 8423,
      "arency": 8424,
      "Ġclock": 8425,
      "ĠHeart": 8426,
      "ĠColumbia": 8427,
      "73": 8428,
      "ĠSC": 8429,
      "Ġhabits": 8430,
      "ivals": 8431,
      "roduct": 8432,
      "ĠDoes": 8433,
      "ĠBuy": 8434,
      "Man": 8435,
      "Ġmountains": 8436,
      "Ġ34": 8437,
      "Ġpassword": 8438,
      "anna": 8439,
      "aska": 8440,
      "Im": 8441,
      "Ġentitled": 8442,
      "Ġhopes": 8443,
      "Ġ38": 8444,
      "enny": 8445,
      "Ġfunctionality": 8446,
      "igrants": 8447,
      "Ġcuisine": 8448,
      "pat": 8449,
      "Ġtoile": 8450,
      "ĠMajor": 8451,
      "inson": 8452,
      "Ġending": 8453,
      "Ġmistakes": 8454,
      "Ġfert": 8455,
      "ĠHaving": 8456,
      "ĠFac": 8457,
      "icted": 8458,
      "Ġopposite": 8459,
      "Ġbaking": 8460,
      "ĠUnfortunately": 8461,
      "forest": 8462,
      "Ġmarks": 8463,
      "ĠHim": 8464,
      "dri": 8465,
      "sters": 8466,
      "Ġnaturally": 8467,
      "Ġnations": 8468,
      "Ġspecified": 8469,
      "Ġ1989": 8470,
      "Ġvolunteers": 8471,
      "ĠTheatre": 8472,
      "Ġram": 8473,
      "Ġbiod": 8474,
      "Ġcomprom": 8475,
      "72": 8476,
      "Ġplane": 8477,
      "ventions": 8478,
      "Ġdrinks": 8479,
      "Ġpackages": 8480,
      "Ġownership": 8481,
      "Ġdoctors": 8482,
      "Ġresponses": 8483,
      "Ġfifth": 8484,
      "igure": 8485,
      "Ġcrack": 8486,
      "During": 8487,
      "Ġfilling": 8488,
      "ĠProper": 8489,
      "FA": 8490,
      "tail": 8491,
      "phones": 8492,
      "Ġgenetic": 8493,
      "ĠDutch": 8494,
      "Bu": 8495,
      "inking": 8496,
      "orks": 8497,
      "Ġhole": 8498,
      "Ġinvestments": 8499,
      "Ġfarming": 8500,
      "Ġuncertain": 8501,
      "Up": 8502,
      "ĠShop": 8503,
      "oto": 8504,
      "izabeth": 8505,
      "Ġchildhood": 8506,
      "utter": 8507,
      "Ġpride": 8508,
      "Ġcognitive": 8509,
      "Ġstir": 8510,
      "ĠSciences": 8511,
      "Ġnetworking": 8512,
      "EA": 8513,
      "Ġinject": 8514,
      "Ġcurious": 8515,
      "Ġintellectual": 8516,
      "amic": 8517,
      "ĠPA": 8518,
      "Ġvacc": 8519,
      "etary": 8520,
      "Ġrecre": 8521,
      "ĠPrince": 8522,
      "Ġopposition": 8523,
      "oir": 8524,
      "Ġflo": 8525,
      "Ġbehalf": 8526,
      "Ġlikes": 8527,
      "Ġwireless": 8528,
      "Ġhoney": 8529,
      "Ġgate": 8530,
      "ennes": 8531,
      "Ġlift": 8532,
      "ĠSher": 8533,
      "Ġbooking": 8534,
      "Ġcircuit": 8535,
      "Ġlayout": 8536,
      "ĠWebsite": 8537,
      "ented": 8538,
      "Ġcenturies": 8539,
      "ishop": 8540,
      "Ġtemporary": 8541,
      "ĠBath": 8542,
      "Ġtransmission": 8543,
      "Ġdialogue": 8544,
      "Ġreturning": 8545,
      "Ġhurt": 8546,
      "Ġcomposition": 8547,
      "ĠCra": 8548,
      "sey": 8549,
      "ession": 8550,
      "ags": 8551,
      "Ġ55": 8552,
      "ashed": 8553,
      "Ġadvent": 8554,
      "Ġdumpster": 8555,
      "Ġalarm": 8556,
      "Ġmortgage": 8557,
      "orship": 8558,
      "Ġbuff": 8559,
      "Ġinfl": 8560,
      "Ġscores": 8561,
      "Click": 8562,
      "ĠInsurance": 8563,
      "Ġaest": 8564,
      "ĠÎ": 8565,
      "ĠStone": 8566,
      "Ġbare": 8567,
      "ifting": 8568,
      "ridge": 8569,
      "Ġlegacy": 8570,
      "Ġdisrupt": 8571,
      "Ġgene": 8572,
      "ĠLearning": 8573,
      "ĠMassachus": 8574,
      "Ġvenue": 8575,
      "Ġjuice": 8576,
      "Ġinters": 8577,
      "pending": 8578,
      "ĠHarr": 8579,
      "abling": 8580,
      "Ġparticipating": 8581,
      "ĠRight": 8582,
      "Ġorganisation": 8583,
      "Ġ1988": 8584,
      "Whe": 8585,
      "Ġcoat": 8586,
      "Ġspecialized": 8587,
      ".'": 8588,
      "Ġbold": 8589,
      "Ġbuyers": 8590,
      "Ġlucky": 8591,
      "Ġhes": 8592,
      "ateful": 8593,
      "Ġtrim": 8594,
      "Ġliked": 8595,
      "eras": 8596,
      "ĠDVD": 8597,
      "Ġdistributed": 8598,
      "Ġbone": 8599,
      "Ġexhaust": 8600,
      "annel": 8601,
      "Ġcontinuous": 8602,
      "Ġjur": 8603,
      "Ġcooperation": 8604,
      "Ġnecessarily": 8605,
      "May": 8606,
      "lements": 8607,
      "Ġshots": 8608,
      "Ġpeak": 8609,
      "Ġaddressed": 8610,
      "onomy": 8611,
      "Ġspray": 8612,
      "Ġfranch": 8613,
      "Ġsubsid": 8614,
      "Ġresume": 8615,
      "Ġdelivering": 8616,
      "Ġdurable": 8617,
      "market": 8618,
      "Ġorient": 8619,
      "Ġpainted": 8620,
      "scale": 8621,
      "Ġaddresses": 8622,
      "Ġforests": 8623,
      "Ġorange": 8624,
      "Ġcomplement": 8625,
      "Ġdrag": 8626,
      "alysis": 8627,
      "arry": 8628,
      "ĠBased": 8629,
      "anted": 8630,
      "ĠRout": 8631,
      "Ġcaptured": 8632,
      "ĠChoose": 8633,
      "Ġincorporating": 8634,
      "Ġstrengthen": 8635,
      "po": 8636,
      "alo": 8637,
      "Ġprize": 8638,
      "Ġprotecting": 8639,
      "ĠOcean": 8640,
      "agen": 8641,
      "Ġargue": 8642,
      "Ġsurvive": 8643,
      "ĠWhich": 8644,
      "Ġcompete": 8645,
      "Ġautomatic": 8646,
      "Ġinclusive": 8647,
      "ĠPennsylvania": 8648,
      "Ġspeakers": 8649,
      "quis": 8650,
      "Ġ800": 8651,
      "iour": 8652,
      "ĠFollowing": 8653,
      "page": 8654,
      "enced": 8655,
      "Ġentering": 8656,
      "Ġcompletion": 8657,
      "bourne": 8658,
      "ferent": 8659,
      "phia": 8660,
      "Ġnarrative": 8661,
      "ĠHold": 8662,
      "ĠDid": 8663,
      "iy": 8664,
      "ĠSound": 8665,
      "Ġcomposed": 8666,
      "redit": 8667,
      "Ġtalks": 8668,
      "Ġgrace": 8669,
      "Ġcul": 8670,
      "estion": 8671,
      "uous": 8672,
      "Ġexperiencing": 8673,
      "Ġcompensation": 8674,
      "Ġdipl": 8675,
      "ĠLink": 8676,
      "Ġsour": 8677,
      "utor": 8678,
      "Although": 8679,
      "Ġattempts": 8680,
      "Ġsequence": 8681,
      "Ġcabinet": 8682,
      "Sm": 8683,
      "ervative": 8684,
      "ĠCub": 8685,
      "CD": 8686,
      "inals": 8687,
      "Ġpermission": 8688,
      "Ġlayers": 8689,
      "Ġdomin": 8690,
      "ĠVen": 8691,
      "Ġintroduce": 8692,
      "onut": 8693,
      "otal": 8694,
      "Ġdefine": 8695,
      "Ġpopularity": 8696,
      "54": 8697,
      "Ġlad": 8698,
      "Ġtrips": 8699,
      "Ġax": 8700,
      "atile": 8701,
      "Ġcock": 8702,
      "Ġhat": 8703,
      "Hi": 8704,
      "....": 8705,
      "Ġlosses": 8706,
      "Ġboundaries": 8707,
      "04": 8708,
      "Ġbands": 8709,
      "Ġcrusher": 8710,
      "ĠDisney": 8711,
      "ĠLearn": 8712,
      "ĠOlympic": 8713,
      "Ġpreparing": 8714,
      "Ġinstant": 8715,
      "Ġcombine": 8716,
      "Ġham": 8717,
      "oln": 8718,
      "ĠPers": 8719,
      "ĠOs": 8720,
      "egas": 8721,
      "Ġdeposit": 8722,
      "Ġratio": 8723,
      "ĠÑ": 8724,
      "Ġcarpet": 8725,
      "Ġinterviews": 8726,
      "Have": 8727,
      "zed": 8728,
      "Ġbrilliant": 8729,
      "Ġgap": 8730,
      "Ġpoliticians": 8731,
      "Ġflower": 8732,
      "Ġpursue": 8733,
      "ĠNatural": 8734,
      "Ġstuck": 8735,
      "ĠKim": 8736,
      "ĠMinistry": 8737,
      "ĠDa": 8738,
      "ĠSav": 8739,
      "Ġdesignated": 8740,
      "83": 8741,
      "isted": 8742,
      "ĠDavis": 8743,
      "62": 8744,
      "Ġski": 8745,
      "Ġofficially": 8746,
      "ĠAlexander": 8747,
      "Ġillegal": 8748,
      "Ġresidence": 8749,
      "Ġphenomen": 8750,
      "Ġcrash": 8751,
      "Ġbroke": 8752,
      "Ġbasically": 8753,
      "Ġimper": 8754,
      "Ġoblig": 8755,
      "ĠTen": 8756,
      "ĠMoreover": 8757,
      "ĠArizona": 8758,
      "Ġfur": 8759,
      "Ġtechnological": 8760,
      "Ġclassical": 8761,
      "Ġrust": 8762,
      "oves": 8763,
      "Ġlifetime": 8764,
      "ĠAdministration": 8765,
      "%,": 8766,
      "eters": 8767,
      "ĠAssembly": 8768,
      "ĠName": 8769,
      "Ġ2023": 8770,
      "iox": 8771,
      "RI": 8772,
      "oa": 8773,
      "Ġsomewhere": 8774,
      "Ġ39": 8775,
      "Ġdivor": 8776,
      "Ġsexual": 8777,
      "izza": 8778,
      "Ġinstitution": 8779,
      "ĠMassachusetts": 8780,
      "stall": 8781,
      "Ġstead": 8782,
      "Ġtwenty": 8783,
      "ĠNever": 8784,
      "ĠSilver": 8785,
      "Ġthreats": 8786,
      "Ġfounder": 8787,
      "bel": 8788,
      "Ġarrival": 8789,
      "Per": 8790,
      "ĠRome": 8791,
      "iki": 8792,
      "Ġemployed": 8793,
      "Ġencounter": 8794,
      "Ġalleged": 8795,
      "Ġinsect": 8796,
      "ayer": 8797,
      "ĠBru": 8798,
      "ĠDri": 8799,
      "Ġprovision": 8800,
      "Ġlocally": 8801,
      "ori": 8802,
      "ĠBol": 8803,
      "300": 8804,
      "ĠFriend": 8805,
      "ĠDeath": 8806,
      "Ġattach": 8807,
      "tical": 8808,
      "Ġpleasure": 8809,
      "Ġequivalent": 8810,
      "61": 8811,
      "Ġcotton": 8812,
      "Also": 8813,
      "Ġpodcast": 8814,
      "ĠRod": 8815,
      "Ġelegant": 8816,
      "FC": 8817,
      "Ġracing": 8818,
      "Ġbalanced": 8819,
      "ĠOntario": 8820,
      "Ġlasting": 8821,
      "Ġtension": 8822,
      "Ġwarn": 8823,
      "ĠTok": 8824,
      "urches": 8825,
      "ĠAgency": 8826,
      "ĠBroad": 8827,
      "ĠSearch": 8828,
      "ĠAbs": 8829,
      "abil": 8830,
      "Ġemotion": 8831,
      "Ġfluid": 8832,
      "otics": 8833,
      "ova": 8834,
      "Ġstrike": 8835,
      "Ġpubl": 8836,
      "Ġunderstood": 8837,
      "Ġnob": 8838,
      "Ġathletes": 8839,
      "Of": 8840,
      "rog": 8841,
      "Ġdistingu": 8842,
      "Ġencouraging": 8843,
      "Ġshapes": 8844,
      "ĠUlt": 8845,
      "Ġdiscrimination": 8846,
      "Ġadopt": 8847,
      "Ġenthusi": 8848,
      "foot": 8849,
      "ocracy": 8850,
      "Ġloose": 8851,
      "Ġrespective": 8852,
      "Ġsemi": 8853,
      "Ġfib": 8854,
      "iler": 8855,
      "Ġoils": 8856,
      "Ġcelebrated": 8857,
      "Ġlake": 8858,
      "Ġlaugh": 8859,
      "ĠRom": 8860,
      "ĠNations": 8861,
      "ĠEnjoy": 8862,
      "Ġdisplays": 8863,
      "Ġborrow": 8864,
      "ĠMA": 8865,
      "Ġjazz": 8866,
      "Ġstrange": 8867,
      "earing": 8868,
      "Ġimpacted": 8869,
      "Ġprovince": 8870,
      "Pe": 8871,
      "Ġdiscussions": 8872,
      "Ġphotographs": 8873,
      "Ġecosystems": 8874,
      "Each": 8875,
      "ervations": 8876,
      "Ġinjured": 8877,
      "Ġdifficulty": 8878,
      "Ġaccommodation": 8879,
      "gi": 8880,
      "run": 8881,
      "asty": 8882,
      "Ġdescribes": 8883,
      "ĠAgain": 8884,
      "Ġdowntown": 8885,
      "Ġdevelopments": 8886,
      "ĠLimited": 8887,
      "HA": 8888,
      "ds": 8889,
      "ĠStock": 8890,
      "Ġmuscles": 8891,
      "Ġstrongly": 8892,
      "Ġpilot": 8893,
      "Ġcomplicated": 8894,
      "63": 8895,
      "Ġdiagram": 8896,
      "Ġseam": 8897,
      "ĠOak": 8898,
      "Ġediting": 8899,
      "Ġfruits": 8900,
      "Ġhits": 8901,
      "Ġstood": 8902,
      "Ġminister": 8903,
      "ĠBeaut": 8904,
      "Ġsituated": 8905,
      "Pre": 8906,
      "Ġreact": 8907,
      "ĠCountry": 8908,
      "EST": 8909,
      "Ġsurprising": 8910,
      "Ġsen": 8911,
      "anned": 8912,
      "ĠBern": 8913,
      "ĠFun": 8914,
      "holder": 8915,
      "zzle": 8916,
      "Ġportray": 8917,
      "Ġrailway": 8918,
      "ĠMind": 8919,
      "Ġemployer": 8920,
      "Ġindependence": 8921,
      "71": 8922,
      "Ġmolec": 8923,
      "Mar": 8924,
      "pool": 8925,
      "apes": 8926,
      "Ġattitude": 8927,
      "Ġconvenience": 8928,
      "itate": 8929,
      "Ġholidays": 8930,
      "world": 8931,
      "Ġsatisfied": 8932,
      "Ġpounds": 8933,
      "ilation": 8934,
      "Ġcasual": 8935,
      "See": 8936,
      "ĠPsych": 8937,
      "Ġvisits": 8938,
      "irds": 8939,
      "Ġcrazy": 8940,
      "Ġinvolvement": 8941,
      "adelphia": 8942,
      "ĠSU": 8943,
      "owered": 8944,
      "Ġhyper": 8945,
      "Ġmic": 8946,
      "ĠChall": 8947,
      "Ġchest": 8948,
      "Ġaccounting": 8949,
      "Ġefficiently": 8950,
      "Ġpassengers": 8951,
      "itting": 8952,
      "oding": 8953,
      "Ġfalling": 8954,
      "Ġpulled": 8955,
      "alities": 8956,
      "Ġrecon": 8957,
      "Ġvertical": 8958,
      "Ġopposed": 8959,
      "ĠSenior": 8960,
      "Ġtomorrow": 8961,
      "08": 8962,
      "Ġtum": 8963,
      "ĠBad": 8964,
      "ogy": 8965,
      "Even": 8966,
      "Ġlens": 8967,
      "Ġtargets": 8968,
      "Ke": 8969,
      "iac": 8970,
      "Ġfing": 8971,
      "rot": 8972,
      "style": 8973,
      "ĠRa": 8974,
      "duction": 8975,
      "ĠUnivers": 8976,
      "Ġsurvival": 8977,
      "ĠCapt": 8978,
      "Ġpreserve": 8979,
      "Ġaudiences": 8980,
      "Ġprotest": 8981,
      "ĠAk": 8982,
      "Ġsetup": 8983,
      "Ġlesson": 8984,
      "Ġparks": 8985,
      "Ġperm": 8986,
      "rible": 8987,
      "Ġconsultation": 8988,
      "Ġmotivated": 8989,
      "Where": 8990,
      "Ġfits": 8991,
      "roit": 8992,
      "Ġcha": 8993,
      "Ġactress": 8994,
      "Ġtile": 8995,
      "Ġvintage": 8996,
      "pection": 8997,
      "Ġ||": 8998,
      "Ġlicensed": 8999,
      "ĠTaylor": 9000,
      "Ġarray": 9001,
      "Ġcultiv": 9002,
      "ĠArchitect": 9003,
      "Ġupgrade": 9004,
      "RL": 9005,
      "ĠRub": 9006,
      "ĠKar": 9007,
      "Ġphones": 9008,
      "ĠPolish": 9009,
      "Ġbrush": 9010,
      "Ġequally": 9011,
      "ĠIslands": 9012,
      "ĠPrice": 9013,
      "Ġdefeated": 9014,
      "stract": 9015,
      "Ġterritory": 9016,
      "jo": 9017,
      "Ġtowns": 9018,
      "heim": 9019,
      "Ġboards": 9020,
      "Ġexplo": 9021,
      "Ġharder": 9022,
      "Ġautomation": 9023,
      "Ġcomedy": 9024,
      "ĠRevolution": 9025,
      "Ġaged": 9026,
      "regon": 9027,
      "Ġsurrounded": 9028,
      "Ġalumin": 9029,
      "Ġcourts": 9030,
      "Ġbid": 9031,
      "Ġhiring": 9032,
      "Ġoppon": 9033,
      "Ġcater": 9034,
      "ĠBell": 9035,
      "ĠScottish": 9036,
      "Finally": 9037,
      "Ġasp": 9038,
      "ĠBand": 9039,
      "aine": 9040,
      "Ġpermit": 9041,
      "Ġfewer": 9042,
      "Ġbacteria": 9043,
      "Ġfinger": 9044,
      "Ġpig": 9045,
      "Ġscope": 9046,
      "Ġemails": 9047,
      "Ġsettlement": 9048,
      "press": 9049,
      "erly": 9050,
      "acious": 9051,
      "ogs": 9052,
      "Ġrestore": 9053,
      "Ġemployers": 9054,
      "Ġfalls": 9055,
      "ashes": 9056,
      "Ġguided": 9057,
      "Ġ1986": 9058,
      "Ġtransparency": 9059,
      "Ġrefers": 9060,
      "Ġworkout": 9061,
      "imental": 9062,
      "Ġtape": 9063,
      "Ġgiant": 9064,
      "ĠShould": 9065,
      "Ġequity": 9066,
      "Ġrequested": 9067,
      "VER": 9068,
      "vision": 9069,
      "ĠHun": 9070,
      "Ġposting": 9071,
      "Ġinfection": 9072,
      "Ġpepper": 9073,
      "Ġ65": 9074,
      "Ġwithdraw": 9075,
      "ĠNorm": 9076,
      "def": 9077,
      "rity": 9078,
      "Ġ)": 9079,
      "ĠCP": 9080,
      "Ġdrum": 9081,
      "Ġsubscrib": 9082,
      "Ġrestrictions": 9083,
      "Ġdisaster": 9084,
      "Ġsignature": 9085,
      "Ġsuspect": 9086,
      "star": 9087,
      "ellite": 9088,
      "Ġrefund": 9089,
      "ĠElizabeth": 9090,
      "Ġempty": 9091,
      "Ġroots": 9092,
      "Ġinventory": 9093,
      "ĠSales": 9094,
      "acher": 9095,
      "Ġmodule": 9096,
      "ĠEnc": 9097,
      "Ġouts": 9098,
      "Ġcomputers": 9099,
      "Ġsubstantial": 9100,
      "84": 9101,
      "charge": 9102,
      "ĠOS": 9103,
      "Ġinclusion": 9104,
      "olis": 9105,
      "char": 9106,
      "Ġstere": 9107,
      "ĠRaj": 9108,
      "ĠKorean": 9109,
      "Ġrhyth": 9110,
      "Ġportra": 9111,
      "09": 9112,
      "incoln": 9113,
      "Ġ37": 9114,
      "Ġartwork": 9115,
      "Ġfrequent": 9116,
      "Ġwarranty": 9117,
      "EP": 9118,
      "elfare": 9119,
      "Ġartificial": 9120,
      "ĠLuc": 9121,
      "ĠOtt": 9122,
      "onder": 9123,
      "Ġretain": 9124,
      "Ġ1987": 9125,
      "Ġmurder": 9126,
      "wall": 9127,
      "Ġclosing": 9128,
      "ĠSeat": 9129,
      "Ġidentifying": 9130,
      "igious": 9131,
      "ĠMap": 9132,
      "Ġshouldn": 9133,
      "Ġque": 9134,
      "Ġheaded": 9135,
      "ĠTal": 9136,
      "Ġdrain": 9137,
      "Ġraising": 9138,
      "Ġwins": 9139,
      "ologists": 9140,
      "Ġconversion": 9141,
      "ĠCit": 9142,
      "ĠAh": 9143,
      "ima": 9144,
      "Ġexists": 9145,
      "inton": 9146,
      "coin": 9147,
      "Ġbills": 9148,
      "Ġcurriculum": 9149,
      "ĠExam": 9150,
      "Ġwinners": 9151,
      "Reg": 9152,
      "Ġmild": 9153,
      "Ġinequality": 9154,
      "Ġrefresh": 9155,
      "Ġencount": 9156,
      "asted": 9157,
      "2018": 9158,
      "Ġreveal": 9159,
      "Ġear": 9160,
      "Ġregulation": 9161,
      "ĠKentucky": 9162,
      "Ġhate": 9163,
      "ĠPra": 9164,
      "ĠFact": 9165,
      "Ġcontainer": 9166,
      "Ġdiscovery": 9167,
      "Ġsacr": 9168,
      "ĠHou": 9169,
      "Then": 9170,
      "acon": 9171,
      "Ġimmune": 9172,
      "Ġdanger": 9173,
      "Ġmitigate": 9174,
      "53": 9175,
      "Great": 9176,
      "Press": 9177,
      "Ġconvin": 9178,
      "ĠWi": 9179,
      "ĠVery": 9180,
      "ĠBeing": 9181,
      "Ġcolours": 9182,
      "cling": 9183,
      "Ġwaves": 9184,
      "Ġintention": 9185,
      "Ġfunny": 9186,
      "Ġroutes": 9187,
      "Ġsafely": 9188,
      "akh": 9189,
      "isa": 9190,
      "Ġconfiguration": 9191,
      "Ġconsent": 9192,
      "Ġrefriger": 9193,
      "ĠMachine": 9194,
      "Ġconventional": 9195,
      "Ġincorporated": 9196,
      "Ġconnecting": 9197,
      "LY": 9198,
      "Ġoverview": 9199,
      "Ġeverywhere": 9200,
      "Ġprime": 9201,
      "ĠSant": 9202,
      "chain": 9203,
      "Ġminimize": 9204,
      "achelor": 9205,
      "ustain": 9206,
      "Ġgrateful": 9207,
      "ĠWars": 9208,
      "Ġexplains": 9209,
      "ĠStudio": 9210,
      "ĠResp": 9211,
      "Ġsubsequent": 9212,
      "Ġhun": 9213,
      "ĠEvent": 9214,
      "ĠOil": 9215,
      "Ġaccommodate": 9216,
      "ĠAlp": 9217,
      "ĠBa": 9218,
      "Ġabund": 9219,
      "ĠOfficer": 9220,
      "Ġprohib": 9221,
      "ĠRepresent": 9222,
      "Ġtill": 9223,
      "ĠCru": 9224,
      "2019": 9225,
      "ĠClin": 9226,
      "BM": 9227,
      "Ġsectors": 9228,
      "izations": 9229,
      "ĠTurkey": 9230,
      "ĠLater": 9231,
      "Ġdiabetes": 9232,
      "ĠEmploy": 9233,
      "ĠAuto": 9234,
      "unct": 9235,
[...]
