{
  "version": "1.0",
  "truncation": null,
  "padding": null,
  "added_tokens": [
    {
      "id": 0,
      "content": "[UNK]",
      "single_word": false,
      "lstrip": false,
      "rstrip": false,
      "normalized": false,
      "special": true
    },
    {
      "id": 1,
      "content": "[PAD]",
      "single_word": false,
      "lstrip": false,
      "rstrip": false,
      "normalized": false,
      "special": true
    },
    {
      "id": 2,
      "content": "[CLS]",
      "single_word": false,
      "lstrip": false,
      "rstrip": false,
      "normalized": false,
      "special": true
    },
    {
      "id": 3,
      "content": "[SEP]",
      "single_word": false,
      "lstrip": false,
      "rstrip": false,
      "normalized": false,
      "special": true
    }
  ],
  "normalizer": null,
  "pre_tokenizer": {
    "type": "Metaspace",
    "replacement": " ",
    "prepend_scheme": "always",
    "split": true
  },
  "post_processor": null,
  "decoder": {
    "type": "Metaspace",
    "replacement": " ",
    "prepend_scheme": "always",
    "split": true
  },
  "model": {
    "type": "BPE",
    "dropout": null,
    "unk_token": "[UNK]",
    "continuing_subword_prefix": null,
    "end_of_word_suffix": null,
    "fuse_unk": false,
    "byte_fallback": false,
    "ignore_merges": false,
    "vocab": {
      "[UNK]": 0,
      "[PAD]": 1,
      "[CLS]": 2,
      "[SEP]": 3,
      "\t": 4,
      "\n": 5,
      " ": 6,
      "!": 7,
      "\"": 8,
      "#": 9,
      "$": 10,
      "%": 11,
      "&": 12,
      "'": 13,
      "(": 14,
      ")": 15,
      "*": 16,
      "+": 17,
      ",": 18,
      "-": 19,
      ".": 20,
      "/": 21,
      "0": 22,
      "1": 23,
      "2": 24,
      "3": 25,
      "4": 26,
      "5": 27,
      "6": 28,
      "7": 29,
      "8": 30,
      "9": 31,
      ":": 32,
      ";": 33,
      "<": 34,
      "=": 35,
      ">": 36,
      "?": 37,
      "@": 38,
      "A": 39,
      "B": 40,
      "C": 41,
      "D": 42,
      "E": 43,
      "F": 44,
      "G": 45,
      "H": 46,
      "I": 47,
      "J": 48,
      "K": 49,
      "L": 50,
      "M": 51,
      "N": 52,
      "O": 53,
      "P": 54,
      "Q": 55,
      "R": 56,
      "S": 57,
      "T": 58,
      "U": 59,
      "V": 60,
      "W": 61,
      "X": 62,
      "Y": 63,
      "Z": 64,
      "[": 65,
      "\\": 66,
      "]": 67,
      "^": 68,
      "_": 69,
      "`": 70,
      "a": 71,
      "b": 72,
      "c": 73,
      "d": 74,
      "e": 75,
      "f": 76,
      "g": 77,
      "h": 78,
      "i": 79,
      "j": 80,
      "k": 81,
      "l": 82,
      "m": 83,
      "n": 84,
      "o": 85,
      "p": 86,
      "q": 87,
      "r": 88,
      "s": 89,
      "t": 90,
      "u": 91,
      "v": 92,
      "w": 93,
      "x": 94,
      "y": 95,
      "z": 96,
      "{": 97,
      "|": 98,
      "}": 99,
      "~": 100,
      "": 101,
      "": 102,
      "": 103,
      " ": 104,
      "¡": 105,
      "¢": 106,
      "£": 107,
      "¤": 108,
      "¥": 109,
      "¦": 110,
      "§": 111,
      "¨": 112,
      "©": 113,
      "ª": 114,
      "«": 115,
      "¬": 116,
      "­": 117,
      "®": 118,
      "¯": 119,
      "°": 120,
      "±": 121,
      "²": 122,
      "³": 123,
      "´": 124,
      "µ": 125,
      "¶": 126,
      "·": 127,
      "¹": 128,
      "º": 129,
      "»": 130,
      "¼": 131,
      "½": 132,
      "¾": 133,
      "¿": 134,
      "Æ": 135,
      "Ð": 136,
      "×": 137,
      "Ø": 138,
      "Þ": 139,
      "ß": 140,
      "æ": 141,
      "ð": 142,
      "÷": 143,
      "ø": 144,
      "þ": 145,
      "Đ": 146,
      "đ": 147,
      "Ħ": 148,
      "ħ": 149,
      "ı": 150,
      "Ŀ": 151,
      "ŀ": 152,
      "Ł": 153,
      "ł": 154,
      "ŋ": 155,
      "Œ": 156,
      "œ": 157,
      "Ŧ": 158,
      "ſ": 159,
      "Ƅ": 160,
      "ƅ": 161,
      "Ɗ": 162,
      "Ǝ": 163,
      "Ə": 164,
      "ƒ": 165,
      "Ɣ": 166,
      "Ɩ": 167,
      "ƙ": 168,
      "ƛ": 169,
      "Ƭ": 170,
      "Ʒ": 171,
      "Ƹ": 172,
      "ƿ": 173,
      "ǀ": 174,
      "ǁ": 175,
      "ǂ": 176,
      "ǝ": 177,
      "ȝ": 178,
      "ȣ": 179,
      "Ȼ": 180,
      "ɂ": 181,
      "ɐ": 182,
      "ɑ": 183,
      "ɒ": 184,
      "ɔ": 185,
      "ɕ": 186,
      "ɗ": 187,
      "ə": 188,
      "ɛ": 189,
      "ɜ": 190,
      "ɡ": 191,
      "ɣ": 192,
      "ɦ": 193,
      "ɧ": 194,
      "ɨ": 195,
      "ɪ": 196,
      "ɫ": 197,
      "ɬ": 198,
      "ɯ": 199,
      "ɲ": 200,
      "ɵ": 201,
      "ɹ": 202,
      "ɻ": 203,
      "ɾ": 204,
      "ʁ": 205,
      "ʃ": 206,
      "ʉ": 207,
      "ʊ": 208,
      "ʌ": 209,
      "ʎ": 210,
      "ʏ": 211,
      "ʒ": 212,
      "ʔ": 213,
      "ʕ": 214,
      "ʝ": 215,
      "ʟ": 216,
      "ʰ": 217,
      "ʱ": 218,
      "ʲ": 219,
      "ʷ": 220,
      "ʹ": 221,
      "ʺ": 222,
      "ʻ": 223,
      "ʽ": 224,
      "ʾ": 225,
      "ʿ": 226,
      "ˀ": 227,
      "˄": 228,
      "˅": 229,
      "ˆ": 230,
      "ˇ": 231,
      "ˈ": 232,
      "ˌ": 233,
      "ː": 234,
      "˚": 235,
      "˛": 236,
      "˜": 237,
      "˝": 238,
      "ˠ": 239,
      "˥": 240,
      "˦": 241,
      "˧": 242,
      "˨": 243,
      "˩": 244,
      "ˮ": 245,
      "˹": 246,
      "˺": 247,
      "΄": 248,
      "Α": 249,
      "Β": 250,
      "Γ": 251,
      "Δ": 252,
      "Ε": 253,
      "Ζ": 254,
      "Η": 255,
      "Θ": 256,
      "Ι": 257,
      "Κ": 258,
      "Λ": 259,
      "Μ": 260,
      "Ν": 261,
      "Ξ": 262,
      "Ο": 263,
      "Π": 264,
      "Ρ": 265,
      "Σ": 266,
      "Τ": 267,
      "Υ": 268,
      "Φ": 269,
      "Χ": 270,
      "Ψ": 271,
      "Ω": 272,
      "α": 273,
      "β": 274,
      "γ": 275,
      "δ": 276,
      "ε": 277,
      "ζ": 278,
      "η": 279,
      "θ": 280,
      "ι": 281,
      "κ": 282,
      "λ": 283,
      "μ": 284,
      "ν": 285,
      "ξ": 286,
      "ο": 287,
      "π": 288,
      "ρ": 289,
      "ς": 290,
      "σ": 291,
      "τ": 292,
      "υ": 293,
      "φ": 294,
      "χ": 295,
      "ψ": 296,
      "ω": 297,
      "ϑ": 298,
      "ϕ": 299,
      "Ϝ": 300,
      "Ϣ": 301,
      "Ϫ": 302,
      "ϲ": 303,
      "ϳ": 304,
      "ϵ": 305,
      "Ϲ": 306,
      "ϻ": 307,
      "Ђ": 308,
      "Є": 309,
      "Ѕ": 310,
      "І": 311,
      "Ј": 312,
      "Ћ": 313,
      "А": 314,
      "Б": 315,
      "В": 316,
      "Г": 317,
      "Д": 318,
      "Е": 319,
      "Ж": 320,
      "З": 321,
      "И": 322,
      "К": 323,
      "Л": 324,
      "М": 325,
      "Н": 326,
      "О": 327,
      "П": 328,
      "Р": 329,
      "С": 330,
      "Т": 331,
      "У": 332,
      "Ф": 333,
      "Х": 334,
      "Ц": 335,
      "Ч": 336,
      "Ш": 337,
      "Щ": 338,
      "Ы": 339,
      "Ь": 340,
      "Э": 341,
      "Ю": 342,
      "Я": 343,
      "а": 344,
      "б": 345,
      "в": 346,
      "г": 347,
      "д": 348,
      "е": 349,
      "ж": 350,
      "з": 351,
      "и": 352,
      "к": 353,
      "л": 354,
      "м": 355,
      "н": 356,
      "о": 357,
      "п": 358,
      "р": 359,
      "с": 360,
      "т": 361,
      "у": 362,
      "ф": 363,
      "х": 364,
      "ц": 365,
      "ч": 366,
      "ш": 367,
      "щ": 368,
      "ъ": 369,
      "ы": 370,
      "ь": 371,
      "э": 372,
      "ю": 373,
      "я": 374,
      "ђ": 375,
      "є": 376,
      "ѕ": 377,
      "і": 378,
      "ј": 379,
      "љ": 380,
      "њ": 381,
      "ћ": 382,
      "џ": 383,
      "ѡ": 384,
      "ѣ": 385,
      "ѵ": 386,
      "Ґ": 387,
      "ґ": 388,
      "ғ": 389,
      "Қ": 390,
      "қ": 391,
      "ҝ": 392,
      "Ү": 393,
      "ү": 394,
      "ҷ": 395,
      "һ": 396,
      "Ӏ": 397,
      "ӏ": 398,
      "ө": 399,
      "Ԁ": 400,
      "ԁ": 401,
      "ԛ": 402,
      "Ԝ": 403,
      "ԝ": 404,
      "Ա": 405,
      "Բ": 406,
      "Գ": 407,
      "Դ": 408,
      "Զ": 409,
      "Ի": 410,
      "Խ": 411,
      "Կ": 412,
      "Հ": 413,
      "Յ": 414,
      "Ն": 415,
      "Ո": 416,
      "Պ": 417,
      "Ջ": 418,
      "Ս": 419,
      "Տ": 420,
      "Ր": 421,
      "ա": 422,
      "բ": 423,
      "գ": 424,
      "դ": 425,
      "ե": 426,
      "ը": 427,
      "թ": 428,
      "ի": 429,
      "լ": 430,
      "խ": 431,
      "ծ": 432,
      "կ": 433,
      "հ": 434,
      "ղ": 435,
      "մ": 436,
      "յ": 437,
      "ն": 438,
      "շ": 439,
      "ո": 440,
      "չ": 441,
      "պ": 442,
      "ռ": 443,
      "ս": 444,
      "վ": 445,
      "տ": 446,
      "ր": 447,
      "ց": 448,
      "ւ": 449,
      "ք": 450,
      "օ": 451,
      "׃": 452,
      "א": 453,
      "ב": 454,
      "ג": 455,
      "ד": 456,
      "ה": 457,
      "ו": 458,
      "ז": 459,
      "ח": 460,
      "ט": 461,
      "י": 462,
      "ך": 463,
      "כ": 464,
      "ל": 465,
      "ם": 466,
      "מ": 467,
      "ן": 468,
      "נ": 469,
      "ס": 470,
      "ע": 471,
      "ף": 472,
      "פ": 473,
      "ץ": 474,
      "צ": 475,
      "ק": 476,
      "ר": 477,
      "ש": 478,
      "ת": 479,
      "װ": 480,
      "׳": 481,
      "،": 482,
      "؛": 483,
      "؟": 484,
      "ء": 485,
      "ا": 486,
      "ب": 487,
      "ة": 488,
      "ت": 489,
      "ث": 490,
      "ج": 491,
      "ح": 492,
      "خ": 493,
      "د": 494,
      "ذ": 495,
      "ر": 496,
      "ز": 497,
      "س": 498,
      "ش": 499,
      "ص": 500,
      "ض": 501,
      "ط": 502,
      "ظ": 503,
      "ع": 504,
      "غ": 505,
      "ـ": 506,
      "ف": 507,
      "ق": 508,
      "ك": 509,
      "ل": 510,
      "م": 511,
      "ن": 512,
      "ه": 513,
      "و": 514,
      "ى": 515,
      "ي": 516,
      "٫": 517,
      "٭": 518,
      "ٱ": 519,
      "ٹ": 520,
      "پ": 521,
      "چ": 522,
      "ڈ": 523,
      "ڑ": 524,
      "ژ": 525,
      "ڠ": 526,
      "ک": 527,
      "ګ": 528,
      "گ": 529,
      "ں": 530,
      "ھ": 531,
      "ہ": 532,
      "ۆ": 533,
      "ی": 534,
      "ے": 535,
      "۔": 536,
      "۝": 537,
      "۰": 538,
      "۱": 539,
      "۲": 540,
      "۵": 541,
      "۸": 542,
      "۹": 543,
      "ۼ": 544,
      "ܐ": 545,
      "ܒ": 546,
      "ܕ": 547,
      "ܘ": 548,
      "ܙ": 549,
      "ܝ": 550,
      "ܟ": 551,
      "ܠ": 552,
      "ܡ": 553,
      "ܢ": 554,
      "ܣ": 555,
      "ܥ": 556,
      "ܦ": 557,
      "ܪ": 558,
      "ܬ": 559,
      "ߋ": 560,
      "ः": 561,
      "अ": 562,
      "आ": 563,
      "इ": 564,
      "ई": 565,
      "उ": 566,
      "ए": 567,
      "ऑ": 568,
      "ओ": 569,
      "औ": 570,
      "क": 571,
      "ख": 572,
      "ग": 573,
      "घ": 574,
      "ङ": 575,
      "च": 576,
      "छ": 577,
      "ज": 578,
      "झ": 579,
      "ञ": 580,
      "ट": 581,
      "ठ": 582,
      "ड": 583,
      "ढ": 584,
      "ण": 585,
      "त": 586,
      "थ": 587,
      "द": 588,
      "ध": 589,
      "न": 590,
      "प": 591,
      "फ": 592,
      "ब": 593,
      "भ": 594,
      "म": 595,
      "य": 596,
      "र": 597,
      "ल": 598,
      "ळ": 599,
      "व": 600,
      "श": 601,
      "ष": 602,
      "स": 603,
      "ह": 604,
      "ा": 605,
      "ि": 606,
      "ी": 607,
      "ॉ": 608,
      "ॊ": 609,
      "ो": 610,
      "ौ": 611,
      "।": 612,
      "१": 613,
      "२": 614,
      "३": 615,
      "५": 616,
      "ং": 617,
      "অ": 618,
      "আ": 619,
      "ই": 620,
      "এ": 621,
      "ও": 622,
      "ক": 623,
      "খ": 624,
      "গ": 625,
      "চ": 626,
      "ছ": 627,
      "জ": 628,
      "ট": 629,
      "ঠ": 630,
      "ড": 631,
      "ণ": 632,
      "ত": 633,
      "থ": 634,
      "দ": 635,
      "ধ": 636,
      "ন": 637,
      "প": 638,
      "ফ": 639,
      "ব": 640,
      "ভ": 641,
      "ম": 642,
      "য": 643,
      "র": 644,
      "ল": 645,
      "শ": 646,
      "ষ": 647,
      "স": 648,
      "হ": 649,
      "া": 650,
      "ি": 651,
      "ী": 652,
      "ে": 653,
      "ৈ": 654,
      "ৰ": 655,
      "৳": 656,
      "ਅ": 657,
      "ਆ": 658,
      "ਉ": 659,
      "ਏ": 660,
      "ਕ": 661,
      "ਖ": 662,
      "ਗ": 663,
      "ਜ": 664,
      "ਟ": 665,
      "ਣ": 666,
      "ਤ": 667,
      "ਥ": 668,
      "ਦ": 669,
      "ਨ": 670,
      "ਪ": 671,
      "ਬ": 672,
      "ਮ": 673,
      "ਰ": 674,
      "ਵ": 675,
      "ਸ": 676,
      "ਹ": 677,
      "ਾ": 678,
      "ਿ": 679,
      "ੀ": 680,
      "ઘ": 681,
      "ડ": 682,
      "દ": 683,
      "પ": 684,
      "ર": 685,
      "ા": 686,
      "ી": 687,
      "ଂ": 688,
      "ଇ": 689,
      "ଜ": 690,
      "ର": 691,
      "ା": 692,
      "ୀ": 693,
      "୦": 694,
      "୧": 695,
      "୨": 696,
      "୩": 697,
      "இ": 698,
      "உ": 699,
      "ஒ": 700,
      "க": 701,
      "ங": 702,
      "ச": 703,
      "ட": 704,
      "ண": 705,
      "த": 706,
      "ந": 707,
      "ன": 708,
      "ப": 709,
      "ம": 710,
      "ய": 711,
      "ர": 712,
      "ற": 713,
      "ல": 714,
      "ள": 715,
      "ழ": 716,
      "வ": 717,
      "ா": 718,
      "ி": 719,
      "ு": 720,
      "ூ": 721,
      "ெ": 722,
      "ே": 723,
      "ை": 724,
      "ం": 725,
      "అ": 726,
      "ఆ": 727,
      "ఉ": 728,
      "ఎ": 729,
      "క": 730,
      "గ": 731,
      "జ": 732,
      "ట": 733,
      "డ": 734,
      "త": 735,
      "ద": 736,
      "న": 737,
      "ప": 738,
      "భ": 739,
      "మ": 740,
      "ర": 741,
      "ల": 742,
      "వ": 743,
      "ష": 744,
      "స": 745,
      "ు": 746,
      "ಂ": 747,
      "ಆ": 748,
      "ಉ": 749,
      "ಒ": 750,
      "ಕ": 751,
      "ಖ": 752,
      "ಗ": 753,
      "ಜ": 754,
      "ಞ": 755,
      "ಟ": 756,
      "ಠ": 757,
      "ಡ": 758,
      "ತ": 759,
      "ದ": 760,
      "ಧ": 761,
      "ನ": 762,
      "ಪ": 763,
      "ಫ": 764,
      "ಬ": 765,
      "ಭ": 766,
      "ಮ": 767,
      "ಯ": 768,
      "ರ": 769,
      "ಳ": 770,
      "ವ": 771,
      "ಷ": 772,
      "ಸ": 773,
      "ಾ": 774,
      "ು": 775,
      "ೃ": 776,
      "ೕ": 777,
      "ೖ": 778,
      "ആ": 779,
      "ക": 780,
      "ഗ": 781,
      "ങ": 782,
      "ച": 783,
      "ജ": 784,
      "ഞ": 785,
      "ട": 786,
      "ഡ": 787,
      "ണ": 788,
      "ത": 789,
      "ദ": 790,
      "ന": 791,
      "മ": 792,
      "യ": 793,
      "ര": 794,
      "റ": 795,
      "ല": 796,
      "ള": 797,
      "സ": 798,
      "ഹ": 799,
      "ാ": 800,
      "ി": 801,
      "െ": 802,
      "േ": 803,
      "ൽ": 804,
      "ං": 805,
      "අ": 806,
      "ඇ": 807,
      "උ": 808,
      "එ": 809,
      "ක": 810,
      "ග": 811,
      "ඝ": 812,
      "ඟ": 813,
      "ච": 814,
      "ජ": 815,
      "ට": 816,
      "ඩ": 817,
      "ණ": 818,
      "ත": 819,
      "ථ": 820,
      "ද": 821,
      "ධ": 822,
      "න": 823,
      "ඳ": 824,
      "ප": 825,
      "බ": 826,
      "භ": 827,
      "ම": 828,
      "ඹ": 829,
      "ය": 830,
      "ර": 831,
      "ල": 832,
      "ව": 833,
      "ශ": 834,
      "ෂ": 835,
      "ස": 836,
      "හ": 837,
      "ළ": 838,
      "ා": 839,
      "ැ": 840,
      "ෑ": 841,
      "ෙ": 842,
      "ෟ": 843,
      "ก": 844,
      "ข": 845,
      "ค": 846,
      "ง": 847,
      "จ": 848,
      "ฉ": 849,
      "ช": 850,
      "ซ": 851,
      "ญ": 852,
      "ฐ": 853,
      "ฒ": 854,
      "ณ": 855,
      "ด": 856,
      "ต": 857,
      "ถ": 858,
      "ท": 859,
      "ธ": 860,
      "น": 861,
      "บ": 862,
      "ป": 863,
      "ผ": 864,
      "พ": 865,
      "ฟ": 866,
      "ภ": 867,
      "ม": 868,
      "ย": 869,
      "ร": 870,
      "ฤ": 871,
      "ล": 872,
      "ว": 873,
      "ศ": 874,
      "ษ": 875,
      "ส": 876,
      "ห": 877,
      "อ": 878,
      "ะ": 879,
      "า": 880,
      "ำ": 881,
      "฿": 882,
      "เ": 883,
      "แ": 884,
      "โ": 885,
      "ใ": 886,
      "ไ": 887,
      "ๆ": 888,
      "๑": 889,
      "๒": 890,
      "๔": 891,
      "๕": 892,
      "๖": 893,
      "๘": 894,
      "་": 895,
      "ཉ": 896,
      "က": 897,
      "ခ": 898,
      "င": 899,
      "စ": 900,
      "ဇ": 901,
      "ည": 902,
      "တ": 903,
      "ထ": 904,
      "န": 905,
      "ပ": 906,
      "မ": 907,
      "ရ": 908,
      "ဝ": 909,
      "သ": 910,
      "အ": 911,
      "ါ": 912,
      "ာ": 913,
      "ေ": 914,
      "း": 915,
      "ျ": 916,
      "ြ": 917,
      "၀": 918,
      "၁": 919,
      "၂": 920,
      "၄": 921,
      "Ⴝ": 922,
      "ა": 923,
      "ბ": 924,
      "დ": 925,
      "ე": 926,
      "ვ": 927,
      "ზ": 928,
      "თ": 929,
      "ი": 930,
      "კ": 931,
      "ლ": 932,
      "მ": 933,
      "ნ": 934,
      "ო": 935,
      "პ": 936,
      "რ": 937,
      "ს": 938,
      "ტ": 939,
      "უ": 940,
      "ქ": 941,
      "ღ": 942,
      "შ": 943,
      "წ": 944,
      "ხ": 945,
      "ᄀ": 946,
      "ᄁ": 947,
      "ᄂ": 948,
      "ᄃ": 949,
      "ᄄ": 950,
      "ᄅ": 951,
      "ᄆ": 952,
      "ᄇ": 953,
      "ᄈ": 954,
      "ᄉ": 955,
      "ᄊ": 956,
      "ᄋ": 957,
      "ᄌ": 958,
      "ᄍ": 959,
      "ᄎ": 960,
      "ᄏ": 961,
      "ᄐ": 962,
      "ᄑ": 963,
      "ᄒ": 964,
      "ᅀ": 965,
      "ᅡ": 966,
      "ᅢ": 967,
      "ᅣ": 968,
      "ᅤ": 969,
      "ᅥ": 970,
      "ᅦ": 971,
      "ᅧ": 972,
      "ᅨ": 973,
      "ᅩ": 974,
      "ᅪ": 975,
      "ᅫ": 976,
      "ᅬ": 977,
      "ᅭ": 978,
      "ᅮ": 979,
      "ᅯ": 980,
      "ᅱ": 981,
      "ᅲ": 982,
      "ᅳ": 983,
      "ᅴ": 984,
      "ᅵ": 985,
      "ᆨ": 986,
      "ᆪ": 987,
      "ᆫ": 988,
      "ᆭ": 989,
      "ᆯ": 990,
      "ᆲ": 991,
      "ᆷ": 992,
      "ᆸ": 993,
      "ᆹ": 994,
      "ᆺ": 995,
      "ᆻ": 996,
      "ᆼ": 997,
      "ᆽ": 998,
      "ᇀ": 999,
      "ᇂ": 1000,
      "ሁ": 1001,
      "ሆ": 1002,
      "ሉ": 1003,
      "ል": 1004,
      "ሎ": 1005,
      "ሚ": 1006,
      "ማ": 1007,
      "ሜ": 1008,
      "ም": 1009,
      "ሩ": 1010,
      "ር": 1011,
      "ሰ": 1012,
      "ሳ": 1013,
      "ስ": 1014,
      "ሸ": 1015,
      "ቋ": 1016,
      "በ": 1017,
      "ቡ": 1018,
      "ብ": 1019,
      "ኑ": 1020,
      "ና": 1021,
      "ን": 1022,
      "ኛ": 1023,
      "አ": 1024,
      "ኤ": 1025,
      "ክ": 1026,
      "ወ": 1027,
      "ያ": 1028,
      "ደ": 1029,
      "ገ": 1030,
      "ግ": 1031,
      "ጎ": 1032,
      "ጤ": 1033,
      "ፓ": 1034,
      "Ꭰ": 1035,
      "Ꭲ": 1036,
      "Ꭺ": 1037,
      "Ꮃ": 1038,
      "Ꮇ": 1039,
      "Ꮋ": 1040,
      "Ꮤ": 1041,
      "Ꮪ": 1042,
      "Ꮮ": 1043,
      "Ꮯ": 1044,
      "ᐈ": 1045,
      "ᐏ": 1046,
      "ᐠ": 1047,
      "ᐢ": 1048,
      "ᐹ": 1049,
      "ᑎ": 1050,
      "ᒥ": 1051,
      "ᒪ": 1052,
      "ᓯ": 1053,
      "ᖇ": 1054,
      "᛬": 1055,
      "᜵": 1056,
      "᜶": 1057,
      "ᝃ": 1058,
      "ក": 1059,
      "ខ": 1060,
      "គ": 1061,
      "ង": 1062,
      "ច": 1063,
      "ជ": 1064,
      "ញ": 1065,
      "ឌ": 1066,
      "ណ": 1067,
      "ត": 1068,
      "ថ": 1069,
      "ទ": 1070,
      "ន": 1071,
      "ប": 1072,
      "ព": 1073,
      "ភ": 1074,
      "ម": 1075,
      "យ": 1076,
      "រ": 1077,
      "ល": 1078,
      "វ": 1079,
      "ឝ": 1080,
      "ស": 1081,
      "ឡ": 1082,
      "ឯ": 1083,
      "ា": 1084,
      "េ": 1085,
      "ែ": 1086,
      "ៃ": 1087,
      "៛": 1088,
      "ᠠ": 1089,
      "ᠨ": 1090,
      "ᠪ": 1091,
      "ᠮ": 1092,
      "ᠰ": 1093,
      "ᠵ": 1094,
      "ᡠ": 1095,
      "ᡥ": 1096,
      "ᡳ": 1097,
      "ᡶ": 1098,
      "ᢠ": 1099,
      "ᥙ": 1100,
      "ᥱ": 1101,
      "᧐": 1102,
      "ᮏ": 1103,
      "ᮝ": 1104,
      "ᴀ": 1105,
      "ᴇ": 1106,
      "ᴏ": 1107,
      "ᴜ": 1108,
      "ᴠ": 1109,
      "ᴡ": 1110,
      "ᴮ": 1111,
      "ᴿ": 1112,
      "ᵗ": 1113,
      "ẞ": 1114,
      "᾽": 1115,
      " ": 1116,
      " ": 1117,
      " ": 1118,
      " ": 1119,
      " ": 1120,
      " ": 1121,
      " ": 1122,
      "​": 1123,
      "‌": 1124,
      "‍": 1125,
      "‎": 1126,
      "‏": 1127,
      "‐": 1128,
      "‑": 1129,
      "‒": 1130,
      "–": 1131,
      "—": 1132,
      "―": 1133,
      "‖": 1134,
      "‗": 1135,
      "†": 1136,
      "‡": 1137,
      "•": 1138,
      "‣": 1139,
      "․": 1140,
      "…": 1141,
      "‧": 1142,
      "‪": 1143,
      "‬": 1144,
      "‭": 1145,
      " ": 1146,
      "‰": 1147,
      "′": 1148,
      "″": 1149,
      "‴": 1150,
      "‹": 1151,
      "›": 1152,
      "※": 1153,
      "‼": 1154,
      "‽": 1155,
      "‾": 1156,
      "⁂": 1157,
      "⁄": 1158,
      "⁎": 1159,
      "⁠": 1160,
      "⁢": 1161,
      "⁣": 1162,
      "⁦": 1163,
      "⁩": 1164,
      "⁰": 1165,
      "⁳": 1166,
      "⁴": 1167,
      "⁵": 1168,
      "⁶": 1169,
      "⁷": 1170,
      "⁹": 1171,
      "ⁿ": 1172,
      "₁": 1173,
      "₂": 1174,
      "₃": 1175,
      "₄": 1176,
      "ₙ": 1177,
      "₡": 1178,
      "₤": 1179,
      "₦": 1180,
      "₨": 1181,
      "₩": 1182,
      "€": 1183,
      "₱": 1184,
      "₴": 1185,
      "₵": 1186,
      "₹": 1187,
      "₽": 1188,
      "⃣": 1189,
      "℃": 1190,
      "℅": 1191,
      "℉": 1192,
      "ℏ": 1193,
      "ℓ": 1194,
      "№": 1195,
      "℗": 1196,
      "ℜ": 1197,
      "ℝ": 1198,
      "℠": 1199,
      "™": 1200,
      "℮": 1201,
      "⅓": 1202,
      "⅔": 1203,
      "⅕": 1204,
      "⅛": 1205,
      "⅜": 1206,
      "⅝": 1207,
      "⅞": 1208,
      "Ⅰ": 1209,
      "Ⅱ": 1210,
      "Ⅲ": 1211,
      "Ⅽ": 1212,
      "Ⅾ": 1213,
      "Ⅿ": 1214,
      "ⅼ": 1215,
      "ⅽ": 1216,
      "ⅾ": 1217,
      "ↂ": 1218,
      "←": 1219,
      "↑": 1220,
      "→": 1221,
      "↓": 1222,
      "↔": 1223,
      "↘": 1224,
      "↟": 1225,
      "↤": 1226,
      "↦": 1227,
      "↪": 1228,
      "↯": 1229,
      "↵": 1230,
      "↹": 1231,
      "⇄": 1232,
      "⇒": 1233,
      "⇓": 1234,
      "⇨": 1235,
      "⇪": 1236,
      "∀": 1237,
      "∂": 1238,
      "∅": 1239,
      "∆": 1240,
      "∇": 1241,
      "∈": 1242,
      "∑": 1243,
      "−": 1244,
      "∕": 1245,
      "∗": 1246,
      "∘": 1247,
      "∙": 1248,
      "√": 1249,
      "∞": 1250,
      "∠": 1251,
      "∥": 1252,
      "∧": 1253,
      "∨": 1254,
      "∩": 1255,
      "∪": 1256,
      "∫": 1257,
      "∴": 1258,
      "∼": 1259,
      "≃": 1260,
      "≅": 1261,
      "≈": 1262,
      "≡": 1263,
      "≤": 1264,
      "≥": 1265,
      "≦": 1266,
      "≧": 1267,
      "≪": 1268,
      "≫": 1269,
      "≶": 1270,
      "⊂": 1271,
      "⊃": 1272,
      "⊆": 1273,
      "⊕": 1274,
      "⊙": 1275,
      "⊥": 1276,
      "⋅": 1277,
      "⋆": 1278,
      "⋮": 1279,
      "⌅": 1280,
      "⌘": 1281,
      "⌚": 1282,
      "⌠": 1283,
      "⌡": 1284,
      "⌦": 1285,
      "⎋": 1286,
      "⎕": 1287,
      "⏎": 1288,
      "⏐": 1289,
      "⏤": 1290,
      "⏩": 1291,
      "①": 1292,
      "②": 1293,
      "③": 1294,
      "④": 1295,
      "⑤": 1296,
      "⑥": 1297,
      "⑦": 1298,
      "⑧": 1299,
      "⑨": 1300,
      "⑩": 1301,
      "Ⓡ": 1302,
      "ⓒ": 1303,
      "─": 1304,
      "│": 1305,
      "┐": 1306,
      "├": 1307,
      "┬": 1308,
      "╖": 1309,
      "█": 1310,
      "▓": 1311,
      "■": 1312,
      "□": 1313,
      "▣": 1314,
      "▪": 1315,
      "▫": 1316,
      "▱": 1317,
      "▲": 1318,
      "△": 1319,
      "▶": 1320,
      "▷": 1321,
      "▸": 1322,
      "►": 1323,
      "▻": 1324,
      "▼": 1325,
      "▽": 1326,
      "◁": 1327,
      "◄": 1328,
      "◆": 1329,
      "◇": 1330,
      "◊": 1331,
      "○": 1332,
      "●": 1333,
      "◡": 1334,
      "◦": 1335,
      "◼": 1336,
      "☀": 1337,
      "☁": 1338,
      "☃": 1339,
      "☄": 1340,
      "★": 1341,
      "☆": 1342,
      "☉": 1343,
      "☐": 1344,
      "☑": 1345,
      "☒": 1346,
      "☓": 1347,
      "☛": 1348,
      "☜": 1349,
      "☝": 1350,
      "☠": 1351,
      "☰": 1352,
      "☺": 1353,
      "☿": 1354,
      "♀": 1355,
      "♂": 1356,
      "♈": 1357,
      "♉": 1358,
      "♊": 1359,
      "♋": 1360,
      "♍": 1361,
      "♏": 1362,
      "♑": 1363,
      "♒": 1364,
      "♓": 1365,
      "♔": 1366,
      "♠": 1367,
      "♡": 1368,
      "♢": 1369,
      "♣": 1370,
      "♥": 1371,
      "♦": 1372,
      "♪": 1373,
      "♫": 1374,
      "♭": 1375,
      "♮": 1376,
      "♯": 1377,
      "♻": 1378,
      "⚊": 1379,
      "⚋": 1380,
      "⚌": 1381,
      "⚍": 1382,
      "⚎": 1383,
      "⚏": 1384,
      "⚕": 1385,
      "⚖": 1386,
      "⚘": 1387,
      "⚛": 1388,
      "⚠": 1389,
      "⚡": 1390,
      "⚫": 1391,
      "⚬": 1392,
      "⚽": 1393,
      "⚾": 1394,
      "✅": 1395,
      "✈": 1396,
      "✉": 1397,
      "✌": 1398,
      "✍": 1399,
      "✓": 1400,
      "✔": 1401,
      "✗": 1402,
      "✘": 1403,
      "✚": 1404,
      "✞": 1405,
      "✠": 1406,
      "✤": 1407,
      "✨": 1408,
      "✪": 1409,
      "✭": 1410,
      "✹": 1411,
      "✻": 1412,
      "✽": 1413,
      "✿": 1414,
      "❌": 1415,
      "❏": 1416,
      "❑": 1417,
      "❖": 1418,
      "❗": 1419,
      "❝": 1420,
      "❣": 1421,
      "❤": 1422,
      "❨": 1423,
      "❩": 1424,
      "❱": 1425,
      "❲": 1426,
      "❳": 1427,
      "❶": 1428,
      "➜": 1429,
      "➞": 1430,
      "➡": 1431,
      "➣": 1432,
      "➤": 1433,
      "➨": 1434,
      "➮": 1435,
      "➲": 1436,
      "➶": 1437,
      "➹": 1438,
      "➽": 1439,
      "⟨": 1440,
      "⟩": 1441,
      "⟵": 1442,
      "⠀": 1443,
      "⡷": 1444,
      "⦁": 1445,
      "⦿": 1446,
      "⧠": 1447,
      "⨉": 1448,
      "⩾": 1449,
      "⬅": 1450,
      "⬇": 1451,
      "⬛": 1452,
      "⭐": 1453,
      "⭕": 1454,
      "ⲉ": 1455,
      "ⲏ": 1456,
      "Ⲛ": 1457,
      "ⲛ": 1458,
      "ⲟ": 1459,
      "ⲣ": 1460,
      "ⲥ": 1461,
      "ⲧ": 1462,
      "Ⲩ": 1463,
      "ⴰ": 1464,
      "ⴱ": 1465,
      "ⴴ": 1466,
      "ⴼ": 1467,
      "ⵇ": 1468,
      "ⵉ": 1469,
      "ⵍ": 1470,
      "ⵎ": 1471,
      "ⵏ": 1472,
      "ⵔ": 1473,
      "ⵙ": 1474,
      "ⵛ": 1475,
      "ⵜ": 1476,
      "⸺": 1477,
      "⹁": 1478,
      "、": 1479,
      "。": 1480,
      "々": 1481,
      "〈": 1482,
      "《": 1483,
      "》": 1484,
      "「": 1485,
      "」": 1486,
      "『": 1487,
      "』": 1488,
      "【": 1489,
      "】": 1490,
      "〒": 1491,
      "〔": 1492,
      "〕": 1493,
      "〖": 1494,
      "〗": 1495,
      "〜": 1496,
      "〰": 1497,
      "あ": 1498,
      "い": 1499,
      "う": 1500,
      "え": 1501,
      "お": 1502,
      "か": 1503,
      "き": 1504,
      "く": 1505,
      "け": 1506,
      "こ": 1507,
      "さ": 1508,
      "し": 1509,
      "す": 1510,
      "せ": 1511,
      "そ": 1512,
      "た": 1513,
      "ち": 1514,
      "っ": 1515,
      "つ": 1516,
      "て": 1517,
      "と": 1518,
      "な": 1519,
      "に": 1520,
      "ぬ": 1521,
      "ね": 1522,
      "の": 1523,
      "は": 1524,
      "ひ": 1525,
      "ふ": 1526,
      "へ": 1527,
      "ほ": 1528,
      "ま": 1529,
      "み": 1530,
      "む": 1531,
      "め": 1532,
      "も": 1533,
      "ゃ": 1534,
      "や": 1535,
      "ゅ": 1536,
      "ゆ": 1537,
      "ょ": 1538,
      "よ": 1539,
      "ら": 1540,
      "り": 1541,
      "る": 1542,
      "れ": 1543,
      "ろ": 1544,
      "わ": 1545,
      "を": 1546,
      "ん": 1547,
      "゛": 1548,
      "゜": 1549,
      "ゝ": 1550,
      "ァ": 1551,
      "ア": 1552,
      "ィ": 1553,
      "イ": 1554,
      "ゥ": 1555,
      "ウ": 1556,
      "ェ": 1557,
      "エ": 1558,
      "ォ": 1559,
      "オ": 1560,
      "カ": 1561,
      "キ": 1562,
      "ク": 1563,
      "ケ": 1564,
      "コ": 1565,
      "サ": 1566,
      "シ": 1567,
      "ス": 1568,
      "セ": 1569,
      "ソ": 1570,
      "タ": 1571,
      "チ": 1572,
      "ッ": 1573,
      "ツ": 1574,
      "テ": 1575,
      "ト": 1576,
      "ナ": 1577,
      "ニ": 1578,
      "ヌ": 1579,
      "ネ": 1580,
      "ノ": 1581,
      "ハ": 1582,
      "ヒ": 1583,
      "フ": 1584,
      "ヘ": 1585,
      "ホ": 1586,
      "マ": 1587,
      "ミ": 1588,
      "ム": 1589,
      "メ": 1590,
      "モ": 1591,
      "ャ": 1592,
      "ヤ": 1593,
      "ュ": 1594,
      "ユ": 1595,
      "ョ": 1596,
      "ヨ": 1597,
      "ラ": 1598,
      "リ": 1599,
      "ル": 1600,
      "レ": 1601,
      "ロ": 1602,
      "ワ": 1603,
      "ン": 1604,
      "ヶ": 1605,
      "・": 1606,
      "ー": 1607,
      "ㅋ": 1608,
      "㈜": 1609,
      "㎡": 1610,
      "㎢": 1611,
      "㑒": 1612,
      "㞡": 1613,
      "㟫": 1614,
      "㺸": 1615,
      "䋢": 1616,
      "一": 1617,
      "丁": 1618,
      "七": 1619,
      "万": 1620,
      "丈": 1621,
      "三": 1622,
      "上": 1623,
      "下": 1624,
      "不": 1625,
      "与": 1626,
      "丑": 1627,
      "专": 1628,
      "且": 1629,
      "世": 1630,
      "丘": 1631,
      "业": 1632,
      "东": 1633,
      "丞": 1634,
      "丟": 1635,
      "両": 1636,
      "两": 1637,
      "並": 1638,
      "个": 1639,
      "中": 1640,
      "丰": 1641,
      "串": 1642,
      "临": 1643,
      "丸": 1644,
      "丹": 1645,
      "为": 1646,
      "主": 1647,
      "丽": 1648,
      "久": 1649,
      "么": 1650,
      "义": 1651,
      "之": 1652,
      "乌": 1653,
      "乏": 1654,
      "乐": 1655,
      "乗": 1656,
      "乘": 1657,
      "乙": 1658,
      "九": 1659,
      "乞": 1660,
      "也": 1661,
      "习": 1662,
      "乡": 1663,
      "书": 1664,
      "乩": 1665,
      "买": 1666,
      "乳": 1667,
      "乾": 1668,
      "亂": 1669,
      "了": 1670,
      "予": 1671,
      "争": 1672,
      "事": 1673,
      "二": 1674,
      "于": 1675,
      "云": 1676,
      "五": 1677,
      "井": 1678,
      "亘": 1679,
      "亚": 1680,
      "些": 1681,
      "亞": 1682,
      "亡": 1683,
      "交": 1684,
      "亥": 1685,
      "产": 1686,
      "亩": 1687,
      "享": 1688,
      "京": 1689,
      "亭": 1690,
      "亮": 1691,
      "亲": 1692,
      "人": 1693,
      "什": 1694,
      "仁": 1695,
      "仄": 1696,
      "仅": 1697,
      "仇": 1698,
      "今": 1699,
      "介": 1700,
      "仍": 1701,
      "从": 1702,
      "仓": 1703,
      "仔": 1704,
      "仕": 1705,
      "他": 1706,
      "付": 1707,
      "仙": 1708,
      "代": 1709,
      "令": 1710,
      "以": 1711,
      "仪": 1712,
      "们": 1713,
      "仮": 1714,
      "仲": 1715,
      "件": 1716,
      "价": 1717,
      "任": 1718,
      "份": 1719,
      "企": 1720,
      "伊": 1721,
      "伍": 1722,
      "伏": 1723,
      "伐": 1724,
      "休": 1725,
      "伒": 1726,
      "众": 1727,
      "优": 1728,
      "伙": 1729,
      "会": 1730,
      "伝": 1731,
      "伟": 1732,
      "传": 1733,
      "伯": 1734,
      "伴": 1735,
      "似": 1736,
      "但": 1737,
      "位": 1738,
      "低": 1739,
      "住": 1740,
      "佐": 1741,
      "佑": 1742,
      "体": 1743,
      "何": 1744,
      "余": 1745,
      "佛": 1746,
      "作": 1747,
      "你": 1748,
      "佩": 1749,
      "佳": 1750,
      "使": 1751,
      "來": 1752,
      "例": 1753,
      "侍": 1754,
      "供": 1755,
      "依": 1756,
      "侯": 1757,
      "侶": 1758,
      "便": 1759,
      "係": 1760,
      "促": 1761,
      "俊": 1762,
      "俗": 1763,
      "保": 1764,
      "俞": 1765,
      "俠": 1766,
      "信": 1767,
      "俣": 1768,
      "修": 1769,
      "俱": 1770,
      "俺": 1771,
      "倉": 1772,
      "個": 1773,
      "倍": 1774,
      "們": 1775,
      "倒": 1776,
      "候": 1777,
      "借": 1778,
      "倡": 1779,
      "値": 1780,
      "倩": 1781,
      "倪": 1782,
      "倫": 1783,
      "值": 1784,
      "倾": 1785,
      "假": 1786,
      "偉": 1787,
      "偌": 1788,
      "偏": 1789,
      "偕": 1790,
      "做": 1791,
      "健": 1792,
      "側": 1793,
      "偵": 1794,
      "偶": 1795,
      "偷": 1796,
      "偿": 1797,
      "傍": 1798,
      "備": 1799,
      "储": 1800,
      "催": 1801,
      "傳": 1802,
      "傷": 1803,
      "傻": 1804,
      "傾": 1805,
      "僅": 1806,
      "働": 1807,
      "像": 1808,
      "僑": 1809,
      "僕": 1810,
      "價": 1811,
      "儀": 1812,
      "儉": 1813,
      "儒": 1814,
      "儘": 1815,
      "償": 1816,
      "優": 1817,
      "儿": 1818,
      "允": 1819,
      "元": 1820,
      "充": 1821,
      "兆": 1822,
      "先": 1823,
      "光": 1824,
      "克": 1825,
      "免": 1826,
      "児": 1827,
      "兒": 1828,
      "兔": 1829,
      "兗": 1830,
      "兜": 1831,
      "入": 1832,
      "內": 1833,
      "全": 1834,
      "兩": 1835,
      "八": 1836,
      "公": 1837,
      "六": 1838,
      "兰": 1839,
      "共": 1840,
      "关": 1841,
      "兴": 1842,
      "兵": 1843,
      "其": 1844,
      "具": 1845,
      "典": 1846,
      "兹": 1847,
      "养": 1848,
      "兽": 1849,
      "内": 1850,
      "円": 1851,
      "冊": 1852,
      "再": 1853,
      "冒": 1854,
      "写": 1855,
      "冠": 1856,
      "冤": 1857,
      "冥": 1858,
      "冬": 1859,
      "冰": 1860,
      "冲": 1861,
      "决": 1862,
      "冴": 1863,
      "冷": 1864,
      "净": 1865,
      "凈": 1866,
      "凉": 1867,
      "凌": 1868,
      "减": 1869,
      "凝": 1870,
      "几": 1871,
      "凡": 1872,
      "凤": 1873,
      "処": 1874,
      "凯": 1875,
      "凱": 1876,
      "凸": 1877,
      "凹": 1878,
      "出": 1879,
      "函": 1880,
      "刀": 1881,
      "刂": 1882,
      "分": 1883,
      "切": 1884,
      "刊": 1885,
      "划": 1886,
      "列": 1887,
      "刘": 1888,
      "则": 1889,
      "刚": 1890,
      "创": 1891,
      "初": 1892,
      "删": 1893,
      "判": 1894,
      "別": 1895,
      "利": 1896,
      "别": 1897,
      "到": 1898,
      "制": 1899,
      "刷": 1900,
      "券": 1901,
      "刺": 1902,
      "刻": 1903,
      "剂": 1904,
      "則": 1905,
      "削": 1906,
      "前": 1907,
      "剑": 1908,
      "剛": 1909,
      "剣": 1910,
      "剧": 1911,
      "剩": 1912,
      "剰": 1913,
      "割": 1914,
      "創": 1915,
      "劇": 1916,
      "劉": 1917,
      "力": 1918,
      "办": 1919,
      "功": 1920,
      "加": 1921,
      "务": 1922,
      "动": 1923,
      "助": 1924,
      "劫": 1925,
      "劳": 1926,
      "労": 1927,
      "効": 1928,
      "劼": 1929,
      "势": 1930,
      "勃": 1931,
      "勇": 1932,
      "勉": 1933,
      "勒": 1934,
      "動": 1935,
      "務": 1936,
      "勝": 1937,
      "勞": 1938,
      "勢": 1939,
      "勤": 1940,
      "勻": 1941,
      "勾": 1942,
      "包": 1943,
      "化": 1944,
      "北": 1945,
      "匙": 1946,
      "匯": 1947,
      "区": 1948,
      "医": 1949,
      "區": 1950,
      "十": 1951,
      "千": 1952,
      "升": 1953,
      "午": 1954,
      "半": 1955,
      "华": 1956,
      "协": 1957,
      "協": 1958,
      "单": 1959,
      "南": 1960,
      "単": 1961,
      "博": 1962,
      "占": 1963,
      "卡": 1964,
      "卤": 1965,
      "卧": 1966,
      "卫": 1967,
      "印": 1968,
      "即": 1969,
      "却": 1970,
      "卵": 1971,
      "卷": 1972,
      "卻": 1973,
      "卿": 1974,
      "厂": 1975,
      "厄": 1976,
      "厅": 1977,
      "历": 1978,
      "厈": 1979,
      "压": 1980,
      "厚": 1981,
      "原": 1982,
      "厳": 1983,
      "去": 1984,
      "参": 1985,
      "參": 1986,
      "又": 1987,
      "叉": 1988,
      "及": 1989,
      "友": 1990,
      "双": 1991,
      "反": 1992,
      "収": 1993,
      "发": 1994,
      "叔": 1995,
      "取": 1996,
      "受": 1997,
      "变": 1998,
      "叙": 1999,
      "叢": 2000,
      "口": 2001,
      "古": 2002,
      "句": 2003,
      "另": 2004,
      "叩": 2005,
      "只": 2006,
      "叫": 2007,
      "召": 2008,
      "叭": 2009,
      "可": 2010,
      "台": 2011,
      "史": 2012,
      "右": 2013,
      "叶": 2014,
      "号": 2015,
      "司": 2016,
      "吃": 2017,
      "各": 2018,
      "合": 2019,
      "吉": 2020,
      "吊": 2021,
      "吋": 2022,
      "同": 2023,
      "名": 2024,
      "后": 2025,
      "吐": 2026,
      "向": 2027,
      "吕": 2028,
      "吗": 2029,
      "君": 2030,
      "吞": 2031,
      "否": 2032,
      "吧": 2033,
      "含": 2034,
      "启": 2035,
      "吳": 2036,
      "吴": 2037,
      "吸": 2038,
      "吻": 2039,
      "吾": 2040,
      "呂": 2041,
      "呈": 2042,
      "呉": 2043,
      "告": 2044,
      "员": 2045,
      "呢": 2046,
      "周": 2047,
      "呪": 2048,
      "味": 2049,
      "呼": 2050,
      "命": 2051,
      "和": 2052,
      "咕": 2053,
      "咚": 2054,
      "咪": 2055,
      "咯": 2056,
      "咳": 2057,
      "品": 2058,
      "哈": 2059,
      "响": 2060,
      "哎": 2061,
      "員": 2062,
      "哥": 2063,
      "哪": 2064,
      "哭": 2065,
      "哲": 2066,
      "唐": 2067,
      "售": 2068,
      "唯": 2069,
      "唱": 2070,
      "商": 2071,
      "問": 2072,
      "啟": 2073,
      "啤": 2074,
      "善": 2075,
      "喇": 2076,
      "喜": 2077,
      "喪": 2078,
      "喬": 2079,
      "單": 2080,
      "営": 2081,
      "喻": 2082,
      "嗎": 2083,
      "嗣": 2084,
      "嗯": 2085,
      "嘅": 2086,
      "嘉": 2087,
      "嘗": 2088,
      "嘩": 2089,
      "嘲": 2090,
      "嘶": 2091,
      "嘿": 2092,
      "噁": 2093,
      "器": 2094,
      "嚴": 2095,
      "囉": 2096,
      "囚": 2097,
      "四": 2098,
      "回": 2099,
      "因": 2100,
      "团": 2101,
      "団": 2102,
      "园": 2103,
      "困": 2104,
      "囲": 2105,
      "図": 2106,
      "围": 2107,
      "固": 2108,
      "国": 2109,
      "图": 2110,
      "圆": 2111,
      "圈": 2112,
      "國": 2113,
      "圏": 2114,
      "園": 2115,
      "圓": 2116,
      "圖": 2117,
      "團": 2118,
      "圜": 2119,
      "土": 2120,
      "圣": 2121,
      "圧": 2122,
      "在": 2123,
      "地": 2124,
      "圳": 2125,
      "场": 2126,
      "址": 2127,
      "坂": 2128,
      "均": 2129,
      "坊": 2130,
      "坏": 2131,
      "坐": 2132,
      "坑": 2133,
      "块": 2134,
      "坚": 2135,
      "坛": 2136,
      "坡": 2137,
      "坤": 2138,
      "坨": 2139,
      "坪": 2140,
      "型": 2141,
      "垒": 2142,
      "垣": 2143,
      "城": 2144,
      "埕": 2145,
      "域": 2146,
      "埴": 2147,
      "培": 2148,
      "基": 2149,
      "埼": 2150,
      "堂": 2151,
      "堅": 2152,
      "堡": 2153,
      "報": 2154,
      "場": 2155,
      "塀": 2156,
      "塊": 2157,
      "塘": 2158,
      "塚": 2159,
      "塞": 2160,
      "塩": 2161,
      "填": 2162,
      "塵": 2163,
      "境": 2164,
      "墅": 2165,
      "墊": 2166,
      "墓": 2167,
      "増": 2168,
      "增": 2169,
      "墨": 2170,
      "壁": 2171,
      "壇": 2172,
      "壊": 2173,
      "壌": 2174,
      "壓": 2175,
      "壘": 2176,
      "壞": 2177,
      "壩": 2178,
      "士": 2179,
      "壯": 2180,
      "声": 2181,
      "売": 2182,
      "壳": 2183,
      "壽": 2184,
      "处": 2185,
      "备": 2186,
      "変": 2187,
      "复": 2188,
      "夏": 2189,
      "夔": 2190,
      "夕": 2191,
      "外": 2192,
      "多": 2193,
      "夜": 2194,
      "够": 2195,
      "夢": 2196,
      "大": 2197,
      "天": 2198,
      "太": 2199,
      "夫": 2200,
      "央": 2201,
      "失": 2202,
      "头": 2203,
      "夷": 2204,
      "夹": 2205,
      "夾": 2206,
      "奇": 2207,
      "奈": 2208,
      "奉": 2209,
      "奎": 2210,
      "奕": 2211,
      "奖": 2212,
      "套": 2213,
      "奠": 2214,
      "奥": 2215,
      "奧": 2216,
      "女": 2217,
      "奴": 2218,
      "奶": 2219,
      "她": 2220,
      "好": 2221,
      "如": 2222,
      "妄": 2223,
      "妆": 2224,
      "妊": 2225,
      "妖": 2226,
      "妙": 2227,
      "妮": 2228,
      "妻": 2229,
      "姆": 2230,
      "姉": 2231,
      "始": 2232,
      "姐": 2233,
      "姑": 2234,
      "姓": 2235,
      "委": 2236,
      "姚": 2237,
      "姜": 2238,
      "姝": 2239,
      "姫": 2240,
      "姿": 2241,
      "威": 2242,
      "娄": 2243,
      "娘": 2244,
      "娟": 2245,
      "娠": 2246,
      "娥": 2247,
      "娱": 2248,
      "婁": 2249,
      "婦": 2250,
      "婧": 2251,
      "媛": 2252,
      "嫁": 2253,
      "嫌": 2254,
      "嬢": 2255,
      "子": 2256,
      "孔": 2257,
      "孕": 2258,
      "字": 2259,
      "存": 2260,
      "孙": 2261,
      "孚": 2262,
      "孝": 2263,
      "孟": 2264,
      "季": 2265,
      "学": 2266,
      "孩": 2267,
      "孫": 2268,
      "學": 2269,
      "宀": 2270,
      "它": 2271,
      "宅": 2272,
      "宇": 2273,
      "守": 2274,
      "安": 2275,
      "宋": 2276,
      "完": 2277,
      "宏": 2278,
      "宓": 2279,
      "宕": 2280,
      "宗": 2281,
      "官": 2282,
      "宙": 2283,
      "定": 2284,
      "宛": 2285,
      "宝": 2286,
      "实": 2287,
      "実": 2288,
      "宠": 2289,
      "客": 2290,
      "宣": 2291,
      "室": 2292,
      "宫": 2293,
      "宮": 2294,
      "害": 2295,
      "家": 2296,
      "宸": 2297,
      "容": 2298,
      "宿": 2299,
      "寄": 2300,
      "寅": 2301,
      "密": 2302,
      "富": 2303,
      "寝": 2304,
      "察": 2305,
      "實": 2306,
      "寧": 2307,
      "審": 2308,
      "寫": 2309,
      "寬": 2310,
      "寵": 2311,
      "寶": 2312,
      "寸": 2313,
      "对": 2314,
      "寺": 2315,
      "导": 2316,
      "対": 2317,
      "寿": 2318,
      "封": 2319,
      "射": 2320,
      "将": 2321,
      "將": 2322,
      "專": 2323,
      "尉": 2324,
      "尊": 2325,
      "尋": 2326,
      "對": 2327,
      "導": 2328,
      "小": 2329,
      "少": 2330,
      "尔": 2331,
      "尖": 2332,
      "尚": 2333,
      "尝": 2334,
      "尤": 2335,
      "就": 2336,
      "尸": 2337,
      "尹": 2338,
      "尺": 2339,
      "尼": 2340,
      "尽": 2341,
      "尾": 2342,
      "尿": 2343,
      "局": 2344,
      "层": 2345,
      "居": 2346,
      "屆": 2347,
      "屈": 2348,
      "届": 2349,
      "屋": 2350,
      "屎": 2351,
      "屏": 2352,
      "展": 2353,
      "属": 2354,
      "層": 2355,
      "履": 2356,
      "屬": 2357,
      "屯": 2358,
      "山": 2359,
      "岁": 2360,
      "岐": 2361,
      "岛": 2362,
      "岡": 2363,
      "岩": 2364,
      "岱": 2365,
      "岳": 2366,
      "岸": 2367,
      "峇": 2368,
      "峠": 2369,
      "峯": 2370,
      "峰": 2371,
      "島": 2372,
      "峽": 2373,
      "崎": 2374,
      "崔": 2375,
      "崩": 2376,
      "嵐": 2377,
      "嶺": 2378,
      "巖": 2379,
      "巘": 2380,
      "川": 2381,
      "州": 2382,
      "巡": 2383,
      "工": 2384,
      "左": 2385,
      "巧": 2386,
      "巨": 2387,
      "巩": 2388,
      "巫": 2389,
      "差": 2390,
      "己": 2391,
      "已": 2392,
      "巴": 2393,
      "巷": 2394,
      "市": 2395,
      "布": 2396,
      "帆": 2397,
      "师": 2398,
      "希": 2399,
      "帖": 2400,
      "帝": 2401,
      "带": 2402,
      "師": 2403,
      "席": 2404,
      "帶": 2405,
      "常": 2406,
      "帽": 2407,
      "幅": 2408,
      "幌": 2409,
      "幕": 2410,
      "幡": 2411,
      "幣": 2412,
      "幫": 2413,
      "干": 2414,
      "平": 2415,
      "年": 2416,
      "并": 2417,
      "幸": 2418,
      "幻": 2419,
      "幼": 2420,
      "幾": 2421,
      "广": 2422,
      "広": 2423,
      "庄": 2424,
      "庆": 2425,
      "庇": 2426,
      "序": 2427,
      "库": 2428,
      "应": 2429,
      "店": 2430,
      "庚": 2431,
      "府": 2432,
      "度": 2433,
      "座": 2434,
      "庫": 2435,
      "庭": 2436,
      "康": 2437,
      "廈": 2438,
      "廉": 2439,
      "廖": 2440,
      "廟": 2441,
      "廠": 2442,
      "廢": 2443,
      "廣": 2444,
      "廬": 2445,
      "延": 2446,
      "建": 2447,
      "廻": 2448,
      "开": 2449,
      "异": 2450,
      "弊": 2451,
      "式": 2452,
      "弔": 2453,
      "引": 2454,
      "弗": 2455,
      "弘": 2456,
      "弟": 2457,
      "张": 2458,
      "張": 2459,
      "強": 2460,
      "强": 2461,
      "弼": 2462,
      "弾": 2463,
      "彈": 2464,
      "当": 2465,
      "录": 2466,
      "形": 2467,
      "彤": 2468,
      "彦": 2469,
      "彩": 2470,
      "彬": 2471,
      "彭": 2472,
      "彰": 2473,
      "影": 2474,
      "役": 2475,
      "彼": 2476,
      "往": 2477,
      "征": 2478,
      "径": 2479,
      "待": 2480,
      "很": 2481,
      "律": 2482,
      "後": 2483,
      "徐": 2484,
      "徒": 2485,
      "従": 2486,
      "得": 2487,
      "從": 2488,
      "御": 2489,
      "復": 2490,
      "微": 2491,
      "徳": 2492,
      "徴": 2493,
      "徵": 2494,
      "德": 2495,
      "徹": 2496,
      "徽": 2497,
      "心": 2498,
      "必": 2499,
      "忆": 2500,
      "忍": 2501,
      "志": 2502,
      "忘": 2503,
      "忙": 2504,
      "応": 2505,
      "忠": 2506,
      "快": 2507,
      "念": 2508,
      "态": 2509,
      "怎": 2510,
      "怒": 2511,
      "思": 2512,
      "急": 2513,
      "性": 2514,
      "怪": 2515,
      "总": 2516,
      "恆": 2517,
      "恒": 2518,
      "恕": 2519,
      "恤": 2520,
      "恨": 2521,
      "恪": 2522,
      "恫": 2523,
      "恭": 2524,
      "息": 2525,
      "恵": 2526,
      "悟": 2527,
      "患": 2528,
      "您": 2529,
      "悪": 2530,
      "悬": 2531,
      "悳": 2532,
      "情": 2533,
      "惊": 2534,
      "惑": 2535,
      "惠": 2536,
      "惡": 2537,
      "惣": 2538,
      "惯": 2539,
      "想": 2540,
      "惹": 2541,
      "愁": 2542,
      "愉": 2543,
      "意": 2544,
      "愚": 2545,
      "愛": 2546,
      "感": 2547,
      "慈": 2548,
      "慊": 2549,
      "態": 2550,
      "慌": 2551,
      "慎": 2552,
      "慕": 2553,
      "慧": 2554,
      "慮": 2555,
      "慶": 2556,
      "憤": 2557,
      "憲": 2558,
      "憶": 2559,
      "懂": 2560,
      "應": 2561,
      "懷": 2562,
      "懸": 2563,
      "懿": 2564,
      "戀": 2565,
      "戎": 2566,
      "戏": 2567,
      "成": 2568,
      "我": 2569,
      "戒": 2570,
      "或": 2571,
      "战": 2572,
      "戚": 2573,
      "戦": 2574,
      "戰": 2575,
      "戲": 2576,
      "戴": 2577,
      "户": 2578,
      "戸": 2579,
      "房": 2580,
      "所": 2581,
      "扇": 2582,
      "扉": 2583,
      "手": 2584,
      "才": 2585,
      "打": 2586,
      "托": 2587,
      "扬": 2588,
      "扮": 2589,
      "扰": 2590,
      "扱": 2591,
      "扶": 2592,
      "批": 2593,
      "找": 2594,
      "技": 2595,
      "抄": 2596,
      "把": 2597,
      "抎": 2598,
      "抓": 2599,
      "投": 2600,
      "抗": 2601,
      "折": 2602,
      "抜": 2603,
      "択": 2604,
      "抣": 2605,
      "护": 2606,
      "报": 2607,
      "抦": 2608,
      "抯": 2609,
      "抰": 2610,
      "抱": 2611,
      "抳": 2612,
      "抵": 2613,
      "押": 2614,
      "抽": 2615,
      "担": 2616,
      "拉": 2617,
      "拋": 2618,
      "拍": 2619,
      "拔": 2620,
      "招": 2621,
      "拡": 2622,
      "拥": 2623,
      "括": 2624,
      "拯": 2625,
      "拳": 2626,
      "拿": 2627,
      "持": 2628,
      "挂": 2629,
      "指": 2630,
      "按": 2631,
      "挑": 2632,
      "挟": 2633,
      "挪": 2634,
      "挫": 2635,
      "振": 2636,
      "挿": 2637,
      "捍": 2638,
      "捎": 2639,
      "捕": 2640,
      "损": 2641,
      "换": 2642,
      "捨": 2643,
      "据": 2644,
      "授": 2645,
      "掉": 2646,
      "掌": 2647,
      "排": 2648,
      "掙": 2649,
      "掛": 2650,
      "採": 2651,
      "探": 2652,
      "接": 2653,
      "控": 2654,
      "推": 2655,
      "掲": 2656,
      "掳": 2657,
      "揂": 2658,
      "揅": 2659,
      "揋": 2660,
      "揌": 2661,
      "描": 2662,
      "提": 2663,
      "揑": 2664,
      "插": 2665,
      "揕": 2666,
      "揗": 2667,
      "揙": 2668,
      "揚": 2669,
      "換": 2670,
      "揜": 2671,
      "握": 2672,
      "揥": 2673,
      "揮": 2674,
      "援": 2675,
      "揵": 2676,
      "揻": 2677,
      "揼": 2678,
      "損": 2679,
      "搭": 2680,
      "搾": 2681,
      "摂": 2682,
      "摄": 2683,
      "摘": 2684,
      "摩": 2685,
      "摯": 2686,
      "摺": 2687,
      "撃": 2688,
      "撈": 2689,
      "撒": 2690,
      "撤": 2691,
      "撫": 2692,
      "播": 2693,
      "撮": 2694,
      "撰": 2695,
      "撼": 2696,
      "擇": 2697,
      "操": 2698,
      "據": 2699,
      "擬": 2700,
      "擺": 2701,
      "攀": 2702,
      "攄": 2703,
      "攝": 2704,
      "支": 2705,
      "收": 2706,
      "改": 2707,
      "放": 2708,
      "政": 2709,
      "故": 2710,
      "效": 2711,
      "敏": 2712,
      "救": 2713,
      "敕": 2714,
      "敗": 2715,
      "教": 2716,
      "散": 2717,
      "敦": 2718,
      "敬": 2719,
      "数": 2720,
      "整": 2721,
      "敵": 2722,
      "敷": 2723,
      "數": 2724,
      "文": 2725,
      "斌": 2726,
      "斎": 2727,
      "斑": 2728,
      "斗": 2729,
      "料": 2730,
      "斜": 2731,
      "断": 2732,
      "斯": 2733,
      "新": 2734,
      "方": 2735,
      "於": 2736,
      "施": 2737,
      "旁": 2738,
      "旅": 2739,
      "旋": 2740,
      "族": 2741,
      "无": 2742,
      "既": 2743,
      "日": 2744,
      "旧": 2745,
      "早": 2746,
      "旬": 2747,
      "旭": 2748,
      "时": 2749,
      "旺": 2750,
      "昂": 2751,
      "昉": 2752,
      "昊": 2753,
      "昌": 2754,
      "明": 2755,
      "易": 2756,
      "昔": 2757,
      "昕": 2758,
      "星": 2759,
      "映": 2760,
      "春": 2761,
      "昭": 2762,
      "是": 2763,
      "昱": 2764,
      "昼": 2765,
      "显": 2766,
      "時": 2767,
      "晃": 2768,
      "晉": 2769,
      "晌": 2770,
      "晓": 2771,
      "晚": 2772,
      "晨": 2773,
      "普": 2774,
      "景": 2775,
      "晴": 2776,
      "晶": 2777,
      "智": 2778,
      "暂": 2779,
      "暖": 2780,
      "暗": 2781,
      "曁": 2782,
      "曇": 2783,
      "曉": 2784,
      "曜": 2785,
      "曝": 2786,
      "曰": 2787,
      "曲": 2788,
      "更": 2789,
      "曷": 2790,
      "書": 2791,
      "曹": 2792,
      "曼": 2793,
      "曾": 2794,
      "替": 2795,
      "最": 2796,
      "會": 2797,
      "月": 2798,
      "有": 2799,
      "朋": 2800,
      "服": 2801,
      "朗": 2802,
      "朙": 2803,
      "望": 2804,
      "朝": 2805,
      "期": 2806,
      "木": 2807,
      "朩": 2808,
      "未": 2809,
      "末": 2810,
      "本": 2811,
      "札": 2812,
      "术": 2813,
      "朱": 2814,
      "朴": 2815,
      "机": 2816,
      "权": 2817,
      "杉": 2818,
      "李": 2819,
      "杏": 2820,
      "材": 2821,
      "村": 2822,
      "杜": 2823,
      "束": 2824,
      "条": 2825,
      "来": 2826,
      "杨": 2827,
      "杯": 2828,
      "杰": 2829,
      "東": 2830,
      "杷": 2831,
      "松": 2832,
      "板": 2833,
      "极": 2834,
      "构": 2835,
      "枇": 2836,
      "析": 2837,
      "枕": 2838,
      "林": 2839,
      "果": 2840,
      "枝": 2841,
      "架": 2842,
      "枹": 2843,
      "柄": 2844,
      "柏": 2845,
      "染": 2846,
      "柔": 2847,
      "查": 2848,
      "柱": 2849,
      "柳": 2850,
      "柴": 2851,
      "査": 2852,
      "标": 2853,
      "栋": 2854,
      "树": 2855,
      "栖": 2856,
      "栗": 2857,
      "校": 2858,
      "株": 2859,
      "样": 2860,
      "核": 2861,
      "根": 2862,
      "格": 2863,
      "栽": 2864,
      "桂": 2865,
      "桃": 2866,
      "框": 2867,
      "案": 2868,
      "桌": 2869,
      "桐": 2870,
      "桑": 2871,
      "桔": 2872,
      "桜": 2873,
      "档": 2874,
      "桥": 2875,
      "桧": 2876,
      "桶": 2877,
      "梁": 2878,
      "梅": 2879,
      "梓": 2880,
      "條": 2881,
      "梦": 2882,
      "梧": 2883,
      "梨": 2884,
      "梯": 2885,
      "械": 2886,
      "梶": 2887,
      "检": 2888,
      "棄": 2889,
      "棋": 2890,
      "棍": 2891,
      "棒": 2892,
      "棧": 2893,
      "森": 2894,
      "棱": 2895,
      "植": 2896,
      "椒": 2897,
      "検": 2898,
      "椰": 2899,
      "椿": 2900,
      "楊": 2901,
      "楫": 2902,
      "業": 2903,
      "楮": 2904,
      "極": 2905,
      "楼": 2906,
      "楽": 2907,
      "概": 2908,
      "榎": 2909,
      "榜": 2910,
      "榧": 2911,
      "榴": 2912,
      "構": 2913,
      "様": 2914,
      "槟": 2915,
      "槽": 2916,
      "槿": 2917,
      "樂": 2918,
      "樓": 2919,
      "標": 2920,
      "模": 2921,
      "樣": 2922,
      "権": 2923,
      "横": 2924,
      "樸": 2925,
      "樹": 2926,
      "樽": 2927,
      "橋": 2928,
      "橙": 2929,
      "機": 2930,
      "橫": 2931,
      "檒": 2932,
      "檔": 2933,
      "檙": 2934,
      "檚": 2935,
      "檛": 2936,
      "檜": 2937,
      "檝": 2938,
      "權": 2939,
      "欠": 2940,
      "次": 2941,
      "欢": 2942,
      "欧": 2943,
      "欲": 2944,
      "款": 2945,
      "歇": 2946,
      "歌": 2947,
      "歐": 2948,
      "歡": 2949,
      "止": 2950,
      "正": 2951,
      "此": 2952,
      "步": 2953,
      "武": 2954,
      "歩": 2955,
      "歪": 2956,
      "歯": 2957,
      "歴": 2958,
      "歷": 2959,
      "歸": 2960,
      "歹": 2961,
      "死": 2962,
      "殄": 2963,
      "殊": 2964,
      "残": 2965,
      "殘": 2966,
      "殴": 2967,
      "段": 2968,
      "殷": 2969,
      "殺": 2970,
      "殼": 2971,
      "母": 2972,
      "毎": 2973,
      "每": 2974,
      "毓": 2975,
      "比": 2976,
      "毛": 2977,
      "氏": 2978,
      "民": 2979,
      "气": 2980,
      "気": 2981,
      "氣": 2982,
      "氧": 2983,
      "氯": 2984,
      "水": 2985,
      "永": 2986,
      "求": 2987,
      "汇": 2988,
      "汉": 2989,
      "汐": 2990,
      "汗": 2991,
      "汝": 2992,
      "江": 2993,
      "池": 2994,
      "污": 2995,
      "汤": 2996,
      "汲": 2997,
      "汴": 2998,
      "決": 2999,
      "汽": 3000,
      "沃": 3001,
      "沈": 3002,
      "沉": 3003,
      "沒": 3004,
      "沖": 3005,
      "沙": 3006,
      "沛": 3007,
      "沟": 3008,
      "没": 3009,
      "沢": 3010,
      "沮": 3011,
      "河": 3012,
      "油": 3013,
      "治": 3014,
      "沿": 3015,
      "況": 3016,
      "泉": 3017,
      "法": 3018,
      "泡": 3019,
      "波": 3020,
      "泣": 3021,
      "注": 3022,
      "泪": 3023,
      "泰": 3024,
      "泳": 3025,
      "泽": 3026,
      "洋": 3027,
      "洗": 3028,
      "洛": 3029,
      "洞": 3030,
      "津": 3031,
      "洲": 3032,
      "洵": 3033,
      "活": 3034,
      "洼": 3035,
      "派": 3036,
      "流": 3037,
      "浄": 3038,
      "浅": 3039,
      "测": 3040,
      "济": 3041,
      "浜": 3042,
      "浦": 3043,
      "浩": 3044,
      "浪": 3045,
      "浮": 3046,
      "浴": 3047,
      "海": 3048,
      "涂": 3049,
      "消": 3050,
      "涌": 3051,
      "涛": 3052,
      "润": 3053,
      "液": 3054,
      "涵": 3055,
      "涼": 3056,
      "淇": 3057,
      "淚": 3058,
      "淡": 3059,
      "淮": 3060,
      "深": 3061,
      "淳": 3062,
      "淵": 3063,
      "混": 3064,
      "淸": 3065,
      "淺": 3066,
      "添": 3067,
      "渀": 3068,
      "清": 3069,
      "渇": 3070,
      "渓": 3071,
      "渔": 3072,
      "渕": 3073,
      "減": 3074,
      "渠": 3075,
      "渡": 3076,
      "渤": 3077,
      "渦": 3078,
      "温": 3079,
      "測": 3080,
      "港": 3081,
      "游": 3082,
      "湖": 3083,
      "湛": 3084,
      "湟": 3085,
      "湧": 3086,
      "湯": 3087,
      "湾": 3088,
      "満": 3089,
      "源": 3090,
      "準": 3091,
      "溝": 3092,
      "溥": 3093,
      "溪": 3094,
      "溫": 3095,
      "滄": 3096,
      "滅": 3097,
      "滑": 3098,
      "滔": 3099,
      "滙": 3100,
      "滝": 3101,
      "满": 3102,
      "滿": 3103,
      "漁": 3104,
      "漂": 3105,
      "漏": 3106,
      "演": 3107,
      "漢": 3108,
      "漩": 3109,
      "漫": 3110,
      "漬": 3111,
      "漳": 3112,
      "潔": 3113,
      "潘": 3114,
      "潦": 3115,
      "潭": 3116,
      "潮": 3117,
      "澍": 3118,
      "澎": 3119,
      "澜": 3120,
      "澡": 3121,
      "澤": 3122,
      "澳": 3123,
      "激": 3124,
      "濁": 3125,
      "濃": 3126,
      "濕": 3127,
      "濟": 3128,
      "濤": 3129,
      "濵": 3130,
      "濾": 3131,
      "瀝": 3132,
      "瀬": 3133,
      "灝": 3134,
      "灣": 3135,
      "火": 3136,
      "灬": 3137,
      "灯": 3138,
      "灰": 3139,
      "灵": 3140,
      "灿": 3141,
      "炊": 3142,
      "炎": 3143,
      "炒": 3144,
      "炜": 3145,
      "炮": 3146,
      "点": 3147,
      "為": 3148,
      "烏": 3149,
      "烛": 3150,
      "烜": 3151,
      "烧": 3152,
      "無": 3153,
      "焦": 3154,
      "焰": 3155,
      "然": 3156,
      "焼": 3157,
      "煌": 3158,
      "煎": 3159,
      "煒": 3160,
      "照": 3161,
      "煩": 3162,
      "煮": 3163,
      "熊": 3164,
      "熟": 3165,
      "熾": 3166,
      "燒": 3167,
      "燔": 3168,
      "營": 3169,
      "燮": 3170,
      "爆": 3171,
      "爪": 3172,
      "爱": 3173,
      "父": 3174,
      "爷": 3175,
      "爸": 3176,
      "爺": 3177,
      "爻": 3178,
      "爾": 3179,
      "片": 3180,
      "版": 3181,
      "牌": 3182,
      "牙": 3183,
      "牛": 3184,
      "牟": 3185,
      "牡": 3186,
      "牢": 3187,
      "牧": 3188,
      "物": 3189,
      "牯": 3190,
      "特": 3191,
      "犁": 3192,
      "犬": 3193,
      "犯": 3194,
      "状": 3195,
      "狀": 3196,
      "狂": 3197,
      "狐": 3198,
      "狗": 3199,
      "狙": 3200,
      "狩": 3201,
      "独": 3202,
      "狭": 3203,
      "狸": 3204,
      "狼": 3205,
      "猎": 3206,
      "猜": 3207,
      "猪": 3208,
      "猫": 3209,
      "献": 3210,
      "猶": 3211,
      "猿": 3212,
      "獄": 3213,
      "獨": 3214,
      "獲": 3215,
      "獸": 3216,
      "獻": 3217,
      "玄": 3218,
      "率": 3219,
      "玉": 3220,
      "王": 3221,
      "玦": 3222,
      "玩": 3223,
      "环": 3224,
      "现": 3225,
      "玲": 3226,
      "珂": 3227,
      "珍": 3228,
      "珏": 3229,
      "珞": 3230,
      "班": 3231,
      "珺": 3232,
      "現": 3233,
      "球": 3234,
      "理": 3235,
      "琍": 3236,
      "琛": 3237,
      "琪": 3238,
      "琬": 3239,
      "琳": 3240,
      "琴": 3241,
      "琵": 3242,
      "琶": 3243,
      "瑒": 3244,
      "瑗": 3245,
      "瑛": 3246,
      "瑜": 3247,
      "瑞": 3248,
      "瑲": 3249,
      "瑶": 3250,
      "璆": 3251,
      "璞": 3252,
      "璟": 3253,
      "璧": 3254,
      "環": 3255,
      "璽": 3256,
      "璿": 3257,
      "瓊": 3258,
      "瓘": 3259,
      "瓚": 3260,
      "瓛": 3261,
      "瓜": 3262,
      "瓶": 3263,
      "甍": 3264,
      "甘": 3265,
      "甚": 3266,
      "甜": 3267,
      "生": 3268,
      "産": 3269,
      "用": 3270,
      "甩": 3271,
      "甫": 3272,
      "田": 3273,
      "由": 3274,
      "甲": 3275,
      "申": 3276,
      "电": 3277,
      "男": 3278,
      "甸": 3279,
      "町": 3280,
      "画": 3281,
      "畅": 3282,
      "界": 3283,
      "畑": 3284,
      "留": 3285,
      "畠": 3286,
      "略": 3287,
      "番": 3288,
      "畫": 3289,
      "異": 3290,
      "畳": 3291,
      "當": 3292,
      "畿": 3293,
      "疆": 3294,
      "疏": 3295,
      "疫": 3296,
      "疳": 3297,
      "疾": 3298,
      "病": 3299,
      "症": 3300,
      "痔": 3301,
      "痰": 3302,
      "療": 3303,
      "癇": 3304,
      "癒": 3305,
      "癰": 3306,
      "発": 3307,
      "登": 3308,
      "發": 3309,
      "白": 3310,
      "百": 3311,
      "的": 3312,
      "皇": 3313,
      "皖": 3314,
      "皮": 3315,
      "盃": 3316,
      "盆": 3317,
      "盈": 3318,
      "益": 3319,
      "盐": 3320,
      "监": 3321,
      "盒": 3322,
      "盖": 3323,
      "盗": 3324,
      "盘": 3325,
      "盛": 3326,
      "盟": 3327,
      "監": 3328,
      "盤": 3329,
      "目": 3330,
      "盲": 3331,
      "直": 3332,
      "相": 3333,
      "省": 3334,
      "眉": 3335,
      "看": 3336,
      "県": 3337,
      "眞": 3338,
      "真": 3339,
      "眼": 3340,
      "眾": 3341,
      "着": 3342,
      "睛": 3343,
      "督": 3344,
      "瞬": 3345,
      "瞳": 3346,
      "矢": 3347,
      "知": 3348,
      "短": 3349,
      "石": 3350,
      "矽": 3351,
      "码": 3352,
      "砂": 3353,
      "研": 3354,
      "破": 3355,
      "础": 3356,
      "硫": 3357,
      "硬": 3358,
      "确": 3359,
      "碗": 3360,
      "碧": 3361,
      "碩": 3362,
      "碱": 3363,
      "確": 3364,
      "碼": 3365,
      "磁": 3366,
      "磐": 3367,
      "礙": 3368,
      "礫": 3369,
      "示": 3370,
      "礼": 3371,
      "社": 3372,
      "祇": 3373,
      "祈": 3374,
      "祎": 3375,
      "祖": 3376,
      "神": 3377,
      "祥": 3378,
      "祭": 3379,
      "祿": 3380,
      "禁": 3381,
      "禅": 3382,
      "禎": 3383,
      "福": 3384,
      "禡": 3385,
      "禮": 3386,
      "离": 3387,
      "禿": 3388,
      "秀": 3389,
      "私": 3390,
      "秉": 3391,
      "秋": 3392,
      "种": 3393,
      "科": 3394,
      "秒": 3395,
      "秘": 3396,
      "租": 3397,
      "秦": 3398,
      "积": 3399,
      "称": 3400,
      "移": 3401,
      "稀": 3402,
      "程": 3403,
      "種": 3404,
      "稲": 3405,
      "稳": 3406,
      "稼": 3407,
      "稽": 3408,
      "稿": 3409,
      "穆": 3410,
      "積": 3411,
      "究": 3412,
      "穹": 3413,
      "空": 3414,
      "突": 3415,
      "窗": 3416,
      "窪": 3417,
      "窮": 3418,
      "立": 3419,
      "站": 3420,
      "章": 3421,
      "童": 3422,
      "竭": 3423,
      "端": 3424,
      "競": 3425,
      "竹": 3426,
      "笑": 3427,
      "笔": 3428,
      "笠": 3429,
      "符": 3430,
      "第": 3431,
      "笹": 3432,
      "筆": 3433,
      "等": 3434,
      "筋": 3435,
      "筑": 3436,
      "答": 3437,
      "策": 3438,
      "简": 3439,
      "箇": 3440,
      "箏": 3441,
      "箕": 3442,
      "算": 3443,
      "管": 3444,
      "箭": 3445,
      "箱": 3446,
      "節": 3447,
      "範": 3448,
      "篇": 3449,
      "篠": 3450,
      "篤": 3451,
      "簡": 3452,
      "籃": 3453,
      "籍": 3454,
      "米": 3455,
      "类": 3456,
      "粉": 3457,
      "粗": 3458,
      "粟": 3459,
      "粥": 3460,
      "精": 3461,
      "粿": 3462,
      "糕": 3463,
      "糖": 3464,
      "糙": 3465,
      "糜": 3466,
      "糟": 3467,
      "系": 3468,
      "紀": 3469,
      "約": 3470,
      "紅": 3471,
      "納": 3472,
      "純": 3473,
      "紙": 3474,
      "級": 3475,
      "素": 3476,
      "索": 3477,
      "紫": 3478,
      "細": 3479,
      "紹": 3480,
      "終": 3481,
      "組": 3482,
      "経": 3483,
      "結": 3484,
      "絞": 3485,
      "給": 3486,
      "統": 3487,
      "絲": 3488,
      "絳": 3489,
      "絵": 3490,
      "絶": 3491,
      "經": 3492,
      "継": 3493,
      "続": 3494,
      "綠": 3495,
      "維": 3496,
      "綱": 3497,
      "網": 3498,
      "綸": 3499,
      "綿": 3500,
      "緊": 3501,
      "緋": 3502,
      "緑": 3503,
      "緒": 3504,
      "線": 3505,
      "緣": 3506,
      "編": 3507,
      "緩": 3508,
      "練": 3509,
      "縁": 3510,
      "縄": 3511,
      "縛": 3512,
      "縣": 3513,
      "縦": 3514,
      "總": 3515,
      "績": 3516,
      "繁": 3517,
      "織": 3518,
      "繡": 3519,
      "繩": 3520,
      "繼": 3521,
      "纂": 3522,
      "續": 3523,
      "红": 3524,
      "约": 3525,
      "级": 3526,
      "纪": 3527,
      "纳": 3528,
      "纸": 3529,
      "纽": 3530,
      "线": 3531,
      "组": 3532,
      "细": 3533,
      "织": 3534,
      "终": 3535,
      "绍": 3536,
      "经": 3537,
      "结": 3538,
      "绘": 3539,
      "给": 3540,
      "络": 3541,
      "绝": 3542,
      "统": 3543,
      "继": 3544,
      "续": 3545,
      "维": 3546,
      "绵": 3547,
      "综": 3548,
      "缔": 3549,
      "缠": 3550,
      "缶": 3551,
      "网": 3552,
      "罕": 3553,
      "罪": 3554,
      "置": 3555,
      "羅": 3556,
      "羆": 3557,
      "羊": 3558,
      "羋": 3559,
      "羌": 3560,
      "美": 3561,
      "羖": 3562,
      "羝": 3563,
      "羞": 3564,
      "群": 3565,
      "義": 3566,
      "羹": 3567,
      "羽": 3568,
      "翁": 3569,
      "翅": 3570,
      "習": 3571,
      "翔": 3572,
      "翟": 3573,
      "翠": 3574,
      "翰": 3575,
      "翻": 3576,
      "翼": 3577,
      "老": 3578,
      "考": 3579,
      "者": 3580,
      "而": 3581,
      "耐": 3582,
      "耕": 3583,
      "耳": 3584,
      "耶": 3585,
      "聃": 3586,
      "职": 3587,
      "联": 3588,
      "聖": 3589,
      "聘": 3590,
      "聚": 3591,
      "聞": 3592,
      "聯": 3593,
      "聲": 3594,
      "職": 3595,
      "肅": 3596,
      "肇": 3597,
      "肉": 3598,
      "肚": 3599,
      "肠": 3600,
      "肩": 3601,
      "肯": 3602,
      "育": 3603,
      "肺": 3604,
      "胃": 3605,
      "背": 3606,
      "胜": 3607,
      "胞": 3608,
      "胡": 3609,
      "胤": 3610,
      "能": 3611,
      "脂": 3612,
      "脇": 3613,
      "脈": 3614,
      "脑": 3615,
      "脚": 3616,
      "脫": 3617,
      "脱": 3618,
      "腐": 3619,
      "腔": 3620,
      "腦": 3621,
      "腰": 3622,
      "腾": 3623,
      "膚": 3624,
      "膜": 3625,
      "膠": 3626,
      "臣": 3627,
      "臧": 3628,
      "臨": 3629,
      "自": 3630,
      "臭": 3631,
      "至": 3632,
      "致": 3633,
      "臺": 3634,
      "臻": 3635,
      "與": 3636,
      "興": 3637,
      "舊": 3638,
      "舍": 3639,
      "舒": 3640,
      "舗": 3641,
      "舜": 3642,
      "舞": 3643,
      "舟": 3644,
      "航": 3645,
      "般": 3646,
      "船": 3647,
      "艇": 3648,
      "艦": 3649,
      "良": 3650,
      "色": 3651,
      "艳": 3652,
      "艹": 3653,
      "艺": 3654,
      "艾": 3655,
      "节": 3656,
      "芋": 3657,
      "芝": 3658,
      "芦": 3659,
      "芬": 3660,
      "芯": 3661,
      "花": 3662,
      "芳": 3663,
      "芸": 3664,
      "芹": 3665,
      "芽": 3666,
      "苎": 3667,
      "苏": 3668,
      "苑": 3669,
      "苗": 3670,
      "若": 3671,
      "英": 3672,
      "苻": 3673,
      "茂": 3674,
      "范": 3675,
      "茅": 3676,
      "茗": 3677,
      "茨": 3678,
      "茶": 3679,
      "茸": 3680,
      "茹": 3681,
      "荀": 3682,
      "荃": 3683,
      "草": 3684,
      "荊": 3685,
      "荐": 3686,
      "荒": 3687,
      "荘": 3688,
      "荣": 3689,
      "莊": 3690,
      "莪": 3691,
      "莫": 3692,
      "莱": 3693,
      "获": 3694,
      "菅": 3695,
      "菇": 3696,
      "菜": 3697,
      "菠": 3698,
      "華": 3699,
      "菸": 3700,
      "萃": 3701,
      "萄": 3702,
      "萍": 3703,
      "萝": 3704,
      "营": 3705,
      "萨": 3706,
      "萬": 3707,
      "萱": 3708,
      "落": 3709,
      "葆": 3710,
      "葉": 3711,
      "葛": 3712,
      "葡": 3713,
      "董": 3714,
      "蒂": 3715,
      "蒋": 3716,
      "蒔": 3717,
      "蒙": 3718,
      "蒸": 3719,
      "蒼": 3720,
      "蓉": 3721,
      "蓋": 3722,
      "蓬": 3723,
      "蔡": 3724,
      "蔵": 3725,
      "蕪": 3726,
      "蕭": 3727,
      "蕾": 3728,
      "薄": 3729,
      "薇": 3730,
      "薔": 3731,
      "薛": 3732,
      "薦": 3733,
      "薨": 3734,
      "薬": 3735,
      "藉": 3736,
      "藍": 3737,
      "藏": 3738,
      "藝": 3739,
      "藤": 3740,
      "藩": 3741,
      "蘇": 3742,
      "蘋": 3743,
      "蘭": 3744,
      "蘿": 3745,
      "虎": 3746,
      "虑": 3747,
      "虔": 3748,
      "處": 3749,
      "虚": 3750,
      "虛": 3751,
      "號": 3752,
      "虫": 3753,
      "虹": 3754,
      "虽": 3755,
      "蚵": 3756,
      "蛋": 3757,
      "蛛": 3758,
      "蜘": 3759,
      "蜜": 3760,
      "蝙": 3761,
      "蝠": 3762,
      "蝦": 3763,
      "蝴": 3764,
      "蝶": 3765,
      "融": 3766,
      "蟹": 3767,
      "蟻": 3768,
      "蠡": 3769,
      "蠣": 3770,
      "血": 3771,
      "衆": 3772,
      "行": 3773,
      "術": 3774,
      "街": 3775,
      "衛": 3776,
      "衞": 3777,
      "衡": 3778,
      "衣": 3779,
      "表": 3780,
      "衩": 3781,
      "袁": 3782,
      "袋": 3783,
      "袖": 3784,
      "被": 3785,
      "袯": 3786,
      "裁": 3787,
      "裂": 3788,
      "装": 3789,
      "裕": 3790,
      "裙": 3791,
      "補": 3792,
      "裝": 3793,
      "裵": 3794,
      "製": 3795,
      "複": 3796,
      "褪": 3797,
      "襄": 3798,
      "襪": 3799,
      "襲": 3800,
      "西": 3801,
      "要": 3802,
      "覆": 3803,
      "見": 3804,
      "規": 3805,
      "視": 3806,
      "覗": 3807,
      "覚": 3808,
      "覧": 3809,
      "親": 3810,
      "観": 3811,
      "覺": 3812,
      "觀": 3813,
      "见": 3814,
      "观": 3815,
      "规": 3816,
      "览": 3817,
      "觉": 3818,
      "角": 3819,
      "解": 3820,
      "触": 3821,
      "觸": 3822,
      "言": 3823,
      "計": 3824,
      "訊": 3825,
      "討": 3826,
      "訓": 3827,
      "託": 3828,
      "記": 3829,
      "訪": 3830,
      "設": 3831,
      "許": 3832,
      "訳": 3833,
      "訴": 3834,
      "註": 3835,
      "証": 3836,
      "評": 3837,
      "詞": 3838,
      "試": 3839,
      "詩": 3840,
      "詰": 3841,
      "話": 3842,
      "詳": 3843,
      "詹": 3844,
      "誌": 3845,
      "認": 3846,
      "誕": 3847,
      "誘": 3848,
      "語": 3849,
      "誠": 3850,
      "誤": 3851,
      "說": 3852,
      "説": 3853,
      "読": 3854,
      "誰": 3855,
      "課": 3856,
      "調": 3857,
      "談": 3858,
      "請": 3859,
      "論": 3860,
      "諧": 3861,
      "諾": 3862,
      "謀": 3863,
      "謚": 3864,
      "講": 3865,
      "謝": 3866,
      "證": 3867,
      "譓": 3868,
      "識": 3869,
      "譙": 3870,
      "譚": 3871,
      "譜": 3872,
      "譯": 3873,
      "議": 3874,
      "譲": 3875,
      "護": 3876,
      "讀": 3877,
      "變": 3878,
      "讌": 3879,
      "计": 3880,
      "订": 3881,
      "认": 3882,
      "讨": 3883,
      "让": 3884,
      "议": 3885,
      "讯": 3886,
      "记": 3887,
      "讲": 3888,
      "许": 3889,
      "论": 3890,
      "设": 3891,
      "访": 3892,
      "证": 3893,
      "评": 3894,
      "识": 3895,
      "词": 3896,
      "译": 3897,
      "试": 3898,
      "诗": 3899,
      "话": 3900,
      "诠": 3901,
      "该": 3902,
      "详": 3903,
      "语": 3904,
      "误": 3905,
      "说": 3906,
      "请": 3907,
      "诺": 3908,
      "读": 3909,
      "谁": 3910,
      "调": 3911,
      "谅": 3912,
      "谈": 3913,
      "谓": 3914,
      "谜": 3915,
      "谢": 3916,
      "谦": 3917,
      "谷": 3918,
      "豆": 3919,
      "豈": 3920,
      "豊": 3921,
      "豎": 3922,
      "象": 3923,
      "豫": 3924,
      "豬": 3925,
      "豹": 3926,
      "貌": 3927,
      "負": 3928,
      "財": 3929,
      "貨": 3930,
      "販": 3931,
      "貫": 3932,
      "貴": 3933,
      "買": 3934,
      "費": 3935,
      "貿": 3936,
      "賀": 3937,
      "資": 3938,
      "賈": 3939,
      "賜": 3940,
      "賢": 3941,
      "賣": 3942,
      "質": 3943,
      "賭": 3944,
      "賴": 3945,
      "賽": 3946,
      "贝": 3947,
      "财": 3948,
      "责": 3949,
      "货": 3950,
      "质": 3951,
      "贯": 3952,
      "贴": 3953,
      "贵": 3954,
      "费": 3955,
      "资": 3956,
      "赌": 3957,
      "赏": 3958,
      "赛": 3959,
      "赤": 3960,
      "走": 3961,
      "赵": 3962,
      "起": 3963,
      "超": 3964,
      "越": 3965,
      "趋": 3966,
      "趙": 3967,
      "趣": 3968,
      "足": 3969,
      "趴": 3970,
      "趾": 3971,
      "跋": 3972,
      "跑": 3973,
      "距": 3974,
      "跟": 3975,
      "跨": 3976,
      "路": 3977,
      "跳": 3978,
      "蹟": 3979,
      "躍": 3980,
      "身": 3981,
      "車": 3982,
      "軍": 3983,
      "軒": 3984,
      "転": 3985,
      "軸": 3986,
      "軻": 3987,
      "軽": 3988,
      "較": 3989,
      "載": 3990,
      "輔": 3991,
      "輕": 3992,
      "輝": 3993,
      "輪": 3994,
      "輸": 3995,
      "轉": 3996,
      "车": 3997,
      "转": 3998,
      "轮": 3999,
      "软": 4000,
      "载": 4001,
      "较": 4002,
      "辈": 4003,
      "辉": 4004,
      "输": 4005,
      "辛": 4006,
      "辣": 4007,
      "辨": 4008,
      "辯": 4009,
      "辰": 4010,
      "農": 4011,
      "边": 4012,
      "辺": 4013,
      "込": 4014,
      "达": 4015,
      "过": 4016,
      "迎": 4017,
      "运": 4018,
      "近": 4019,
      "返": 4020,
      "还": 4021,
      "这": 4022,
      "进": 4023,
      "远": 4024,
      "连": 4025,
      "迪": 4026,
      "迫": 4027,
      "述": 4028,
      "迷": 4029,
      "迹": 4030,
      "追": 4031,
      "退": 4032,
      "送": 4033,
      "适": 4034,
      "逆": 4035,
      "选": 4036,
      "逊": 4037,
      "透": 4038,
      "逐": 4039,
      "途": 4040,
      "逗": 4041,
      "這": 4042,
      "通": 4043,
      "速": 4044,
      "造": 4045,
      "連": 4046,
      "週": 4047,
      "進": 4048,
      "逼": 4049,
      "遇": 4050,
      "遊": 4051,
      "運": 4052,
      "遍": 4053,
      "過": 4054,
      "遏": 4055,
      "道": 4056,
      "達": 4057,
      "違": 4058,
      "遞": 4059,
      "遠": 4060,
      "遣": 4061,
      "適": 4062,
      "遷": 4063,
      "選": 4064,
      "遺": 4065,
      "避": 4066,
      "還": 4067,
      "邊": 4068,
      "邑": 4069,
      "那": 4070,
      "邪": 4071,
      "邮": 4072,
      "郊": 4073,
      "郎": 4074,
      "郑": 4075,
      "郡": 4076,
      "部": 4077,
      "郭": 4078,
      "郷": 4079,
      "都": 4080,
      "鄀": 4081,
      "鄉": 4082,
      "鄒": 4083,
      "鄭": 4084,
      "酋": 4085,
      "配": 4086,
      "酒": 4087,
      "酔": 4088,
      "酥": 4089,
      "酶": 4090,
      "酸": 4091,
      "醇": 4092,
      "醋": 4093,
      "醫": 4094,
      "醬": 4095,
      "采": 4096,
      "释": 4097,
      "釋": 4098,
      "里": 4099,
      "重": 4100,
      "野": 4101,
      "量": 4102,
      "金": 4103,
      "針": 4104,
      "鈍": 4105,
      "鈞": 4106,
      "鈥": 4107,
      "鈴": 4108,
      "鉛": 4109,
      "鉴": 4110,
      "銀": 4111,
      "銅": 4112,
      "銑": 4113,
      "銘": 4114,
      "銷": 4115,
      "鋁": 4116,
      "鋒": 4117,
      "鋼": 4118,
      "錢": 4119,
      "錦": 4120,
      "錫": 4121,
      "錯": 4122,
      "録": 4123,
      "鍊": 4124,
      "鍋": 4125,
      "鍵": 4126,
      "鍾": 4127,
      "鎌": 4128,
      "鎮": 4129,
      "鎳": 4130,
      "鏡": 4131,
      "鏤": 4132,
      "鐃": 4133,
      "鐘": 4134,
      "鐱": 4135,
      "鐵": 4136,
      "鑐": 4137,
      "鑑": 4138,
      "鑿": 4139,
      "钓": 4140,
      "钟": 4141,
      "钧": 4142,
      "钰": 4143,
      "铁": 4144,
      "链": 4145,
      "销": 4146,
      "锅": 4147,
      "锋": 4148,
      "错": 4149,
      "锛": 4150,
      "锦": 4151,
      "键": 4152,
      "镇": 4153,
      "長": 4154,
      "长": 4155,
      "門": 4156,
      "閉": 4157,
      "開": 4158,
      "閏": 4159,
      "間": 4160,
      "関": 4161,
      "閣": 4162,
      "閤": 4163,
      "閩": 4164,
      "閲": 4165,
      "闍": 4166,
      "闘": 4167,
      "關": 4168,
      "门": 4169,
      "闭": 4170,
      "问": 4171,
      "间": 4172,
      "闸": 4173,
      "闻": 4174,
      "闽": 4175,
      "阁": 4176,
      "阙": 4177,
      "队": 4178,
      "阪": 4179,
      "阮": 4180,
      "防": 4181,
      "阳": 4182,
      "阴": 4183,
      "阵": 4184,
      "阿": 4185,
      "陀": 4186,
      "附": 4187,
      "际": 4188,
      "陆": 4189,
      "陈": 4190,
      "陌": 4191,
      "降": 4192,
      "限": 4193,
      "院": 4194,
      "陣": 4195,
      "除": 4196,
      "陪": 4197,
      "陰": 4198,
      "陳": 4199,
      "陵": 4200,
      "陶": 4201,
      "陸": 4202,
      "陽": 4203,
      "隅": 4204,
      "隆": 4205,
      "隊": 4206,
      "随": 4207,
      "隔": 4208,
      "隙": 4209,
      "際": 4210,
      "障": 4211,
      "隣": 4212,
      "隻": 4213,
      "难": 4214,
      "雀": 4215,
      "雁": 4216,
      "雄": 4217,
      "雅": 4218,
      "集": 4219,
      "雍": 4220,
      "雑": 4221,
      "雖": 4222,
      "雙": 4223,
      "雜": 4224,
      "雞": 4225,
      "離": 4226,
      "難": 4227,
      "雨": 4228,
      "雪": 4229,
      "雯": 4230,
      "雲": 4231,
      "零": 4232,
      "雷": 4233,
      "電": 4234,
      "需": 4235,
      "霄": 4236,
      "霆": 4237,
      "震": 4238,
      "霈": 4239,
      "霊": 4240,
      "霍": 4241,
      "霧": 4242,
      "露": 4243,
      "霸": 4244,
      "靈": 4245,
      "青": 4246,
      "静": 4247,
      "靜": 4248,
      "非": 4249,
      "靠": 4250,
      "面": 4251,
      "革": 4252,
      "鞋": 4253,
      "韓": 4254,
      "韩": 4255,
      "音": 4256,
      "韻": 4257,
      "響": 4258,
      "頂": 4259,
      "項": 4260,
      "順": 4261,
      "須": 4262,
      "預": 4263,
      "頓": 4264,
      "領": 4265,
      "頞": 4266,
      "頭": 4267,
      "頻": 4268,
      "題": 4269,
      "顏": 4270,
      "顔": 4271,
      "願": 4272,
      "類": 4273,
      "顯": 4274,
      "页": 4275,
      "项": 4276,
      "顺": 4277,
      "顾": 4278,
      "顿": 4279,
      "预": 4280,
      "领": 4281,
      "颖": 4282,
      "题": 4283,
      "颜": 4284,
      "额": 4285,
      "風": 4286,
      "风": 4287,
      "飞": 4288,
      "食": 4289,
      "飯": 4290,
      "飲": 4291,
      "飾": 4292,
      "餅": 4293,
      "養": 4294,
      "餐": 4295,
      "餘": 4296,
      "館": 4297,
      "饮": 4298,
      "饼": 4299,
      "馆": 4300,
      "馍": 4301,
      "馒": 4302,
      "首": 4303,
      "香": 4304,
      "馨": 4305,
      "馬": 4306,
      "馱": 4307,
      "馳": 4308,
      "駅": 4309,
      "駆": 4310,
      "騎": 4311,
      "騒": 4312,
      "験": 4313,
      "驗": 4314,
      "驚": 4315,
      "马": 4316,
      "驱": 4317,
      "驶": 4318,
      "驾": 4319,
      "验": 4320,
      "骑": 4321,
      "骥": 4322,
      "骨": 4323,
      "骷": 4324,
      "髅": 4325,
      "體": 4326,
      "高": 4327,
      "髮": 4328,
      "鬥": 4329,
      "鬧": 4330,
      "鬼": 4331,
      "魅": 4332,
      "魏": 4333,
      "魔": 4334,
      "魚": 4335,
      "魯": 4336,
      "鮮": 4337,
      "鯖": 4338,
      "鯨": 4339,
      "鰻": 4340,
      "鱗": 4341,
      "鱼": 4342,
      "鳥": 4343,
      "鳩": 4344,
      "鳳": 4345,
      "鳴": 4346,
      "鴨": 4347,
      "鴻": 4348,
      "鵡": 4349,
      "鵬": 4350,
      "鵰": 4351,
      "鶴": 4352,
      "鷹": 4353,
      "鸚": 4354,
      "鸟": 4355,
      "鸡": 4356,
      "鸿": 4357,
      "鹂": 4358,
      "鹅": 4359,
      "鹏": 4360,
      "鹽": 4361,
      "鹿": 4362,
      "麒": 4363,
      "麗": 4364,
      "麟": 4365,
      "麤": 4366,
      "麩": 4367,
      "麵": 4368,
      "麺": 4369,
      "麼": 4370,
      "黃": 4371,
      "黄": 4372,
      "黎": 4373,
      "黑": 4374,
      "黒": 4375,
      "默": 4376,
      "點": 4377,
      "黨": 4378,
      "鼐": 4379,
      "鼓": 4380,
      "齊": 4381,
      "齢": 4382,
      "龍": 4383,
      "龔": 4384,
      "龙": 4385,
      "龜": 4386,
      "Ꜯ": 4387,
      "ꜯ": 4388,
      "Ꝇ": 4389,
      "ꝇ": 4390,
      "ꞌ": 4391,
      "": 4392,
      "": 4393,
      "": 4394,
      "": 4395,
      "": 4396,
      "": 4397,
      "": 4398,
      "": 4399,
      "": 4400,
      "": 4401,
      "": 4402,
      "": 4403,
      "": 4404,
      "": 4405,
      "": 4406,
      "": 4407,
      "": 4408,
      "": 4409,
      "": 4410,
      "": 4411,
      "": 4412,
      "": 4413,
      "": 4414,
      "": 4415,
      "": 4416,
      "": 4417,
      "": 4418,
      "": 4419,
      "": 4420,
      "": 4421,
      "": 4422,
      "": 4423,
      "": 4424,
      "": 4425,
      "": 4426,
      "": 4427,
      "": 4428,
      "": 4429,
      "": 4430,
      "": 4431,
      "": 4432,
      "": 4433,
      "": 4434,
      "": 4435,
      "": 4436,
      "": 4437,
      "": 4438,
      "": 4439,
      "": 4440,
      "": 4441,
      "": 4442,
      "": 4443,
      "": 4444,
      "": 4445,
      "": 4446,
      "": 4447,
      "": 4448,
      "": 4449,
      "": 4450,
      "": 4451,
      "": 4452,
      "": 4453,
      "": 4454,
      "": 4455,
      "": 4456,
      "": 4457,
      "": 4458,
      "": 4459,
      "": 4460,
      "": 4461,
      "": 4462,
      "": 4463,
      "": 4464,
      "": 4465,
      "ﮔ": 4466,
      "ﰀ": 4467,
      "ﰁ": 4468,
      "ﰂ": 4469,
      "ﰃ": 4470,
      "ﰄ": 4471,
      "ﰅ": 4472,
      "ﰆ": 4473,
      "ﰈ": 4474,
      "ﰉ": 4475,
      "ﰊ": 4476,
      "ﰌ": 4477,
      "ﰍ": 4478,
      "ﰎ": 4479,
      "ﰑ": 4480,
      "ﰒ": 4481,
      "ﰓ": 4482,
      "ﰔ": 4483,
      "ﰖ": 4484,
      "ﰛ": 4485,
      "ﰜ": 4486,
      "ﰡ": 4487,
      "﷓": 4488,
      "ﷺ": 4489,
      "︰": 4490,
      "ﺎ": 4491,
      "ﺗ": 4492,
      "ﺘ": 4493,
      "ﺯ": 4494,
      "ﺴ": 4495,
      "ﺸ": 4496,
      "ﻠ": 4497,
      "ﻤ": 4498,
      "ﻦ": 4499,
      "ﻮ": 4500,
      "�": 4501,
      "𐊓": 4502,
      "𐌰": 4503,
      "𐌱": 4504,
      "𐌲": 4505,
      "𐌳": 4506,
      "𐌴": 4507,
      "𐌵": 4508,
      "𐌷": 4509,
      "𐌸": 4510,
      "𐌹": 4511,
      "𐌺": 4512,
      "𐌻": 4513,
      "𐌼": 4514,
      "𐌽": 4515,
      "𐌾": 4516,
      "𐌿": 4517,
      "𐍂": 4518,
      "𐍃": 4519,
      "𐍄": 4520,
      "𐍅": 4521,
      "𐍆": 4522,
      "𐍉": 4523,
      "𐍐": 4524,
      "𐍒": 4525,
      "𐍔": 4526,
      "𐍕": 4527,
      "𐍜": 4528,
      "𐍟": 4529,
      "𐍠": 4530,
      "𐍣": 4531,
      "𐍨": 4532,
      "𐍩": 4533,
      "𐍮": 4534,
      "𐤊": 4535,
      "𐤍": 4536,
      "𐤏": 4537,
      "𒄴": 4538,
      "𒆠": 4539,
      "𒆳": 4540,
      "𒈾": 4541,
      "𝐀": 4542,
      "𝐂": 4543,
      "𝐄": 4544,
      "𝐅": 4545,
      "𝐈": 4546,
      "𝐋": 4547,
      "𝐐": 4548,
      "𝐒": 4549,
      "𝐓": 4550,
      "𝐔": 4551,
      "𝐚": 4552,
      "𝐠": 4553,
      "𝐡": 4554,
      "𝐢": 4555,
      "𝐣": 4556,
      "𝐥": 4557,
      "𝐧": 4558,
      "𝐩": 4559,
      "𝐬": 4560,
      "𝐭": 4561,
      "𝐮": 4562,
      "𝐸": 4563,
      "𝐼": 4564,
      "𝑉": 4565,
      "𝑓": 4566,
      "𝑥": 4567,
      "𝙉": 4568,
      "𝙖": 4569,
      "𝙞": 4570,
      "𝙤": 4571,
      "𝙩": 4572,
      "𝙬": 4573,
      "𝛼": 4574,
      "🄁": 4575,
      "🄊": 4576,
      "🄰": 4577,
      "🄸": 4578,
      "🄻": 4579,
      "🄾": 4580,
      "🅁": 4581,
      "🅂": 4582,
      "🅃": 4583,
      "🤌": 4584,
      "🤔": 4585,
      "🤗": 4586,
      "🤘": 4587,
      "🤛": 4588,
      "🤣": 4589,
      "🤦": 4590,
      "🤩": 4591,
      "🤯": 4592,
      "🤲": 4593,
      "🤷": 4594,
      "🥒": 4595,
      "🥕": 4596,
      "🥙": 4597,
      "🥥": 4598,
      "🥰": 4599,
      "🦄": 4600,
      "🦇": 4601,
      "🦊": 4602,
      "🦖": 4603,
      "🧁": 4604,
      "🧡": 4605,
      "𠂊": 4606,
      "𠫑": 4607,
      "𤣯": 4608,
      "𤣳": 4609,
      "󠁢": 4610,
      "󠁣": 4611,
      "󠁧": 4612,
      "󠁳": 4613,
      "󠁴": 4614,
      "󠁿": 4615,
      "􏰊": 4616,
      " t": 4617,
      " a": 4618,
      "in": 4619,
      "he": 4620,
      "re": 4621,
      "on": 4622,
      "er": 4623,
      " the": 4624,
      " s": 4625,
      "at": 4626,
      " o": 4627,
      "nd": 4628,
      " w": 4629,
      " c": 4630,
      "it": 4631,
      "es": 4632,
      "or": 4633,
      "en": 4634,
      "is": 4635,
      "ou": 4636,
      " f": 4637,
      " p": 4638,
      "ing": 4639,
      "an": 4640,
      " b": 4641,
      "al": 4642,
      "ed": 4643,
      " and": 4644,
      " to": 4645,
      " m": 4646,
      " in": 4647,
      "ar": 4648,
      " of": 4649,
      "ic": 4650,
      " d": 4651,
      "ion": 4652,
      "le": 4653,
      "as": 4654,
      "om": 4655,
      " h": 4656,
      " th": 4657,
      "ent": 4658,
      "il": 4659,
      " e": 4660,
      "ro": 4661,
      " re": 4662,
      "ve": 4663,
      " l": 4664,
      "st": 4665,
      ".\n": 4666,
      "ct": 4667,
      " y": 4668,
      " n": 4669,
      "et": 4670,
      " g": 4671,
      " T": 4672,
      "ly": 4673,
      " I": 4674,
      " you": 4675,
      " is": 4676,
      " S": 4677,
      " for": 4678,
      " be": 4679,
      "id": 4680,
      "ot": 4681,
      "ut": 4682,
      " on": 4683,
      "ur": 4684,
      "ol": 4685,
      "ra": 4686,
      " C": 4687,
      " A": 4688,
      "us": 4689,
      "ce": 4690,
      "ow": 4691,
      "im": 4692,
      "ation": 4693,
      "ch": 4694,
      "ig": 4695,
      "ay": 4696,
      "ver": 4697,
      "el": 4698,
      "ith": 4699,
      " st": 4700,
      " that": 4701,
      "am": 4702,
      "ir": 4703,
      " with": 4704,
      "ad": 4705,
      " M": 4706,
      "ul": 4707,
      "ers": 4708,
      " it": 4709,
      " pro": 4710,
      " as": 4711,
      " he": 4712,
      " al": 4713,
      " an": 4714,
      " P": 4715,
      " B": 4716,
      "un": 4717,
      "se": 4718,
      "if": 4719,
      " are": 4720,
      " con": 4721,
      "s,": 4722,
      " wh": 4723,
      "ill": 4724,
      "ge": 4725,
      "ter": 4726,
      "'s": 4727,
      " or": 4728,
      " The": 4729,
      " com": 4730,
      "ment": 4731,
      "ke": 4732,
      "ate": 4733,
      " ha": 4734,
      "ess": 4735,
      "ist": 4736,
      " W": 4737,
      " H": 4738,
      "her": 4739,
      " we": 4740,
      " 1": 4741,
      "ab": 4742,
      "pp": 4743,
      "od": 4744,
      "ri": 4745,
      "est": 4746,
      " ex": 4747,
      "ore": 4748,
      " D": 4749,
      "ac": 4750,
      "ant": 4751,
      "th": 4752,
      " su": 4753,
      "rom": 4754,
      " de": 4755,
      " R": 4756,
      " F": 4757,
      "ity": 4758,
      "op": 4759,
      " at": 4760,
      " was": 4761,
      " (": 4762,
      "ld": 4763,
      "qu": 4764,
      " se": 4765,
      " your": 4766,
      "igh": 4767,
      "ive": 4768,
      " v": 4769,
      " ne": 4770,
      " can": 4771,
      " 2": 4772,
      "ort": 4773,
      "ure": 4774,
      "ies": 4775,
      "s.": 4776,
      "oc": 4777,
      "pe": 4778,
      " L": 4779,
      "ain": 4780,
      "em": 4781,
      " G": 4782,
      " E": 4783,
      " by": 4784,
      "um": 4785,
      "art": 4786,
      " from": 4787,
      " have": 4788,
      "and": 4789,
      "ust": 4790,
      " ch": 4791,
      " us": 4792,
      "os": 4793,
      " r": 4794,
      " N": 4795,
      "nt": 4796,
      " sh": 4797,
      "iv": 4798,
      "all": 4799,
      "ud": 4800,
      "ial": 4801,
      "res": 4802,
      "ome": 4803,
      " le": 4804,
      " this": 4805,
      " not": 4806,
      "ard": 4807,
      " u": 4808,
      "ight": 4809,
      " O": 4810,
      "ect": 4811,
      " wor": 4812,
      " pl": 4813,
      "our": 4814,
      "ide": 4815,
      "out": 4816,
      " will": 4817,
      "ost": 4818,
      "rou": 4819,
      " ab": 4820,
      "ould": 4821,
      "ere": 4822,
      "per": 4823,
      "ag": 4824,
      "ine": 4825,
      "gh": 4826,
      " en": 4827,
      "are": 4828,
      "ak": 4829,
      "ast": 4830,
      "age": 4831,
      " comp": 4832,
      " ad": 4833,
      "og": 4834,
      " J": 4835,
      "pt": 4836,
      "ie": 4837,
      "ok": 4838,
      "ff": 4839,
      " all": 4840,
      "00": 4841,
      "ell": 4842,
      " im": 4843,
      "ip": 4844,
      " \"": 4845,
      " their": 4846,
      " has": 4847,
      "ally": 4848,
      " j": 4849,
      "able": 4850,
      "ich": 4851,
      "ther": 4852,
      "ice": 4853,
      " k": 4854,
      "du": 4855,
      "ear": 4856,
      "iz": 4857,
      " int": 4858,
      "ated": 4859,
      " U": 4860,
      "pl": 4861,
      " go": 4862,
      " whe": 4863,
      "act": 4864,
      "ire": 4865,
      "ack": 4866,
      "cc": 4867,
      " inc": 4868,
      "ake": 4869,
      " more": 4870,
      "so": 4871,
      "ry": 4872,
      "ong": 4873,
      " do": 4874,
      "orm": 4875,
      " In": 4876,
      " me": 4877,
      "ind": 4878,
      "ions": 4879,
      " cont": 4880,
      " Th": 4881,
      " but": 4882,
      "es,": 4883,
      " te": 4884,
      " cl": 4885,
      "ign": 4886,
      "The": 4887,
      "ance": 4888,
      " out": 4889,
      "ia": 4890,
      "ook": 4891,
      "ult": 4892,
      "ime": 4893,
      "ite": 4894,
      "ous": 4895,
      " they": 4896,
      "ru": 4897,
      "one": 4898,
      " so": 4899,
      " res": 4900,
      " up": 4901,
      "ber": 4902,
      " which": 4903,
      "ans": 4904,
      " un": 4905,
      " work": 4906,
      " also": 4907,
      "ical": 4908,
      " man": 4909,
      "very": 4910,
      " K": 4911,
      "ail": 4912,
      "ach": 4913,
      "reat": 4914,
      "vel": 4915,
      " app": 4916,
      " our": 4917,
      " imp": 4918,
      " St": 4919,
      " fe": 4920,
      " one": 4921,
      "ib": 4922,
      " 20": 4923,
      "form": 4924,
      "ary": 4925,
      "ition": 4926,
      " about": 4927,
      " other": 4928,
      "'t": 4929,
      "ike": 4930,
      "ap": 4931,
      "ace": 4932,
      " 19": 4933,
      "ase": 4934,
      " Y": 4935,
      " my": 4936,
      " off": 4937,
      "erv": 4938,
      "ction": 4939,
      "ence": 4940,
      ".\n\n": 4941,
      "ame": 4942,
      "av": 4943,
      " who": 4944,
      "ue": 4945,
      "ep": 4946,
      " dis": 4947,
      " his": 4948,
      " It": 4949,
      " per": 4950,
      "ations": 4951,
      " tra": 4952,
      " some": 4953,
      "ount": 4954,
      " qu": 4955,
      "ll": 4956,
      "ile": 4957,
      "ree": 4958,
      " part": 4959,
      "ark": 4960,
      "ass": 4961,
      " ar": 4962,
      "end": 4963,
      " ev": 4964,
      "ub": 4965,
      " time": 4966,
      " any": 4967,
      " sp": 4968,
      "ck": 4969,
      " V": 4970,
      " Ch": 4971,
      "ose": 4972,
      "ord": 4973,
      "es.": 4974,
      " spe": 4975,
      "own": 4976,
      "ish": 4977,
      " them": 4978,
      "ove": 4979,
      "ick": 4980,
      " new": 4981,
      " rec": 4982,
      "ress": 4983,
      " pre": 4984,
      " prov": 4985,
      "y,": 4986,
      " over": 4987,
      " year": 4988,
      " ro": 4989,
      " comm": 4990,
      " were": 4991,
      " sc": 4992,
      " like": 4993,
      "ond": 4994,
      "ild": 4995,
      "ound": 4996,
      "lp": 4997,
      " kn": 4998,
      "lud": 4999,
      "ater": 5000,
      " been": 5001,
      " pe": 5002,
      " its": 5003,
      " 3": 5004,
      "ang": 5005,
      " had": 5006,
      " 201": 5007,
      " help": 5008,
      " des": 5009,
      " acc": 5010,
      " there": 5011,
      ".\nThe": 5012,
      " how": 5013,
      "ian": 5014,
      " ag": 5015,
      " need": 5016,
      "ing,": 5017,
      "fere": 5018,
      "ood": 5019,
      " when": 5020,
      "ens": 5021,
      "ents": 5022,
      "ss": 5023,
      "int": 5024,
      " get": 5025,
      "ink": 5026,
      "ces": 5027,
      ".\nI": 5028,
      "wn": 5029,
      " This": 5030,
      "ob": 5031,
      "red": 5032,
      "tern": 5033,
      "vers": 5034,
      " includ": 5035,
      " her": 5036,
      "ays": 5037,
      "ov": 5038,
      "mer": 5039,
      "low": 5040,
      " ind": 5041,
      " sa": 5042,
      "ific": 5043,
      "rough": 5044,
      "oy": 5045,
      "ough": 5046,
      "ors": 5047,
      "?\n": 5048,
      "nder": 5049,
      "te": 5050,
      "ual": 5051,
      " would": 5052,
      "ople": 5053,
      " if": 5054,
      ".\nA": 5055,
      "ric": 5056,
      " col": 5057,
      " into": 5058,
      " add": 5059,
      "ne": 5060,
      " bec": 5061,
      "irst": 5062,
      "ities": 5063,
      "ory": 5064,
      "ings": 5065,
      " am": 5066,
      " may": 5067,
      " than": 5068,
      "ram": 5069,
      " what": 5070,
      "ful": 5071,
      "lic": 5072,
      " use": 5073,
      "rit": 5074,
      " -": 5075,
      " produ": 5076,
      " serv": 5077,
      "use": 5078,
      " tr": 5079,
      "!\n": 5080,
      " em": 5081,
      " just": 5082,
      " people": 5083,
      "hed": 5084,
      " cons": 5085,
      "cial": 5086,
      "amp": 5087,
      " make": 5088,
      "fter": 5089,
      "ning": 5090,
      " co": 5091,
      " bu": 5092,
      " We": 5093,
      " act": 5094,
      "old": 5095,
      "ious": 5096,
      " these": 5097,
      "pport": 5098,
      "ft": 5099,
      " tw": 5100,
      " dif": 5101,
      " through": 5102,
      " such": 5103,
      " first": 5104,
      " bet": 5105,
      " Re": 5106,
      " He": 5107,
      "lect": 5108,
      "round": 5109,
      " most": 5110,
      "ew": 5111,
      " under": 5112,
      "ph": 5113,
      " reg": 5114,
      " sy": 5115,
      "ons": 5116,
      " well": 5117,
      "ating": 5118,
      "ced": 5119,
      " –": 5120,
      " exper": 5121,
      " no": 5122,
      "ade": 5123,
      " rel": 5124,
      "we": 5125,
      "ise": 5126,
      " eff": 5127,
      " bl": 5128,
      " rep": 5129,
      " ra": 5130,
      "ject": 5131,
      "ract": 5132,
      "olog": 5133,
      "ert": 5134,
      "ational": 5135,
      " only": 5136,
      "ased": 5137,
      " 4": 5138,
      "ility": 5139,
      "les": 5140,
      "ting": 5141,
      " inv": 5142,
      " ph": 5143,
      " stud": 5144,
      "ool": 5145,
      "ates": 5146,
      " loc": 5147,
      "oth": 5148,
      "ng": 5149,
      "ange": 5150,
      " pers": 5151,
      " att": 5152,
      "velop": 5153,
      "uring": 5154,
      "ife": 5155,
      "ments": 5156,
      " play": 5157,
      " know": 5158,
      " she": 5159,
      "ular": 5160,
      "ks": 5161,
      " 5": 5162,
      "hen": 5163,
      " many": 5164,
      " Un": 5165,
      "ative": 5166,
      " look": 5167,
      "xt": 5168,
      "iew": 5169,
      "ience": 5170,
      "iss": 5171,
      "gan": 5172,
      "y.": 5173,
      " back": 5174,
      " every": 5175,
      "cess": 5176,
      " fl": 5177,
      " pos": 5178,
      "),": 5179,
      "ath": 5180,
      "fore": 5181,
      "stem": 5182,
      " inform": 5183,
      "hip": 5184,
      "alth": 5185,
      " see": 5186,
      "ause": 5187,
      "erm": 5188,
      "row": 5189,
      " two": 5190,
      "ature": 5191,
      " dec": 5192,
      "a,": 5193,
      " could": 5194,
      "ward": 5195,
      "n't": 5196,
      "pect": 5197,
      " way": 5198,
      " rem": 5199,
      "aw": 5200,
      "ible": 5201,
      " where": 5202,
      " bus": 5203,
      "aking": 5204,
      "er,": 5205,
      "ient": 5206,
      " sm": 5207,
      ".\nW": 5208,
      "get": 5209,
      "urn": 5210,
      "bs": 5211,
      "iness": 5212,
      "elf": 5213,
      " ke": 5214,
      " inst": 5215,
      " pr": 5216,
      " high": 5217,
      " ass": 5218,
      "ont": 5219,
      "chn": 5220,
      " differe": 5221,
      " want": 5222,
      " ac": 5223,
      " great": 5224,
      "ied": 5225,
      " You": 5226,
      " develop": 5227,
      " should": 5228,
      " med": 5229,
      "ident": 5230,
      "ited": 5231,
      " pol": 5232,
      " po": 5233,
      "eth": 5234,
      " cre": 5235,
      " sec": 5236,
      "arch": 5237,
      "rib": 5238,
      ".\nT": 5239,
      " fin": 5240,
      "ing.": 5241,
      " after": 5242,
      " art": 5243,
      " own": 5244,
      "ily": 5245,
      " set": 5246,
      " 200": 5247,
      " ent": 5248,
      "ork": 5249,
      " used": 5250,
      " good": 5251,
      "uch": 5252,
      " car": 5253,
      " very": 5254,
      " design": 5255,
      "omm": 5256,
      "day": 5257,
      "any": 5258,
      "ower": 5259,
      "ener": 5260,
      " person": 5261,
      "ices": 5262,
      " commun": 5263,
      "ional": 5264,
      " information": 5265,
      "ys": 5266,
      " ins": 5267,
      " trans": 5268,
      " then": 5269,
      " even": 5270,
      "iet": 5271,
      " day": 5272,
      "ock": 5273,
      " prog": 5274,
      "on't": 5275,
      " find": 5276,
      " Se": 5277,
      " start": 5278,
      " gu": 5279,
      "air": 5280,
      " requ": 5281,
      "land": 5282,
      ").": 5283,
      " system": 5284,
      " best": 5285,
      "itt": 5286,
      "ality": 5287,
      " mod": 5288,
      "ict": 5289,
      "ren": 5290,
      "chool": 5291,
      " sign": 5292,
      " disc": 5293,
      " I'": 5294,
      " av": 5295,
      " Wh": 5296,
      "ever": 5297,
      "io": 5298,
      " right": 5299,
      "up": 5300,
      " provid": 5301,
      " support": 5302,
      " long": 5303,
      " mark": 5304,
      "ten": 5305,
      " made": 5306,
      " fam": 5307,
      "line": 5308,
      "enc": 5309,
      " pres": 5310,
      "ed,": 5311,
      "ble": 5312,
      "ank": 5313,
      " lead": 5314,
      ".\nS": 5315,
      " min": 5316,
      " sur": 5317,
      " techn": 5318,
      " soc": 5319,
      "als": 5320,
      " down": 5321,
      " home": 5322,
      " det": 5323,
      " product": 5324,
      " De": 5325,
      " world": 5326,
      " mem": 5327,
      " business": 5328,
      " take": 5329,
      " Pro": 5330,
      "ural": 5331,
      " br": 5332,
      " different": 5333,
      "its": 5334,
      "ation,": 5335,
      "ax": 5336,
      " vis": 5337,
      " form": 5338,
      "und": 5339,
      "istant": 5340,
      " now": 5341,
      " being": 5342,
      "ivers": 5343,
      "ustom": 5344,
      "other": 5345,
      "ize": 5346,
      "ser": 5347,
      " che": 5348,
      " life": 5349,
      "ash": 5350,
      "arn": 5351,
      " health": 5352,
      " 6": 5353,
      "ven": 5354,
      " sim": 5355,
      " Al": 5356,
      " show": 5357,
      " much": 5358,
      " inter": 5359,
      " ed": 5360,
      "led": 5361,
      "ix": 5362,
      "arm": 5363,
      " while": 5364,
      " mon": 5365,
      "ene": 5366,
      "ution": 5367,
      " provide": 5368,
      " before": 5369,
      " exp": 5370,
      " read": 5371,
      " sk": 5372,
      " import": 5373,
      "ics": 5374,
      " it's": 5375,
      " end": 5376,
      "hes": 5377,
      " comple": 5378,
      "ty": 5379,
      "..": 5380,
      "ers,": 5381,
      "way": 5382,
      "ered": 5383,
      " num": 5384,
      " adv": 5385,
      " each": 5386,
      "uc": 5387,
      " spec": 5388,
      " Ar": 5389,
      "ason": 5390,
      "ollow": 5391,
      "ts": 5392,
      " If": 5393,
      "ed.": 5394,
      "ween": 5395,
      " sub": 5396,
      "az": 5397,
      " As": 5398,
      " again": 5399,
      " op": 5400,
      " those": 5401,
      " think": 5402,
      "ving": 5403,
      "orn": 5404,
      " because": 5405,
      " str": 5406,
      " said": 5407,
      "'re": 5408,
      "ale": 5409,
      " pub": 5410,
      "roup": 5411,
      "dition": 5412,
      "ly,": 5413,
      "iqu": 5414,
      " count": 5415,
      " program": 5416,
      " ext": 5417,
      " team": 5418,
      "ually": 5419,
      " care": 5420,
      " between": 5421,
      " cur": 5422,
      " found": 5423,
      " call": 5424,
      "ug": 5425,
      "ull": 5426,
      "meric": 5427,
      " aut": 5428,
      " var": 5429,
      " gra": 5430,
      " ret": 5431,
      "ouse": 5432,
      "cept": 5433,
      "ines": 5434,
      " did": 5435,
      " effect": 5436,
      "ssistant": 5437,
      " custom": 5438,
      " New": 5439,
      " prof": 5440,
      "ather": 5441,
      " here": 5442,
      " years": 5443,
      " dat": 5444,
      " For": 5445,
      " including": 5446,
      " hand": 5447,
      "ince": 5448,
      " market": 5449,
      " '": 5450,
      "User": 5451,
      " him": 5452,
      " eas": 5453,
      " organ": 5454,
      "ues": 5455,
      " bo": 5456,
      "ness": 5457,
      "ssistant:": 5458,
      " cle": 5459,
      "User:": 5460,
      "ized": 5461,
      " &": 5462,
      " around": 5463,
      " Sh": 5464,
      " ser": 5465,
      "irect": 5466,
      " fil": 5467,
      " char": 5468,
      " def": 5469,
      " during": 5470,
      "anc": 5471,
      " both": 5472,
      " lar": 5473,
      "ute": 5474,
      " using": 5475,
      " inf": 5476,
      " And": 5477,
      "ave": 5478,
      " An": 5479,
      " does": 5480,
      "iel": 5481,
      " follow": 5482,
      "oun": 5483,
      "alk": 5484,
      " main": 5485,
      "ism": 5486,
      "ier": 5487,
      " mus": 5488,
      "ential": 5489,
      " don't": 5490,
      " 7": 5491,
      " gl": 5492,
      " child": 5493,
      " gener": 5494,
      " They": 5495,
      "ah": 5496,
      " Americ": 5497,
      " process": 5498,
      "der": 5499,
      " book": 5500,
      "ple": 5501,
      "erest": 5502,
      "ives": 5503,
      " Le": 5504,
      " feel": 5505,
      " sol": 5506,
      " val": 5507,
      "pr": 5508,
      " wee": 5509,
      " Ad": 5510,
      " Can": 5511,
      "riend": 5512,
      "o,": 5513,
      " $": 5514,
      " place": 5515,
      "ern": 5516,
      " How": 5517,
      " ty": 5518,
      " cent": 5519,
      "20": 5520,
      " plan": 5521,
      " build": 5522,
      " ref": 5523,
      "ures": 5524,
      " 8": 5525,
      "atch": 5526,
      "ner": 5527,
      " Cl": 5528,
      " partic": 5529,
      "vern": 5530,
      "gg": 5531,
      "lease": 5532,
      " list": 5533,
      "akes": 5534,
      "cl": 5535,
      " appro": 5536,
      " 10": 5537,
      " few": 5538,
      "eng": 5539,
      " pur": 5540,
      " important": 5541,
      "a.": 5542,
      "e,": 5543,
      " post": 5544,
      "view": 5545,
      " cour": 5546,
      "read": 5547,
      " water": 5548,
      "ivid": 5549,
      "ired": 5550,
      " prom": 5551,
      "ever,": 5552,
      " 18": 5553,
      " opt": 5554,
      "ation.": 5555,
      "ved": 5556,
      "oad": 5557,
      "19": 5558,
      "ins": 5559,
      " Be": 5560,
      " small": 5561,
      " avail": 5562,
      "con": 5563,
      " result": 5564,
      " still": 5565,
      "ruct": 5566,
      " del": 5567,
      "ion,": 5568,
      " allow": 5569,
      " top": 5570,
      "ished": 5571,
      " fun": 5572,
      " incre": 5573,
      " same": 5574,
      "stand": 5575,
      " pat": 5576,
      "feren": 5577,
      " last": 5578,
      " experience": 5579,
      "rent": 5580,
      "iron": 5581,
      " ide": 5582,
      " pract": 5583,
      "his": 5584,
      "gy": 5585,
      "ining": 5586,
      " eng": 5587,
      " free": 5588,
      " love": 5589,
      "le,": 5590,
      " som": 5591,
      "-b": 5592,
      " iss": 5593,
      " project": 5594,
      " really": 5595,
      "de": 5596,
      " social": 5597,
      "com": 5598,
      " pri": 5599,
      "ital": 5600,
      " perform": 5601,
      "att": 5602,
      " group": 5603,
      " contin": 5604,
      "au": 5605,
      " dist": 5606,
      "?\nA": 5607,
      " interest": 5608,
      " school": 5609,
      " resp": 5610,
      "ages": 5611,
      "oot": 5612,
      "-t": 5613,
      "ral": 5614,
      " run": 5615,
      "ways": 5616,
      " ear": 5617,
      "iversity": 5618,
      "1.": 5619,
      " ob": 5620,
      " though": 5621,
      ".\nC": 5622,
      " bel": 5623,
      "ield": 5624,
      "iving": 5625,
      " real": 5626,
      " Ind": 5627,
      "ware": 5628,
      "ton": 5629,
      " writ": 5630,
      "ision": 5631,
      "uss": 5632,
      " conf": 5633,
      " Ex": 5634,
      " service": 5635,
      "ik": 5636,
      "port": 5637,
      "oh": 5638,
      "ross": 5639,
      "bers": 5640,
      " rest": 5641,
      " offer": 5642,
      " pop": 5643,
      " point": 5644,
      " fact": 5645,
      "ccess": 5646,
      " poss": 5647,
      " impro": 5648,
      " available": 5649,
      "ertain": 5650,
      " open": 5651,
      "ology": 5652,
      "man": 5653,
      " access": 5654,
      " keep": 5655,
      " cho": 5656,
      " three": 5657,
      "-s": 5658,
      "vent": 5659,
      "ically": 5660,
      "000": 5661,
      "ploy": 5662,
      "reen": 5663,
      " number": 5664,
      "ists": 5665,
      " level": 5666,
      " There": 5667,
      " 9": 5668,
      "aj": 5669,
      " expl": 5670,
      "ars": 5671,
      " Sc": 5672,
      "ense": 5673,
      " redu": 5674,
      " On": 5675,
      " feature": 5676,
      "cent": 5677,
      "ined": 5678,
      " rese": 5679,
      " est": 5680,
      "nect": 5681,
      " state": 5682,
      " rece": 5683,
      " prot": 5684,
      "2.": 5685,
      " cost": 5686,
      "imes": 5687,
      " Pl": 5688,
      "ior": 5689,
      " stand": 5690,
      "iver": 5691,
      " grow": 5692,
      "viron": 5693,
      "self": 5694,
      " pass": 5695,
      " bra": 5696,
      " data": 5697,
      " indust": 5698,
      "ers.": 5699,
      " Te": 5700,
      "ider": 5701,
      " ve": 5702,
      ".\nM": 5703,
      " company": 5704,
      "ividual": 5705,
      ".\nB": 5706,
      " Com": 5707,
      "ote": 5708,
      "pend": 5709,
      " She": 5710,
      " dri": 5711,
      " lot": 5712,
      "ared": 5713,
      " local": 5714,
      ".\nF": 5715,
      " direct": 5716,
      " But": 5717,
      " without": 5718,
      " Col": 5719,
      "ants": 5720,
      " happ": 5721,
      " better": 5722,
      " impact": 5723,
      ".\nO": 5724,
      "less": 5725,
      " power": 5726,
      " cult": 5727,
      "ability": 5728,
      " sit": 5729,
      " sure": 5730,
      " ca": 5731,
      " stre": 5732,
      "ies,": 5733,
      "por": 5734,
      " oper": 5735,
      "outh": 5736,
      " aff": 5737,
      " webs": 5738,
      "?\nAssistant:": 5739,
      "ets": 5740,
      "ittle": 5741,
      "-f": 5742,
      " report": 5743,
      ".\nH": 5744,
      "vironment": 5745,
      " always": 5746,
      " invest": 5747,
      " going": 5748,
      "er.": 5749,
      " friend": 5750,
      " too": 5751,
      " pay": 5752,
      " individual": 5753,
      " light": 5754,
      "rol": 5755,
      "blem": 5756,
      " must": 5757,
      " proper": 5758,
      "ator": 5759,
      " hist": 5760,
      " equ": 5761,
      " month": 5762,
      "inal": 5763,
      " .": 5764,
      " second": 5765,
      " create": 5766,
      " specific": 5767,
      " 199": 5768,
      " addition": 5769,
      " try": 5770,
      " online": 5771,
      "ves": 5772,
      " public": 5773,
      " event": 5774,
      " profess": 5775,
      " Q": 5776,
      "aut": 5777,
      "ron": 5778,
      " fac": 5779,
      "imate": 5780,
      " Z": 5781,
      "work": 5782,
      "e.": 5783,
      "ames": 5784,
      " say": 5785,
      "ling": 5786,
      " class": 5787,
      " cr": 5788,
      " Is": 5789,
      "3.": 5790,
      "lement": 5791,
      " within": 5792,
      " activ": 5793,
      ".\"": 5794,
      " success": 5795,
      "lish": 5796,
      " tri": 5797,
      " creat": 5798,
      " Bl": 5799,
      "itive": 5800,
      " able": 5801,
      "tain": 5802,
      " music": 5803,
      " cor": 5804,
      " understand": 5805,
      ".\nUser:": 5806,
      " personal": 5807,
      ".\nP": 5808,
      "ocus": 5809,
      " bro": 5810,
      " govern": 5811,
      "lection": 5812,
      " problem": 5813,
      " food": 5814,
      " pot": 5815,
      "ium": 5816,
      "eg": 5817,
      " special": 5818,
      " chang": 5819,
      "els": 5820,
      " quest": 5821,
      " family": 5822,
      "ird": 5823,
      " come": 5824,
      " sl": 5825,
      " often": 5826,
      "rist": 5827,
      " give": 5828,
      " include": 5829,
      " const": 5830,
      " hum": 5831,
      " making": 5832,
      " bre": 5833,
      " ens": 5834,
      "ec": 5835,
      "orth": 5836,
      " head": 5837,
      "ody": 5838,
      "veral": 5839,
      " Con": 5840,
      " current": 5841,
      " conc": 5842,
      " since": 5843,
      "ted": 5844,
      "agement": 5845,
      " quality": 5846,
      " change": 5847,
      " air": 5848,
      " another": 5849,
      " It's": 5850,
      " bene": 5851,
      " Fr": 5852,
      " i": 5853,
      " mov": 5854,
      " learn": 5855,
      "ee": 5856,
      " environment": 5857,
      " I'm": 5858,
      "ogra": 5859,
      "conom": 5860,
      ".\nIn": 5861,
      " met": 5862,
      "oss": 5863,
      "on,": 5864,
      "aterial": 5865,
      " dem": 5866,
      " belie": 5867,
      " American": 5868,
      " signific": 5869,
      " intern": 5870,
      "4.": 5871,
      " compan": 5872,
      "\n\n": 5873,
      " next": 5874,
      " little": 5875,
      " unt": 5876,
      " educ": 5877,
      "ify": 5878,
      " might": 5879,
      " supp": 5880,
      " large": 5881,
      "ember": 5882,
      " community": 5883,
      "ething": 5884,
      " test": 5885,
      " win": 5886,
      "ion.": 5887,
      " game": 5888,
      " At": 5889,
      " All": 5890,
      " full": 5891,
      " view": 5892,
      " less": 5893,
      " present": 5894,
      " connect": 5895,
      "ization": 5896,
      " dep": 5897,
      " Ph": 5898,
      "let": 5899,
      " film": 5900,
      " several": 5901,
      "ique": 5902,
      " research": 5903,
      ".\nD": 5904,
      " put": 5905,
      " development": 5906,
      "'ll": 5907,
      " old": 5908,
      " chall": 5909,
      " visit": 5910,
      "ified": 5911,
      "oint": 5912,
      " elect": 5913,
      "oor": 5914,
      " let": 5915,
      " hard": 5916,
      " benef": 5917,
      "joy": 5918,
      " focus": 5919,
      " week": 5920,
      "iety": 5921,
      "ien": 5922,
      " exam": 5923,
      "ger": 5924,
      " ener": 5925,
      " against": 5926,
      "-p": 5927,
      " ment": 5928,
      "over": 5929,
      " services": 5930,
      " Sp": 5931,
      " working": 5932,
      "rop": 5933,
      " things": 5934,
      " saf": 5935,
      " website": 5936,
      " employ": 5937,
      " order": 5938,
      " big": 5939,
      " bas": 5940,
      "ott": 5941,
      " Eng": 5942,
      " job": 5943,
      "oci": 5944,
      "omen": 5945,
      "thing": 5946,
      " based": 5947,
      " beh": 5948,
      " el": 5949,
      " detail": 5950,
      " something": 5951,
      " gr": 5952,
      "br": 5953,
      "here": 5954,
      " leg": 5955,
      ",000": 5956,
      "ann": 5957,
      " meet": 5958,
      " never": 5959,
      "ients": 5960,
      "gin": 5961,
      " law": 5962,
      " sing": 5963,
      " cap": 5964,
      " material": 5965,
      "hat": 5966,
      " term": 5967,
      " These": 5968,
      " until": 5969,
      " examp": 5970,
      "ump": 5971,
      " phot": 5972,
      " name": 5973,
      " site": 5974,
      "ope": 5975,
      " room": 5976,
      " applic": 5977,
      "iven": 5978,
      "ury": 5979,
      "10": 5980,
      " Comm": 5981,
      " significant": 5982,
      "me": 5983,
      " media": 5984,
      " children": 5985,
      "atter": 5986,
      "ipp": 5987,
      " University": 5988,
      " link": 5989,
      "ission": 5990,
      "5.": 5991,
      " pain": 5992,
      " protect": 5993,
      " professional": 5994,
      " US": 5995,
      " sal": 5996,
      "pportun": 5997,
      ".\n\"": 5998,
      "hor": 5999,
      " Or": 6000,
      " treat": 6001,
      " students": 6002,
      " ess": 6003,
      "ency": 6004,
      " record": 6005,
      "fect": 6006,
      " move": 6007,
      " you're": 6008,
      " land": 6009,
      "ateg": 6010,
      "aster": 6011,
      " sty": 6012,
      " ann": 6013,
      " toget": 6014,
      " fr": 6015,
      " together": 6016,
      " along": 6017,
      "ex": 6018,
      "ush": 6019,
      "inc": 6020,
      " dev": 6021,
      " today": 6022,
      " ident": 6023,
      "ised": 6024,
      ".\nThis": 6025,
      " four": 6026,
      " invol": 6027,
      " opportun": 6028,
      " area": 6029,
      " dra": 6030,
      " Mar": 6031,
      " industry": 6032,
      "uro": 6033,
      "of": 6034,
      "ajor": 6035,
      "50": 6036,
      " hour": 6037,
      " enjoy": 6038,
      "ration": 6039,
      " known": 6040,
      " Go": 6041,
      " become": 6042,
      " However,": 6043,
      "-c": 6044,
      "ly.": 6045,
      " United": 6046,
      "min": 6047,
      " check": 6048,
      " mar": 6049,
      "be": 6050,
      "ived": 6051,
      "ograph": 6052,
      " season": 6053,
      " lim": 6054,
      "oney": 6055,
      " anal": 6056,
      "o.": 6057,
      " Res": 6058,
      "osed": 6059,
      " complete": 6060,
      " vide": 6061,
      " case": 6062,
      "angu": 6063,
      " turn": 6064,
      "ged": 6065,
      "lev": 6066,
      " government": 6067,
      " tru": 6068,
      " econom": 6069,
      " Cent": 6070,
      "ards": 6071,
      "uture": 6072,
      "med": 6073,
      " improve": 6074,
      " possible": 6075,
      " With": 6076,
      " looking": 6077,
      " mill": 6078,
      " charact": 6079,
      " pa": 6080,
      " near": 6081,
      "room": 6082,
      " ask": 6083,
      " 12": 6084,
      "ies.": 6085,
      " account": 6086,
      "ems": 6087,
      " city": 6088,
      " typ": 6089,
      " fore": 6090,
      " non": 6091,
      "wards": 6092,
      " tre": 6093,
      "'ve": 6094,
      "ering": 6095,
      " members": 6096,
      " Man": 6097,
      " course": 6098,
      "lished": 6099,
      "bo": 6100,
      " camp": 6101,
      " past": 6102,
      " house": 6103,
      "ret": 6104,
      " Christ": 6105,
      "ery": 6106,
      " line": 6107,
      "ains": 6108,
      " ris": 6109,
      " To": 6110,
      "ats": 6111,
      " tool": 6112,
      " occ": 6113,
      " compet": 6114,
      " control": 6115,
      " skill": 6116,
      "ball": 6117,
      " sour": 6118,
      " la": 6119,
      " tem": 6120,
      " potential": 6121,
      "ead": 6122,
      " beaut": 6123,
      " low": 6124,
      " mult": 6125,
      "ommend": 6126,
      " So": 6127,
      "mber": 6128,
      " got": 6129,
      " polic": 6130,
      " short": 6131,
      " When": 6132,
      "arent": 6133,
      "fort": 6134,
      "atural": 6135,
      "urther": 6136,
      " orig": 6137,
      " net": 6138,
      "atic": 6139,
      "side": 6140,
      "ript": 6141,
      "uck": 6142,
      "resent": 6143,
      "ode": 6144,
      ",\"": 6145,
      "ai": 6146,
      " es": 6147,
      " energy": 6148,
      "aring": 6149,
      " away": 6150,
      " Tr": 6151,
      " particular": 6152,
      " require": 6153,
      " mind": 6154,
      " polit": 6155,
      " sw": 6156,
      " works": 6157,
      "ries": 6158,
      " ensure": 6159,
      " having": 6160,
      "ia,": 6161,
      " consider": 6162,
      "app": 6163,
      "rodu": 6164,
      "ored": 6165,
      "iate": 6166,
      " side": 6167,
      "ohn": 6168,
      "ination": 6169,
      " range": 6170,
      "iam": 6171,
      " future": 6172,
      "abor": 6173,
      " Car": 6174,
      "ording": 6175,
      "pecial": 6176,
      " major": 6177,
      " review": 6178,
      "iod": 6179,
      "ples": 6180,
      " key": 6181,
      " recommend": 6182,
      " 198": 6183,
      " effective": 6184,
      "itions": 6185,
      " expect": 6186,
      "ently": 6187,
      " needs": 6188,
      "You": 6189,
      " products": 6190,
      "In": 6191,
      " buy": 6192,
      " enc": 6193,
      " various": 6194,
      " soft": 6195,
      ".\nWe": 6196,
      " country": 6197,
      " it.": 6198,
      " Wor": 6199,
      " easy": 6200,
      "enn": 6201,
      " left": 6202,
      ".S": 6203,
      "fact": 6204,
      "isc": 6205,
      "ina": 6206,
      " That": 6207,
      "urity": 6208,
      "itc": 6209,
      " word": 6210,
      " fund": 6211,
      "ER": 6212,
      " certain": 6213,
      "ilities": 6214,
      "aff": 6215,
      "oid": 6216,
      " tour": 6217,
      "orts": 6218,
      "ases": 6219,
      ".\nN": 6220,
      " 0": 6221,
      " vers": 6222,
      "osp": 6223,
      " offic": 6224,
      "vious": 6225,
      "ilt": 6226,
      " 15": 6227,
      " human": 6228,
      "ured": 6229,
      " Am": 6230,
      " mil": 6231,
      "aim": 6232,
      "load": 6233,
      " content": 6234,
      "lu": 6235,
      " areas": 6236,
      "ably": 6237,
      " perfect": 6238,
      "-d": 6239,
      " hig": 6240,
      " What": 6241,
      ".\nL": 6242,
      " tradition": 6243,
      " step": 6244,
      "ally,": 6245,
      "ley": 6246,
      "icle": 6247,
      "ift": 6248,
      " address": 6249,
      ".\nR": 6250,
      " live": 6251,
      " Do": 6252,
      "chie": 6253,
      "the": 6254,
      "fer": 6255,
      "cing": 6256,
      "ethod": 6257,
      "ape": 6258,
      " across": 6259,
      " clear": 6260,
      "ane": 6261,
      " respons": 6262,
      " resour": 6263,
      " clean": 6264,
      " May": 6265,
      " space": 6266,
      "ulation": 6267,
      " desc": 6268,
      " relations": 6269,
      " kind": 6270,
      " mean": 6271,
      "augh": 6272,
      " comb": 6273,
      "by": 6274,
      " later": 6275,
      " travel": 6276,
      " share": 6277,
      " sound": 6278,
      " story": 6279,
      " night": 6280,
      " contact": 6281,
      "-m": 6282,
      " stor": 6283,
      " aud": 6284,
      "30": 6285,
      "ising": 6286,
      "itor": 6287,
      "rap": 6288,
      "ogn": 6289,
      ".\nE": 6290,
      "ffic": 6291,
      " par": 6292,
      " strong": 6293,
      " Comp": 6294,
      " Co": 6295,
      " brand": 6296,
      " means": 6297,
      " quick": 6298,
      "rict": 6299,
      "iting": 6300,
      " hold": 6301,
      "al,": 6302,
      " challeng": 6303,
      "avor": 6304,
      " Tra": 6305,
      " why": 6306,
      " langu": 6307,
      " due": 6308,
      "1,": 6309,
      " days": 6310,
      "i,": 6311,
      " makes": 6312,
      " 30": 6313,
      " called": 6314,
      " following": 6315,
      " done": 6316,
      " return": 6317,
      " estab": 6318,
      "sel": 6319,
      "ney": 6320,
      " John": 6321,
      " Su": 6322,
      " field": 6323,
      " Fl": 6324,
      " tell": 6325,
      " thing": 6326,
      " sugg": 6327,
      " cou": 6328,
      " suggest": 6329,
      "-l": 6330,
      " cover": 6331,
      "r.": 6332,
      " foot": 6333,
      " En": 6334,
      " sum": 6335,
      " offers": 6336,
      " famil": 6337,
      " crit": 6338,
      "err": 6339,
      " port": 6340,
      "ment,": 6341,
      "idd": 6342,
      "alf": 6343,
      "ips": 6344,
      "ure,": 6345,
      "ancial": 6346,
      " wind": 6347,
      " page": 6348,
      "af": 6349,
      "sc": 6350,
      " enough": 6351,
      "ance,": 6352,
      "ray": 6353,
      " et": 6354,
      " init": 6355,
      " Intern": 6356,
      "ister": 6357,
      " National": 6358,
      " Gu": 6359,
      " diff": 6360,
      " provides": 6361,
      "ilar": 6362,
      " priv": 6363,
      "irm": 6364,
      "irc": 6365,
      " Med": 6366,
      " natural": 6367,
      " study": 6368,
      " communic": 6369,
      " unique": 6370,
      "stain": 6371,
      " early": 6372,
      " hot": 6373,
      " building": 6374,
      " track": 6375,
      " money": 6376,
      "18": 6377,
      " technology": 6378,
      "une": 6379,
      "ferences": 6380,
      " phys": 6381,
      ".\nIf": 6382,
      "iful": 6383,
      " women": 6384,
      " Euro": 6385,
      "lege": 6386,
      " meas": 6387,
      "ibility": 6388,
      " men": 6389,
      "utions": 6390,
      "par": 6391,
      " text": 6392,
      " achie": 6393,
      "mb": 6394,
      " common": 6395,
      " sustain": 6396,
      " method": 6397,
      " comes": 6398,
      " ever": 6399,
      " stay": 6400,
      "ready": 6401,
      "ding": 6402,
      " God": 6403,
      " body": 6404,
      "ians": 6405,
      " young": 6406,
      " among": 6407,
      " install": 6408,
      " Aust": 6409,
      " X": 6410,
      " vol": 6411,
      " Sy": 6412,
      "ruction": 6413,
      " pack": 6414,
      "an,": 6415,
      " purch": 6416,
      " role": 6417,
      "arning": 6418,
      " dr": 6419,
      " companies": 6420,
      " wr": 6421,
      " (19": 6422,
      " popular": 6423,
      " mot": 6424,
      " bring": 6425,
      "ither": 6426,
      " 16": 6427,
      "nam": 6428,
      "ober": 6429,
      " bar": 6430,
      "urch": 6431,
      " One": 6432,
      " relationship": 6433,
      " Inst": 6434,
      " discuss": 6435,
      " South": 6436,
      "sw": 6437,
      "aken": 6438,
      "ances": 6439,
      " deal": 6440,
      " appear": 6441,
      " contrib": 6442,
      " author": 6443,
      " 197": 6444,
      "asing": 6445,
      " management": 6446,
      " period": 6447,
      " color": 6448,
      " Count": 6449,
      " 17": 6450,
      "ledge": 6451,
      "duct": 6452,
      " far": 6453,
      " repl": 6454,
      " amount": 6455,
      " Our": 6456,
      "anks": 6457,
      " took": 6458,
      " ce": 6459,
      "utes": 6460,
      " getting": 6461,
      " already": 6462,
      " reason": 6463,
      "ream": 6464,
      "son": 6465,
      " least": 6466,
      " My": 6467,
      " World": 6468,
      " features": 6469,
      " —": 6470,
      "ership": 6471,
      " video": 6472,
      ".,": 6473,
      "not": 6474,
      " value": 6475,
      " times": 6476,
      "icult": 6477,
      " started": 6478,
      "mp": 6479,
      " model": 6480,
      "erc": 6481,
      " price": 6482,
      " By": 6483,
      " Pr": 6484,
      "ung": 6485,
      " once": 6486,
      "raft": 6487,
      " 2018": 6488,
      "ference": 6489,
      "arr": 6490,
      "ask": 6491,
      " please": 6492,
      " begin": 6493,
      " plac": 6494,
      " jo": 6495,
      "istic": 6496,
      " self": 6497,
      " particip": 6498,
      " ant": 6499,
      " given": 6500,
      "ides": 6501,
      "!\n\n": 6502,
      "lex": 6503,
      " close": 6504,
      "eb": 6505,
      "cell": 6506,
      " type": 6507,
      "ity,": 6508,
      "idence": 6509,
      " fre": 6510,
      " cal": 6511,
      ":1.": 6512,
      "IN": 6513,
      " search": 6514,
      " neg": 6515,
      "oura": 6516,
      "\".": 6517,
      " break": 6518,
      " After": 6519,
      " Europe": 6520,
      "atform": 6521,
      " School": 6522,
      "artment": 6523,
      "most": 6524,
      " others": 6525,
      " coll": 6526,
      " mom": 6527,
      "aging": 6528,
      " super": 6529,
      " taking": 6530,
      "li": 6531,
      "apt": 6532,
      "ensive": 6533,
      "for": 6534,
      " represent": 6535,
      "ids": 6536,
      "urs": 6537,
      "ued": 6538,
      " thought": 6539,
      " pie": 6540,
      " cut": 6541,
      "6.": 6542,
      "vert": 6543,
      " above": 6544,
      "irt": 6545,
      "yl": 6546,
      " tax": 6547,
      " z": 6548,
      " cred": 6549,
      " below": 6550,
      " talk": 6551,
      "ster": 6552,
      " walk": 6553,
      "ows": 6554,
      " ey": 6555,
      "...": 6556,
      "ino": 6557,
      " App": 6558,
      " bit": 6559,
      " further": 6560,
      " Af": 6561,
      " exc": 6562,
      " came": 6563,
      " training": 6564,
      " history": 6565,
      " single": 6566,
      " card": 6567,
      " store": 6568,
      "-1": 6569,
      "ots": 6570,
      "aur": 6571,
      "back": 6572,
      " Des": 6573,
      "oll": 6574,
      "ctor": 6575,
      " tot": 6576,
      " consum": 6577,
      " increase": 6578,
      " lo": 6579,
      " dig": 6580,
      " song": 6581,
      "\",": 6582,
      " Rep": 6583,
      " Here": 6584,
      " prop": 6585,
      "pecially": 6586,
      " language": 6587,
      " Br": 6588,
      ".\nIt": 6589,
      "ights": 6590,
      " difficult": 6591,
      " heart": 6592,
      " ste": 6593,
      " time,": 6594,
      "3,": 6595,
      " press": 6596,
      "ument": 6597,
      "though": 6598,
      " mess": 6599,
      "2,": 6600,
      " activities": 6601,
      " 196": 6602,
      " financial": 6603,
      " implement": 6604,
      "rew": 6605,
      " email": 6606,
      "nov": 6607,
      "resh": 6608,
      " engine": 6609,
      " reduce": 6610,
      " beautiful": 6611,
      "ufact": 6612,
      " includes": 6613,
      "ging": 6614,
      "obal": 6615,
      " stat": 6616,
      " mag": 6617,
      "che": 6618,
      " wide": 6619,
      " doing": 6620,
      " North": 6621,
      " actually": 6622,
      "acy": 6623,
      "aving": 6624,
      "opp": 6625,
      " seen": 6626,
      " oil": 6627,
      "ions,": 6628,
      " necess": 6629,
      "4,": 6630,
      " maintain": 6631,
      " dam": 6632,
      " Serv": 6633,
      " influ": 6634,
      " age": 6635,
      " created": 6636,
      " designed": 6637,
      "ges": 6638,
      " experien": 6639,
      " associ": 6640,
      " platform": 6641,
      "in,": 6642,
      "ox": 6643,
      " affect": 6644,
      " successful": 6645,
      " function": 6646,
      " performance": 6647,
      " action": 6648,
      " network": 6649,
      " face": 6650,
      " issues": 6651,
      " Cal": 6652,
      ".S.": 6653,
      " Min": 6654,
      " Brit": 6655,
      " organiz": 6656,
      "ony": 6657,
      "now": 6658,
      " struct": 6659,
      " series": 6660,
      " ,": 6661,
      " learning": 6662,
      " hy": 6663,
      "aps": 6664,
      " five": 6665,
      " claim": 6666,
      " situ": 6667,
      " required": 6668,
      " select": 6669,
      "eral": 6670,
      " wa": 6671,
      "play": 6672,
      " growth": 6673,
      "ched": 6674,
      " York": 6675,
      "roll": 6676,
      " Ass": 6677,
      " examples": 6678,
      "ations,": 6679,
      "uff": 6680,
      "ze": 6681,
      "gest": 6682,
      " news": 6683,
      " blog": 6684,
      " simple": 6685,
      " exist": 6686,
      "irl": 6687,
      " remain": 6688,
      " upd": 6689,
      "olution": 6690,
      " anim": 6691,
      "arget": 6692,
      " Canad": 6693,
      " position": 6694,
      "ES": 6695,
      "ON": 6696,
      " became": 6697,
      " risk": 6698,
      " example,": 6699,
      " whether": 6700,
      "We": 6701,
      " jour": 6702,
      "AT": 6703,
      " host": 6704,
      " didn't": 6705,
      "ival": 6706,
      " depend": 6707,
      " promot": 6708,
      "umb": 6709,
      " I've": 6710,
      "val": 6711,
      " Part": 6712,
      "nes": 6713,
      " happen": 6714,
      " 100": 6715,
      " Gra": 6716,
      " web": 6717,
      " Pol": 6718,
      " recogn": 6719,
      " traditional": 6720,
      " Che": 6721,
      " Cont": 6722,
      "elt": 6723,
      " student": 6724,
      " determ": 6725,
      "astic": 6726,
      "to": 6727,
      " wond": 6728,
      " pict": 6729,
      " someone": 6730,
      "ones": 6731,
      "AR": 6732,
      " 11": 6733,
      " similar": 6734,
      " production": 6735,
      " histor": 6736,
      "a's": 6737,
      "ention": 6738,
      " hope": 6739,
      "5,": 6740,
      " Some": 6741,
      " throughout": 6742,
      "7.": 6743,
      "anced": 6744,
      " customers": 6745,
      "hers": 6746,
      " million": 6747,
      " deb": 6748,
      " Ge": 6749,
      " regular": 6750,
      ".\nG": 6751,
      "unch": 6752,
      "-w": 6753,
      " customer": 6754,
      " size": 6755,
      "idge": 6756,
      " caus": 6757,
      " yet": 6758,
      " His": 6759,
      " gen": 6760,
      "oman": 6761,
      "rown": 6762,
      " living": 6763,
      " doc": 6764,
      " ideas": 6765,
      "ply": 6766,
      " [": 6767,
      " prevent": 6768,
      "cle": 6769,
      "s:": 6770,
      " located": 6771,
      " sat": 6772,
      "adem": 6773,
      " rele": 6774,
      " approach": 6775,
      " ways": 6776,
      " staff": 6777,
      " State": 6778,
      " Jan": 6779,
      " comput": 6780,
      " especially": 6781,
      "book": 6782,
      " practice": 6783,
      " went": 6784,
      " Ne": 6785,
      " style": 6786,
      " goal": 6787,
      " member": 6788,
      " front": 6789,
      " Pe": 6790,
      " doesn't": 6791,
      " flow": 6792,
      "iday": 6793,
      " respect": 6794,
      " continue": 6795,
      "go": 6796,
      "ended": 6797,
      "ment.": 6798,
      " bill": 6799,
      "AN": 6800,
      " positive": 6801,
      " knowledge": 6802,
      "urance": 6803,
      " provided": 6804,
      " individuals": 6805,
      "nce": 6806,
      " modern": 6807,
      "clus": 6808,
      " prior": 6809,
      " prep": 6810,
      " sense": 6811,
      " entire": 6812,
      " choose": 6813,
      " character": 6814,
      "obile": 6815,
      "come": 6816,
      " Austral": 6817,
      "ided": 6818,
      " Pres": 6819,
      " essential": 6820,
      "hy": 6821,
      " security": 6822,
      " town": 6823,
      " third": 6824,
      " insp": 6825,
      " whole": 6826,
      " table": 6827,
      " bed": 6828,
      " di": 6829,
      " players": 6830,
      " circ": 6831,
      "sh": 6832,
      "irth": 6833,
      " white": 6834,
      " black": 6835,
      " parent": 6836,
      " likely": 6837,
      "ublic": 6838,
      " comfort": 6839,
      " taken": 6840,
      " strateg": 6841,
      " idea": 6842,
      " 2019": 6843,
      "gra": 6844,
      " changes": 6845,
      " office": 6846,
      " sell": 6847,
      "ler": 6848,
      " cook": 6849,
      " political": 6850,
      "co": 6851,
      " death": 6852,
      " fit": 6853,
      " Germ": 6854,
      "aged": 6855,
      "orpor": 6856,
      " effic": 6857,
      "icro": 6858,
      " condition": 6859,
      " Park": 6860,
      "itted": 6861,
      "cy": 6862,
      "iment": 6863,
      " either": 6864,
      " mach": 6865,
      " collect": 6866,
      " bal": 6867,
      " technolog": 6868,
      " yourself": 6869,
      "ires": 6870,
      " leading": 6871,
      " miss": 6872,
      " concern": 6873,
      " software": 6874,
      " held": 6875,
      " regard": 6876,
      " built": 6877,
      " manufact": 6878,
      "en,": 6879,
      "ibr": 6880,
      " War": 6881,
      " events": 6882,
      " print": 6883,
      " Afric": 6884,
      "ef": 6885,
      " final": 6886,
      " pick": 6887,
      " veh": 6888,
      "oon": 6889,
      "7,": 6890,
      ".\nYou": 6891,
      "ague": 6892,
      " log": 6893,
      " Your": 6894,
      " Ag": 6895,
      " providing": 6896,
      " autom": 6897,
      " wall": 6898,
      " States": 6899,
      "6,": 6900,
      " paper": 6901,
      " fail": 6902,
      " believe": 6903,
      " percent": 6904,
      " previous": 6905,
      " additional": 6906,
      " road": 6907,
      "ried": 6908,
      "ground": 6909,
      "This": 6910,
      " that's": 6911,
      "ification": 6912,
      " describ": 6913,
      " Apr": 6914,
      " Soc": 6915,
      " Sec": 6916,
      "lebr": 6917,
      "iter": 6918,
      "ate,": 6919,
      " issue": 6920,
      " Sm": 6921,
      " cell": 6922,
      "-in": 6923,
      "iple": 6924,
      " Will": 6925,
      " friends": 6926,
      " Bar": 6927,
      " can't": 6928,
      " results": 6929,
      " object": 6930,
      "ison": 6931,
      " everyone": 6932,
      " References": 6933,
      "ese": 6934,
      " towards": 6935,
      "face": 6936,
      " hours": 6937,
      " fall": 6938,
      " favor": 6939,
      " introdu": 6940,
      " encoura": 6941,
      " Not": 6942,
      " red": 6943,
      " writing": 6944,
      " plant": 6945,
      " original": 6946,
      " sent": 6947,
      " target": 6948,
      " led": 6949,
      " everything": 6950,
      " U.S.": 6951,
      " Me": 6952,
      " higher": 6953,
      " Bra": 6954,
      " City": 6955,
      " hom": 6956,
      " prob": 6957,
      "is,": 6958,
      "aching": 6959,
      "itch": 6960,
      " education": 6961,
      "overed": 6962,
      "aign": 6963,
      "bum": 6964,
      " 14": 6965,
      " recent": 6966,
      "my": 6967,
      "bor": 6968,
      " Gl": 6969,
      "hern": 6970,
      " answ": 6971,
      " received": 6972,
      " Ju": 6973,
      " integ": 6974,
      " agree": 6975,
      "-based": 6976,
      " arch": 6977,
      " tit": 6978,
      " ful": 6979,
      " time.": 6980,
      " Reg": 6981,
      " assist": 6982,
      "illed": 6983,
      "osing": 6984,
      " ground": 6985,
      " cultural": 6986,
      " official": 6987,
      " download": 6988,
      " half": 6989,
      " coun": 6990,
      " spend": 6991,
      " contain": 6992,
      "hib": 6993,
      " variety": 6994,
      " rather": 6995,
      "izing": 6996,
      " international": 6997,
      " ability": 6998,
      ".\n\nThe": 6999,
      " it,": 7000,
      " |": 7001,
      "ees": 7002,
      " accept": 7003,
      " subject": 7004,
      " Inc": 7005,
      " details": 7006,
      "minist": 7007,
      " pric": 7008,
      " lay": 7009,
      "200": 7010,
      " express": 7011,
      "ole": 7012,
      " Par": 7013,
      " Ed": 7014,
      "ations.": 7015,
      "uary": 7016,
      " medical": 7017,
      " national": 7018,
      " defin": 7019,
      " extra": 7020,
      " sle": 7021,
      " standard": 7022,
      "ories": 7023,
      "ises": 7024,
      "erson": 7025,
      "-h": 7026,
      "us,": 7027,
      " Art": 7028,
      "bit": 7029,
      " High": 7030,
      " prim": 7031,
      "AS": 7032,
      " abs": 7033,
      " emot": 7034,
      "empt": 7035,
      "age,": 7036,
      " 2.": 7037,
      " sens": 7038,
      " began": 7039,
      " cas": 7040,
      " six": 7041,
      " fire": 7042,
      " seem": 7043,
      " almost": 7044,
      " dou": 7045,
      " economic": 7046,
      "ators": 7047,
      "ety": 7048,
      " property": 7049,
      "ternal": 7050,
      " /": 7051,
      " according": 7052,
      "leg": 7053,
      " dest": 7054,
      " questions": 7055,
      " Aug": 7056,
      "eal": 7057,
      " Pre": 7058,
      "ia.": 7059,
      " ill": 7060,
      " general": 7061,
      " April": 7062,
      "reme": 7063,
      " purp": 7064,
      " park": 7065,
      " 50": 7066,
      "ops": 7067,
      "ring": 7068,
      " complex": 7069,
      " Qu": 7070,
      " No": 7071,
      "all,": 7072,
      " feed": 7073,
      " user": 7074,
      " decision": 7075,
      "mit": 7076,
      " March": 7077,
      "or,": 7078,
      " stra": 7079,
      " quite": 7080,
      " rout": 7081,
      " Oct": 7082,
      "iol": 7083,
      "cer": 7084,
      " rad": 7085,
      "ches": 7086,
      " Sw": 7087,
      "urb": 7088,
      " West": 7089,
      " pan": 7090,
      " deep": 7091,
      "et,": 7092,
      "hing": 7093,
      " receive": 7094,
      " Ke": 7095,
      " English": 7096,
      "iber": 7097,
      "OR": 7098,
      ".\nAssistant:": 7099,
      " them.": 7100,
      "nal": 7101,
      " usually": 7102,
      "It": 7103,
      " allows": 7104,
      " question": 7105,
      "ands": 7106,
      " simply": 7107,
      " former": 7108,
      " tim": 7109,
      " tou": 7110,
      " dom": 7111,
      " hon": 7112,
      " takes": 7113,
      " outside": 7114,
      " avoid": 7115,
      " creating": 7116,
      " While": 7117,
      " private": 7118,
      " related": 7119,
      " played": 7120,
      " amaz": 7121,
      " cannot": 7122,
      " 24": 7123,
      " request": 7124,
      " ut": 7125,
      " imm": 7126,
      "ume": 7127,
      " systems": 7128,
      " included": 7129,
      " benefits": 7130,
      " skills": 7131,
      " inde": 7132,
      " Sept": 7133,
      " communities": 7134,
      " mor": 7135,
      " ap": 7136,
      " cond": 7137,
      " Bo": 7138,
      " Mc": 7139,
      " lov": 7140,
      "ux": 7141,
      " cause": 7142,
      " contract": 7143,
      " 13": 7144,
      " phone": 7145,
      "rect": 7146,
      " mix": 7147,
      " opportunities": 7148,
      " games": 7149,
      " added": 7150,
      " solution": 7151,
      " resources": 7152,
      " campaign": 7153,
      " soon": 7154,
      "eter": 7155,
      " necessary": 7156,
      " links": 7157,
      "i-": 7158,
      " base": 7159,
      " watch": 7160,
      " matter": 7161,
      "urg": 7162,
      "head": 7163,
      " analys": 7164,
      " celebr": 7165,
      " speak": 7166,
      " becom": 7167,
      " opportunity": 7168,
      "selves": 7169,
      " 25": 7170,
      " Mark": 7171,
      " users": 7172,
      "atory": 7173,
      "uel": 7174,
      " months": 7175,
      " birth": 7176,
      " you'll": 7177,
      " album": 7178,
      " lower": 7179,
      " however,": 7180,
      " culture": 7181,
      " announ": 7182,
      " Per": 7183,
      "sy": 7184,
      " treatment": 7185,
      " options": 7186,
      "itchen": 7187,
      " version": 7188,
      "ham": 7189,
      " minutes": 7190,
      "uge": 7191,
      " wood": 7192,
      "cil": 7193,
      " draw": 7194,
      " Ab": 7195,
      " Jap": 7196,
      " trying": 7197,
      " cop": 7198,
      " Bu": 7199,
      " marketing": 7200,
      " fast": 7201,
      "light": 7202,
      "ites": 7203,
      " teac": 7204,
      " Stud": 7205,
      "oud": 7206,
      " deg": 7207,
      "lin": 7208,
      " needed": 7209,
      " global": 7210,
      " behind": 7211,
      " aware": 7212,
      " cy": 7213,
      " late": 7214,
      " lat": 7215,
      " box": 7216,
      "etimes": 7217,
      " forward": 7218,
      " achieve": 7219,
      "hold": 7220,
      "rated": 7221,
      "ables": 7222,
      "ay,": 7223,
      " attack": 7224,
      " (C": 7225,
      "imum": 7226,
      " ep": 7227,
      " party": 7228,
      "just": 7229,
      " green": 7230,
      "reg": 7231,
      "itary": 7232,
      "erve": 7233,
      " heav": 7234,
      " helps": 7235,
      " total": 7236,
      ".\n\nA": 7237,
      " British": 7238,
      "ological": 7239,
      "IS": 7240,
      "ief": 7241,
      " war": 7242,
      " behav": 7243,
      " etc": 7244,
      " El": 7245,
      " worked": 7246,
      " equip": 7247,
      "St": 7248,
      " career": 7249,
      " programs": 7250,
      " Dep": 7251,
      " Tw": 7252,
      " mental": 7253,
      "rast": 7254,
      "amed": 7255,
      " norm": 7256,
      ".\n\nUser:": 7257,
      "-st": 7258,
      " International": 7259,
      " Her": 7260,
      " Air": 7261,
      " sustainable": 7262,
      "\"\n": 7263,
      " transport": 7264,
      " send": 7265,
      " Mus": 7266,
      " emb": 7267,
      "-y": 7268,
      " ri": 7269,
      " skin": 7270,
      "mm": 7271,
      " types": 7272,
      " opp": 7273,
      " bott": 7274,
      " streng": 7275,
      " excell": 7276,
      " innov": 7277,
      " loss": 7278,
      " currently": 7279,
      " fig": 7280,
      "put": 7281,
      " credit": 7282,
      " Act": 7283,
      "ED": 7284,
      " stri": 7285,
      " 194": 7286,
      "aily": 7287,
      "where": 7288,
      " August": 7289,
      "!!": 7290,
      " released": 7291,
      "mediate": 7292,
      " hol": 7293,
      " emer": 7294,
      "idered": 7295,
      " September": 7296,
      "rug": 7297,
      " click": 7298,
      "EN": 7299,
      "12": 7300,
      "rec": 7301,
      "hel": 7302,
      " physical": 7303,
      " wonder": 7304,
      "ached": 7305,
      " trust": 7306,
      "verage": 7307,
      " sun": 7308,
      " worth": 7309,
      "-2": 7310,
      "rench": 7311,
      "ity.": 7312,
      " floor": 7313,
      " board": 7314,
      " partn": 7315,
      " promote": 7316,
      " Fin": 7317,
      " pret": 7318,
      " Ac": 7319,
      "irit": 7320,
      " moment": 7321,
      "15": 7322,
      " else": 7323,
      "ovember": 7324,
      " bi": 7325,
      " says": 7326,
      "cast": 7327,
      "er's": 7328,
      "ine,": 7329,
      "les,": 7330,
      " bad": 7331,
      "ana": 7332,
      " exerc": 7333,
      " shall": 7334,
      "vil": 7335,
      " upon": 7336,
      "atives": 7337,
      " match": 7338,
      " example": 7339,
      "onst": 7340,
      " written": 7341,
      " interact": 7342,
      "IT": 7343,
      "ha": 7344,
      " stru": 7345,
      "sequ": 7346,
      " round": 7347,
      " drive": 7348,
      "-to": 7349,
      " indic": 7350,
      " via": 7351,
      "hood": 7352,
      " rate": 7353,
      " fram": 7354,
      " organization": 7355,
      " \"The": 7356,
      " screen": 7357,
      " choice": 7358,
      " swe": 7359,
      " commit": 7360,
      "ceed": 7361,
      " obs": 7362,
      " 1.": 7363,
      " Har": 7364,
      " gain": 7365,
      " Cons": 7366,
      " digital": 7367,
      "itect": 7368,
      "AC": 7369,
      " October": 7370,
      " image": 7371,
      ".\nAs": 7372,
      " squ": 7373,
      "earch": 7374,
      " inside": 7375,
      " capt": 7376,
      "iring": 7377,
      "-up": 7378,
      "na": 7379,
      " cand": 7380,
      "itud": 7381,
      " inj": 7382,
      " shows": 7383,
      " January": 7384,
      "ington": 7385,
      "iable": 7386,
      " safe": 7387,
      "ett": 7388,
      " option": 7389,
      "AL": 7390,
      "as,": 7391,
      " leave": 7392,
      "useum": 7393,
      " June": 7394,
      " Pa": 7395,
      "oph": 7396,
      " House": 7397,
      "rate": 7398,
      " expert": 7399,
      "alt": 7400,
      " anything": 7401,
      " active": 7402,
      "iddle": 7403,
      " considered": 7404,
      " source": 7405,
      " farm": 7406,
      " multiple": 7407,
      "amer": 7408,
      "lying": 7409,
      " dise": 7410,
      " running": 7411,
      " file": 7412,
      " weight": 7413,
      "oring": 7414,
      "ogle": 7415,
      "cember": 7416,
      " regul": 7417,
      " Acc": 7418,
      " conduct": 7419,
      " instead": 7420,
      " coming": 7421,
      " club": 7422,
      " highly": 7423,
      " King": 7424,
      "iation": 7425,
      " sche": 7426,
      " Char": 7427,
      " section": 7428,
      " Just": 7429,
      " terms": 7430,
      "8,": 7431,
      " Dav": 7432,
      " wanted": 7433,
      "atur": 7434,
      " sett": 7435,
      " application": 7436,
      " arri": 7437,
      " div": 7438,
      " saw": 7439,
      " benefit": 7440,
      "9.": 7441,
      " fresh": 7442,
      " sn": 7443,
      "8.": 7444,
      " longer": 7445,
      " collection": 7446,
      " effort": 7447,
      " (S": 7448,
      "wh": 7449,
      " dog": 7450,
      " train": 7451,
      "arden": 7452,
      " probably": 7453,
      " November": 7454,
      " Japan": 7455,
      " save": 7456,
      " aim": 7457,
      " Red": 7458,
      "icles": 7459,
      "uted": 7460,
      " separ": 7461,
      "ps": 7462,
      " Lond": 7463,
      " consist": 7464,
      " collabor": 7465,
      " reach": 7466,
      " involved": 7467,
      " bud": 7468,
      " UK": 7469,
      "dd": 7470,
      "9,": 7471,
      " client": 7472,
      " pattern": 7473,
      " sil": 7474,
      " ord": 7475,
      " rev": 7476,
      " materials": 7477,
      " overall": 7478,
      " lost": 7479,
      " legal": 7480,
      "amb": 7481,
      "iff": 7482,
      " effects": 7483,
      " analy": 7484,
      ".\nFor": 7485,
      " nature": 7486,
      " display": 7487,
      " countries": 7488,
      " stop": 7489,
      "ager": 7490,
      " mount": 7491,
      " policy": 7492,
      " Feb": 7493,
      "cript": 7494,
      "IC": 7495,
      " qual": 7496,
      "ming": 7497,
      "ivil": 7498,
      " challenges": 7499,
      " firm": 7500,
      " Russ": 7501,
      "ental": 7502,
      " published": 7503,
      " tools": 7504,
      " cool": 7505,
      " gradu": 7506,
      "oe": 7507,
      " developed": 7508,
      " lif": 7509,
      " arg": 7510,
      " hair": 7511,
      " Val": 7512,
      " techniqu": 7513,
      " (b": 7514,
      "erous": 7515,
      " ready": 7516,
      " easily": 7517,
      " attend": 7518,
      "itation": 7519,
      "pite": 7520,
      " Use": 7521,
      " understanding": 7522,
      " Associ": 7523,
      "new": 7524,
      " exact": 7525,
      " band": 7526,
      " established": 7527,
      " commer": 7528,
      " fish": 7529,
      " December": 7530,
      " II": 7531,
      " document": 7532,
      "vey": 7533,
      " increased": 7534,
      "oice": 7535,
      "itable": 7536,
      " won": 7537,
      " points": 7538,
      " Off": 7539,
      " reading": 7540,
      " itself": 7541,
      " rock": 7542,
      "enge": 7543,
      "care": 7544,
      " latest": 7545,
      " ded": 7546,
      "dom": 7547,
      " insurance": 7548,
      "16": 7549,
      " sold": 7550,
      " identify": 7551,
      "ek": 7552,
      " environmental": 7553,
      " fa": 7554,
      " Int": 7555,
      " isn't": 7556,
      " restaur": 7557,
      " limited": 7558,
      " Em": 7559,
      " particularly": 7560,
      " Mon": 7561,
      " tips": 7562,
      " mention": 7563,
      "oke": 7564,
      " bank": 7565,
      " summer": 7566,
      " told": 7567,
      " altern": 7568,
      "off": 7569,
      "ices,": 7570,
      "pper": 7571,
      " path": 7572,
      "estern": 7573,
      " sales": 7574,
      " mat": 7575,
      " exec": 7576,
      " article": 7577,
      " nice": 7578,
      " date": 7579,
      " mass": 7580,
      " seems": 7581,
      "ny": 7582,
      " remov": 7583,
      " seek": 7584,
      "rupt": 7585,
      " lab": 7586,
      " pow": 7587,
      " safety": 7588,
      " years,": 7589,
      "bon": 7590,
      " clients": 7591,
      " San": 7592,
      " negative": 7593,
      " audience": 7594,
      " rul": 7595,
      " Aut": 7596,
      " enh": 7597,
      " July": 7598,
      " happy": 7599,
      "board": 7600,
      "het": 7601,
      " hit": 7602,
      "imately": 7603,
      "riate": 7604,
      " problems": 7605,
      " you.": 7606,
      "0.": 7607,
      "17": 7608,
      " Bro": 7609,
      "rel": 7610,
      " parts": 7611,
      " concept": 7612,
      " anyone": 7613,
      " true": 7614,
      " attract": 7615,
      " College": 7616,
      " amazing": 7617,
      ".\nThere": 7618,
      " 3.": 7619,
      "fully": 7620,
      " purchase": 7621,
      "onse": 7622,
      " slow": 7623,
      " mobile": 7624,
      "pped": 7625,
      " 202": 7626,
      " Indian": 7627,
      " Ser": 7628,
      " construction": 7629,
      "ure.": 7630,
      " Black": 7631,
      "reet": 7632,
      " broad": 7633,
      " cat": 7634,
      " award": 7635,
      " cross": 7636,
      " quickly": 7637,
      " Geor": 7638,
      "wood": 7639,
      " viol": 7640,
      " #": 7641,
      " helped": 7642,
      " progress": 7643,
      " reflect": 7644,
      " distrib": 7645,
      " Cour": 7646,
      " explore": 7647,
      "mark": 7648,
      " meeting": 7649,
      " cru": 7650,
      " Ste": 7651,
      ".\nJ": 7652,
      " patient": 7653,
      "ought": 7654,
      " pretty": 7655,
      " device": 7656,
      "i.": 7657,
      " girl": 7658,
      "ter,": 7659,
      " increasing": 7660,
      " immediate": 7661,
      " football": 7662,
      "ms": 7663,
      " imag": 7664,
      " rights": 7665,
      " hous": 7666,
      " initi": 7667,
      " excellent": 7668,
      " ult": 7669,
      "ienc": 7670,
      " German": 7671,
      "ford": 7672,
      "asc": 7673,
      "aves": 7674,
      " except": 7675,
      " attempt": 7676,
      "ipe": 7677,
      " release": 7678,
      "unt": 7679,
      " daily": 7680,
      " levels": 7681,
      "ruary": 7682,
      " associated": 7683,
      " From": 7684,
      "ronic": 7685,
      " couple": 7686,
      "place": 7687,
      " groups": 7688,
      "ata": 7689,
      " 40": 7690,
      " items": 7691,
      " Health": 7692,
      " sess": 7693,
      " Gr": 7694,
      "itely": 7695,
      ".\nU": 7696,
      " Ang": 7697,
      " administ": 7698,
      " warm": 7699,
      "ales": 7700,
      " bath": 7701,
      " playing": 7702,
      "ruit": 7703,
      " court": 7704,
      " Hist": 7705,
      "ivity": 7706,
      " practices": 7707,
      "itute": 7708,
      " analysis": 7709,
      " commercial": 7710,
      "ule": 7711,
      " French": 7712,
      "11": 7713,
      " Ear": 7714,
      " President": 7715,
      " species": 7716,
      " projects": 7717,
      " cert": 7718,
      ".\"\n": 7719,
      "iforn": 7720,
      "aught": 7721,
      "rought": 7722,
      " businesses": 7723,
      " favorite": 7724,
      " touch": 7725,
      " medic": 7726,
      " Coun": 7727,
      "ices.": 7728,
      "ar,": 7729,
      " jud": 7730,
      " felt": 7731,
      "hest": 7732,
      " nut": 7733,
      " tast": 7734,
      "rest": 7735,
      " year,": 7736,
      " ple": 7737,
      "ension": 7738,
      "ance.": 7739,
      " rent": 7740,
      " x": 7741,
      " ball": 7742,
      "attle": 7743,
      " block": 7744,
      "m.": 7745,
      " served": 7746,
      "ening": 7747,
      "uk": 7748,
      "imin": 7749,
      "age.": 7750,
      "ampions": 7751,
      " surround": 7752,
      "ic,": 7753,
      "urer": 7754,
      " independ": 7755,
      " patients": 7756,
      "chan": 7757,
      " appl": 7758,
      "-year": 7759,
      "agn": 7760,
      "ography": 7761,
      " attention": 7762,
      " uses": 7763,
      " investig": 7764,
      "ow,": 7765,
      " frequ": 7766,
      "dict": 7767,
      "izes": 7768,
      " strugg": 7769,
      " liter": 7770,
      " piece": 7771,
      " Phil": 7772,
      " correct": 7773,
      " relig": 7774,
      "sych": 7775,
      "umn": 7776,
      " Mich": 7777,
      "yond": 7778,
      " write": 7779,
      " named": 7780,
      "RE": 7781,
      "OS": 7782,
      " stress": 7783,
      "lier": 7784,
      " Yes,": 7785,
      " disp": 7786,
      " interesting": 7787,
      " lack": 7788,
      " 195": 7789,
      " County": 7790,
      " fair": 7791,
      " hear": 7792,
      " kitchen": 7793,
      " door": 7794,
      " healthy": 7795,
      " Sim": 7796,
      " subst": 7797,
      " TV": 7798,
      " vot": 7799,
      " fully": 7800,
      " dark": 7801,
      " (A": 7802,
      " aspect": 7803,
      " convers": 7804,
      " La": 7805,
      " regist": 7806,
      " obtain": 7807,
      " born": 7808,
      "'d": 7809,
      " Im": 7810,
      " Commun": 7811,
      "duc": 7812,
      "oo": 7813,
      " 2017": 7814,
      " fight": 7815,
      " remember": 7816,
      " East": 7817,
      " cra": 7818,
      "alu": 7819,
      ".\nWhen": 7820,
      "):": 7821,
      " wed": 7822,
      "ection": 7823,
      " temper": 7824,
      " demand": 7825,
      " gold": 7826,
      " enter": 7827,
      " Californ": 7828,
      " mid": 7829,
      " Rec": 7830,
      "etic": 7831,
      " Gener": 7832,
      " February": 7833,
      "ky": 7834,
      " giving": 7835,
      " decided": 7836,
      " don": 7837,
      "ospital": 7838,
      ".\nTh": 7839,
      " directly": 7840,
      "omp": 7841,
      " establish": 7842,
      " opin": 7843,
      " Net": 7844,
      " guest": 7845,
      " region": 7846,
      " looks": 7847,
      " code": 7848,
      " lives": 7849,
      "0,": 7850,
      " tal": 7851,
      "lements": 7852,
      " solutions": 7853,
      " Addition": 7854,
      "ederal": 7855,
      " organizations": 7856,
      "nds": 7857,
      "ira": 7858,
      " guid": 7859,
      "urt": 7860,
      "ength": 7861,
      " mother": 7862,
      " sleep": 7863,
      " heat": 7864,
      " response": 7865,
      " ter": 7866,
      " setting": 7867,
      " interested": 7868,
      " Group": 7869,
      " TH": 7870,
      " location": 7871,
      " Port": 7872,
      " roll": 7873,
      "aint": 7874,
      " vill": 7875,
      " Please": 7876,
      "iverse": 7877,
      " acqu": 7878,
      " approp": 7879,
      " occur": 7880,
      "ext": 7881,
      " nothing": 7882,
      " explain": 7883,
      " speed": 7884,
      " drink": 7885,
      " wel": 7886,
      " appoint": 7887,
      " responsible": 7888,
      " (M": 7889,
      " er": 7890,
      " Day": 7891,
      " \"I": 7892,
      " advant": 7893,
      " gives": 7894,
      " sus": 7895,
      " efforts": 7896,
      " lic": 7897,
      " clos": 7898,
      " budget": 7899,
      " dy": 7900,
      " adop": 7901,
      " European": 7902,
      " eth": 7903,
      " plans": 7904,
      " Wind": 7905,
      " neigh": 7906,
      "14": 7907,
      " incorpor": 7908,
      " ver": 7909,
      "ates,": 7910,
      " 2016": 7911,
      " conditions": 7912,
      " trip": 7913,
      "oom": 7914,
      "airs": 7915,
      " Trans": 7916,
      " years.": 7917,
      " deliver": 7918,
      " climate": 7919,
      "el,": 7920,
      " average": 7921,
      " Great": 7922,
      " extreme": 7923,
      " Dist": 7924,
      " subs": 7925,
      "mon": 7926,
      "ellow": 7927,
      " Island": 7928,
      " sale": 7929,
      " hor": 7930,
      " guide": 7931,
      " valu": 7932,
      " non-": 7933,
      " Google": 7934,
      "ald": 7935,
      " More": 7936,
      " consult": 7937,
      " prec": 7938,
      "isions": 7939,
      "illing": 7940,
      " stock": 7941,
      " sometimes": 7942,
      " instit": 7943,
      " won't": 7944,
      " scient": 7945,
      "-3": 7946,
      " architect": 7947,
      " shown": 7948,
      " max": 7949,
      " bur": 7950,
      " Bus": 7951,
      " military": 7952,
      " propert": 7953,
      " starting": 7954,
      " electric": 7955,
      " London": 7956,
      " dry": 7957,
      " costs": 7958,
      " fix": 7959,
      " Pat": 7960,
      " prem": 7961,
      " afford": 7962,
      " Of": 7963,
      "osition": 7964,
      "25": 7965,
      " books": 7966,
      "AM": 7967,
      " (20": 7968,
      " computer": 7969,
      " themselves": 7970,
      "yle": 7971,
      " myself": 7972,
      "olute": 7973,
      " earn": 7974,
      "anch": 7975,
      " wild": 7976,
      " goals": 7977,
      "hens": 7978,
      "ors,": 7979,
      "oul": 7980,
      " asked": 7981,
      " Over": 7982,
      " accur": 7983,
      "ivery": 7984,
      " kids": 7985,
      " feeling": 7986,
      "arc": 7987,
      " apprec": 7988,
      " hop": 7989,
      " initial": 7990,
      " drug": 7991,
      " Direct": 7992,
      " population": 7993,
      " impress": 7994,
      "iant": 7995,
      " assess": 7996,
      " Ital": 7997,
      " bag": 7998,
      " Also": 7999,
      " Many": 8000,
      "icip": 8001,
      "uth": 8002,
      " reve": 8003,
      " chance": 8004,
      " that,": 8005,
      " spirit": 8006,
      " difference": 8007,
      "rag": 8008,
      " ing": 8009,
      " satis": 8010,
      " meaning": 8011,
      " critical": 8012,
      " adapt": 8013,
      " college": 8014,
      "ooth": 8015,
      " growing": 8016,
      " Pri": 8017,
      "porary": 8018,
      "-C": 8019,
      " completely": 8020,
      " science": 8021,
      "idents": 8022,
      "aches": 8023,
      " suff": 8024,
      " Us": 8025,
      " Are": 8026,
      " harm": 8027,
      " carry": 8028,
      "60": 8029,
      "pre": 8030,
      " gas": 8031,
      " dedic": 8032,
      " offering": 8033,
      " Service": 8034,
      " See": 8035,
      "ctions": 8036,
      " purpose": 8037,
      " definitely": 8038,
      "mas": 8039,
      " finish": 8040,
      " communication": 8041,
      " ten": 8042,
      " therap": 8043,
      "EC": 8044,
      " background": 8045,
      " surpr": 8046,
      " powerful": 8047,
      "oes": 8048,
      ".\nWhat": 8049,
      " surface": 8050,
      "et.": 8051,
      " center": 8052,
      "term": 8053,
      " First": 8054,
      " blood": 8055,
      " Center": 8056,
      " unit": 8057,
      " ones": 8058,
      " 1,": 8059,
      " threat": 8060,
      " adjust": 8061,
      " Govern": 8062,
      "iding": 8063,
      " \"S": 8064,
      "ervation": 8065,
      " recently": 8066,
      "right": 8067,
      " serious": 8068,
      " demonst": 8069,
      " temperature": 8070,
      "zz": 8071,
      " equipment": 8072,
      " relev": 8073,
      "more": 8074,
      " 21": 8075,
      " bod": 8076,
      "ences": 8077,
      " huge": 8078,
      " son": 8079,
      " trade": 8080,
      " you,": 8081,
      " Cr": 8082,
      "ades": 8083,
      " Techn": 8084,
      "!\nI": 8085,
      " serve": 8086,
      "key": 8087,
      "ae": 8088,
      "enty": 8089,
      " life.": 8090,
      "-e": 8091,
      " waste": 8092,
      " weeks": 8093,
      "oyal": 8094,
      " strength": 8095,
      " continu": 8096,
      "utive": 8097,
      "-A": 8098,
      " words": 8099,
      " aw": 8100,
      "iar": 8101,
      " there's": 8102,
      " spot": 8103,
      " vict": 8104,
      " limit": 8105,
      " score": 8106,
      "arter": 8107,
      " William": 8108,
      "-time": 8109,
      " planning": 8110,
      " challenge": 8111,
      " (P": 8112,
      "wise": 8113,
      "mat": 8114,
      " gave": 8115,
      " investment": 8116,
      " machine": 8117,
      " chem": 8118,
      " optim": 8119,
      "rial": 8120,
      " renew": 8121,
      " 4.": 8122,
      " developing": 8123,
      " vac": 8124,
      "omb": 8125,
      " behavior": 8126,
      " measure": 8127,
      " Rem": 8128,
      " compon": 8129,
      " reported": 8130,
      " Sam": 8131,
      " \"A": 8132,
      " interview": 8133,
      " apply": 8134,
      " replace": 8135,
      " dream": 8136,
      " beyond": 8137,
      " appropriate": 8138,
      "13": 8139,
      "olf": 8140,
      " surv": 8141,
      " employees": 8142,
      " brought": 8143,
      " knew": 8144,
      "ocol": 8145,
      " largest": 8146,
      " Educ": 8147,
      " princ": 8148,
      "arant": 8149,
      "aces": 8150,
      " evidence": 8151,
      " advert": 8152,
      " refer": 8153,
      " parents": 8154,
      " efficient": 8155,
      " world.": 8156,
      "cul": 8157,
      " experiences": 8158,
      " adult": 8159,
      " ge": 8160,
      "lam": 8161,
      " greater": 8162,
      " furn": 8163,
      " offered": 8164,
      " artist": 8165,
      " AI": 8166,
      " moved": 8167,
      " father": 8168,
      " und": 8169,
      " produced": 8170,
      "gar": 8171,
      " produce": 8172,
      "aby": 8173,
      " Cor": 8174,
      " Design": 8175,
      "ces,": 8176,
      " policies": 8177,
      "field": 8178,
      " experienced": 8179,
      " item": 8180,
      "error": 8181,
      " Book": 8182,
      "40": 8183,
      " picture": 8184,
      " academ": 8185,
      "ara": 8186,
      "aper": 8187,
      "ocal": 8188,
      " advice": 8189,
      " ble": 8190,
      "change": 8191,
      "elling": 8192,
      " Church": 8193,
      " Pal": 8194,
      " Face": 8195,
      " monitor": 8196,
      "arily": 8197,
      " origin": 8198,
      " Sch": 8199,
      " Prog": 8200,
      " decor": 8201,
      "uit": 8202,
      "ama": 8203,
      "OT": 8204,
      " Law": 8205,
      "olic": 8206,
      " hands": 8207,
      " corn": 8208,
      " proced": 8209,
      " Ir": 8210,
      " Department": 8211,
      " spent": 8212,
      "asons": 8213,
      "ibly": 8214,
      "inn": 8215,
      " arr": 8216,
      " images": 8217,
      " novel": 8218,
      " categ": 8219,
      " External": 8220,
      "force": 8221,
      "ashion": 8222,
      " player": 8223,
      " exhib": 8224,
      " degree": 8225,
      " gam": 8226,
      " trad": 8227,
      " requires": 8228,
      " glass": 8229,
      " steps": 8230,
      " load": 8231,
      ".\nHow": 8232,
      " Mor": 8233,
      "venue": 8234,
      "nown": 8235,
      " Other": 8236,
      "-S": 8237,
      " goes": 8238,
      " expand": 8239,
      " essay": 8240,
      " wish": 8241,
      "unte": 8242,
      " church": 8243,
      " weather": 8244,
      " :": 8245,
      " healthcare": 8246,
      " River": 8247,
      " photo": 8248,
      " shop": 8249,
      " Mod": 8250,
      " Prof": 8251,
      " fem": 8252,
      " expected": 8253,
      " transform": 8254,
      " evalu": 8255,
      " fab": 8256,
      "-g": 8257,
      " Mac": 8258,
      " camer": 8259,
      ".A": 8260,
      " respond": 8261,
      " manage": 8262,
      " easier": 8263,
      " That's": 8264,
      "ibrary": 8265,
      "ions.": 8266,
      " candid": 8267,
      " wrong": 8268,
      "enior": 8269,
      " League": 8270,
      " storage": 8271,
      " Home": 8272,
      " comment": 8273,
      " allowed": 8274,
      "unk": 8275,
      "estival": 8276,
      "ari": 8277,
      " diet": 8278,
      " tick": 8279,
      "abin": 8280,
      "opping": 8281,
      "haps": 8282,
      "ampionship": 8283,
      "oper": 8284,
      " Council": 8285,
      " Most": 8286,
      " you've": 8287,
      " transfer": 8288,
      "rog": 8289,
      "vis": 8290,
      " Bel": 8291,
      " high-": 8292,
      "ica": 8293,
      " smart": 8294,
      "rote": 8295,
      " eat": 8296,
      "vest": 8297,
      " outd": 8298,
      " announced": 8299,
      "OU": 8300,
      " Then": 8301,
      " gar": 8302,
      "s)": 8303,
      " --": 8304,
      "mission": 8305,
      " virt": 8306,
      "ry,": 8307,
      " creative": 8308,
      " moving": 8309,
      " basic": 8310,
      "ma": 8311,
      " existing": 8312,
      "rig": 8313,
      "ately": 8314,
      " mis": 8315,
      "oly": 8316,
      " Additionally,": 8317,
      "levision": 8318,
      " mechan": 8319,
      " visual": 8320,
      " Dem": 8321,
      " India": 8322,
      " spread": 8323,
      " Thanks": 8324,
      " places": 8325,
      " Wash": 8326,
      " St.": 8327,
      ".com": 8328,
      " flex": 8329,
      "EO": 8330,
      " blue": 8331,
      ".\nTo": 8332,
      "-term": 8333,
      " Green": 8334,
      " heard": 8335,
      "like": 8336,
      " Hol": 8337,
      " delivery": 8338,
      " structure": 8339,
      " task": 8340,
      "ills": 8341,
      "ipped": 8342,
      " peace": 8343,
      "1)": 8344,
      " primary": 8345,
      " comfortable": 8346,
      " Paul": 8347,
      "ened": 8348,
      " year.": 8349,
      " People": 8350,
      " damage": 8351,
      " morning": 8352,
      " supply": 8353,
      "inary": 8354,
      " cast": 8355,
      " relevant": 8356,
      "Th": 8357,
      "ocr": 8358,
      ".\n\nI": 8359,
      " we're": 8360,
      " gift": 8361,
      " disease": 8362,
      "iles": 8363,
      " paint": 8364,
      "ics,": 8365,
      "house": 8366,
      " continued": 8367,
      "yn": 8368,
      " During": 8369,
      "band": 8370,
      "ID": 8371,
      " corpor": 8372,
      " answer": 8373,
      " factors": 8374,
      "ym": 8375,
      "overy": 8376,
      " poll": 8377,
      " I'll": 8378,
      " competition": 8379,
      " regarding": 8380,
      "used": 8381,
      " dead": 8382,
      " Ant": 8383,
      "an.": 8384,
      " police": 8385,
      " income": 8386,
      " movement": 8387,
      " Play": 8388,
      " Develop": 8389,
      " hotel": 8390,
      "rof": 8391,
      "rehens": 8392,
      " garden": 8393,
      " highest": 8394,
      "PS": 8395,
      " south": 8396,
      " title": 8397,
      " techniques": 8398,
      " Research": 8399,
      " day,": 8400,
      " compared": 8401,
      " Jack": 8402,
      "A,": 8403,
      " ec": 8404,
      " message": 8405,
      "word": 8406,
      " although": 8407,
      "ael": 8408,
      " sources": 8409,
      " Best": 8410,
      " fat": 8411,
      " importance": 8412,
      " vehicle": 8413,
      " David": 8414,
      ".\n\nW": 8415,
      " larger": 8416,
      " Op": 8417,
      "OM": 8418,
      " relax": 8419,
      "al.": 8420,
      " north": 8421,
      " note": 8422,
      " 2015": 8423,
      " race": 8424,
      " reducing": 8425,
      " pet": 8426,
      " prefer": 8427,
      " pressure": 8428,
      "tee": 8429,
      " Out": 8430,
      " length": 8431,
      " paid": 8432,
      " island": 8433,
      " helping": 8434,
      ".\nSt": 8435,
      " conflic": 8436,
      " batter": 8437,
      "ester": 8438,
      " schools": 8439,
      "idential": 8440,
      " capital": 8441,
      " himself": 8442,
      " cash": 8443,
      " tried": 8444,
      " studies": 8445,
      "ricult": 8446,
      " England": 8447,
      " System": 8448,
      " util": 8449,
      "amin": 8450,
      "'m": 8451,
      " dress": 8452,
      " af": 8453,
      " Court": 8454,
      " Gold": 8455,
      " restaurant": 8456,
      "irection": 8457,
      "EL": 8458,
      " forest": 8459,
      " ang": 8460,
      "que": 8461,
      " charge": 8462,
      " Sl": 8463,
      "pective": 8464,
      "sp": 8465,
      " force": 8466,
      " described": 8467,
      "80": 8468,
      " repair": 8469,
      " cit": 8470,
      " thinking": 8471,
      " 60": 8472,
      " encourage": 8473,
      " teams": 8474,
      " China": 8475,
      " constant": 8476,
      " Sund": 8477,
      " coff": 8478,
      "kend": 8479,
      " Now": 8480,
      " breat": 8481,
      "ey": 8482,
      " sports": 8483,
      " truly": 8484,
      " civil": 8485,
      " Christmas": 8486,
      " sav": 8487,
      " Facebook": 8488,
      " fine": 8489,
      " died": 8490,
      " 193": 8491,
      " wonderful": 8492,
      " requirements": 8493,
      " copy": 8494,
      " photos": 8495,
      " chann": 8496,
      "-M": 8497,
      " micro": 8498,
      " 22": 8499,
      "ida": 8500,
      " Year": 8501,
      " Jes": 8502,
      " (N": 8503,
      "itude": 8504,
      " annual": 8505,
      " emp": 8506,
      " James": 8507,
      "ij": 8508,
      " habit": 8509,
      "iction": 8510,
      " movie": 8511,
      "ros": 8512,
      "ell,": 8513,
      " Met": 8514,
      " capac": 8515,
      " activity": 8516,
      "inese": 8517,
      " Inter": 8518,
      " voice": 8519,
      "ault": 8520,
      " beginning": 8521,
      " entry": 8522,
      " shared": 8523,
      " completed": 8524,
      " wait": 8525,
      " Je": 8526,
      " feedback": 8527,
      " wasn't": 8528,
      " strategies": 8529,
      " Dr.": 8530,
      " useful": 8531,
      " fear": 8532,
      " Republic": 8533,
      " them,": 8534,
      " sites": 8535,
      " traffic": 8536,
      " White": 8537,
      " ingred": 8538,
      " exactly": 8539,
      " helpful": 8540,
      "isl": 8541,
      " election": 8542,
      " selection": 8543,
      " trail": 8544,
      "ancing": 8545,
      "2)": 8546,
      ".C": 8547,
      " Street": 8548,
      " Av": 8549,
      " nav": 8550,
      " Dis": 8551,
      " mer": 8552,
      " Every": 8553,
      " Mem": 8554,
      " Social": 8555,
      " they're": 8556,
      "ris": 8557,
      " Flor": 8558,
      " gets": 8559,
      " Fil": 8560,
      " join": 8561,
      " grand": 8562,
      "oses": 8563,
      " advanced": 8564,
      " Road": 8565,
      " posted": 8566,
      "tt": 8567,
      "les.": 8568,
      " station": 8569,
      " stream": 8570,
      "exic": 8571,
      "-0": 8572,
      "US": 8573,
      "add": 8574,
      " exercise": 8575,
      ".\nBut": 8576,
      "rastruct": 8577,
      " compl": 8578,
      "able,": 8579,
      " 0.": 8580,
      "en.": 8581,
      " graph": 8582,
      " generally": 8583,
      " rank": 8584,
      " Up": 8585,
      " instruct": 8586,
      " Club": 8587,
      " belief": 8588,
      "aker": 8589,
      "craft": 8590,
      "wide": 8591,
      "aries": 8592,
      "erved": 8593,
      " finding": 8594,
      "ET": 8595,
      " shape": 8596,
      "ent,": 8597,
      " veget": 8598,
      " changed": 8599,
      " double": 8600,
      " Cle": 8601,
      "dule": 8602,
      " Good": 8603,
      " animal": 8604,
      " artists": 8605,
      " drop": 8606,
      " certainly": 8607,
      " African": 8608,
      "istics": 8609,
      " stories": 8610,
      " Free": 8611,
      " sector": 8612,
      "BC": 8613,
      "ively": 8614,
      "ipping": 8615,
      "plic": 8616,
      " 2014": 8617,
      " ideal": 8618,
      " colour": 8619,
      "anging": 8620,
      " famous": 8621,
      " Program": 8622,
      " day.": 8623,
      " payment": 8624,
      " tur": 8625,
      " Que": 8626,
      "ares": 8627,
      " loved": 8628,
      "ellig": 8629,
      "orial": 8630,
      " Washington": 8631,
      " bird": 8632,
      " Christian": 8633,
      " eye": 8634,
      ".\n\nS": 8635,
      " Del": 8636,
      " finished": 8637,
      " craft": 8638,
      " dang": 8639,
      "coming": 8640,
      " boy": 8641,
      " straight": 8642,
      " master": 8643,
      " minim": 8644,
      "reek": 8645,
      " guarant": 8646,
      ".\nOur": 8647,
      " balance": 8648,
      " bottom": 8649,
      " alternative": 8650,
      "day,": 8651,
      " influence": 8652,
      "equ": 8653,
      " unc": 8654,
      " wrote": 8655,
      "sec": 8656,
      " window": 8657,
      " \"B": 8658,
      " stuff": 8659,
      "phas": 8660,
      " central": 8661,
      "ate.": 8662,
      "How": 8663,
      " epis": 8664,
      " turned": 8665,
      " Cong": 8666,
      " motiv": 8667,
      " Found": 8668,
      " occas": 8669,
      " lik": 8670,
      " Sing": 8671,
      " determine": 8672,
      "at,": 8673,
      " I'd": 8674,
      " descript": 8675,
      " methods": 8676,
      "-4": 8677,
      " Mexic": 8678,
      " alone": 8679,
      "orks": 8680,
      " Business": 8681,
      " technical": 8682,
      " cases": 8683,
      " centur": 8684,
      " rich": 8685,
      "mitted": 8686,
      " Mal": 8687,
      " star": 8688,
      "-cent": 8689,
      " elements": 8690,
      "outhern": 8691,
      "ship": 8692,
      "mar": 8693,
      " psych": 8694,
      " \"C": 8695,
      " stick": 8696,
      " Isra": 8697,
      " connection": 8698,
      " applications": 8699,
      " Mag": 8700,
      " Even": 8701,
      "ech": 8702,
      "?\n\n": 8703,
      "is.": 8704,
      " Sur": 8705,
      "70": 8706,
      "IL": 8707,
      " direction": 8708,
      " families": 8709,
      " comprehens": 8710,
      " thous": 8711,
      "iture": 8712,
      "cel": 8713,
      " wedding": 8714,
      "aling": 8715,
      "istry": 8716,
      " prices": 8717,
      " finally": 8718,
      " bul": 8719,
      " (s": 8720,
      " sand": 8721,
      " Friday": 8722,
      " Sol": 8723,
      " Mount": 8724,
      " Thank": 8725,
      "-5": 8726,
      " caused": 8727,
      "?\nI": 8728,
      " stage": 8729,
      " followed": 8730,
      " Spe": 8731,
      " self-": 8732,
      ".\nAnd": 8733,
      " assign": 8734,
      " Mil": 8735,
      "abilities": 8736,
      " sort": 8737,
      " Each": 8738,
      " onto": 8739,
      ".\nWh": 8740,
      "rief": 8741,
      ".\nWith": 8742,
      " anc": 8743,
      "ician": 8744,
      "on.": 8745,
      " Super": 8746,
      " tend": 8747,
      " (and": 8748,
      " pen": 8749,
      "semb": 8750,
      " becoming": 8751,
      " Once": 8752,
      "imb": 8753,
      " Award": 8754,
      " Institute": 8755,
      " Association": 8756,
      " secure": 8757,
      " society": 8758,
      "itar": 8759,
      " ship": 8760,
      " issu": 8761,
      " rates": 8762,
      " work,": 8763,
      " Prov": 8764,
      "anish": 8765,
      " values": 8766,
      " den": 8767,
      "ces.": 8768,
      " approx": 8769,
      "aced": 8770,
      "ING": 8771,
      " Tex": 8772,
      "inct": 8773,
      " numerous": 8774,
      "zy": 8775,
      "reed": 8776,
      " and,": 8777,
      " learned": 8778,
      " dedicated": 8779,
      " reb": 8780,
      " element": 8781,
      ".\nK": 8782,
      " symb": 8783,
      " Chinese": 8784,
      " woman": 8785,
      " Care": 8786,
      " America": 8787,
      " notice": 8788,
      " clin": 8789,
      " princip": 8790,
      " states": 8791,
      "ville": 8792,
      " Hot": 8793,
      " relative": 8794,
      " 23": 8795,
      " societ": 8796,
      "ses": 8797,
      "avour": 8798,
      "orthern": 8799,
      " landsc": 8800,
      " Company": 8801,
      " whose": 8802,
      " cod": 8803,
      " middle": 8804,
      " shot": 8805,
      " measures": 8806,
      "ommod": 8807,
      " placed": 8808,
      " journey": 8809,
      " holiday": 8810,
      " district": 8811,
      "aughter": 8812,
      "rey": 8813,
      " wife": 8814,
      " advance": 8815,
      "t,": 8816,
      ".\nY": 8817,
      ".\nAn": 8818,
      " scen": 8819,
      " Bank": 8820,
      " rob": 8821,
      " entertain": 8822,
      " eight": 8823,
      " sch": 8824,
      " £": 8825,
      " rat": 8826,
      " ahead": 8827,
      " teacher": 8828,
      "undred": 8829,
      " counter": 8830,
      " List": 8831,
      " General": 8832,
      " pool": 8833,
      " Satur": 8834,
      " Let": 8835,
      "udd": 8836,
      " etc.": 8837,
      "usion": 8838,
      " well.": 8839,
      ".\nV": 8840,
      " absolute": 8841,
      " seven": 8842,
      " Get": 8843,
      " Academ": 8844,
      "agram": 8845,
      "ters": 8846,
      " weekend": 8847,
      " volunte": 8848,
      " delic": 8849,
      "ancy": 8850,
      "hop": 8851,
      " fashion": 8852,
      " ir": 8853,
      "ine.": 8854,
      " slight": 8855,
      " Ber": 8856,
      " numbers": 8857,
      " Fe": 8858,
      " retail": 8859,
      " Mart": 8860,
      " Make": 8861,
      " focused": 8862,
      " thank": 8863,
      " cold": 8864,
      " forms": 8865,
      " react": 8866,
      " nearly": 8867,
      " conven": 8868,
      " contains": 8869,
      " internet": 8870,
      " neighbor": 8871,
      " typically": 8872,
      " Since": 8873,
      " shoot": 8874,
      " situation": 8875,
      " smooth": 8876,
      " allowing": 8877,
      "omet": 8878,
      " instru": 8879,
      " journal": 8880,
      " covered": 8881,
      " is,": 8882,
      "99": 8883,
      ".The": 8884,
      " bow": 8885,
      " television": 8886,
      " anx": 8887,
      " dram": 8888,
      " Div": 8889,
      " sharing": 8890,
      "emporary": 8891,
      " fuel": 8892,
      "rab": 8893,
      "osure": 8894,
      " facilities": 8895,
      " Jew": 8896,
      " incred": 8897,
      " work.": 8898,
      " cry": 8899,
      " this,": 8900,
      " Whe": 8901,
      " extremely": 8902,
      " emphas": 8903,
      " IN": 8904,
      " 5.": 8905,
      "see": 8906,
      "yp": 8907,
      "ression": 8908,
      " therefore": 8909,
      " emotional": 8910,
      " dur": 8911,
      " infrastruct": 8912,
      " California": 8913,
      " decl": 8914,
      " Rich": 8915,
      " PC": 8916,
      " characters": 8917,
      "inter": 8918,
      ".2.": 8919,
      " films": 8920,
      "bour": 8921,
      " promoting": 8922,
      " sweet": 8923,
      " Post": 8924,
      "uments": 8925,
      " soil": 8926,
      " AN": 8927,
      " transl": 8928,
      " Class": 8929,
      "aled": 8930,
      "ence,": 8931,
      " enhance": 8932,
      "h,": 8933,
      " Cup": 8934,
      " Work": 8935,
      " poor": 8936,
      " heavy": 8937,
      " director": 8938,
      " Market": 8939,
      "th,": 8940,
      " arm": 8941,
      "ender": 8942,
      ".\nOn": 8943,
      " partner": 8944,
      " p.": 8945,
      " Hall": 8946,
      " opening": 8947,
      " Board": 8948,
      "What": 8949,
      " leadership": 8950,
      " driver": 8951,
      " 28": 8952,
      " figure": 8953,
      " purs": 8954,
      " life,": 8955,
      " lots": 8956,
      " incl": 8957,
      " rail": 8958,
      " brain": 8959,
      "AD": 8960,
      " Sk": 8961,
      " cities": 8962,
      " ice": 8963,
      " reality": 8964,
      " pros": 8965,
      " detailed": 8966,
      " carbon": 8967,
      " wear": 8968,
      " me,": 8969,
      " driving": 8970,
      ".3.": 8971,
      " Sal": 8972,
      " (B": 8973,
      " ago": 8974,
      "set": 8975,
      " \"M": 8976,
      "atically": 8977,
      "vere": 8978,
      "23": 8979,
      " fant": 8980,
      " brother": 8981,
      " devices": 8982,
      " remove": 8983,
      " Fore": 8984,
      " mission": 8985,
      "ago": 8986,
      " emerg": 8987,
      " Pet": 8988,
      " remind": 8989,
      " protection": 8990,
      " Vol": 8991,
      " Add": 8992,
      "ocks": 8993,
      ".\n\nC": 8994,
      "rian": 8995,
      " Micro": 8996,
      " rain": 8997,
      "raw": 8998,
      " 2013": 8999,
      " separate": 9000,
      " liv": 9001,
      " doub": 9002,
      " Rober": 9003,
      " shap": 9004,
      " Lou": 9005,
      " strate": 9006,
      " earlier": 9007,
      " fill": 9008,
      " feet": 9009,
      " tree": 9010,
      " Ob": 9011,
      " Office": 9012,
      " strategy": 9013,
      " outdoor": 9014,
      " Mary": 9015,
      "ness,": 9016,
      "24": 9017,
      "Over": 9018,
      "!\nA": 9019,
      " sport": 9020,
      "urban": 9021,
      " normal": 9022,
      " manufacturer": 9023,
      " comprehensive": 9024,
      " accommod": 9025,
      " remains": 9026,
      " brow": 9027,
      " labor": 9028,
      " consequ": 9029,
      "inated": 9030,
      " independent": 9031,
      " adding": 9032,
      " me.": 9033,
      " push": 9034,
      ".\nAl": 9035,
      " Although": 9036,
      " District": 9037,
      "order": 9038,
      " Its": 9039,
      " Australia": 9040,
      " Wed": 9041,
      " mainten": 9042,
      " IT": 9043,
      " grant": 9044,
      " plastic": 9045,
      " Franc": 9046,
      " listed": 9047,
      " Arch": 9048,
      " (I": 9049,
      " (the": 9050,
      " Israel": 9051,
      " letter": 9052,
      "AP": 9053,
      "inner": 9054,
      "hedul": 9055,
      " dial": 9056,
      " button": 9057,
      " relationships": 9058,
      "standing": 9059,
      " prote": 9060,
      " performed": 9061,
      "apter": 9062,
      " (or": 9063,
      "ube": 9064,
      " opened": 9065,
      "ously": 9066,
      "ments,": 9067,
      " street": 9068,
      " president": 9069,
      "ption": 9070,
      " status": 9071,
      " changing": 9072,
      " fabric": 9073,
      " predict": 9074,
      " academic": 9075,
      " mist": 9076,
      " discover": 9077,
      " diverse": 9078,
      "t.": 9079,
      " doll": 9080,
      " workers": 9081,
      "cription": 9082,
      " Rock": 9083,
      " cup": 9084,
      " (200": 9085,
      " conclus": 9086,
      " Web": 9087,
      " faith": 9088,
      " exclus": 9089,
      " flu": 9090,
      "roy": 9091,
      " Certain": 9092,
      " mentioned": 9093,
      " mo": 9094,
      " couldn't": 9095,
      "ixt": 9096,
      "atever": 9097,
      " depending": 9098,
      " teaching": 9099,
      " course,": 9100,
      " immediately": 9101,
      "phone": 9102,
      " Camp": 9103,
      " Sub": 9104,
      "enced": 9105,
      " 2010": 9106,
      " advantage": 9107,
      " foreign": 9108,
      " seat": 9109,
      " Spr": 9110,
      " thanks": 9111,
      "iced": 9112,
      "nel": 9113,
      "OL": 9114,
      " lines": 9115,
      "itter": 9116,
      " Museum": 9117,
      " (F": 9118,
      " History": 9119,
      " trou": 9120,
      "akers": 9121,
      " citiz": 9122,
      " models": 9123,
      " controll": 9124,
      " wat": 9125,
      "-P": 9126,
      " 2012": 9127,
      " bound": 9128,
      " context": 9129,
      " presented": 9130,
      "90": 9131,
      " Tur": 9132,
      "ned": 9133,
      " Don": 9134,
      " prepared": 9135,
      "lim": 9136,
      "rim": 9137,
      " handle": 9138,
      " pictures": 9139,
      " Profess": 9140,
      " hundred": 9141,
      " (R": 9142,
      "ston": 9143,
      " Angel": 9144,
      " J.": 9145,
      "icon": 9146,
      " laws": 9147,
      " Canadian": 9148,
      " smaller": 9149,
      " Alex": 9150,
      " eyes": 9151,
      " Central": 9152,
      " command": 9153,
      " appe": 9154,
      " Mond": 9155,
      " solid": 9156,
      " becomes": 9157,
      " Wood": 9158,
      "urd": 9159,
      " secret": 9160,
      " Mo": 9161,
      " sounds": 9162,
      " crucial": 9163,
      " sym": 9164,
      " schedule": 9165,
      "miss": 9166,
      "pping": 9167,
      "fficient": 9168,
      " coffee": 9169,
      "ly!": 9170,
      " According": 9171,
      " IS": 9172,
      " Music": 9173,
      " conv": 9174,
      " Japanese": 9175,
      "iling": 9176,
      "EM": 9177,
      " wine": 9178,
      " advent": 9179,
      " combination": 9180,
      " historical": 9181,
      " introduced": 9182,
      " Canada": 9183,
      " maybe": 9184,
      "ism,": 9185,
      "time": 9186,
      " Lord": 9187,
      " Mill": 9188,
      ".\nHe": 9189,
      " core": 9190,
      "antic": 9191,
      " Life": 9192,
      " map": 9193,
      "NA": 9194,
      " suppl": 9195,
      " Grand": 9196,
      " server": 9197,
      " hospital": 9198,
      " agricult": 9199,
      " $1": 9200,
      " discount": 9201,
      " hyd": 9202,
      "aly": 9203,
      " world,": 9204,
      "van": 9205,
      "ners": 9206,
      " joined": 9207,
      "/or": 9208,
      " Any": 9209,
      " scene": 9210,
      " Public": 9211,
      "ptom": 9212,
      ".\nSo": 9213,
      "able.": 9214,
      "known": 9215,
      " leaders": 9216,
      " roof": 9217,
      " nation": 9218,
      " memory": 9219,
      " Sum": 9220,
      " (D": 9221,
      "ios": 9222,
      " eventually": 9223,
      "IP": 9224,
      " Bay": 9225,
      "hab": 9226,
      " metal": 9227,
      "-B": 9228,
      "ucle": 9229,
      "iveness": 9230,
      "orrow": 9231,
      " saying": 9232,
      " homes": 9233,
      " federal": 9234,
      "itz": 9235,
      " der": 9236,
      "going": 9237,
      " +": 9238,
      " plus": 9239,
      "atin": 9240,
      " bright": 9241,
      " keeping": 9242,
      " Science": 9243,
      " responsibility": 9244,
      " chemical": 9245,
      " looked": 9246,
      "lig": 9247,
      " Water": 9248,
      "arp": 9249,
      " hus": 9250,
      " highlight": 9251,
      "cean": 9252,
      "ample": 9253,
      " actual": 9254,
      " iP": 9255,
      " schedul": 9256,
      " brok": 9257,
      " Dan": 9258,
      "-friend": 9259,
      " du": 9260,
      " 26": 9261,
      " Jesus": 9262,
      "rd": 9263,
      " cloud": 9264,
      " advoc": 9265,
      " fan": 9266,
      " experiment": 9267,
      " century": 9268,
      " awareness": 9269,
      " renewable": 9270,
      " Chic": 9271,
      " Internet": 9272,
      " symbol": 9273,
      " tag": 9274,
      " Management": 9275,
      " steel": 9276,
      " Australian": 9277,
      " religious": 9278,
      " continues": 9279,
      " practical": 9280,
      " Exp": 9281,
      "ive,": 9282,
      " detect": 9283,
      " beauty": 9284,
      " said,": 9285,
      " reviews": 9286,
      " reports": 9287,
      " statement": 9288,
      " bathroom": 9289,
      "rad": 9290,
      " expensive": 9291,
      "ache": 9292,
      " Education": 9293,
      "3)": 9294,
      " chair": 9295,
      "othing": 9296,
      " transact": 9297,
      " Ann": 9298,
      " bedroom": 9299,
      " repe": 9300,
      " 27": 9301,
      "or.": 9302,
      " rap": 9303,
      " gun": 9304,
      " addition,": 9305,
      " Mont": 9306,
      "ST": 9307,
      " rare": 9308,
      "ooking": 9309,
      "rical": 9310,
      " Their": 9311,
      " plants": 9312,
      " tow": 9313,
      " long-term": 9314,
      " Western": 9315,
      " illust": 9316,
      " concerns": 9317,
      " fruit": 9318,
      "ev": 9319,
      " Plan": 9320,
      " Party": 9321,
      " returned": 9322,
      "IG": 9323,
      " luck": 9324,
      " Amaz": 9325,
      " Windows": 9326,
      "ius": 9327,
      " Lake": 9328,
      ".\nAll": 9329,
      " selected": 9330,
      "ystem": 9331,
      " partnership": 9332,
      " presence": 9333,
      " and/or": 9334,
      "rain": 9335,
      " views": 9336,
      " professionals": 9337,
      " surrounding": 9338,
      " contribute": 9339,
      " George": 9340,
      " medium": 9341,
      "aid": 9342,
      " resist": 9343,
      " reduced": 9344,
      " Tour": 9345,
      " coast": 9346,
      "ary,": 9347,
      " passed": 9348,
      "iency": 9349,
      " actions": 9350,
      " Cur": 9351,
      " chart": 9352,
      " trend": 9353,
      " baby": 9354,
      "irgin": 9355,
      " Read": 9356,
      " phil": 9357,
      "water": 9358,
      " extensive": 9359,
      " Vis": 9360,
      " Land": 9361,
      "berg": 9362,
      " pieces": 9363,
      "unning": 9364,
      " Engine": 9365,
      " Services": 9366,
      " Tod": 9367,
      " 190": 9368,
      " kept": 9369,
      " Ins": 9370,
      " matt": 9371,
      "ront": 9372,
      " Hill": 9373,
      " dro": 9374,
      " Miss": 9375,
      " sequ": 9376,
      " wants": 9377,
      " estim": 9378,
      "eria": 9379,
      "ulated": 9380,
      " Ben": 9381,
      " innovative": 9382,
      "ain,": 9383,
      " laun": 9384,
      " Kore": 9385,
      " pages": 9386,
      " gall": 9387,
      " navig": 9388,
      " more.": 9389,
      " estate": 9390,
      " operating": 9391,
      " kid": 9392,
      " Don't": 9393,
      " Commit": 9394,
      " Sun": 9395,
      " datab": 9396,
      " engage": 9397,
      " rules": 9398,
      " Elect": 9399,
      " leader": 9400,
      " billion": 9401,
      "azz": 9402,
      "ception": 9403,
      " seed": 9404,
      " 2011": 9405,
      "ous,": 9406,
      " arrange": 9407,
      " =": 9408,
      "ette": 9409,
      " cream": 9410,
      "s'": 9411,
      "thlet": 9412,
      " biggest": 9413,
      " classic": 9414,
      " Mad": 9415,
      "uce": 9416,
      "ates.": 9417,
      " format": 9418,
      "hent": 9419,
      " reasons": 9420,
      "esome": 9421,
      " centre": 9422,
      " basis": 9423,
      "For": 9424,
      " rise": 9425,
      "ado": 9426,
      " Ret": 9427,
      " appeal": 9428,
      " Michael": 9429,
      " 2020": 9430,
      " parties": 9431,
      " people,": 9432,
      " radio": 9433,
      " applied": 9434,
      " cris": 9435,
      " cabin": 9436,
      " despite": 9437,
      " Roman": 9438,
      " passion": 9439,
      "fast": 9440,
      " launch": 9441,
      "ifying": 9442,
      " senior": 9443,
      " Hum": 9444,
      "roud": 9445,
      " construct": 9446,
      " pal": 9447,
      "500": 9448,
      " effectively": 9449,
      "estic": 9450,
      " operations": 9451,
      " pair": 9452,
      " Bre": 9453,
      " Tor": 9454,
      " visitors": 9455,
      " recip": 9456,
      " beg": 9457,
      ".\nAt": 9458,
      "-19": 9459,
      " Det": 9460,
      " teach": 9461,
      " leaving": 9462,
      "22": 9463,
      " AP": 9464,
      " standards": 9465,
      " doctor": 9466,
      " involves": 9467,
      " schol": 9468,
      " fol": 9469,
      "down": 9470,
      " lux": 9471,
      " winter": 9472,
      " songs": 9473,
      " Bill": 9474,
      " technologies": 9475,
      " Down": 9476,
      " Jour": 9477,
      " tail": 9478,
      " talent": 9479,
      "road": 9480,
      " sea": 9481,
      " administr": 9482,
      " symptom": 9483,
      " motor": 9484,
      " Build": 9485,
      " toward": 9486,
      "ompl": 9487,
      " A.": 9488,
      " previously": 9489,
      " esc": 9490,
      " Const": 9491,
      " Hel": 9492,
      "formation": 9493,
      " sem": 9494,
      " egg": 9495,
      " Love": 9496,
      "ipl": 9497,
      "75": 9498,
      " testing": 9499,
      " pull": 9500,
      "iated": 9501,
      "omas": 9502,
      " educational": 9503,
      " colors": 9504,
      "verse": 9505,
      " Big": 9506,
      " quarter": 9507,
      " Rob": 9508,
      " experts": 9509,
      " runs": 9510,
      " No.": 9511,
      "lymp": 9512,
      " quant": 9513,
      ".4.": 9514,
      " wire": 9515,
      " coach": 9516,
      " decre": 9517,
      " compar": 9518,
      "mosp": 9519,
      " miles": 9520,
      " husband": 9521,
      "encies": 9522,
      " dynam": 9523,
      " aren't": 9524,
      "iny": 9525,
      " AC": 9526,
      "TS": 9527,
      " 90": 9528,
      "-century": 9529,
      " way,": 9530,
      " magn": 9531,
      " seeing": 9532,
      ":00": 9533,
      " Rel": 9534,
      " connected": 9535,
      " Team": 9536,
      " topic": 9537,
      " approximately": 9538,
      "ION": 9539,
      "icy": 9540,
      " names": 9541,
      "pet": 9542,
      " 80": 9543,
      " conference": 9544,
      " recommended": 9545,
      " cleaning": 9546,
      "tion": 9547,
      "igr": 9548,
      " Star": 9549,
      " supporting": 9550,
      " uns": 9551,
      " Def": 9552,
      "roid": 9553,
      " engagement": 9554,
      " panel": 9555,
      "rowd": 9556,
      " thus": 9557,
      " aspects": 9558,
      " 2,": 9559,
      " jobs": 9560,
      " Nor": 9561,
      " exchange": 9562,
      "uty": 9563,
      " perhaps": 9564,
      " Dec": 9565,
      " Main": 9566,
      "soft": 9567,
      " Sil": 9568,
      " all,": 9569,
      " disapp": 9570,
      "oin": 9571,
      " Championship": 9572,
      " valid": 9573,
      " experienc": 9574,
      " truth": 9575,
      " vary": 9576,
      " signed": 9577,
      "MS": 9578,
      " factor": 9579,
      " beach": 9580,
      " shopping": 9581,
      " Child": 9582,
      "icians": 9583,
      " (born": 9584,
      " Mr.": 9585,
      " Sant": 9586,
      " pray": 9587,
      " talking": 9588,
      " meant": 9589,
      " Scott": 9590,
      " reached": 9591,
      "iness,": 9592,
      " plenty": 9593,
      " templ": 9594,
      " involve": 9595,
      " legisl": 9596,
      " male": 9597,
      " however": 9598,
      "ario": 9599,
      " majority": 9600,
      " Sa": 9601,
      "k,": 9602,
      " Royal": 9603,
      "ress,": 9604,
      " Nav": 9605,
      " diagn": 9606,
      "itors": 9607,
      "-T": 9608,
      " capacity": 9609,
      " cheap": 9610,
      " decisions": 9611,
      " minimum": 9612,
      " maximum": 9613,
      " Union": 9614,
      " Sunday": 9615,
      "UR": 9616,
      " photograph": 9617,
      " intellig": 9618,
      " diversity": 9619,
      "raction": 9620,
      "life": 9621,
      "unate": 9622,
      " gone": 9623,
      " Texas": 9624,
      " area.": 9625,
      " residents": 9626,
      " improving": 9627,
      " rid": 9628,
      " Under": 9629,
      " otherwise": 9630,
      " department": 9631,
      " Bur": 9632,
      " joint": 9633,
      " Tre": 9634,
      " Blue": 9635,
      " Sen": 9636,
      "ages,": 9637,
      " listen": 9638,
      " valuable": 9639,
      "eper": 9640,
      "unction": 9641,
      " spect": 9642,
      "88": 9643,
      "-6": 9644,
      " concent": 9645,
      " Carol": 9646,
      "burg": 9647,
      " discovered": 9648,
      " home.": 9649,
      " \"P": 9650,
      " loan": 9651,
      "iers": 9652,
      "ist,": 9653,
      " recipe": 9654,
      "ula": 9655,
      " stone": 9656,
      " urban": 9657,
      " museum": 9658,
      " fact,": 9659,
      " suitable": 9660,
      " har": 9661,
      " update": 9662,
      "ments.": 9663,
      " flight": 9664,
      " affordable": 9665,
      ".\nAfter": 9666,
      " older": 9667,
      " accompl": 9668,
      "erg": 9669,
      " occup": 9670,
      " critic": 9671,
      " thick": 9672,
      " reput": 9673,
      " river": 9674,
      " Hy": 9675,
      "crib": 9676,
      " cancer": 9677,
      " Russian": 9678,
      "umin": 9679,
      "la": 9680,
      "it,": 9681,
      " Bec": 9682,
      " animals": 9683,
      " forget": 9684,
      " univers": 9685,
      " spl": 9686,
      " chick": 9687,
      " appears": 9688,
      "ulate": 9689,
      " shel": 9690,
      " Cap": 9691,
      " improved": 9692,
      " Also,": 9693,
      " Form": 9694,
      " organis": 9695,
      "iability": 9696,
      "land,": 9697,
      "itig": 9698,
      " circum": 9699,
      " files": 9700,
      "o's": 9701,
      " scale": 9702,
      " Lear": 9703,
      " information,": 9704,
      " Power": 9705,
      "fl": 9706,
      " serving": 9707,
      "resp": 9708,
      "hentic": 9709,
      "!\nThe": 9710,
      " welcome": 9711,
      "–19": 9712,
      "arge": 9713,
      "inger": 9714,
      " Project": 9715,
      " config": 9716,
      " facility": 9717,
      "han": 9718,
      "ines,": 9719,
      "erry": 9720,
      " willing": 9721,
      "osen": 9722,
      " Olymp": 9723,
      " managed": 9724,
      " expertise": 9725,
      " (L": 9726,
      "Overall,": 9727,
      "-20": 9728,
      "inding": 9729,
      "iance": 9730,
      "onom": 9731,
      " economy": 9732,
      "rete": 9733,
      " funding": 9734,
      "-day": 9735,
      " winning": 9736,
      " inspir": 9737,
      "ka": 9738,
      " snow": 9739,
      " switch": 9740,
      ".\n\nM": 9741,
      "p.": 9742,
      "bert": 9743,
      " haven": 9744,
      " atmosp": 9745,
      "itness": 9746,
      " buying": 9747,
      " Mot": 9748,
      " Women": 9749,
      "-D": 9750,
      "-on": 9751,
      " edge": 9752,
      " tele": 9753,
      "-friendly": 9754,
      "rack": 9755,
      "ports": 9756,
      " \"D": 9757,
      " apart": 9758,
      "ander": 9759,
      "iy": 9760,
      " filled": 9761,
      " fold": 9762,
      " scientific": 9763,
      " Ham": 9764,
      "cious": 9765,
      " inspired": 9766,
      " decide": 9767,
      " Ma": 9768,
      " remote": 9769,
      "isher": 9770,
      " maintenance": 9771,
      "45": 9772,
      " out.": 9773,
      " reliable": 9774,
      " brief": 9775,
      " Fam": 9776,
      "ffect": 9777,
      " specifically": 9778,
      "top": 9779,
      " (T": 9780,
      " Wil": 9781,
      "ogue": 9782,
      " \"T": 9783,
      " Att": 9784,
      "ying": 9785,
      " catch": 9786,
      " defe": 9787,
      " Check": 9788,
      " minor": 9789,
      " Because": 9790,
      "ilit": 9791,
      "u,": 9792,
      " CD": 9793,
      " Brown": 9794,
      " plug": 9795,
      " 70": 9796,
      " internal": 9797,
      " Mel": 9798,
      " justice": 9799,
      " THE": 9800,
      " pul": 9801,
      " ...": 9802,
      " Open": 9803,
      " stret": 9804,
      " Robert": 9805,
      " we've": 9806,
      " Est": 9807,
      "box": 9808,
      " female": 9809,
      " lock": 9810,
      " transportation": 9811,
      " industrial": 9812,
      " affected": 9813,
      " boost": 9814,
      " friendly": 9815,
      " daughter": 9816,
      "izz": 9817,
      "-sh": 9818,
      "ero": 9819,
      "-the": 9820,
      ".\n\nD": 9821,
      " well-": 9822,
      " Rad": 9823,
      " poly": 9824,
      " waiting": 9825,
      " earth": 9826,
      "rie": 9827,
      "ras": 9828,
      " Jose": 9829,
      " significantly": 9830,
      " nom": 9831,
      "26": 9832,
      "eless": 9833,
      " articles": 9834,
      "ess,": 9835,
      " committed": 9836,
      "ounds": 9837,
      ".\nOne": 9838,
      "ings,": 9839,
      " perspective": 9840,
      " sets": 9841,
      " fans": 9842,
      " vent": 9843,
      " Eas": 9844,
      " jump": 9845,
      " accident": 9846,
      " 2009": 9847,
      " \"W": 9848,
      "LE": 9849,
      " Bet": 9850,
      " cart": 9851,
      " upgra": 9852,
      " ancient": 9853,
      " Cath": 9854,
      " Disc": 9855,
      " showing": 9856,
      "orough": 9857,
      " mostly": 9858,
      " raised": 9859,
      " extend": 9860,
      "ealand": 9861,
      " Vict": 9862,
      " designs": 9863,
      " dance": 9864,
      "ulations": 9865,
      " reference": 9866,
      " updated": 9867,
      " raise": 9868,
      " Army": 9869,
      " Commission": 9870,
      "ror": 9871,
      " Virgin": 9872,
      "mal": 9873,
      " rapid": 9874,
      ".\n\nThis": 9875,
      " honest": 9876,
      "oration": 9877,
      " invent": 9878,
      " contemporary": 9879,
      " Pan": 9880,
      " thousands": 9881,
      "i's": 9882,
      " bask": 9883,
      " way.": 9884,
      " Why": 9885,
      " bon": 9886,
      "atre": 9887,
      " lose": 9888,
      " prepare": 9889,
      "night": 9890,
      "It's": 9891,
      " pleas": 9892,
      " now,": 9893,
      " solar": 9894,
      " Italian": 9895,
      "men": 9896,
      " supported": 9897,
      " Smith": 9898,
      "-L": 9899,
      " closed": 9900,
      " brown": 9901,
      "icial": 9902,
      ".\n\nP": 9903,
      " magaz": 9904,
      " virtual": 9905,
      " system,": 9906,
      " proud": 9907,
      " competitive": 9908,
      " organic": 9909,
      "A)": 9910,
      " satisf": 9911,
      " furniture": 9912,
      " leaves": 9913,
      " showed": 9914,
      "ordin": 9915,
      "?\nThe": 9916,
      " Have": 9917,
      " quot": 9918,
      " researc": 9919,
      "rum": 9920,
      " Top": 9921,
      "in.": 9922,
      " Frank": 9923,
      " survey": 9924,
      " spending": 9925,
      " thoughts": 9926,
      " electronic": 9927,
      " plays": 9928,
      " Community": 9929,
      "ries,": 9930,
      " launched": 9931,
      "paper": 9932,
      " accessible": 9933,
      " services,": 9934,
      "vention": 9935,
      " appeared": 9936,
      " he's": 9937,
      "ena": 9938,
      "-free": 9939,
      " leads": 9940,
      " injur": 9941,
      " gather": 9942,
      " flat": 9943,
      " funds": 9944,
      " Wall": 9945,
      " Online": 9946,
      " 2008": 9947,
      " Fort": 9948,
      " square": 9949,
      " Atl": 9950,
      "28": 9951,
      "m,": 9952,
      " (c": 9953,
      " cere": 9954,
      "le.": 9955,
      "works": 9956,
      " owners": 9957,
      " Master": 9958,
      " Democr": 9959,
      " courses": 9960,
      " Saturday": 9961,
      " iron": 9962,
      " (G": 9963,
      " vision": 9964,
      "-be": 9965,
      "35": 9966,
      " slightly": 9967,
      "g.": 9968,
      " Spanish": 9969,
      " Zealand": 9970,
      " spring": 9971,
      " implemented": 9972,
      " Development": 9973,
      " Ro": 9974,
      " revenue": 9975,
      " elimin": 9976,
      "4)": 9977,
      "-old": 9978,
      " ingredients": 9979,
      ".\n\nB": 9980,
      " exciting": 9981,
      "bl": 9982,
      " truck": 9983,
      " throw": 9984,
      "acing": 9985,
      " village": 9986,
      " Mass": 9987,
      " Ap": 9988,
      " ended": 9989,
      " recorded": 9990,
      " swim": 9991,
      " impacts": 9992,
      " 2000": 9993,
      " up,": 9994,
      " units": 9995,
      " cars": 9996,
      ".\nIt's": 9997,
      " appreciate": 9998,
      "\")": 9999,
      " Tom": 10000,
      " properties": 10001,
      " distribution": 10002,
      " align": 10003,
      " Town": 10004,
      " camera": 10005,
      " Take": 10006,
      " cards": 10007,
      " \"H": 10008,
      " M.": 10009,
      " Fire": 10010,
      " platforms": 10011,
      " theme": 10012,
      " calls": 10013,
      " featured": 10014,
      "One": 10015,
      "oles": 10016,
      " minut": 10017,
      "-of": 10018,
      "edy": 10019,
      "fol": 10020,
      " up.": 10021,
      " owner": 10022,
      " colle": 10023,
      "\n\nThe": 10024,
      " showc": 10025,
      "ishes": 10026,
      " married": 10027,
      " recommendations": 10028,
      " others.": 10029,
      " system.": 10030,
      "BS": 10031,
      " aid": 10032,
      " crowd": 10033,
      "arian": 10034,
      " kill": 10035,
      " distance": 10036,
      "ano": 10037,
      "rive": 10038,
      " Custom": 10039,
      "IM": 10040,
      " Offic": 10041,
      "IV": 10042,
      " here.": 10043,
      "rat": 10044,
      "ile,": 10045,
      " Organ": 10046,
      " excited": 10047,
      " van": 10048,
      " corporate": 10049,
      " claims": 10050,
      " ton": 10051,
      " Trump": 10052,
      " error": 10053,
      "ionally": 10054,
      ".\n\nH": 10055,
      " acid": 10056,
      " formed": 10057,
      " Further": 10058,
      "osh": 10059,
      " youth": 10060,
      "prene": 10061,
      " bought": 10062,
      " pump": 10063,
      " spiritual": 10064,
      " mort": 10065,
      " So,": 10066,
      "umber": 10067,
      " confidence": 10068,
      " walking": 10069,
      " blend": 10070,
      "aturing": 10071,
      " (wh": 10072,
      " Person": 10073,
      " university": 10074,
      "pro": 10075,
      " Rev": 10076,
      " calcul": 10077,
      " out,": 10078,
      " hand,": 10079,
      " Government": 10080,
      "ant,": 10081,
      " freed": 10082,
      " (w": 10083,
      "eder": 10084,
      "aren": 10085,
      " classes": 10086,
      "gor": 10087,
      " ride": 10088,
      "reprene": 10089,
      " constit": 10090,
      " Director": 10091,
      "ona": 10092,
      " challenging": 10093,
      " thr": 10094,
      " Tim": 10095,
      "coh": 10096,
      " casino": 10097,
      "',": 10098,
      " Phot": 10099,
      " haven't": 10100,
      " Light": 10101,
      " shower": 10102,
      " people.": 10103,
      " ST": 10104,
      "ated,": 10105,
      "ograp": 10106,
      "OW": 10107,
      "lor": 10108,
      " Wal": 10109,
      " Society": 10110,
      " battle": 10111,
      " selling": 10112,
      " S.": 10113,
      "ota": 10114,
      " resource": 10115,
      " Oh": 10116,
      " Inf": 10117,
      " seeking": 10118,
      " vehicles": 10119,
      "5%": 10120,
      " Som": 10121,
      " Step": 10122,
      "over,": 10123,
      " manufacturing": 10124,
      " therapy": 10125,
      " Living": 10126,
      " chain": 10127,
      " Minister": 10128,
      "cher": 10129,
      " Hen": 10130,
      " mail": 10131,
      " channel": 10132,
      " mountain": 10133,
      " employee": 10134,
      " processes": 10135,
      " Tem": 10136,
      "gn": 10137,
      " recy": 10138,
      " flavor": 10139,
      " Squ": 10140,
      " whatever": 10141,
      " combined": 10142,
      " lifest": 10143,
      " Cat": 10144,
      " comments": 10145,
      "?\"": 10146,
      "lt": 10147,
      " musical": 10148,
      " 500": 10149,
      " depart": 10150,
      "sk": 10151,
      " Time": 10152,
      " Prot": 10153,
      " ign": 10154,
      " interior": 10155,
      " Centre": 10156,
      " minute": 10157,
      " visiting": 10158,
      " infrastructure": 10159,
      " Tues": 10160,
      " transition": 10161,
      "iences": 10162,
      " resolution": 10163,
      " brings": 10164,
      " outcom": 10165,
      " mut": 10166,
      " Thurs": 10167,
      " buildings": 10168,
      "CC": 10169,
      " assistance": 10170,
      "hem": 10171,
      "on's": 10172,
      " rot": 10173,
      " negot": 10174,
      " amb": 10175,
      " process.": 10176,
      " Ev": 10177,
      "uild": 10178,
      " beat": 10179,
      " \"L": 10180,
      " Call": 10181,
      " guests": 10182,
      " eating": 10183,
      " Earth": 10184,
      " sam": 10185,
      " participate": 10186,
      " west": 10187,
      " Old": 10188,
      "eed": 10189,
      " nucle": 10190,
      "osystem": 10191,
      "ulty": 10192,
      " database": 10193,
      " input": 10194,
      " destroy": 10195,
      ".\nMy": 10196,
      " Sar": 10197,
      " Security": 10198,
      "rid": 10199,
      " Bi": 10200,
      " 1st": 10201,
      " desire": 10202,
      " ven": 10203,
      " Lim": 10204,
      " differen": 10205,
      " …": 10206,
      " whom": 10207,
      " Both": 10208,
      " Like": 10209,
      " company's": 10210,
      " Color": 10211,
      "uting": 10212,
      " teachers": 10213,
      " clearly": 10214,
      "asks": 10215,
      " mone": 10216,
      " services.": 10217,
      " installation": 10218,
      " resol": 10219,
      " Word": 10220,
      " worldwide": 10221,
      "uis": 10222,
      " 2007": 10223,
      " transp": 10224,
      "hetic": 10225,
      " agreement": 10226,
      "igen": 10227,
      "A.": 10228,
      "enses": 10229,
      " possess": 10230,
      " neighborhood": 10231,
      " we'll": 10232,
      "mond": 10233,
      " Card": 10234,
      " manner": 10235,
      " Another": 10236,
      " initiatives": 10237,
      " wealth": 10238,
      "ingu": 10239,
      " dining": 10240,
      " Los": 10241,
      " enjoyed": 10242,
      " commitment": 10243,
      " registered": 10244,
      "iminal": 10245,
      " fantastic": 10246,
      " east": 10247,
      "ent.": 10248,
      " (\"": 10249,
      "idden": 10250,
      " Click": 10251,
      " evol": 10252,
      " spons": 10253,
      " manager": 10254,
      " ur": 10255,
      "iat": 10256,
      " Special": 10257,
      " Well": 10258,
      "29": 10259,
      "II": 10260,
      "well": 10261,
      " diss": 10262,
      " energ": 10263,
      "ishing": 10264,
      " bond": 10265,
      "21": 10266,
      " 29": 10267,
      " painting": 10268,
      " taste": 10269,
      " there.": 10270,
      " cells": 10271,
      "ests": 10272,
      " Jun": 10273,
      "related": 10274,
      " script": 10275,
      " session": 10276,
      "liam": 10277,
      " obvious": 10278,
      " mel": 10279,
      "ste": 10280,
      " king": 10281,
      " conducted": 10282,
      "ores": 10283,
      " interp": 10284,
      "-le": 10285,
      " Cam": 10286,
      " Oper": 10287,
      " owned": 10288,
      " suit": 10289,
      "arrant": 10290,
      "y's": 10291,
      " intended": 10292,
      " \"s": 10293,
      " Leg": 10294,
      "quality": 10295,
      "agon": 10296,
      "othe": 10297,
      " fell": 10298,
      " carried": 10299,
      " Second": 10300,
      " Arab": 10301,
      " Den": 10302,
      " marri": 10303,
      " surger": 10304,
      "arsh": 10305,
[...]
