{
  "version": "1.0",
  "truncation": null,
  "padding": null,
  "added_tokens": [
    {
      "id": 0,
      "content": "[UNK]",
      "single_word": false,
      "lstrip": false,
      "rstrip": false,
      "normalized": false,
      "special": true
    },
    {
      "id": 1,
      "content": "[PAD]",
      "single_word": false,
      "lstrip": false,
      "rstrip": false,
      "normalized": false,
      "special": true
    },
    {
      "id": 2,
      "content": "[CLS]",
      "single_word": false,
      "lstrip": false,
      "rstrip": false,
      "normalized": false,
      "special": true
    },
    {
      "id": 3,
      "content": "[SEP]",
      "single_word": false,
      "lstrip": false,
      "rstrip": false,
      "normalized": false,
      "special": true
    }
  ],
  "normalizer": {
    "type": "NFC"
  },
  "pre_tokenizer": {
    "type": "Sequence",
    "pretokenizers": [
      {
        "type": "Split",
        "pattern": {
          "String": "\n"
        },
        "behavior": "Isolated",
        "invert": false
      },
      {
        "type": "Metaspace",
        "replacement": " ",
        "prepend_scheme": "always",
        "split": true
      }
    ]
  },
  "post_processor": null,
  "decoder": null,
  "model": {
    "type": "WordPiece",
    "unk_token": "[UNK]",
    "continuing_subword_prefix": "##",
    "max_input_chars_per_word": 100,
    "vocab": {
      "[UNK]": 0,
      "[PAD]": 1,
      "[CLS]": 2,
      "[SEP]": 3,
      "\t": 4,
      "\n": 5,
      " ": 6,
      "!": 7,
      "\"": 8,
      "#": 9,
      "$": 10,
      "%": 11,
      "&": 12,
      "'": 13,
      "(": 14,
      ")": 15,
      "*": 16,
      "+": 17,
      ",": 18,
      "-": 19,
      ".": 20,
      "/": 21,
      "0": 22,
      "1": 23,
      "2": 24,
      "3": 25,
      "4": 26,
      "5": 27,
      "6": 28,
      "7": 29,
      "8": 30,
      "9": 31,
      ":": 32,
      ";": 33,
      "<": 34,
      "=": 35,
      ">": 36,
      "?": 37,
      "@": 38,
      "A": 39,
      "B": 40,
      "C": 41,
      "D": 42,
      "E": 43,
      "F": 44,
      "G": 45,
      "H": 46,
      "I": 47,
      "J": 48,
      "K": 49,
      "L": 50,
      "M": 51,
      "N": 52,
      "O": 53,
      "P": 54,
      "Q": 55,
      "R": 56,
      "S": 57,
      "T": 58,
      "U": 59,
      "V": 60,
      "W": 61,
      "X": 62,
      "Y": 63,
      "Z": 64,
      "[": 65,
      "\\": 66,
      "]": 67,
      "^": 68,
      "_": 69,
      "`": 70,
      "a": 71,
      "b": 72,
      "c": 73,
      "d": 74,
      "e": 75,
      "f": 76,
      "g": 77,
      "h": 78,
      "i": 79,
      "j": 80,
      "k": 81,
      "l": 82,
      "m": 83,
      "n": 84,
      "o": 85,
      "p": 86,
      "q": 87,
      "r": 88,
      "s": 89,
      "t": 90,
      "u": 91,
      "v": 92,
      "w": 93,
      "x": 94,
      "y": 95,
      "z": 96,
      "{": 97,
      "|": 98,
      "}": 99,
      "~": 100,
      "": 101,
      "": 102,
      "": 103,
      "": 104,
      "": 105,
      "": 106,
      "": 107,
      "": 108,
      " ": 109,
      "¡": 110,
      "¢": 111,
      "£": 112,
      "¤": 113,
      "¥": 114,
      "¦": 115,
      "§": 116,
      "¨": 117,
      "©": 118,
      "ª": 119,
      "«": 120,
      "¬": 121,
      "­": 122,
      "®": 123,
      "¯": 124,
      "°": 125,
      "±": 126,
      "²": 127,
      "³": 128,
      "´": 129,
      "µ": 130,
      "¶": 131,
      "·": 132,
      "¸": 133,
      "¹": 134,
      "º": 135,
      "»": 136,
      "¼": 137,
      "½": 138,
      "¾": 139,
      "¿": 140,
      "À": 141,
      "Á": 142,
      "Â": 143,
      "Ã": 144,
      "Ä": 145,
      "Å": 146,
      "Æ": 147,
      "Ç": 148,
      "È": 149,
      "É": 150,
      "Ê": 151,
      "Ë": 152,
      "Ì": 153,
      "Í": 154,
      "Î": 155,
      "Ï": 156,
      "Ð": 157,
      "Ñ": 158,
      "Ò": 159,
      "Ó": 160,
      "Ô": 161,
      "Õ": 162,
      "Ö": 163,
      "×": 164,
      "Ø": 165,
      "Ù": 166,
      "Ú": 167,
      "Û": 168,
      "Ü": 169,
      "Ý": 170,
      "Þ": 171,
      "ß": 172,
      "à": 173,
      "á": 174,
      "â": 175,
      "ã": 176,
      "ä": 177,
      "å": 178,
      "æ": 179,
      "ç": 180,
      "è": 181,
      "é": 182,
      "ê": 183,
      "ë": 184,
      "ì": 185,
      "í": 186,
      "î": 187,
      "ï": 188,
      "ð": 189,
      "ñ": 190,
      "ò": 191,
      "ó": 192,
      "ô": 193,
      "õ": 194,
      "ö": 195,
      "÷": 196,
      "ø": 197,
      "ù": 198,
      "ú": 199,
      "û": 200,
      "ü": 201,
      "ý": 202,
      "þ": 203,
      "ÿ": 204,
      "Ā": 205,
      "ā": 206,
      "Ă": 207,
      "ă": 208,
      "Ą": 209,
      "ą": 210,
      "Ć": 211,
      "ć": 212,
      "Č": 213,
      "č": 214,
      "ď": 215,
      "Đ": 216,
      "đ": 217,
      "Ē": 218,
      "ē": 219,
      "Ĕ": 220,
      "ĕ": 221,
      "ė": 222,
      "ę": 223,
      "Ě": 224,
      "ě": 225,
      "ĝ": 226,
      "ğ": 227,
      "ġ": 228,
      "Ģ": 229,
      "ģ": 230,
      "Ĥ": 231,
      "ĥ": 232,
      "Ħ": 233,
      "ħ": 234,
      "ĩ": 235,
      "Ī": 236,
      "ī": 237,
      "Į": 238,
      "į": 239,
      "İ": 240,
      "ı": 241,
      "ĵ": 242,
      "ĸ": 243,
      "ļ": 244,
      "ľ": 245,
      "Ł": 246,
      "ł": 247,
      "Ń": 248,
      "ń": 249,
      "ņ": 250,
      "ň": 251,
      "ŋ": 252,
      "Ō": 253,
      "ō": 254,
      "ŏ": 255,
      "ő": 256,
      "Œ": 257,
      "œ": 258,
      "ř": 259,
      "Ś": 260,
      "ś": 261,
      "Ŝ": 262,
      "Ş": 263,
      "ş": 264,
      "Š": 265,
      "š": 266,
      "Ţ": 267,
      "ţ": 268,
      "ť": 269,
      "ū": 270,
      "ů": 271,
      "ű": 272,
      "ų": 273,
      "ŵ": 274,
      "ŷ": 275,
      "Ÿ": 276,
      "ź": 277,
      "Ż": 278,
      "ż": 279,
      "Ž": 280,
      "ž": 281,
      "Ɓ": 282,
      "Ƃ": 283,
      "Ə": 284,
      "Ɛ": 285,
      "ƒ": 286,
      "ơ": 287,
      "ƣ": 288,
      "Ʈ": 289,
      "ư": 290,
      "ƶ": 291,
      "ƹ": 292,
      "ǁ": 293,
      "ǂ": 294,
      "ǎ": 295,
      "ǐ": 296,
      "ǒ": 297,
      "ǔ": 298,
      "ǝ": 299,
      "ǣ": 300,
      "ǧ": 301,
      "ǫ": 302,
      "ǰ": 303,
      "ǵ": 304,
      "Ƿ": 305,
      "ǹ": 306,
      "Ǻ": 307,
      "Ș": 308,
      "ș": 309,
      "Ț": 310,
      "ț": 311,
      "Ȝ": 312,
      "ȝ": 313,
      "Ȣ": 314,
      "ȳ": 315,
      "Ɂ": 316,
      "Ƀ": 317,
      "ɐ": 318,
      "ɑ": 319,
      "ɒ": 320,
      "ɓ": 321,
      "ɔ": 322,
      "ɕ": 323,
      "ɘ": 324,
      "ə": 325,
      "ɚ": 326,
      "ɛ": 327,
      "ɜ": 328,
      "ɝ": 329,
      "ɟ": 330,
      "ɡ": 331,
      "ɣ": 332,
      "ɤ": 333,
      "ɥ": 334,
      "ɦ": 335,
      "ɨ": 336,
      "ɪ": 337,
      "ɫ": 338,
      "ɬ": 339,
      "ɭ": 340,
      "ɯ": 341,
      "ɲ": 342,
      "ɵ": 343,
      "ɹ": 344,
      "ɾ": 345,
      "ʀ": 346,
      "ʁ": 347,
      "ʂ": 348,
      "ʃ": 349,
      "ʉ": 350,
      "ʊ": 351,
      "ʋ": 352,
      "ʌ": 353,
      "ʎ": 354,
      "ʏ": 355,
      "ʐ": 356,
      "ʑ": 357,
      "ʒ": 358,
      "ʔ": 359,
      "ʕ": 360,
      "ʖ": 361,
      "ʙ": 362,
      "ʝ": 363,
      "ʞ": 364,
      "ʤ": 365,
      "ʦ": 366,
      "ʧ": 367,
      "ʰ": 368,
      "ʲ": 369,
      "ʷ": 370,
      "ʹ": 371,
      "ʺ": 372,
      "ʻ": 373,
      "ʼ": 374,
      "ʽ": 375,
      "ʾ": 376,
      "ʿ": 377,
      "ˀ": 378,
      "˂": 379,
      "˃": 380,
      "ˆ": 381,
      "ˈ": 382,
      "ˌ": 383,
      "ˎ": 384,
      "ː": 385,
      "˗": 386,
      "˙": 387,
      "˚": 388,
      "˝": 389,
      "˞": 390,
      "ˢ": 391,
      "ˣ": 392,
      "˥": 393,
      "˦": 394,
      "˧": 395,
      "˨": 396,
      "˩": 397,
      "ˮ": 398,
      "˸": 399,
      "̀": 400,
      "́": 401,
      "̂": 402,
      "̃": 403,
      "̄": 404,
      "̆": 405,
      "̇": 406,
      "̈": 407,
      "̉": 408,
      "̌": 409,
      "̍": 410,
      "̑": 411,
      "̣": 412,
      "̯": 413,
      "̲": 414,
      "̶": 415,
      "͜": 416,
      "͠": 417,
      "͡": 418,
      "Ϳ": 419,
      "΄": 420,
      "Ά": 421,
      "Έ": 422,
      "Ή": 423,
      "Ί": 424,
      "Ό": 425,
      "ΐ": 426,
      "Α": 427,
      "Β": 428,
      "Γ": 429,
      "Δ": 430,
      "Ε": 431,
      "Ζ": 432,
      "Η": 433,
      "Θ": 434,
      "Ι": 435,
      "Κ": 436,
      "Λ": 437,
      "Μ": 438,
      "Ν": 439,
      "Ξ": 440,
      "Ο": 441,
      "Π": 442,
      "Ρ": 443,
      "Σ": 444,
      "Τ": 445,
      "Υ": 446,
      "Φ": 447,
      "Χ": 448,
      "Ψ": 449,
      "Ω": 450,
      "ά": 451,
      "έ": 452,
      "ή": 453,
      "ί": 454,
      "ΰ": 455,
      "α": 456,
      "β": 457,
      "γ": 458,
      "δ": 459,
      "ε": 460,
      "ζ": 461,
      "η": 462,
      "θ": 463,
      "ι": 464,
      "κ": 465,
      "λ": 466,
      "μ": 467,
      "ν": 468,
      "ξ": 469,
      "ο": 470,
      "π": 471,
      "ρ": 472,
      "ς": 473,
      "σ": 474,
      "τ": 475,
      "υ": 476,
      "φ": 477,
      "χ": 478,
      "ψ": 479,
      "ω": 480,
      "ϊ": 481,
      "ϋ": 482,
      "ό": 483,
      "ύ": 484,
      "ώ": 485,
      "ϑ": 486,
      "ϕ": 487,
      "Ϭ": 488,
      "ϭ": 489,
      "ϰ": 490,
      "ϲ": 491,
      "ϳ": 492,
      "ϵ": 493,
      "϶": 494,
      "ϸ": 495,
      "Ё": 496,
      "Ђ": 497,
      "Ѓ": 498,
      "Є": 499,
      "Ѕ": 500,
      "І": 501,
      "Ї": 502,
      "Ј": 503,
      "Љ": 504,
      "Њ": 505,
      "Ћ": 506,
      "Ќ": 507,
      "Ў": 508,
      "Џ": 509,
      "А": 510,
      "Б": 511,
      "В": 512,
      "Г": 513,
      "Д": 514,
      "Е": 515,
      "Ж": 516,
      "З": 517,
      "И": 518,
      "Й": 519,
      "К": 520,
      "Л": 521,
      "М": 522,
      "Н": 523,
      "О": 524,
      "П": 525,
      "Р": 526,
      "С": 527,
      "Т": 528,
      "У": 529,
      "Ф": 530,
      "Х": 531,
      "Ц": 532,
      "Ч": 533,
      "Ш": 534,
      "Щ": 535,
      "Ъ": 536,
      "Ы": 537,
      "Ь": 538,
      "Э": 539,
      "Ю": 540,
      "Я": 541,
      "а": 542,
      "б": 543,
      "в": 544,
      "г": 545,
      "д": 546,
      "е": 547,
      "ж": 548,
      "з": 549,
      "и": 550,
      "й": 551,
      "к": 552,
      "л": 553,
      "м": 554,
      "н": 555,
      "о": 556,
      "п": 557,
      "р": 558,
      "с": 559,
      "т": 560,
      "у": 561,
      "ф": 562,
      "х": 563,
      "ц": 564,
      "ч": 565,
      "ш": 566,
      "щ": 567,
      "ъ": 568,
      "ы": 569,
      "ь": 570,
      "э": 571,
      "ю": 572,
      "я": 573,
      "ѐ": 574,
      "ё": 575,
      "ђ": 576,
      "ѓ": 577,
      "є": 578,
      "ѕ": 579,
      "і": 580,
      "ї": 581,
      "ј": 582,
      "љ": 583,
      "њ": 584,
      "ћ": 585,
      "ќ": 586,
      "ѝ": 587,
      "ў": 588,
      "џ": 589,
      "Ѡ": 590,
      "ѡ": 591,
      "Ѣ": 592,
      "ѣ": 593,
      "ѥ": 594,
      "Ѧ": 595,
      "ѧ": 596,
      "ѩ": 597,
      "Ѫ": 598,
      "ѫ": 599,
      "Ѳ": 600,
      "ѳ": 601,
      "Ѵ": 602,
      "ѵ": 603,
      "ѻ": 604,
      "Ѿ": 605,
      "ѿ": 606,
      "҃": 607,
      "҆": 608,
      "҇": 609,
      "ҍ": 610,
      "Ґ": 611,
      "ґ": 612,
      "Ғ": 613,
      "ғ": 614,
      "ҕ": 615,
      "Җ": 616,
      "җ": 617,
      "Ҙ": 618,
      "ҙ": 619,
      "Қ": 620,
      "қ": 621,
      "ҟ": 622,
      "Ҡ": 623,
      "ҡ": 624,
      "Ң": 625,
      "ң": 626,
      "ҥ": 627,
      "ҧ": 628,
      "Ҫ": 629,
      "ҫ": 630,
      "Ү": 631,
      "ү": 632,
      "Ұ": 633,
      "ұ": 634,
      "Ҳ": 635,
      "ҳ": 636,
      "ҵ": 637,
      "ҷ": 638,
      "Һ": 639,
      "һ": 640,
      "Ӏ": 641,
      "ӄ": 642,
      "Ӈ": 643,
      "ӈ": 644,
      "ӏ": 645,
      "Ӑ": 646,
      "ӑ": 647,
      "ӓ": 648,
      "Ӗ": 649,
      "ӗ": 650,
      "Ә": 651,
      "ә": 652,
      "ӟ": 653,
      "ӣ": 654,
      "Ӧ": 655,
      "ӧ": 656,
      "Ө": 657,
      "ө": 658,
      "Ӯ": 659,
      "ӯ": 660,
      "Ӱ": 661,
      "ӱ": 662,
      "Ӳ": 663,
      "ӳ": 664,
      "ӷ": 665,
      "ӽ": 666,
      "ԇ": 667,
      "ԍ": 668,
      "Ա": 669,
      "Բ": 670,
      "Գ": 671,
      "Ե": 672,
      "Զ": 673,
      "Է": 674,
      "Թ": 675,
      "Կ": 676,
      "Հ": 677,
      "Ճ": 678,
      "Մ": 679,
      "Յ": 680,
      "Ն": 681,
      "Ո": 682,
      "Չ": 683,
      "Պ": 684,
      "Ջ": 685,
      "Ս": 686,
      "Վ": 687,
      "Տ": 688,
      "Օ": 689,
      "ա": 690,
      "բ": 691,
      "գ": 692,
      "դ": 693,
      "ե": 694,
      "զ": 695,
      "ը": 696,
      "թ": 697,
      "ժ": 698,
      "ի": 699,
      "լ": 700,
      "խ": 701,
      "ծ": 702,
      "կ": 703,
      "հ": 704,
      "ձ": 705,
      "ղ": 706,
      "ճ": 707,
      "մ": 708,
      "յ": 709,
      "ն": 710,
      "շ": 711,
      "ո": 712,
      "չ": 713,
      "պ": 714,
      "ջ": 715,
      "ռ": 716,
      "ս": 717,
      "վ": 718,
      "տ": 719,
      "ր": 720,
      "ց": 721,
      "ւ": 722,
      "փ": 723,
      "ք": 724,
      "օ": 725,
      "և": 726,
      "։": 727,
      "ְ": 728,
      "ֲ": 729,
      "ִ": 730,
      "ֵ": 731,
      "ֶ": 732,
      "ַ": 733,
      "ָ": 734,
      "ֹ": 735,
      "ֻ": 736,
      "ּ": 737,
      "־": 738,
      "ֿ": 739,
      "׀": 740,
      "ׁ": 741,
      "ׂ": 742,
      "׃": 743,
      "א": 744,
      "ב": 745,
      "ג": 746,
      "ד": 747,
      "ה": 748,
      "ו": 749,
      "ז": 750,
      "ח": 751,
      "ט": 752,
      "י": 753,
      "ך": 754,
      "כ": 755,
      "ל": 756,
      "ם": 757,
      "מ": 758,
      "ן": 759,
      "נ": 760,
      "ס": 761,
      "ע": 762,
      "ף": 763,
      "פ": 764,
      "ץ": 765,
      "צ": 766,
      "ק": 767,
      "ר": 768,
      "ש": 769,
      "ת": 770,
      "װ": 771,
      "ױ": 772,
      "׳": 773,
      "״": 774,
      "،": 775,
      "؛": 776,
      "؟": 777,
      "ء": 778,
      "آ": 779,
      "أ": 780,
      "ؤ": 781,
      "إ": 782,
      "ئ": 783,
      "ا": 784,
      "ب": 785,
      "ة": 786,
      "ت": 787,
      "ث": 788,
      "ج": 789,
      "ح": 790,
      "خ": 791,
      "د": 792,
      "ذ": 793,
      "ر": 794,
      "ز": 795,
      "س": 796,
      "ش": 797,
      "ص": 798,
      "ض": 799,
      "ط": 800,
      "ظ": 801,
      "ع": 802,
      "غ": 803,
      "ـ": 804,
      "ف": 805,
      "ق": 806,
      "ك": 807,
      "ل": 808,
      "م": 809,
      "ن": 810,
      "ه": 811,
      "و": 812,
      "ى": 813,
      "ي": 814,
      "ً": 815,
      "ٌ": 816,
      "ٍ": 817,
      "َ": 818,
      "ُ": 819,
      "ِ": 820,
      "ّ": 821,
      "ْ": 822,
      "ٓ": 823,
      "ٖ": 824,
      "ٗ": 825,
      "٠": 826,
      "٢": 827,
      "٣": 828,
      "٤": 829,
      "٦": 830,
      "ٰ": 831,
      "ٱ": 832,
      "ٶ": 833,
      "ٹ": 834,
      "ٻ": 835,
      "پ": 836,
      "څ": 837,
      "چ": 838,
      "ړ": 839,
      "ښ": 840,
      "ڠ": 841,
      "ڤ": 842,
      "ک": 843,
      "گ": 844,
      "ڰ": 845,
      "ھ": 846,
      "ڿ": 847,
      "ہ": 848,
      "ی": 849,
      "ۍ": 850,
      "ێ": 851,
      "ە": 852,
      "ۖ": 853,
      "ۗ": 854,
      "ۚ": 855,
      "ۜ": 856,
      "ۡ": 857,
      "ۢ": 858,
      "ۣ": 859,
      "ۥ": 860,
      "ۦ": 861,
      "۩": 862,
      "۰": 863,
      "۱": 864,
      "۳": 865,
      "۵": 866,
      "۷": 867,
      "۹": 868,
      "ܐ": 869,
      "ܒ": 870,
      "ܓ": 871,
      "ܕ": 872,
      "ܘ": 873,
      "ܙ": 874,
      "ܝ": 875,
      "ܟ": 876,
      "ܠ": 877,
      "ܡ": 878,
      "ܣ": 879,
      "ܩ": 880,
      "ܪ": 881,
      "ܫ": 882,
      "ܬ": 883,
      "ܲ": 884,
      "ܵ": 885,
      "ܼ": 886,
      "ܿ": 887,
      "݁": 888,
      "݂": 889,
      "ँ": 890,
      "ं": 891,
      "ः": 892,
      "अ": 893,
      "आ": 894,
      "इ": 895,
      "उ": 896,
      "ऋ": 897,
      "ए": 898,
      "ओ": 899,
      "क": 900,
      "ख": 901,
      "ग": 902,
      "च": 903,
      "छ": 904,
      "ज": 905,
      "झ": 906,
      "ञ": 907,
      "ट": 908,
      "ठ": 909,
      "ड": 910,
      "ढ": 911,
      "ण": 912,
      "त": 913,
      "थ": 914,
      "द": 915,
      "ध": 916,
      "न": 917,
      "प": 918,
      "फ": 919,
      "ब": 920,
      "भ": 921,
      "म": 922,
      "य": 923,
      "र": 924,
      "ल": 925,
      "व": 926,
      "श": 927,
      "ष": 928,
      "स": 929,
      "ह": 930,
      "़": 931,
      "ऽ": 932,
      "ा": 933,
      "ि": 934,
      "ी": 935,
      "ु": 936,
      "ू": 937,
      "ृ": 938,
      "े": 939,
      "ै": 940,
      "ो": 941,
      "ौ": 942,
      "्": 943,
      "ॐ": 944,
      "ॠ": 945,
      "।": 946,
      "॥": 947,
      "०": 948,
      "१": 949,
      "२": 950,
      "३": 951,
      "४": 952,
      "५": 953,
      "६": 954,
      "७": 955,
      "८": 956,
      "९": 957,
      "ং": 958,
      "অ": 959,
      "আ": 960,
      "ই": 961,
      "এ": 962,
      "ও": 963,
      "ক": 964,
      "খ": 965,
      "গ": 966,
      "ঘ": 967,
      "চ": 968,
      "ছ": 969,
      "জ": 970,
      "ট": 971,
      "ঠ": 972,
      "ত": 973,
      "থ": 974,
      "দ": 975,
      "ধ": 976,
      "ন": 977,
      "প": 978,
      "ব": 979,
      "ভ": 980,
      "ম": 981,
      "য": 982,
      "র": 983,
      "ল": 984,
      "শ": 985,
      "ষ": 986,
      "স": 987,
      "হ": 988,
      "়": 989,
      "া": 990,
      "ি": 991,
      "ু": 992,
      "ৃ": 993,
      "ে": 994,
      "ো": 995,
      "্": 996,
      "ਂ": 997,
      "ਅ": 998,
      "ਆ": 999,
      "ਇ": 1000,
      "ਈ": 1001,
      "ਉ": 1002,
      "ਊ": 1003,
      "ਏ": 1004,
      "ਓ": 1005,
      "ਕ": 1006,
      "ਗ": 1007,
      "ਚ": 1008,
      "ਜ": 1009,
      "ਟ": 1010,
      "ਡ": 1011,
      "ਣ": 1012,
      "ਤ": 1013,
      "ਥ": 1014,
      "ਦ": 1015,
      "ਧ": 1016,
      "ਨ": 1017,
      "ਪ": 1018,
      "ਬ": 1019,
      "ਭ": 1020,
      "ਮ": 1021,
      "ਯ": 1022,
      "ਰ": 1023,
      "ਲ": 1024,
      "ਵ": 1025,
      "ਸ": 1026,
      "ਹ": 1027,
      "਼": 1028,
      "ਾ": 1029,
      "ਿ": 1030,
      "ੀ": 1031,
      "ੁ": 1032,
      "ੂ": 1033,
      "ੇ": 1034,
      "ੈ": 1035,
      "ੋ": 1036,
      "ੌ": 1037,
      "੍": 1038,
      "ੜ": 1039,
      "ੰ": 1040,
      "ੱ": 1041,
      "અ": 1042,
      "જ": 1043,
      "દ": 1044,
      "મ": 1045,
      "વ": 1046,
      "ા": 1047,
      "ૐ": 1048,
      "இ": 1049,
      "ஊ": 1050,
      "ஓ": 1051,
      "க": 1052,
      "ங": 1053,
      "ச": 1054,
      "ஜ": 1055,
      "ட": 1056,
      "ண": 1057,
      "த": 1058,
      "ந": 1059,
      "ன": 1060,
      "ப": 1061,
      "ம": 1062,
      "ய": 1063,
      "ர": 1064,
      "ல": 1065,
      "ள": 1066,
      "ழ": 1067,
      "வ": 1068,
      "ா": 1069,
      "ி": 1070,
      "ீ": 1071,
      "ு": 1072,
      "ூ": 1073,
      "ெ": 1074,
      "ே": 1075,
      "ை": 1076,
      "ொ": 1077,
      "்": 1078,
      "ం": 1079,
      "ఇ": 1080,
      "ఉ": 1081,
      "ఎ": 1082,
      "క": 1083,
      "గ": 1084,
      "చ": 1085,
      "ట": 1086,
      "డ": 1087,
      "త": 1088,
      "ద": 1089,
      "న": 1090,
      "ప": 1091,
      "బ": 1092,
      "మ": 1093,
      "య": 1094,
      "ర": 1095,
      "ల": 1096,
      "వ": 1097,
      "శ": 1098,
      "స": 1099,
      "ా": 1100,
      "ి": 1101,
      "ీ": 1102,
      "ు": 1103,
      "ూ": 1104,
      "ే": 1105,
      "ొ": 1106,
      "ో": 1107,
      "్": 1108,
      "ಕ": 1109,
      "ಚ": 1110,
      "ಜ": 1111,
      "ಠ": 1112,
      "ಣ": 1113,
      "ತ": 1114,
      "ನ": 1115,
      "ಭ": 1116,
      "ಮ": 1117,
      "ಯ": 1118,
      "ರ": 1119,
      "ಲ": 1120,
      "ಶ": 1121,
      "ಷ": 1122,
      "ಾ": 1123,
      "ು": 1124,
      "ೃ": 1125,
      "ೕ": 1126,
      "ೖ": 1127,
      "ഗ": 1128,
      "ഠ": 1129,
      "ത": 1130,
      "ന": 1131,
      "ര": 1132,
      "ശ": 1133,
      "ാ": 1134,
      "ി": 1135,
      "ീ": 1136,
      "െ": 1137,
      "േ": 1138,
      "ൈ": 1139,
      "ൊ": 1140,
      "ോ": 1141,
      "്": 1142,
      "ൗ": 1143,
      "ං": 1144,
      "උ": 1145,
      "ක": 1146,
      "ග": 1147,
      "ඟ": 1148,
      "ට": 1149,
      "ත": 1150,
      "ද": 1151,
      "න": 1152,
      "බ": 1153,
      "භ": 1154,
      "ම": 1155,
      "ය": 1156,
      "ර": 1157,
      "ල": 1158,
      "ව": 1159,
      "ස": 1160,
      "හ": 1161,
      "්": 1162,
      "ා": 1163,
      "ි": 1164,
      "ී": 1165,
      "ෙ": 1166,
      "ේ": 1167,
      "ก": 1168,
      "ข": 1169,
      "ค": 1170,
      "ฆ": 1171,
      "ง": 1172,
      "จ": 1173,
      "ฉ": 1174,
      "ช": 1175,
      "ซ": 1176,
      "ญ": 1177,
      "ฐ": 1178,
      "ฑ": 1179,
      "ฒ": 1180,
      "ณ": 1181,
      "ด": 1182,
      "ต": 1183,
      "ถ": 1184,
      "ท": 1185,
      "ธ": 1186,
      "น": 1187,
      "บ": 1188,
      "ป": 1189,
      "ผ": 1190,
      "พ": 1191,
      "ฟ": 1192,
      "ภ": 1193,
      "ม": 1194,
      "ย": 1195,
      "ร": 1196,
      "ล": 1197,
      "ว": 1198,
      "ศ": 1199,
      "ษ": 1200,
      "ส": 1201,
      "ห": 1202,
      "ฬ": 1203,
      "อ": 1204,
      "ฮ": 1205,
      "ฯ": 1206,
      "ะ": 1207,
      "ั": 1208,
      "า": 1209,
      "ำ": 1210,
      "ิ": 1211,
      "ี": 1212,
      "ึ": 1213,
      "ื": 1214,
      "ุ": 1215,
      "ู": 1216,
      "ฺ": 1217,
      "฿": 1218,
      "เ": 1219,
      "แ": 1220,
      "โ": 1221,
      "ใ": 1222,
      "ไ": 1223,
      "่": 1224,
      "้": 1225,
      "์": 1226,
      "ํ": 1227,
      "๑": 1228,
      "๖": 1229,
      "ກ": 1230,
      "ຂ": 1231,
      "ຄ": 1232,
      "ງ": 1233,
      "ຈ": 1234,
      "ຊ": 1235,
      "ຍ": 1236,
      "ດ": 1237,
      "ຕ": 1238,
      "ຖ": 1239,
      "ທ": 1240,
      "ນ": 1241,
      "ບ": 1242,
      "ປ": 1243,
      "ມ": 1244,
      "ລ": 1245,
      "ວ": 1246,
      "ສ": 1247,
      "ຫ": 1248,
      "ອ": 1249,
      "ະ": 1250,
      "ັ": 1251,
      "າ": 1252,
      "ຳ": 1253,
      "ິ": 1254,
      "ີ": 1255,
      "ື": 1256,
      "ູ": 1257,
      "ຽ": 1258,
      "ເ": 1259,
      "ແ": 1260,
      "ໂ": 1261,
      "ໃ": 1262,
      "ໄ": 1263,
      "່": 1264,
      "້": 1265,
      "ໍ": 1266,
      "་": 1267,
      "།": 1268,
      "༔": 1269,
      "ཀ": 1270,
      "ཁ": 1271,
      "ག": 1272,
      "ང": 1273,
      "ཆ": 1274,
      "ཏ": 1275,
      "ད": 1276,
      "ན": 1277,
      "པ": 1278,
      "བ": 1279,
      "མ": 1280,
      "ཚ": 1281,
      "ཞ": 1282,
      "ར": 1283,
      "ལ": 1284,
      "ཤ": 1285,
      "ས": 1286,
      "ི": 1287,
      "ུ": 1288,
      "ེ": 1289,
      "ོ": 1290,
      "ྒ": 1291,
      "ྫ": 1292,
      "ྲ": 1293,
      "က": 1294,
      "ခ": 1295,
      "င": 1296,
      "ဍ": 1297,
      "တ": 1298,
      "ရ": 1299,
      "ဝ": 1300,
      "အ": 1301,
      "ာ": 1302,
      "ေ": 1303,
      "း": 1304,
      "်": 1305,
      "ა": 1306,
      "ბ": 1307,
      "გ": 1308,
      "დ": 1309,
      "ე": 1310,
      "ვ": 1311,
      "ზ": 1312,
      "თ": 1313,
      "ი": 1314,
      "კ": 1315,
      "ლ": 1316,
      "მ": 1317,
      "ნ": 1318,
      "ო": 1319,
      "პ": 1320,
      "რ": 1321,
      "ს": 1322,
      "ტ": 1323,
      "უ": 1324,
      "ფ": 1325,
      "ქ": 1326,
      "ღ": 1327,
      "ყ": 1328,
      "შ": 1329,
      "ჩ": 1330,
      "ც": 1331,
      "ძ": 1332,
      "წ": 1333,
      "ჭ": 1334,
      "ხ": 1335,
      "ჯ": 1336,
      "ሃ": 1337,
      "ህ": 1338,
      "ለ": 1339,
      "ሉ": 1340,
      "ላ": 1341,
      "ሌ": 1342,
      "ል": 1343,
      "ሎ": 1344,
      "ሓ": 1345,
      "ሕ": 1346,
      "መ": 1347,
      "ሚ": 1348,
      "ም": 1349,
      "ሩ": 1350,
      "ራ": 1351,
      "ር": 1352,
      "ሮ": 1353,
      "ሯ": 1354,
      "ስ": 1355,
      "ቀ": 1356,
      "ቅ": 1357,
      "በ": 1358,
      "ባ": 1359,
      "ብ": 1360,
      "ቦ": 1361,
      "ተ": 1362,
      "ቲ": 1363,
      "ታ": 1364,
      "ት": 1365,
      "ች": 1366,
      "ነ": 1367,
      "ኑ": 1368,
      "ና": 1369,
      "ን": 1370,
      "ኞ": 1371,
      "አ": 1372,
      "ኢ": 1373,
      "እ": 1374,
      "ካ": 1375,
      "ወ": 1376,
      "ዊ": 1377,
      "ው": 1378,
      "ዕ": 1379,
      "ዝ": 1380,
      "የ": 1381,
      "ያ": 1382,
      "ይ": 1383,
      "ዮ": 1384,
      "ደ": 1385,
      "ዱ": 1386,
      "ዲ": 1387,
      "ዳ": 1388,
      "ዶ": 1389,
      "ጉ": 1390,
      "ጋ": 1391,
      "ግ": 1392,
      "ጡ": 1393,
      "ጨ": 1394,
      "ጵ": 1395,
      "ፓ": 1396,
      "ᐃ": 1397,
      "ᐅ": 1398,
      "ᑐ": 1399,
      "ᑦ": 1400,
      "ᒪ": 1401,
      "ᒾ": 1402,
      "ᓄ": 1403,
      "ᔨ": 1404,
      "ᔭ": 1405,
      "ᖃ": 1406,
      "ᖏ": 1407,
      "ᚢ": 1408,
      "ᚣ": 1409,
      "ᚨ": 1410,
      "ᚩ": 1411,
      "ᚱ": 1412,
      "ᚲ": 1413,
      "ᚳ": 1414,
      "ᚷ": 1415,
      "ᚹ": 1416,
      "ᚺ": 1417,
      "ᚻ": 1418,
      "ᚾ": 1419,
      "ᛁ": 1420,
      "ᛃ": 1421,
      "ᛈ": 1422,
      "ᛉ": 1423,
      "ᛋ": 1424,
      "ᛏ": 1425,
      "ᛒ": 1426,
      "ᛖ": 1427,
      "ᛗ": 1428,
      "ᛚ": 1429,
      "ᛝ": 1430,
      "ᛟ": 1431,
      "ᛣ": 1432,
      "ᛥ": 1433,
      "ក": 1434,
      "គ": 1435,
      "ឃ": 1436,
      "ង": 1437,
      "ច": 1438,
      "ជ": 1439,
      "ដ": 1440,
      "ឌ": 1441,
      "ឍ": 1442,
      "ណ": 1443,
      "ត": 1444,
      "ទ": 1445,
      "ធ": 1446,
      "ន": 1447,
      "ប": 1448,
      "ព": 1449,
      "ភ": 1450,
      "ម": 1451,
      "យ": 1452,
      "រ": 1453,
      "ល": 1454,
      "វ": 1455,
      "ស": 1456,
      "ហ": 1457,
      "អ": 1458,
      "ឥ": 1459,
      "ឫ": 1460,
      "ា": 1461,
      "ិ": 1462,
      "ី": 1463,
      "ុ": 1464,
      "ឿ": 1465,
      "េ": 1466,
      "ៃ": 1467,
      "ំ": 1468,
      "៊": 1469,
      "់": 1470,
      "៍": 1471,
      "្": 1472,
      "᠎": 1473,
      "ᠠ": 1474,
      "ᠡ": 1475,
      "ᠢ": 1476,
      "ᠣ": 1477,
      "ᠤ": 1478,
      "ᠦ": 1479,
      "ᠨ": 1480,
      "ᠩ": 1481,
      "ᠪ": 1482,
      "ᠭ": 1483,
      "ᠮ": 1484,
      "ᠯ": 1485,
      "ᠳ": 1486,
      "ᠶ": 1487,
      "ᠷ": 1488,
      "ᡝ": 1489,
      "ᡠ": 1490,
      "ᡥ": 1491,
      "ᡶ": 1492,
      "ᴄ": 1493,
      "ᴇ": 1494,
      "ᴏ": 1495,
      "ᴒ": 1496,
      "ᴓ": 1497,
      "ᴗ": 1498,
      "ᴛ": 1499,
      "ᴦ": 1500,
      "ᴩ": 1501,
      "ᵀ": 1502,
      "ᵏ": 1503,
      "ᵖ": 1504,
      "ᵢ": 1505,
      "ᵣ": 1506,
      "ḍ": 1507,
      "ḏ": 1508,
      "ḗ": 1509,
      "Ḥ": 1510,
      "ḥ": 1511,
      "ḫ": 1512,
      "ḭ": 1513,
      "Ḳ": 1514,
      "ḳ": 1515,
      "ḷ": 1516,
      "ḻ": 1517,
      "ḿ": 1518,
      "ṁ": 1519,
      "ṃ": 1520,
      "ṅ": 1521,
      "ṇ": 1522,
      "ṉ": 1523,
      "ṓ": 1524,
      "ṛ": 1525,
      "ṣ": 1526,
      "Ṭ": 1527,
      "ṭ": 1528,
      "ṯ": 1529,
      "ẚ": 1530,
      "ạ": 1531,
      "ả": 1532,
      "ậ": 1533,
      "ắ": 1534,
      "ẵ": 1535,
      "ặ": 1536,
      "Ẹ": 1537,
      "ẹ": 1538,
      "ế": 1539,
      "ề": 1540,
      "ể": 1541,
      "ệ": 1542,
      "ỉ": 1543,
      "ọ": 1544,
      "ỏ": 1545,
      "ố": 1546,
      "ồ": 1547,
      "ổ": 1548,
      "ộ": 1549,
      "ớ": 1550,
      "ờ": 1551,
      "ợ": 1552,
      "ụ": 1553,
      "ủ": 1554,
      "ứ": 1555,
      "ừ": 1556,
      "ữ": 1557,
      "ỳ": 1558,
      "ἀ": 1559,
      "ἁ": 1560,
      "ἄ": 1561,
      "ἅ": 1562,
      "Ἀ": 1563,
      "Ἁ": 1564,
      "Ἅ": 1565,
      "ἐ": 1566,
      "ἑ": 1567,
      "ἔ": 1568,
      "ἕ": 1569,
      "Ἐ": 1570,
      "Ἑ": 1571,
      "ἠ": 1572,
      "ἡ": 1573,
      "Ἠ": 1574,
      "Ἡ": 1575,
      "ἰ": 1576,
      "ἱ": 1577,
      "ἴ": 1578,
      "ἶ": 1579,
      "Ἰ": 1580,
      "Ἴ": 1581,
      "ὀ": 1582,
      "ὁ": 1583,
      "ὄ": 1584,
      "ὅ": 1585,
      "ὐ": 1586,
      "ὑ": 1587,
      "ὔ": 1588,
      "ὕ": 1589,
      "ὖ": 1590,
      "ὰ": 1591,
      "ὲ": 1592,
      "ὴ": 1593,
      "ὶ": 1594,
      "ὸ": 1595,
      "ὺ": 1596,
      "ὼ": 1597,
      "ᾰ": 1598,
      "ᾶ": 1599,
      "ῃ": 1600,
      "ῆ": 1601,
      "ῐ": 1602,
      "ῖ": 1603,
      "ῦ": 1604,
      "ῶ": 1605,
      "ῷ": 1606,
      "῾": 1607,
      " ": 1608,
      " ": 1609,
      " ": 1610,
      " ": 1611,
      " ": 1612,
      " ": 1613,
      " ": 1614,
      " ": 1615,
      "​": 1616,
      "‌": 1617,
      "‍": 1618,
      "‎": 1619,
      "‏": 1620,
      "‐": 1621,
      "‑": 1622,
      "‒": 1623,
      "–": 1624,
      "—": 1625,
      "―": 1626,
      "‖": 1627,
      "‘": 1628,
      "’": 1629,
      "‚": 1630,
      "“": 1631,
      "”": 1632,
      "„": 1633,
      "†": 1634,
      "‡": 1635,
      "•": 1636,
      "‣": 1637,
      "․": 1638,
      "…": 1639,
      "‧": 1640,
      " ": 1641,
      "‰": 1642,
      "′": 1643,
      "″": 1644,
      "‹": 1645,
      "›": 1646,
      "※": 1647,
      "‼": 1648,
      "‾": 1649,
      "‿": 1650,
      "⁂": 1651,
      "⁃": 1652,
      "⁄": 1653,
      "⁉": 1654,
      "⁠": 1655,
      "⁡": 1656,
      "⁰": 1657,
      "ⁱ": 1658,
      "⁴": 1659,
      "⁵": 1660,
      "⁶": 1661,
      "⁷": 1662,
      "⁸": 1663,
      "⁹": 1664,
      "⁺": 1665,
      "⁻": 1666,
      "ⁿ": 1667,
      "₀": 1668,
      "₁": 1669,
      "₂": 1670,
      "₃": 1671,
      "₄": 1672,
      "₅": 1673,
      "₆": 1674,
      "₇": 1675,
      "₉": 1676,
      "₊": 1677,
      "₋": 1678,
      "ₓ": 1679,
      "ₖ": 1680,
      "ₙ": 1681,
      "₣": 1682,
      "₤": 1683,
      "₥": 1684,
      "₨": 1685,
      "₩": 1686,
      "₪": 1687,
      "€": 1688,
      "₰": 1689,
      "₱": 1690,
      "₴": 1691,
      "₷": 1692,
      "₸": 1693,
      "₹": 1694,
      "₽": 1695,
      "⃣": 1696,
      "℃": 1697,
      "℉": 1698,
      "ℕ": 1699,
      "№": 1700,
      "℗": 1701,
      "ℚ": 1702,
      "ℝ": 1703,
      "™": 1704,
      "ℤ": 1705,
      "ⅆ": 1706,
      "⅓": 1707,
      "⅔": 1708,
      "⅙": 1709,
      "⅚": 1710,
      "⅛": 1711,
      "⅜": 1712,
      "⅝": 1713,
      "Ⅰ": 1714,
      "Ⅱ": 1715,
      "Ⅲ": 1716,
      "Ⅳ": 1717,
      "Ⅵ": 1718,
      "Ⅶ": 1719,
      "Ⅷ": 1720,
      "Ⅸ": 1721,
      "Ⅹ": 1722,
      "Ⅾ": 1723,
      "←": 1724,
      "↑": 1725,
      "→": 1726,
      "↓": 1727,
      "↔": 1728,
      "↗": 1729,
      "↩": 1730,
      "↪": 1731,
      "↯": 1732,
      "↲": 1733,
      "↳": 1734,
      "↵": 1735,
      "↹": 1736,
      "⇀": 1737,
      "⇄": 1738,
      "⇌": 1739,
      "⇐": 1740,
      "⇑": 1741,
      "⇒": 1742,
      "⇓": 1743,
      "⇔": 1744,
      "⇥": 1745,
      "⇧": 1746,
      "⇩": 1747,
      "∀": 1748,
      "∂": 1749,
      "∃": 1750,
      "∅": 1751,
      "∆": 1752,
      "∇": 1753,
      "∈": 1754,
      "∎": 1755,
      "∏": 1756,
      "∑": 1757,
      "−": 1758,
      "∗": 1759,
      "∘": 1760,
      "∙": 1761,
      "√": 1762,
      "∛": 1763,
      "∝": 1764,
      "∞": 1765,
      "∠": 1766,
      "∥": 1767,
      "∧": 1768,
      "∨": 1769,
      "∩": 1770,
      "∪": 1771,
      "∫": 1772,
      "∬": 1773,
      "∼": 1774,
      "≅": 1775,
      "≈": 1776,
      "≔": 1777,
      "≠": 1778,
      "≡": 1779,
      "≤": 1780,
      "≥": 1781,
      "≪": 1782,
      "≫": 1783,
      "⊂": 1784,
      "⊃": 1785,
      "⊆": 1786,
      "⊇": 1787,
      "⊕": 1788,
      "⊗": 1789,
      "⊥": 1790,
      "⊰": 1791,
      "⊱": 1792,
      "⋀": 1793,
      "⋁": 1794,
      "⋃": 1795,
      "⋅": 1796,
      "⋊": 1797,
      "⌀": 1798,
      "⌂": 1799,
      "⌈": 1800,
      "⌉": 1801,
      "⌊": 1802,
      "⌋": 1803,
      "⌘": 1804,
      "⌚": 1805,
      "⌠": 1806,
      "⌥": 1807,
      "⎛": 1808,
      "⎝": 1809,
      "⎞": 1810,
      "⎠": 1811,
      "⎣": 1812,
      "⎦": 1813,
      "⎵": 1814,
      "⏎": 1815,
      "⏱": 1816,
      "⏳": 1817,
      "①": 1818,
      "②": 1819,
      "③": 1820,
      "④": 1821,
      "⑤": 1822,
      "⑥": 1823,
      "⑦": 1824,
      "⑧": 1825,
      "⑨": 1826,
      "⑩": 1827,
      "Ⓐ": 1828,
      "Ⓑ": 1829,
      "Ⓛ": 1830,
      "Ⓜ": 1831,
      "Ⓡ": 1832,
      "Ⓢ": 1833,
      "Ⓤ": 1834,
      "Ⓨ": 1835,
      "Ⓩ": 1836,
      "ⓐ": 1837,
      "ⓑ": 1838,
      "ⓘ": 1839,
      "─": 1840,
      "━": 1841,
      "│": 1842,
      "┅": 1843,
      "┌": 1844,
      "┏": 1845,
      "┐": 1846,
      "┗": 1847,
      "┘": 1848,
      "├": 1849,
      "┣": 1850,
      "┤": 1851,
      "┬": 1852,
      "┴": 1853,
      "═": 1854,
      "║": 1855,
      "╕": 1856,
      "╖": 1857,
      "╚": 1858,
      "╟": 1859,
      "╧": 1860,
      "╩": 1861,
      "╳": 1862,
      "█": 1863,
      "▒": 1864,
      "▓": 1865,
      "■": 1866,
      "□": 1867,
      "▪": 1868,
      "▬": 1869,
      "▲": 1870,
      "△": 1871,
      "▶": 1872,
      "▷": 1873,
      "▸": 1874,
      "►": 1875,
      "▻": 1876,
      "▼": 1877,
      "◀": 1878,
      "◁": 1879,
      "◄": 1880,
      "◆": 1881,
      "◇": 1882,
      "◈": 1883,
      "◉": 1884,
      "◊": 1885,
      "○": 1886,
      "◌": 1887,
      "●": 1888,
      "◦": 1889,
      "◯": 1890,
      "◾": 1891,
      "☀": 1892,
      "★": 1893,
      "☆": 1894,
      "☉": 1895,
      "☎": 1896,
      "☑": 1897,
      "☕": 1898,
      "☛": 1899,
      "☝": 1900,
      "☞": 1901,
      "☢": 1902,
      "☭": 1903,
      "☮": 1904,
      "☰": 1905,
      "☷": 1906,
      "☸": 1907,
      "☹": 1908,
      "☺": 1909,
      "☻": 1910,
      "☼": 1911,
      "☽": 1912,
      "☾": 1913,
      "☿": 1914,
      "♀": 1915,
      "♂": 1916,
      "♃": 1917,
      "♄": 1918,
      "♏": 1919,
      "♕": 1920,
      "♛": 1921,
      "♠": 1922,
      "♡": 1923,
      "♢": 1924,
      "♣": 1925,
      "♥": 1926,
      "♦": 1927,
      "♪": 1928,
      "♫": 1929,
      "♬": 1930,
      "♭": 1931,
      "♯": 1932,
      "⚐": 1933,
      "⚗": 1934,
      "⚙": 1935,
      "⚠": 1936,
      "⚡": 1937,
      "⚹": 1938,
      "⚽": 1939,
      "⛵": 1940,
      "✅": 1941,
      "✆": 1942,
      "✈": 1943,
      "✉": 1944,
      "✌": 1945,
      "✍": 1946,
      "✎": 1947,
      "✓": 1948,
      "✔": 1949,
      "✗": 1950,
      "✘": 1951,
      "✡": 1952,
      "✤": 1953,
      "✨": 1954,
      "✫": 1955,
      "✱": 1956,
      "❀": 1957,
      "❂": 1958,
      "❌": 1959,
      "❓": 1960,
      "❕": 1961,
      "❖": 1962,
      "❗": 1963,
      "❤": 1964,
      "❬": 1965,
      "❭": 1966,
      "❽": 1967,
      "❿": 1968,
      "➊": 1969,
      "➋": 1970,
      "➌": 1971,
      "➍": 1972,
      "➎": 1973,
      "➏": 1974,
      "➕": 1975,
      "➖": 1976,
      "➜": 1977,
      "➝": 1978,
      "➠": 1979,
      "➡": 1980,
      "➤": 1981,
      "➥": 1982,
      "➨": 1983,
      "⟨": 1984,
      "⟩": 1985,
      "⟶": 1986,
      "⟹": 1987,
      "⠀": 1988,
      "⤵": 1989,
      "⩽": 1990,
      "⩾": 1991,
      "⬇": 1992,
      "⭐": 1993,
      "ⰰ": 1994,
      "ⰲ": 1995,
      "ⰶ": 1996,
      "ⱃ": 1997,
      "ⱅ": 1998,
      "ⱐ": 1999,
      "ⲁ": 2000,
      "ⲉ": 2001,
      "ⲏ": 2002,
      "ⲓ": 2003,
      "ⲕ": 2004,
      "ⲙ": 2005,
      "ⲛ": 2006,
      "ⲟ": 2007,
      "ⲣ": 2008,
      "ⲧ": 2009,
      "ⴰ": 2010,
      "ⴳ": 2011,
      "ⴷ": 2012,
      "ⴻ": 2013,
      "ⵍ": 2014,
      "ⵎ": 2015,
      "ⵏ": 2016,
      "ⵓ": 2017,
      "ⵔ": 2018,
      "ⵙ": 2019,
      "ⵜ": 2020,
      "ⵢ": 2021,
      "ⵣ": 2022,
      "ⷭ": 2023,
      "　": 2024,
      "、": 2025,
      "。": 2026,
      "々": 2027,
      "〇": 2028,
      "〈": 2029,
      "〉": 2030,
      "《": 2031,
      "》": 2032,
      "「": 2033,
      "」": 2034,
      "『": 2035,
      "』": 2036,
      "〒": 2037,
      "〗": 2038,
      "〜": 2039,
      "〰": 2040,
      "ぁ": 2041,
      "あ": 2042,
      "ぃ": 2043,
      "い": 2044,
      "う": 2045,
      "ぇ": 2046,
      "え": 2047,
      "お": 2048,
      "か": 2049,
      "が": 2050,
      "き": 2051,
      "ぎ": 2052,
      "く": 2053,
      "ぐ": 2054,
      "け": 2055,
      "げ": 2056,
      "こ": 2057,
      "ご": 2058,
      "さ": 2059,
      "ざ": 2060,
      "し": 2061,
      "じ": 2062,
      "す": 2063,
      "ず": 2064,
      "せ": 2065,
      "ぜ": 2066,
      "そ": 2067,
      "た": 2068,
      "だ": 2069,
      "ち": 2070,
      "っ": 2071,
      "つ": 2072,
      "づ": 2073,
      "て": 2074,
      "で": 2075,
      "と": 2076,
      "ど": 2077,
      "な": 2078,
      "に": 2079,
      "ぬ": 2080,
      "ね": 2081,
      "の": 2082,
      "は": 2083,
      "ば": 2084,
      "ひ": 2085,
      "び": 2086,
      "ぴ": 2087,
      "ふ": 2088,
      "ぶ": 2089,
      "ぷ": 2090,
      "へ": 2091,
      "べ": 2092,
      "ほ": 2093,
      "ぼ": 2094,
      "ぽ": 2095,
      "ま": 2096,
      "み": 2097,
      "む": 2098,
      "め": 2099,
      "も": 2100,
      "ゃ": 2101,
      "や": 2102,
      "ゆ": 2103,
      "ょ": 2104,
      "よ": 2105,
      "ら": 2106,
      "り": 2107,
      "る": 2108,
      "れ": 2109,
      "ろ": 2110,
      "わ": 2111,
      "を": 2112,
      "ん": 2113,
      "ァ": 2114,
      "ア": 2115,
      "ィ": 2116,
      "イ": 2117,
      "ゥ": 2118,
      "ウ": 2119,
      "ェ": 2120,
      "エ": 2121,
      "ォ": 2122,
      "オ": 2123,
      "カ": 2124,
      "ガ": 2125,
      "キ": 2126,
      "ギ": 2127,
      "ク": 2128,
      "グ": 2129,
      "ケ": 2130,
      "コ": 2131,
      "ゴ": 2132,
      "サ": 2133,
      "シ": 2134,
      "ジ": 2135,
      "ス": 2136,
      "ズ": 2137,
      "セ": 2138,
      "ゼ": 2139,
      "ソ": 2140,
      "タ": 2141,
      "ダ": 2142,
      "チ": 2143,
      "ッ": 2144,
      "ツ": 2145,
      "ヅ": 2146,
      "テ": 2147,
      "デ": 2148,
      "ト": 2149,
      "ド": 2150,
      "ナ": 2151,
      "ニ": 2152,
      "ヌ": 2153,
      "ネ": 2154,
      "ノ": 2155,
      "ハ": 2156,
      "バ": 2157,
      "パ": 2158,
      "ヒ": 2159,
      "ビ": 2160,
      "フ": 2161,
      "ブ": 2162,
      "プ": 2163,
      "ペ": 2164,
      "ホ": 2165,
      "ボ": 2166,
      "ポ": 2167,
      "マ": 2168,
      "ミ": 2169,
      "ム": 2170,
      "メ": 2171,
      "モ": 2172,
      "ャ": 2173,
      "ヤ": 2174,
      "ュ": 2175,
      "ョ": 2176,
      "ヨ": 2177,
      "ラ": 2178,
      "リ": 2179,
      "ル": 2180,
      "レ": 2181,
      "ロ": 2182,
      "ワ": 2183,
      "ン": 2184,
      "ヴ": 2185,
      "ヶ": 2186,
      "・": 2187,
      "ー": 2188,
      "ㄱ": 2189,
      "ㄴ": 2190,
      "ㅁ": 2191,
      "ㅅ": 2192,
      "ㅇ": 2193,
      "ㅡ": 2194,
      "ㅣ": 2195,
      "㋿": 2196,
      "㍻": 2197,
      "㍼": 2198,
      "㍽": 2199,
      "㍾": 2200,
      "㬀": 2201,
      "㴶": 2202,
      "㼅": 2203,
      "䷑": 2204,
      "一": 2205,
      "七": 2206,
      "万": 2207,
      "丈": 2208,
      "三": 2209,
      "上": 2210,
      "下": 2211,
      "不": 2212,
      "与": 2213,
      "丑": 2214,
      "专": 2215,
      "且": 2216,
      "丕": 2217,
      "世": 2218,
      "丘": 2219,
      "业": 2220,
      "丛": 2221,
      "东": 2222,
      "丝": 2223,
      "丞": 2224,
      "两": 2225,
      "严": 2226,
      "个": 2227,
      "丫": 2228,
      "中": 2229,
      "丰": 2230,
      "临": 2231,
      "丸": 2232,
      "丹": 2233,
      "为": 2234,
      "主": 2235,
      "丽": 2236,
      "举": 2237,
      "乃": 2238,
      "久": 2239,
      "么": 2240,
      "义": 2241,
      "之": 2242,
      "乌": 2243,
      "乍": 2244,
      "乐": 2245,
      "乗": 2246,
      "乘": 2247,
      "乙": 2248,
      "九": 2249,
      "乞": 2250,
      "也": 2251,
      "习": 2252,
      "乡": 2253,
      "书": 2254,
      "买": 2255,
      "乱": 2256,
      "乳": 2257,
      "乾": 2258,
      "亀": 2259,
      "了": 2260,
      "予": 2261,
      "争": 2262,
      "事": 2263,
      "二": 2264,
      "于": 2265,
      "云": 2266,
      "互": 2267,
      "五": 2268,
      "井": 2269,
      "些": 2270,
      "交": 2271,
      "亥": 2272,
      "亦": 2273,
      "产": 2274,
      "享": 2275,
      "京": 2276,
      "亭": 2277,
      "亮": 2278,
      "亲": 2279,
      "人": 2280,
      "亿": 2281,
      "什": 2282,
      "仁": 2283,
      "今": 2284,
      "介": 2285,
      "从": 2286,
      "仏": 2287,
      "仕": 2288,
      "他": 2289,
      "付": 2290,
      "仙": 2291,
      "代": 2292,
      "令": 2293,
      "以": 2294,
      "们": 2295,
      "仮": 2296,
      "仲": 2297,
      "件": 2298,
      "价": 2299,
      "任": 2300,
      "份": 2301,
      "伊": 2302,
      "伎": 2303,
      "伏": 2304,
      "休": 2305,
      "众": 2306,
      "伙": 2307,
      "会": 2308,
      "伝": 2309,
      "传": 2310,
      "伤": 2311,
      "伦": 2312,
      "估": 2313,
      "伴": 2314,
      "伶": 2315,
      "伸": 2316,
      "伽": 2317,
      "但": 2318,
      "位": 2319,
      "住": 2320,
      "佐": 2321,
      "体": 2322,
      "何": 2323,
      "佘": 2324,
      "余": 2325,
      "佛": 2326,
      "作": 2327,
      "你": 2328,
      "佳": 2329,
      "使": 2330,
      "來": 2331,
      "例": 2332,
      "侗": 2333,
      "供": 2334,
      "依": 2335,
      "侨": 2336,
      "侯": 2337,
      "侵": 2338,
      "便": 2339,
      "促": 2340,
      "俄": 2341,
      "俊": 2342,
      "保": 2343,
      "俞": 2344,
      "信": 2345,
      "修": 2346,
      "俯": 2347,
      "俳": 2348,
      "倉": 2349,
      "個": 2350,
      "倍": 2351,
      "候": 2352,
      "借": 2353,
      "倡": 2354,
      "倫": 2355,
      "值": 2356,
      "假": 2357,
      "做": 2358,
      "健": 2359,
      "側": 2360,
      "偶": 2361,
      "傅": 2362,
      "傘": 2363,
      "備": 2364,
      "催": 2365,
      "傷": 2366,
      "傻": 2367,
      "傾": 2368,
      "働": 2369,
      "像": 2370,
      "僕": 2371,
      "僧": 2372,
      "億": 2373,
      "儉": 2374,
      "儒": 2375,
      "優": 2376,
      "元": 2377,
      "兆": 2378,
      "先": 2379,
      "光": 2380,
      "克": 2381,
      "免": 2382,
      "兒": 2383,
      "党": 2384,
      "入": 2385,
      "內": 2386,
      "全": 2387,
      "兪": 2388,
      "八": 2389,
      "公": 2390,
      "六": 2391,
      "兰": 2392,
      "共": 2393,
      "关": 2394,
      "兴": 2395,
      "兵": 2396,
      "其": 2397,
      "具": 2398,
      "典": 2399,
      "兹": 2400,
      "养": 2401,
      "冀": 2402,
      "内": 2403,
      "円": 2404,
      "冊": 2405,
      "再": 2406,
      "写": 2407,
      "军": 2408,
      "农": 2409,
      "冠": 2410,
      "冥": 2411,
      "冬": 2412,
      "冰": 2413,
      "决": 2414,
      "况": 2415,
      "冷": 2416,
      "凉": 2417,
      "凌": 2418,
      "凍": 2419,
      "几": 2420,
      "処": 2421,
      "出": 2422,
      "刀": 2423,
      "刃": 2424,
      "分": 2425,
      "切": 2426,
      "刑": 2427,
      "划": 2428,
      "列": 2429,
      "则": 2430,
      "创": 2431,
      "初": 2432,
      "判": 2433,
      "別": 2434,
      "利": 2435,
      "别": 2436,
      "到": 2437,
      "制": 2438,
      "刺": 2439,
      "刻": 2440,
      "前": 2441,
      "剛": 2442,
      "剣": 2443,
      "剧": 2444,
      "副": 2445,
      "創": 2446,
      "劇": 2447,
      "劉": 2448,
      "力": 2449,
      "办": 2450,
      "功": 2451,
      "加": 2452,
      "务": 2453,
      "动": 2454,
      "助": 2455,
      "努": 2456,
      "劫": 2457,
      "励": 2458,
      "劲": 2459,
      "労": 2460,
      "効": 2461,
      "勇": 2462,
      "勐": 2463,
      "勒": 2464,
      "動": 2465,
      "務": 2466,
      "勝": 2467,
      "勞": 2468,
      "勠": 2469,
      "勤": 2470,
      "勧": 2471,
      "勾": 2472,
      "勿": 2473,
      "匂": 2474,
      "包": 2475,
      "匏": 2476,
      "化": 2477,
      "北": 2478,
      "区": 2479,
      "医": 2480,
      "區": 2481,
      "十": 2482,
      "千": 2483,
      "升": 2484,
      "午": 2485,
      "半": 2486,
      "卍": 2487,
      "华": 2488,
      "协": 2489,
      "卐": 2490,
      "協": 2491,
      "南": 2492,
      "単": 2493,
      "博": 2494,
      "卜": 2495,
      "卡": 2496,
      "卫": 2497,
      "卯": 2498,
      "印": 2499,
      "危": 2500,
      "即": 2501,
      "却": 2502,
      "卵": 2503,
      "卿": 2504,
      "厂": 2505,
      "厅": 2506,
      "原": 2507,
      "去": 2508,
      "县": 2509,
      "参": 2510,
      "又": 2511,
      "及": 2512,
      "友": 2513,
      "双": 2514,
      "反": 2515,
      "发": 2516,
      "叔": 2517,
      "取": 2518,
      "受": 2519,
      "变": 2520,
      "口": 2521,
      "古": 2522,
      "句": 2523,
      "叩": 2524,
      "只": 2525,
      "叫": 2526,
      "召": 2527,
      "可": 2528,
      "台": 2529,
      "史": 2530,
      "右": 2531,
      "号": 2532,
      "司": 2533,
      "各": 2534,
      "合": 2535,
      "吉": 2536,
      "同": 2537,
      "名": 2538,
      "后": 2539,
      "向": 2540,
      "吕": 2541,
      "吗": 2542,
      "君": 2543,
      "否": 2544,
      "吧": 2545,
      "含": 2546,
      "听": 2547,
      "吴": 2548,
      "吸": 2549,
      "吹": 2550,
      "吾": 2551,
      "呂": 2552,
      "呉": 2553,
      "告": 2554,
      "员": 2555,
      "呢": 2556,
      "呦": 2557,
      "周": 2558,
      "味": 2559,
      "呼": 2560,
      "命": 2561,
      "和": 2562,
      "咖": 2563,
      "哀": 2564,
      "品": 2565,
      "哉": 2566,
      "响": 2567,
      "員": 2568,
      "哪": 2569,
      "哲": 2570,
      "唐": 2571,
      "唱": 2572,
      "商": 2573,
      "問": 2574,
      "啓": 2575,
      "啡": 2576,
      "喀": 2577,
      "善": 2578,
      "喇": 2579,
      "喜": 2580,
      "喬": 2581,
      "喻": 2582,
      "嘉": 2583,
      "嘎": 2584,
      "噌": 2585,
      "器": 2586,
      "噶": 2587,
      "囚": 2588,
      "四": 2589,
      "回": 2590,
      "因": 2591,
      "团": 2592,
      "団": 2593,
      "园": 2594,
      "困": 2595,
      "図": 2596,
      "围": 2597,
      "固": 2598,
      "国": 2599,
      "圆": 2600,
      "圈": 2601,
      "國": 2602,
      "園": 2603,
      "圓": 2604,
      "團": 2605,
      "土": 2606,
      "圣": 2607,
      "圧": 2608,
      "在": 2609,
      "圭": 2610,
      "地": 2611,
      "圳": 2612,
      "场": 2613,
      "坂": 2614,
      "均": 2615,
      "坐": 2616,
      "块": 2617,
      "坚": 2618,
      "坝": 2619,
      "坠": 2620,
      "坡": 2621,
      "坤": 2622,
      "坦": 2623,
      "坪": 2624,
      "型": 2625,
      "埃": 2626,
      "埅": 2627,
      "埋": 2628,
      "城": 2629,
      "埔": 2630,
      "域": 2631,
      "培": 2632,
      "基": 2633,
      "堂": 2634,
      "堅": 2635,
      "堡": 2636,
      "堯": 2637,
      "報": 2638,
      "場": 2639,
      "塑": 2640,
      "塔": 2641,
      "塗": 2642,
      "塘": 2643,
      "塚": 2644,
      "塞": 2645,
      "塩": 2646,
      "境": 2647,
      "墓": 2648,
      "增": 2649,
      "墨": 2650,
      "墩": 2651,
      "壁": 2652,
      "壌": 2653,
      "壤": 2654,
      "士": 2655,
      "声": 2656,
      "売": 2657,
      "壽": 2658,
      "处": 2659,
      "変": 2660,
      "复": 2661,
      "夏": 2662,
      "夕": 2663,
      "外": 2664,
      "多": 2665,
      "夜": 2666,
      "夢": 2667,
      "大": 2668,
      "天": 2669,
      "太": 2670,
      "夫": 2671,
      "央": 2672,
      "失": 2673,
      "头": 2674,
      "奇": 2675,
      "奉": 2676,
      "奋": 2677,
      "奎": 2678,
      "奖": 2679,
      "奚": 2680,
      "奥": 2681,
      "奪": 2682,
      "奭": 2683,
      "女": 2684,
      "她": 2685,
      "好": 2686,
      "如": 2687,
      "妃": 2688,
      "妄": 2689,
      "妈": 2690,
      "妍": 2691,
      "妓": 2692,
      "妙": 2693,
      "妻": 2694,
      "始": 2695,
      "姐": 2696,
      "姑": 2697,
      "姓": 2698,
      "委": 2699,
      "姜": 2700,
      "姫": 2701,
      "姬": 2702,
      "威": 2703,
      "娄": 2704,
      "娅": 2705,
      "娘": 2706,
      "娛": 2707,
      "娱": 2708,
      "婆": 2709,
      "婚": 2710,
      "婦": 2711,
      "媽": 2712,
      "嫁": 2713,
      "嫌": 2714,
      "嬪": 2715,
      "子": 2716,
      "孔": 2717,
      "字": 2718,
      "存": 2719,
      "孙": 2720,
      "孝": 2721,
      "季": 2722,
      "学": 2723,
      "孩": 2724,
      "孫": 2725,
      "學": 2726,
      "孽": 2727,
      "宁": 2728,
      "它": 2729,
      "宅": 2730,
      "宇": 2731,
      "守": 2732,
      "安": 2733,
      "宋": 2734,
      "完": 2735,
      "宏": 2736,
      "宗": 2737,
      "官": 2738,
      "定": 2739,
      "宜": 2740,
      "宝": 2741,
      "实": 2742,
      "実": 2743,
      "审": 2744,
      "客": 2745,
      "宣": 2746,
      "室": 2747,
      "宫": 2748,
      "宮": 2749,
      "害": 2750,
      "家": 2751,
      "容": 2752,
      "宾": 2753,
      "宿": 2754,
      "寀": 2755,
      "寅": 2756,
      "密": 2757,
      "富": 2758,
      "察": 2759,
      "寧": 2760,
      "審": 2761,
      "寬": 2762,
      "寶": 2763,
      "对": 2764,
      "寺": 2765,
      "导": 2766,
      "対": 2767,
      "寿": 2768,
      "封": 2769,
      "専": 2770,
      "射": 2771,
      "将": 2772,
      "將": 2773,
      "尉": 2774,
      "尊": 2775,
      "導": 2776,
      "小": 2777,
      "少": 2778,
      "尔": 2779,
      "尖": 2780,
      "尙": 2781,
      "尚": 2782,
      "尤": 2783,
      "尧": 2784,
      "就": 2785,
      "尹": 2786,
      "尽": 2787,
      "尾": 2788,
      "局": 2789,
      "居": 2790,
      "届": 2791,
      "屋": 2792,
      "屏": 2793,
      "展": 2794,
      "属": 2795,
      "屠": 2796,
      "履": 2797,
      "山": 2798,
      "屺": 2799,
      "岁": 2800,
      "岛": 2801,
      "岩": 2802,
      "岬": 2803,
      "岳": 2804,
      "岷": 2805,
      "岸": 2806,
      "峒": 2807,
      "峡": 2808,
      "峨": 2809,
      "峭": 2810,
      "峰": 2811,
      "島": 2812,
      "崇": 2813,
      "崎": 2814,
      "崔": 2815,
      "崖": 2816,
      "嵆": 2817,
      "嵐": 2818,
      "川": 2819,
      "州": 2820,
      "工": 2821,
      "左": 2822,
      "巧": 2823,
      "巨": 2824,
      "差": 2825,
      "己": 2826,
      "已": 2827,
      "巳": 2828,
      "巴": 2829,
      "巷": 2830,
      "巻": 2831,
      "币": 2832,
      "市": 2833,
      "布": 2834,
      "师": 2835,
      "希": 2836,
      "帖": 2837,
      "帛": 2838,
      "帝": 2839,
      "带": 2840,
      "師": 2841,
      "席": 2842,
      "帰": 2843,
      "常": 2844,
      "幕": 2845,
      "干": 2846,
      "平": 2847,
      "年": 2848,
      "并": 2849,
      "幸": 2850,
      "幹": 2851,
      "幻": 2852,
      "幾": 2853,
      "广": 2854,
      "庄": 2855,
      "庆": 2856,
      "序": 2857,
      "库": 2858,
      "应": 2859,
      "底": 2860,
      "店": 2861,
      "府": 2862,
      "度": 2863,
      "座": 2864,
      "庫": 2865,
      "庭": 2866,
      "庵": 2867,
      "康": 2868,
      "庾": 2869,
      "廃": 2870,
      "廉": 2871,
      "廟": 2872,
      "廣": 2873,
      "廮": 2874,
      "延": 2875,
      "廷": 2876,
      "建": 2877,
      "开": 2878,
      "弁": 2879,
      "式": 2880,
      "弓": 2881,
      "引": 2882,
      "弟": 2883,
      "张": 2884,
      "弥": 2885,
      "張": 2886,
      "強": 2887,
      "强": 2888,
      "弼": 2889,
      "彈": 2890,
      "彌": 2891,
      "当": 2892,
      "录": 2893,
      "形": 2894,
      "彦": 2895,
      "彩": 2896,
      "彰": 2897,
      "影": 2898,
      "彷": 2899,
      "役": 2900,
      "彻": 2901,
      "彼": 2902,
      "往": 2903,
      "征": 2904,
      "径": 2905,
      "待": 2906,
      "很": 2907,
      "律": 2908,
      "後": 2909,
      "徐": 2910,
      "徒": 2911,
      "従": 2912,
      "徕": 2913,
      "得": 2914,
      "從": 2915,
      "御": 2916,
      "徨": 2917,
      "復": 2918,
      "徳": 2919,
      "徴": 2920,
      "徵": 2921,
      "德": 2922,
      "徽": 2923,
      "心": 2924,
      "必": 2925,
      "忍": 2926,
      "志": 2927,
      "忘": 2928,
      "忙": 2929,
      "応": 2930,
      "忠": 2931,
      "快": 2932,
      "念": 2933,
      "忻": 2934,
      "忽": 2935,
      "怀": 2936,
      "态": 2937,
      "怎": 2938,
      "怒": 2939,
      "怖": 2940,
      "思": 2941,
      "急": 2942,
      "性": 2943,
      "怪": 2944,
      "总": 2945,
      "恐": 2946,
      "恒": 2947,
      "恢": 2948,
      "恩": 2949,
      "恭": 2950,
      "息": 2951,
      "恵": 2952,
      "恼": 2953,
      "悉": 2954,
      "悟": 2955,
      "悦": 2956,
      "您": 2957,
      "悪": 2958,
      "悯": 2959,
      "悲": 2960,
      "情": 2961,
      "惟": 2962,
      "惠": 2963,
      "惡": 2964,
      "想": 2965,
      "愁": 2966,
      "愍": 2967,
      "意": 2968,
      "愛": 2969,
      "感": 2970,
      "愿": 2971,
      "慈": 2972,
      "態": 2973,
      "慎": 2974,
      "慕": 2975,
      "慢": 2976,
      "慣": 2977,
      "慧": 2978,
      "慶": 2979,
      "憤": 2980,
      "憲": 2981,
      "應": 2982,
      "懋": 2983,
      "懐": 2984,
      "懷": 2985,
      "懸": 2986,
      "懿": 2987,
      "戈": 2988,
      "戌": 2989,
      "成": 2990,
      "我": 2991,
      "或": 2992,
      "战": 2993,
      "戦": 2994,
      "戮": 2995,
      "戴": 2996,
      "戸": 2997,
      "房": 2998,
      "所": 2999,
      "手": 3000,
      "扎": 3001,
      "扒": 3002,
      "打": 3003,
      "払": 3004,
      "扬": 3005,
      "扱": 3006,
      "扶": 3007,
      "承": 3008,
      "技": 3009,
      "抓": 3010,
      "投": 3011,
      "抗": 3012,
      "折": 3013,
      "抱": 3014,
      "押": 3015,
      "担": 3016,
      "拉": 3017,
      "拍": 3018,
      "拜": 3019,
      "拥": 3020,
      "择": 3021,
      "拯": 3022,
      "持": 3023,
      "挂": 3024,
      "指": 3025,
      "按": 3026,
      "挑": 3027,
      "挚": 3028,
      "振": 3029,
      "挽": 3030,
      "损": 3031,
      "据": 3032,
      "捷": 3033,
      "掉": 3034,
      "掌": 3035,
      "排": 3036,
      "掖": 3037,
      "掛": 3038,
      "探": 3039,
      "接": 3040,
      "推": 3041,
      "揆": 3042,
      "描": 3043,
      "提": 3044,
      "揚": 3045,
      "握": 3046,
      "援": 3047,
      "損": 3048,
      "携": 3049,
      "摆": 3050,
      "摸": 3051,
      "撃": 3052,
      "撥": 3053,
      "播": 3054,
      "撲": 3055,
      "擂": 3056,
      "擅": 3057,
      "擥": 3058,
      "擬": 3059,
      "攝": 3060,
      "收": 3061,
      "改": 3062,
      "攻": 3063,
      "放": 3064,
      "政": 3065,
      "故": 3066,
      "敍": 3067,
      "敏": 3068,
      "救": 3069,
      "敖": 3070,
      "教": 3071,
      "敞": 3072,
      "敢": 3073,
      "散": 3074,
      "敦": 3075,
      "敬": 3076,
      "数": 3077,
      "敲": 3078,
      "整": 3079,
      "敵": 3080,
      "敷": 3081,
      "數": 3082,
      "文": 3083,
      "斉": 3084,
      "斑": 3085,
      "斓": 3086,
      "斗": 3087,
      "料": 3088,
      "断": 3089,
      "斯": 3090,
      "新": 3091,
      "方": 3092,
      "於": 3093,
      "施": 3094,
      "旅": 3095,
      "族": 3096,
      "旗": 3097,
      "无": 3098,
      "既": 3099,
      "日": 3100,
      "旦": 3101,
      "旧": 3102,
      "早": 3103,
      "时": 3104,
      "旺": 3105,
      "昂": 3106,
      "昇": 3107,
      "昌": 3108,
      "明": 3109,
      "易": 3110,
      "昔": 3111,
      "昕": 3112,
      "星": 3113,
      "映": 3114,
      "春": 3115,
      "昨": 3116,
      "昭": 3117,
      "是": 3118,
      "昻": 3119,
      "显": 3120,
      "時": 3121,
      "晉": 3122,
      "晓": 3123,
      "晗": 3124,
      "晚": 3125,
      "晟": 3126,
      "晦": 3127,
      "普": 3128,
      "景": 3129,
      "晴": 3130,
      "晸": 3131,
      "智": 3132,
      "暁": 3133,
      "暖": 3134,
      "暗": 3135,
      "暨": 3136,
      "暴": 3137,
      "暹": 3138,
      "曄": 3139,
      "曅": 3140,
      "曜": 3141,
      "曦": 3142,
      "曮": 3143,
      "曲": 3144,
      "更": 3145,
      "書": 3146,
      "曹": 3147,
      "曾": 3148,
      "最": 3149,
      "會": 3150,
      "月": 3151,
      "有": 3152,
      "朋": 3153,
      "服": 3154,
      "望": 3155,
      "朝": 3156,
      "期": 3157,
      "木": 3158,
      "未": 3159,
      "末": 3160,
      "本": 3161,
      "术": 3162,
      "朱": 3163,
      "朴": 3164,
      "朵": 3165,
      "机": 3166,
      "杀": 3167,
      "权": 3168,
      "杉": 3169,
      "李": 3170,
      "材": 3171,
      "村": 3172,
      "杞": 3173,
      "条": 3174,
      "来": 3175,
      "杨": 3176,
      "杯": 3177,
      "東": 3178,
      "杲": 3179,
      "松": 3180,
      "板": 3181,
      "极": 3182,
      "构": 3183,
      "林": 3184,
      "果": 3185,
      "架": 3186,
      "柏": 3187,
      "柒": 3188,
      "染": 3189,
      "柔": 3190,
      "柱": 3191,
      "柳": 3192,
      "栄": 3193,
      "树": 3194,
      "栖": 3195,
      "校": 3196,
      "株": 3197,
      "样": 3198,
      "根": 3199,
      "格": 3200,
      "桂": 3201,
      "案": 3202,
      "桔": 3203,
      "桜": 3204,
      "桥": 3205,
      "梁": 3206,
      "梅": 3207,
      "梦": 3208,
      "梨": 3209,
      "梭": 3210,
      "棋": 3211,
      "棍": 3212,
      "棐": 3213,
      "棕": 3214,
      "棚": 3215,
      "森": 3216,
      "椅": 3217,
      "椿": 3218,
      "楀": 3219,
      "楊": 3220,
      "楠": 3221,
      "楫": 3222,
      "業": 3223,
      "極": 3224,
      "楷": 3225,
      "楽": 3226,
      "榮": 3227,
      "構": 3228,
      "樂": 3229,
      "樊": 3230,
      "模": 3231,
      "樣": 3232,
      "権": 3233,
      "横": 3234,
      "樹": 3235,
      "橋": 3236,
      "橙": 3237,
      "機": 3238,
      "檜": 3239,
      "權": 3240,
      "次": 3241,
      "欢": 3242,
      "欣": 3243,
      "欲": 3244,
      "欽": 3245,
      "款": 3246,
      "歆": 3247,
      "歌": 3248,
      "歓": 3249,
      "正": 3250,
      "此": 3251,
      "步": 3252,
      "武": 3253,
      "歩": 3254,
      "歯": 3255,
      "歳": 3256,
      "死": 3257,
      "殉": 3258,
      "残": 3259,
      "段": 3260,
      "殺": 3261,
      "殿": 3262,
      "母": 3263,
      "每": 3264,
      "毒": 3265,
      "毓": 3266,
      "比": 3267,
      "毕": 3268,
      "毘": 3269,
      "毛": 3270,
      "毫": 3271,
      "氏": 3272,
      "民": 3273,
      "气": 3274,
      "気": 3275,
      "氣": 3276,
      "水": 3277,
      "永": 3278,
      "汁": 3279,
      "求": 3280,
      "汉": 3281,
      "汝": 3282,
      "江": 3283,
      "池": 3284,
      "汤": 3285,
      "汪": 3286,
      "汶": 3287,
      "決": 3288,
      "汽": 3289,
      "沁": 3290,
      "沃": 3291,
      "沈": 3292,
      "沉": 3293,
      "沐": 3294,
      "沖": 3295,
      "沙": 3296,
      "没": 3297,
      "沧": 3298,
      "河": 3299,
      "油": 3300,
      "治": 3301,
      "沽": 3302,
      "泉": 3303,
      "泓": 3304,
      "法": 3305,
      "波": 3306,
      "泥": 3307,
      "注": 3308,
      "泰": 3309,
      "泳": 3310,
      "泽": 3311,
      "洋": 3312,
      "洗": 3313,
      "洙": 3314,
      "洛": 3315,
      "洞": 3316,
      "津": 3317,
      "洩": 3318,
      "洪": 3319,
      "洮": 3320,
      "洲": 3321,
      "活": 3322,
      "洽": 3323,
      "派": 3324,
      "流": 3325,
      "浄": 3326,
      "浅": 3327,
      "测": 3328,
      "济": 3329,
      "浏": 3330,
      "浓": 3331,
      "浚": 3332,
      "浣": 3333,
      "浩": 3334,
      "浮": 3335,
      "海": 3336,
      "浹": 3337,
      "涂": 3338,
      "涅": 3339,
      "消": 3340,
      "涼": 3341,
      "淀": 3342,
      "淑": 3343,
      "淨": 3344,
      "淮": 3345,
      "深": 3346,
      "淳": 3347,
      "淵": 3348,
      "混": 3349,
      "淸": 3350,
      "清": 3351,
      "渊": 3352,
      "渔": 3353,
      "渗": 3354,
      "渠": 3355,
      "渡": 3356,
      "温": 3357,
      "港": 3358,
      "渰": 3359,
      "游": 3360,
      "湖": 3361,
      "湛": 3362,
      "湯": 3363,
      "湾": 3364,
      "溌": 3365,
      "源": 3366,
      "準": 3367,
      "溢": 3368,
      "溥": 3369,
      "溪": 3370,
      "溫": 3371,
      "滑": 3372,
      "滚": 3373,
      "满": 3374,
      "漁": 3375,
      "漏": 3376,
      "漢": 3377,
      "漪": 3378,
      "漫": 3379,
      "潗": 3380,
      "潘": 3381,
      "潭": 3382,
      "澂": 3383,
      "澳": 3384,
      "激": 3385,
      "濟": 3386,
      "濤": 3387,
      "瀑": 3388,
      "瀛": 3389,
      "瀞": 3390,
      "灝": 3391,
      "灣": 3392,
      "火": 3393,
      "灰": 3394,
      "灾": 3395,
      "炎": 3396,
      "炘": 3397,
      "炬": 3398,
      "炳": 3399,
      "炸": 3400,
      "点": 3401,
      "為": 3402,
      "烈": 3403,
      "烏": 3404,
      "烦": 3405,
      "热": 3406,
      "焉": 3407,
      "焕": 3408,
      "無": 3409,
      "然": 3410,
      "焼": 3411,
      "煌": 3412,
      "煥": 3413,
      "照": 3414,
      "煮": 3415,
      "熊": 3416,
      "熙": 3417,
      "熱": 3418,
      "燕": 3419,
      "燦": 3420,
      "燮": 3421,
      "燵": 3422,
      "爆": 3423,
      "爬": 3424,
      "爱": 3425,
      "爵": 3426,
      "父": 3427,
      "爷": 3428,
      "爸": 3429,
      "爽": 3430,
      "爾": 3431,
      "片": 3432,
      "版": 3433,
      "牛": 3434,
      "牧": 3435,
      "物": 3436,
      "牲": 3437,
      "牵": 3438,
      "特": 3439,
      "牺": 3440,
      "犬": 3441,
      "状": 3442,
      "狄": 3443,
      "狐": 3444,
      "狗": 3445,
      "狮": 3446,
      "猛": 3447,
      "猫": 3448,
      "献": 3449,
      "猿": 3450,
      "獄": 3451,
      "獅": 3452,
      "獣": 3453,
      "獲": 3454,
      "獻": 3455,
      "玄": 3456,
      "率": 3457,
      "玉": 3458,
      "王": 3459,
      "环": 3460,
      "现": 3461,
      "珍": 3462,
      "珪": 3463,
      "班": 3464,
      "珹": 3465,
      "現": 3466,
      "球": 3467,
      "理": 3468,
      "琨": 3469,
      "瑞": 3470,
      "璇": 3471,
      "瓚": 3472,
      "瓜": 3473,
      "瓶": 3474,
      "甄": 3475,
      "甘": 3476,
      "甚": 3477,
      "甜": 3478,
      "生": 3479,
      "用": 3480,
      "田": 3481,
      "由": 3482,
      "甲": 3483,
      "申": 3484,
      "电": 3485,
      "男": 3486,
      "画": 3487,
      "界": 3488,
      "畢": 3489,
      "略": 3490,
      "番": 3491,
      "異": 3492,
      "畿": 3493,
      "疇": 3494,
      "疏": 3495,
      "疑": 3496,
      "疲": 3497,
      "疼": 3498,
      "病": 3499,
      "症": 3500,
      "痛": 3501,
      "瘾": 3502,
      "療": 3503,
      "発": 3504,
      "登": 3505,
      "發": 3506,
      "白": 3507,
      "百": 3508,
      "的": 3509,
      "皆": 3510,
      "皇": 3511,
      "皥": 3512,
      "皮": 3513,
      "益": 3514,
      "盐": 3515,
      "盗": 3516,
      "盘": 3517,
      "盛": 3518,
      "盟": 3519,
      "盡": 3520,
      "盧": 3521,
      "目": 3522,
      "盲": 3523,
      "直": 3524,
      "相": 3525,
      "盾": 3526,
      "眉": 3527,
      "看": 3528,
      "県": 3529,
      "真": 3530,
      "眺": 3531,
      "眼": 3532,
      "眾": 3533,
      "着": 3534,
      "睦": 3535,
      "瞳": 3536,
      "瞻": 3537,
      "瞿": 3538,
      "矣": 3539,
      "知": 3540,
      "短": 3541,
      "石": 3542,
      "码": 3543,
      "研": 3544,
      "砚": 3545,
      "砦": 3546,
      "砯": 3547,
      "砲": 3548,
      "破": 3549,
      "础": 3550,
      "硬": 3551,
      "确": 3552,
      "碑": 3553,
      "碗": 3554,
      "碩": 3555,
      "確": 3556,
      "磁": 3557,
      "磬": 3558,
      "磷": 3559,
      "礎": 3560,
      "礪": 3561,
      "示": 3562,
      "礼": 3563,
      "社": 3564,
      "祉": 3565,
      "祐": 3566,
      "祖": 3567,
      "祘": 3568,
      "祚": 3569,
      "祝": 3570,
      "神": 3571,
      "祥": 3572,
      "祭": 3573,
      "祿": 3574,
      "禁": 3575,
      "禄": 3576,
      "禅": 3577,
      "禎": 3578,
      "福": 3579,
      "禧": 3580,
      "禪": 3581,
      "禮": 3582,
      "禹": 3583,
      "秀": 3584,
      "私": 3585,
      "秉": 3586,
      "秋": 3587,
      "种": 3588,
      "科": 3589,
      "秒": 3590,
      "秖": 3591,
      "秘": 3592,
      "租": 3593,
      "秦": 3594,
      "秩": 3595,
      "积": 3596,
      "称": 3597,
      "程": 3598,
      "種": 3599,
      "稳": 3600,
      "稽": 3601,
      "穂": 3602,
      "穆": 3603,
      "積": 3604,
      "穴": 3605,
      "究": 3606,
      "空": 3607,
      "穿": 3608,
      "突": 3609,
      "窓": 3610,
      "窟": 3611,
      "窯": 3612,
      "立": 3613,
      "站": 3614,
      "章": 3615,
      "端": 3616,
      "竹": 3617,
      "笄": 3618,
      "笑": 3619,
      "笔": 3620,
      "符": 3621,
      "笨": 3622,
      "第": 3623,
      "笹": 3624,
      "笼": 3625,
      "筆": 3626,
      "等": 3627,
      "筋": 3628,
      "筑": 3629,
      "答": 3630,
      "策": 3631,
      "筝": 3632,
      "筲": 3633,
      "简": 3634,
      "箕": 3635,
      "算": 3636,
      "管": 3637,
      "箭": 3638,
      "節": 3639,
      "篆": 3640,
      "篮": 3641,
      "簡": 3642,
      "米": 3643,
      "类": 3644,
      "粉": 3645,
      "粟": 3646,
      "粹": 3647,
      "精": 3648,
      "糎": 3649,
      "糕": 3650,
      "糯": 3651,
      "系": 3652,
      "約": 3653,
      "紅": 3654,
      "紋": 3655,
      "納": 3656,
      "純": 3657,
      "紙": 3658,
      "級": 3659,
      "素": 3660,
      "紫": 3661,
      "細": 3662,
      "紹": 3663,
      "終": 3664,
      "絃": 3665,
      "組": 3666,
      "経": 3667,
      "結": 3668,
      "絡": 3669,
      "給": 3670,
      "統": 3671,
      "絲": 3672,
      "絵": 3673,
      "絶": 3674,
      "經": 3675,
      "続": 3676,
      "維": 3677,
      "綱": 3678,
      "網": 3679,
      "綸": 3680,
      "綾": 3681,
      "緊": 3682,
      "緋": 3683,
      "総": 3684,
      "線": 3685,
      "緣": 3686,
      "編": 3687,
      "縞": 3688,
      "縣": 3689,
      "縮": 3690,
      "總": 3691,
      "繁": 3692,
      "織": 3693,
      "纂": 3694,
      "红": 3695,
      "约": 3696,
      "级": 3697,
      "纪": 3698,
      "纲": 3699,
      "纳": 3700,
      "线": 3701,
      "组": 3702,
      "细": 3703,
      "织": 3704,
      "终": 3705,
      "绍": 3706,
      "经": 3707,
      "结": 3708,
      "绘": 3709,
      "给": 3710,
      "络": 3711,
      "统": 3712,
      "绥": 3713,
      "继": 3714,
      "绩": 3715,
      "续": 3716,
      "维": 3717,
      "综": 3718,
      "绿": 3719,
      "缕": 3720,
      "编": 3721,
      "缸": 3722,
      "缺": 3723,
      "网": 3724,
      "罕": 3725,
      "罗": 3726,
      "罪": 3727,
      "置": 3728,
      "罽": 3729,
      "羅": 3730,
      "羊": 3731,
      "美": 3732,
      "羡": 3733,
      "群": 3734,
      "義": 3735,
      "羲": 3736,
      "羽": 3737,
      "翁": 3738,
      "翊": 3739,
      "翻": 3740,
      "翼": 3741,
      "老": 3742,
      "考": 3743,
      "者": 3744,
      "耆": 3745,
      "而": 3746,
      "耗": 3747,
      "耳": 3748,
      "耶": 3749,
      "耿": 3750,
      "聋": 3751,
      "职": 3752,
      "联": 3753,
      "聖": 3754,
      "聞": 3755,
      "聽": 3756,
      "肃": 3757,
      "肅": 3758,
      "肉": 3759,
      "肖": 3760,
      "肝": 3761,
      "股": 3762,
      "育": 3763,
      "肺": 3764,
      "肾": 3765,
      "胁": 3766,
      "胃": 3767,
      "胄": 3768,
      "背": 3769,
      "胜": 3770,
      "胞": 3771,
      "胡": 3772,
      "胤": 3773,
      "能": 3774,
      "脏": 3775,
      "脱": 3776,
      "脾": 3777,
      "腐": 3778,
      "腹": 3779,
      "膝": 3780,
      "臓": 3781,
      "臣": 3782,
      "自": 3783,
      "至": 3784,
      "致": 3785,
      "臺": 3786,
      "與": 3787,
      "興": 3788,
      "舉": 3789,
      "舊": 3790,
      "舎": 3791,
      "舒": 3792,
      "舜": 3793,
      "舞": 3794,
      "航": 3795,
      "般": 3796,
      "船": 3797,
      "艦": 3798,
      "良": 3799,
      "色": 3800,
      "节": 3801,
      "芒": 3802,
      "芝": 3803,
      "芬": 3804,
      "花": 3805,
      "芳": 3806,
      "苏": 3807,
      "苔": 3808,
      "若": 3809,
      "苦": 3810,
      "英": 3811,
      "苺": 3812,
      "茂": 3813,
      "范": 3814,
      "茅": 3815,
      "茶": 3816,
      "茹": 3817,
      "草": 3818,
      "荐": 3819,
      "荖": 3820,
      "药": 3821,
      "莊": 3822,
      "莫": 3823,
      "莱": 3824,
      "获": 3825,
      "菊": 3826,
      "菌": 3827,
      "菜": 3828,
      "菩": 3829,
      "華": 3830,
      "萊": 3831,
      "萍": 3832,
      "营": 3833,
      "萧": 3834,
      "萨": 3835,
      "萬": 3836,
      "落": 3837,
      "葉": 3838,
      "著": 3839,
      "葛": 3840,
      "董": 3841,
      "葬": 3842,
      "葺": 3843,
      "蒙": 3844,
      "蒲": 3845,
      "蓋": 3846,
      "蓝": 3847,
      "蓣": 3848,
      "蕭": 3849,
      "蕷": 3850,
      "薩": 3851,
      "薬": 3852,
      "薯": 3853,
      "藤": 3854,
      "藥": 3855,
      "藩": 3856,
      "藻": 3857,
      "蘇": 3858,
      "蘭": 3859,
      "虎": 3860,
      "虏": 3861,
      "虑": 3862,
      "處": 3863,
      "虚": 3864,
      "虛": 3865,
      "虞": 3866,
      "號": 3867,
      "虹": 3868,
      "虽": 3869,
      "蚊": 3870,
      "蛇": 3871,
      "蛋": 3872,
      "蝉": 3873,
      "蝴": 3874,
      "蝶": 3875,
      "融": 3876,
      "血": 3877,
      "衆": 3878,
      "行": 3879,
      "衍": 3880,
      "術": 3881,
      "街": 3882,
      "衛": 3883,
      "衝": 3884,
      "衡": 3885,
      "衣": 3886,
      "补": 3887,
      "表": 3888,
      "衫": 3889,
      "衷": 3890,
      "袁": 3891,
      "袋": 3892,
      "被": 3893,
      "裁": 3894,
      "装": 3895,
      "裕": 3896,
      "裙": 3897,
      "裝": 3898,
      "製": 3899,
      "襄": 3900,
      "西": 3901,
      "要": 3902,
      "覇": 3903,
      "見": 3904,
      "視": 3905,
      "覘": 3906,
      "覚": 3907,
      "親": 3908,
      "覺": 3909,
      "觀": 3910,
      "见": 3911,
      "观": 3912,
      "规": 3913,
      "视": 3914,
      "览": 3915,
      "觉": 3916,
      "角": 3917,
      "觚": 3918,
      "解": 3919,
      "言": 3920,
      "記": 3921,
      "訟": 3922,
      "設": 3923,
      "許": 3924,
      "訳": 3925,
      "訴": 3926,
      "証": 3927,
      "評": 3928,
      "試": 3929,
      "詩": 3930,
      "話": 3931,
      "誕": 3932,
      "語": 3933,
      "誠": 3934,
      "說": 3935,
      "説": 3936,
      "読": 3937,
      "調": 3938,
      "談": 3939,
      "論": 3940,
      "諡": 3941,
      "諮": 3942,
      "諴": 3943,
      "諸": 3944,
      "謎": 3945,
      "謙": 3946,
      "證": 3947,
      "識": 3948,
      "譚": 3949,
      "譜": 3950,
      "警": 3951,
      "譬": 3952,
      "議": 3953,
      "譱": 3954,
      "護": 3955,
      "讀": 3956,
      "计": 3957,
      "认": 3958,
      "让": 3959,
      "议": 3960,
      "记": 3961,
      "许": 3962,
      "论": 3963,
      "设": 3964,
      "证": 3965,
      "词": 3966,
      "译": 3967,
      "诗": 3968,
      "话": 3969,
      "该": 3970,
      "诩": 3971,
      "语": 3972,
      "误": 3973,
      "说": 3974,
      "请": 3975,
      "诺": 3976,
      "谁": 3977,
      "调": 3978,
      "谊": 3979,
      "谛": 3980,
      "谢": 3981,
      "谷": 3982,
      "谿": 3983,
      "豆": 3984,
      "豊": 3985,
      "豐": 3986,
      "象": 3987,
      "豪": 3988,
      "豹": 3989,
      "貞": 3990,
      "負": 3991,
      "財": 3992,
      "貫": 3993,
      "貴": 3994,
      "買": 3995,
      "費": 3996,
      "賀": 3997,
      "賃": 3998,
      "資": 3999,
      "賈": 4000,
      "賓": 4001,
      "賞": 4002,
      "賢": 4003,
      "質": 4004,
      "賴": 4005,
      "購": 4006,
      "贇": 4007,
      "贈": 4008,
      "贝": 4009,
      "贞": 4010,
      "财": 4011,
      "责": 4012,
      "败": 4013,
      "货": 4014,
      "质": 4015,
      "贫": 4016,
      "贯": 4017,
      "贵": 4018,
      "费": 4019,
      "贺": 4020,
      "贾": 4021,
      "资": 4022,
      "赛": 4023,
      "赞": 4024,
      "赢": 4025,
      "赤": 4026,
      "赦": 4027,
      "赫": 4028,
      "走": 4029,
      "赴": 4030,
      "起": 4031,
      "超": 4032,
      "越": 4033,
      "趙": 4034,
      "足": 4035,
      "距": 4036,
      "跡": 4037,
      "跨": 4038,
      "路": 4039,
      "跳": 4040,
      "蹈": 4041,
      "蹉": 4042,
      "蹴": 4043,
      "躁": 4044,
      "身": 4045,
      "車": 4046,
      "軌": 4047,
      "軍": 4048,
      "転": 4049,
      "軾": 4050,
      "載": 4051,
      "輔": 4052,
      "輪": 4053,
      "轄": 4054,
      "车": 4055,
      "转": 4056,
      "轮": 4057,
      "软": 4058,
      "载": 4059,
      "较": 4060,
      "辆": 4061,
      "辖": 4062,
      "辞": 4063,
      "辣": 4064,
      "辰": 4065,
      "農": 4066,
      "辻": 4067,
      "込": 4068,
      "辽": 4069,
      "达": 4070,
      "过": 4071,
      "迎": 4072,
      "运": 4073,
      "近": 4074,
      "返": 4075,
      "还": 4076,
      "这": 4077,
      "进": 4078,
      "远": 4079,
      "连": 4080,
      "迪": 4081,
      "述": 4082,
      "迴": 4083,
      "追": 4084,
      "退": 4085,
      "适": 4086,
      "选": 4087,
      "逌": 4088,
      "透": 4089,
      "递": 4090,
      "途": 4091,
      "這": 4092,
      "通": 4093,
      "逝": 4094,
      "速": 4095,
      "造": 4096,
      "連": 4097,
      "週": 4098,
      "進": 4099,
      "遅": 4100,
      "遇": 4101,
      "運": 4102,
      "過": 4103,
      "道": 4104,
      "達": 4105,
      "違": 4106,
      "遜": 4107,
      "遠": 4108,
      "遭": 4109,
      "選": 4110,
      "遺": 4111,
      "遼": 4112,
      "避": 4113,
      "邀": 4114,
      "還": 4115,
      "邏": 4116,
      "邑": 4117,
      "邢": 4118,
      "那": 4119,
      "邦": 4120,
      "邯": 4121,
      "邵": 4122,
      "邺": 4123,
      "郁": 4124,
      "郎": 4125,
      "郑": 4126,
      "郡": 4127,
      "部": 4128,
      "郭": 4129,
      "郸": 4130,
      "都": 4131,
      "鄂": 4132,
      "鄗": 4133,
      "鄚": 4134,
      "鄭": 4135,
      "酉": 4136,
      "酒": 4137,
      "酔": 4138,
      "酿": 4139,
      "醉": 4140,
      "醫": 4141,
      "里": 4142,
      "重": 4143,
      "野": 4144,
      "量": 4145,
      "金": 4146,
      "鉄": 4147,
      "鉉": 4148,
      "鉴": 4149,
      "銀": 4150,
      "銭": 4151,
      "銳": 4152,
      "鋼": 4153,
      "錦": 4154,
      "錫": 4155,
      "錬": 4156,
      "録": 4157,
      "鍵": 4158,
      "鍾": 4159,
      "鎭": 4160,
      "鎮": 4161,
      "鏡": 4162,
      "鐘": 4163,
      "鐡": 4164,
      "鐵": 4165,
      "鐸": 4166,
      "钓": 4167,
      "钜": 4168,
      "钟": 4169,
      "钱": 4170,
      "铁": 4171,
      "铅": 4172,
      "铢": 4173,
      "铭": 4174,
      "银": 4175,
      "锐": 4176,
      "错": 4177,
      "長": 4178,
      "长": 4179,
      "門": 4180,
      "開": 4181,
      "閏": 4182,
      "閑": 4183,
      "間": 4184,
      "閔": 4185,
      "関": 4186,
      "闘": 4187,
      "關": 4188,
      "门": 4189,
      "问": 4190,
      "间": 4191,
      "闻": 4192,
      "阅": 4193,
      "队": 4194,
      "阮": 4195,
      "防": 4196,
      "阳": 4197,
      "阴": 4198,
      "阶": 4199,
      "阿": 4200,
      "陀": 4201,
      "际": 4202,
      "陆": 4203,
      "陈": 4204,
      "降": 4205,
      "限": 4206,
      "院": 4207,
      "陰": 4208,
      "陳": 4209,
      "陵": 4210,
      "陶": 4211,
      "陷": 4212,
      "陸": 4213,
      "陽": 4214,
      "隆": 4215,
      "隊": 4216,
      "障": 4217,
      "隣": 4218,
      "隴": 4219,
      "隶": 4220,
      "隸": 4221,
      "难": 4222,
      "雀": 4223,
      "雁": 4224,
      "雄": 4225,
      "集": 4226,
      "雍": 4227,
      "雕": 4228,
      "雖": 4229,
      "雙": 4230,
      "雞": 4231,
      "離": 4232,
      "難": 4233,
      "雨": 4234,
      "雪": 4235,
      "雲": 4236,
      "電": 4237,
      "雾": 4238,
      "需": 4239,
      "震": 4240,
      "霊": 4241,
      "霙": 4242,
      "露": 4243,
      "靈": 4244,
      "靑": 4245,
      "青": 4246,
      "靖": 4247,
      "静": 4248,
      "靜": 4249,
      "非": 4250,
      "面": 4251,
      "革": 4252,
      "靴": 4253,
      "鞍": 4254,
      "鞠": 4255,
      "韓": 4256,
      "韩": 4257,
      "音": 4258,
      "頂": 4259,
      "順": 4260,
      "領": 4261,
      "頭": 4262,
      "頼": 4263,
      "題": 4264,
      "額": 4265,
      "顔": 4266,
      "願": 4267,
      "顧": 4268,
      "顯": 4269,
      "项": 4270,
      "顺": 4271,
      "顾": 4272,
      "预": 4273,
      "领": 4274,
      "题": 4275,
      "颜": 4276,
      "風": 4277,
      "风": 4278,
      "飛": 4279,
      "飞": 4280,
      "食": 4281,
      "飯": 4282,
      "飲": 4283,
      "餐": 4284,
      "餓": 4285,
      "館": 4286,
      "饭": 4287,
      "馆": 4288,
      "首": 4289,
      "香": 4290,
      "馨": 4291,
      "馬": 4292,
      "駆": 4293,
      "駐": 4294,
      "駙": 4295,
      "駟": 4296,
      "験": 4297,
      "騫": 4298,
      "驪": 4299,
      "马": 4300,
      "驶": 4301,
      "驻": 4302,
      "驾": 4303,
      "验": 4304,
      "骨": 4305,
      "骼": 4306,
      "體": 4307,
      "高": 4308,
      "髪": 4309,
      "鬃": 4310,
      "鬱": 4311,
      "鬼": 4312,
      "魂": 4313,
      "魏": 4314,
      "魔": 4315,
      "魚": 4316,
      "鮫": 4317,
      "鮮": 4318,
      "鯰": 4319,
      "鯵": 4320,
      "鰈": 4321,
      "鰻": 4322,
      "鱈": 4323,
      "鱓": 4324,
      "鱸": 4325,
      "鱼": 4326,
      "鲍": 4327,
      "鲜": 4328,
      "鲨": 4329,
      "鳃": 4330,
      "鳍": 4331,
      "鳥": 4332,
      "鳳": 4333,
      "鳴": 4334,
      "鴻": 4335,
      "鵬": 4336,
      "鶴": 4337,
      "鷲": 4338,
      "鸟": 4339,
      "鸡": 4340,
      "鸥": 4341,
      "鸿": 4342,
      "鹤": 4343,
      "鹭": 4344,
      "鹿": 4345,
      "麗": 4346,
      "麟": 4347,
      "麦": 4348,
      "麺": 4349,
      "麻": 4350,
      "麼": 4351,
      "黃": 4352,
      "黄": 4353,
      "黎": 4354,
      "黑": 4355,
      "黒": 4356,
      "黙": 4357,
      "鼓": 4358,
      "齐": 4359,
      "龍": 4360,
      "龙": 4361,
      "ꙋ": 4362,
      "ꙑ": 4363,
      "Ꙗ": 4364,
      "ꙗ": 4365,
      "ꡈ": 4366,
      "가": 4367,
      "각": 4368,
      "간": 4369,
      "감": 4370,
      "갑": 4371,
      "강": 4372,
      "개": 4373,
      "건": 4374,
      "것": 4375,
      "게": 4376,
      "견": 4377,
      "결": 4378,
      "겸": 4379,
      "경": 4380,
      "계": 4381,
      "고": 4382,
      "곤": 4383,
      "공": 4384,
      "과": 4385,
      "관": 4386,
      "광": 4387,
      "구": 4388,
      "국": 4389,
      "군": 4390,
      "궁": 4391,
      "권": 4392,
      "귀": 4393,
      "규": 4394,
      "균": 4395,
      "그": 4396,
      "극": 4397,
      "근": 4398,
      "금": 4399,
      "기": 4400,
      "길": 4401,
      "김": 4402,
      "까": 4403,
      "끝": 4404,
      "나": 4405,
      "낙": 4406,
      "난": 4407,
      "남": 4408,
      "내": 4409,
      "년": 4410,
      "녕": 4411,
      "노": 4412,
      "논": 4413,
      "높": 4414,
      "뉴": 4415,
      "는": 4416,
      "능": 4417,
      "니": 4418,
      "다": 4419,
      "단": 4420,
      "달": 4421,
      "담": 4422,
      "당": 4423,
      "대": 4424,
      "덕": 4425,
      "도": 4426,
      "동": 4427,
      "되": 4428,
      "두": 4429,
      "듀": 4430,
      "드": 4431,
      "들": 4432,
      "디": 4433,
      "딸": 4434,
      "또": 4435,
      "라": 4436,
      "락": 4437,
      "랑": 4438,
      "래": 4439,
      "랜": 4440,
      "램": 4441,
      "량": 4442,
      "럭": 4443,
      "련": 4444,
      "렬": 4445,
      "령": 4446,
      "로": 4447,
      "록": 4448,
      "료": 4449,
      "룡": 4450,
      "륜": 4451,
      "르": 4452,
      "를": 4453,
      "릉": 4454,
      "리": 4455,
      "린": 4456,
      "림": 4457,
      "마": 4458,
      "만": 4459,
      "망": 4460,
      "면": 4461,
      "명": 4462,
      "목": 4463,
      "몽": 4464,
      "묘": 4465,
      "무": 4466,
      "문": 4467,
      "미": 4468,
      "민": 4469,
      "믿": 4470,
      "밀": 4471,
      "박": 4472,
      "반": 4473,
      "받": 4474,
      "발": 4475,
      "밤": 4476,
      "방": 4477,
      "백": 4478,
      "법": 4479,
      "별": 4480,
      "병": 4481,
      "보": 4482,
      "복": 4483,
      "본": 4484,
      "봉": 4485,
      "부": 4486,
      "북": 4487,
      "비": 4488,
      "빈": 4489,
      "사": 4490,
      "산": 4491,
      "삼": 4492,
      "상": 4493,
      "생": 4494,
      "서": 4495,
      "석": 4496,
      "선": 4497,
      "섬": 4498,
      "섭": 4499,
      "성": 4500,
      "세": 4501,
      "셀": 4502,
      "소": 4503,
      "속": 4504,
      "손": 4505,
      "송": 4506,
      "수": 4507,
      "숙": 4508,
      "순": 4509,
      "술": 4510,
      "숭": 4511,
      "슈": 4512,
      "스": 4513,
      "승": 4514,
      "시": 4515,
      "식": 4516,
      "신": 4517,
      "심": 4518,
      "쐥": 4519,
      "씨": 4520,
      "아": 4521,
      "악": 4522,
      "안": 4523,
      "않": 4524,
      "앙": 4525,
      "애": 4526,
      "야": 4527,
      "약": 4528,
      "양": 4529,
      "어": 4530,
      "억": 4531,
      "언": 4532,
      "엄": 4533,
      "에": 4534,
      "엑": 4535,
      "여": 4536,
      "역": 4537,
      "연": 4538,
      "열": 4539,
      "염": 4540,
      "엽": 4541,
      "였": 4542,
      "영": 4543,
      "예": 4544,
      "오": 4545,
      "온": 4546,
      "와": 4547,
      "완": 4548,
      "왕": 4549,
      "외": 4550,
      "요": 4551,
      "용": 4552,
      "우": 4553,
      "운": 4554,
      "웃": 4555,
      "웅": 4556,
      "워": 4557,
      "원": 4558,
      "월": 4559,
      "위": 4560,
      "유": 4561,
      "윤": 4562,
      "융": 4563,
      "으": 4564,
      "은": 4565,
      "을": 4566,
      "음": 4567,
      "읍": 4568,
      "의": 4569,
      "이": 4570,
      "익": 4571,
      "인": 4572,
      "일": 4573,
      "임": 4574,
      "입": 4575,
      "있": 4576,
      "자": 4577,
      "작": 4578,
      "잖": 4579,
      "잡": 4580,
      "장": 4581,
      "재": 4582,
      "쟁": 4583,
      "저": 4584,
      "적": 4585,
      "전": 4586,
      "점": 4587,
      "접": 4588,
      "정": 4589,
      "제": 4590,
      "조": 4591,
      "존": 4592,
      "종": 4593,
      "좌": 4594,
      "주": 4595,
      "죽": 4596,
      "준": 4597,
      "중": 4598,
      "즈": 4599,
      "증": 4600,
      "지": 4601,
      "직": 4602,
      "진": 4603,
      "집": 4604,
      "징": 4605,
      "찬": 4606,
      "창": 4607,
      "채": 4608,
      "처": 4609,
      "천": 4610,
      "철": 4611,
      "청": 4612,
      "촌": 4613,
      "총": 4614,
      "최": 4615,
      "추": 4616,
      "춘": 4617,
      "출": 4618,
      "충": 4619,
      "치": 4620,
      "캅": 4621,
      "컴": 4622,
      "쿠": 4623,
      "키": 4624,
      "타": 4625,
      "탄": 4626,
      "탕": 4627,
      "태": 4628,
      "택": 4629,
      "터": 4630,
      "템": 4631,
      "토": 4632,
      "통": 4633,
      "퇴": 4634,
      "트": 4635,
      "특": 4636,
      "티": 4637,
      "파": 4638,
      "판": 4639,
      "퍼": 4640,
      "평": 4641,
      "포": 4642,
      "표": 4643,
      "풍": 4644,
      "프": 4645,
      "플": 4646,
      "필": 4647,
      "하": 4648,
      "학": 4649,
      "한": 4650,
      "할": 4651,
      "함": 4652,
      "합": 4653,
      "항": 4654,
      "해": 4655,
      "행": 4656,
      "헌": 4657,
      "혁": 4658,
      "현": 4659,
      "협": 4660,
      "혜": 4661,
      "호": 4662,
      "혼": 4663,
      "홀": 4664,
      "홍": 4665,
      "화": 4666,
      "환": 4667,
      "황": 4668,
      "회": 4669,
      "효": 4670,
      "후": 4671,
      "훈": 4672,
      "휘": 4673,
      "흔": 4674,
      "흡": 4675,
      "흥": 4676,
      "희": 4677,
      "": 4678,
      "ﬁ": 4679,
      "﬩": 4680,
      "ﮬ": 4681,
      "﴾": 4682,
      "﴿": 4683,
      "ﷺ": 4684,
      "︎": 4685,
      "️": 4686,
      "︰": 4687,
      "ﺍ": 4688,
      "ﺪ": 4689,
      "ﺮ": 4690,
      "ﻇ": 4691,
      "ﻟ": 4692,
      "ﻦ": 4693,
      "ﻬ": 4694,
      "ﻳ": 4695,
      "ﻴ": 4696,
      "﻿": 4697,
      "！": 4698,
      "％": 4699,
      "（": 4700,
      "）": 4701,
      "＊": 4702,
      "＋": 4703,
      "，": 4704,
      "－": 4705,
      "０": 4706,
      "１": 4707,
      "２": 4708,
      "３": 4709,
      "４": 4710,
      "５": 4711,
      "６": 4712,
      "７": 4713,
      "９": 4714,
      "：": 4715,
      "；": 4716,
      "＝": 4717,
      "？": 4718,
      "Ｃ": 4719,
      "Ｐ": 4720,
      "Ｓ": 4721,
      "Ｖ": 4722,
      "［": 4723,
      "］": 4724,
      "｛": 4725,
      "｝": 4726,
      "～": 4727,
      "･": 4728,
      "ｫ": 4729,
      "ｻ": 4730,
      "ﾠ": 4731,
      "￣": 4732,
      "�": 4733,
      "𓂓": 4734,
      "𝐀": 4735,
      "𝐁": 4736,
      "𝐂": 4737,
      "𝐃": 4738,
      "𝐆": 4739,
      "𝐋": 4740,
      "𝐌": 4741,
      "𝐑": 4742,
      "𝐓": 4743,
      "𝐚": 4744,
      "𝐛": 4745,
      "𝐜": 4746,
      "𝐝": 4747,
      "𝐞": 4748,
      "𝐟": 4749,
      "𝐢": 4750,
      "𝐥": 4751,
      "𝐦": 4752,
      "𝐧": 4753,
      "𝐨": 4754,
      "𝐩": 4755,
      "𝐫": 4756,
      "𝐭": 4757,
      "𝐮": 4758,
      "𝐰": 4759,
      "𝐲": 4760,
      "𝑓": 4761,
      "𝕂": 4762,
      "𝛽": 4763,
      "𝛾": 4764,
      "𝜆": 4765,
      "𝜊": 4766,
      "🇦": 4767,
      "🇧": 4768,
      "🇨": 4769,
      "🇪": 4770,
      "🇭": 4771,
      "🇰": 4772,
      "🇳": 4773,
      "🇵": 4774,
      "🇹": 4775,
      "🌃": 4776,
      "🌅": 4777,
      "🌈": 4778,
      "🌊": 4779,
      "🌌": 4780,
      "🌍": 4781,
      "🌎": 4782,
      "🌐": 4783,
      "🌑": 4784,
      "🌞": 4785,
      "🌟": 4786,
      "🌪": 4787,
      "🌰": 4788,
      "🌱": 4789,
      "🌳": 4790,
      "🌵": 4791,
      "🌶": 4792,
      "🌷": 4793,
      "🌸": 4794,
      "🌹": 4795,
      "🌺": 4796,
      "🌻": 4797,
      "🌿": 4798,
      "🍂": 4799,
      "🍋": 4800,
      "🍒": 4801,
      "🍝": 4802,
      "🍦": 4803,
      "🍨": 4804,
      "🍭": 4805,
      "🍰": 4806,
      "🍴": 4807,
      "🍵": 4808,
      "🍸": 4809,
      "🎂": 4810,
      "🎃": 4811,
      "🎄": 4812,
      "🎅": 4813,
      "🎇": 4814,
      "🎈": 4815,
      "🎉": 4816,
      "🎒": 4817,
      "🎓": 4818,
      "🎗": 4819,
      "🎟": 4820,
      "🎤": 4821,
      "🎥": 4822,
      "🎨": 4823,
      "🎮": 4824,
      "🎵": 4825,
      "🎶": 4826,
      "🎸": 4827,
      "🎻": 4828,
      "🏁": 4829,
      "🏃": 4830,
      "🏆": 4831,
      "🏒": 4832,
      "🏔": 4833,
      "🏖": 4834,
      "🏛": 4835,
      "🏡": 4836,
      "🏥": 4837,
      "🏻": 4838,
      "🏼": 4839,
      "🏾": 4840,
      "🏿": 4841,
      "🐉": 4842,
      "🐧": 4843,
      "👆": 4844,
      "👇": 4845,
      "👉": 4846,
      "👊": 4847,
      "👋": 4848,
      "👌": 4849,
      "👍": 4850,
      "👎": 4851,
      "👏": 4852,
      "👑": 4853,
      "👓": 4854,
      "👕": 4855,
      "👙": 4856,
      "👨": 4857,
      "👩": 4858,
      "👱": 4859,
      "👻": 4860,
      "💁": 4861,
      "💃": 4862,
      "💆": 4863,
      "💉": 4864,
      "💊": 4865,
      "💍": 4866,
      "💎": 4867,
      "💐": 4868,
      "💔": 4869,
      "💕": 4870,
      "💖": 4871,
      "💗": 4872,
      "💙": 4873,
      "💚": 4874,
      "💠": 4875,
      "💡": 4876,
      "💢": 4877,
      "💤": 4878,
      "💥": 4879,
      "💧": 4880,
      "💪": 4881,
      "💫": 4882,
      "💭": 4883,
      "💯": 4884,
      "💰": 4885,
      "💼": 4886,
      "📈": 4887,
      "📉": 4888,
      "📊": 4889,
      "📌": 4890,
      "📍": 4891,
      "📕": 4892,
      "📖": 4893,
      "📘": 4894,
      "📚": 4895,
      "📝": 4896,
      "📞": 4897,
      "📢": 4898,
      "📧": 4899,
      "📰": 4900,
      "📱": 4901,
      "📷": 4902,
      "📹": 4903,
      "📺": 4904,
      "🔈": 4905,
      "🔌": 4906,
      "🔍": 4907,
      "🔐": 4908,
      "🔗": 4909,
      "🔘": 4910,
      "🔟": 4911,
      "🔥": 4912,
      "🔦": 4913,
      "🔴": 4914,
      "🔶": 4915,
      "🔸": 4916,
      "🔹": 4917,
      "🔺": 4918,
      "🔻": 4919,
      "🕊": 4920,
      "🖧": 4921,
      "🗝": 4922,
      "🗣": 4923,
      "😀": 4924,
      "😁": 4925,
      "😂": 4926,
      "😃": 4927,
      "😄": 4928,
      "😅": 4929,
      "😆": 4930,
      "😉": 4931,
      "😊": 4932,
      "😋": 4933,
      "😌": 4934,
      "😍": 4935,
      "😎": 4936,
      "😏": 4937,
      "😓": 4938,
      "😔": 4939,
      "😕": 4940,
      "😘": 4941,
      "😞": 4942,
      "😡": 4943,
      "😢": 4944,
      "😥": 4945,
      "😦": 4946,
      "😫": 4947,
      "😭": 4948,
      "😱": 4949,
      "😳": 4950,
      "😴": 4951,
      "😷": 4952,
      "🙁": 4953,
      "🙂": 4954,
      "🙈": 4955,
      "🙉": 4956,
      "🙊": 4957,
      "🙌": 4958,
      "🙏": 4959,
      "🚀": 4960,
      "🚌": 4961,
      "🚑": 4962,
      "🚫": 4963,
      "🚭": 4964,
      "🚰": 4965,
      "🚶": 4966,
      "🛍": 4967,
      "🤑": 4968,
      "🤓": 4969,
      "🤔": 4970,
      "🤖": 4971,
      "🤗": 4972,
      "🤝": 4973,
      "🤣": 4974,
      "🤫": 4975,
      "🥁": 4976,
      "🥇": 4977,
      "🥓": 4978,
      "🥗": 4979,
      "🥚": 4980,
      "🥜": 4981,
      "🥦": 4982,
      "🥩": 4983,
      "🥭": 4984,
      "🦐": 4985,
      "🦸": 4986,
      "🧐": 4987,
      "🧘": 4988,
      "🧙": 4989,
      "🧠": 4990,
      "🧡": 4991,
      "🧤": 4992,
      "🧪": 4993,
      "🧬": 4994,
      "🧺": 4995,
      "🧼": 4996,
      "🧽": 4997,
      "🩺": 4998,
      "##2": 4999,
      "##7": 5000,
      "##(": 5001,
      "##1": 5002,
      "##4": 5003,
      "##)": 5004,
      "##.": 5005,
      "##Ш": 5006,
      "##а": 5007,
      "##н": 5008,
      "##е": 5009,
      "##в": 5010,
      "##д": 5011,
      "##р": 5012,
      "##с": 5013,
      "##-": 5014,
      "##к": 5015,
      "##о": 5016,
      "##3": 5017,
      "##:": 5018,
      "##9": 5019,
      "##п": 5020,
      "##и": 5021,
      "##т": 5022,
      "##Т": 5023,
      "##х": 5024,
      "##М": 5025,
      "##й": 5026,
      "##у": 5027,
      "##,": 5028,
      "##А": 5029,
      "##м": 5030,
      "##я": 5031,
      "##Р": 5032,
      "##Е": 5033,
      "##П": 5034,
      "##л": 5035,
      "##С": 5036,
      "##О": 5037,
      "##ж": 5038,
      "##б": 5039,
      "##ы": 5040,
      "##;": 5041,
      "##ь": 5042,
      "##\"": 5043,
      "##Ю": 5044,
      "##ф": 5045,
      "##'": 5046,
      "##a": 5047,
      "##r": 5048,
      "##0": 5049,
      "##8": 5050,
      "##Я": 5051,
      "##ю": 5052,
      "## ": 5053,
      "##—": 5054,
      "##i": 5055,
      "##n": 5056,
      "##b": 5057,
      "##o": 5058,
      "##x": 5059,
      "##u": 5060,
      "##„": 5061,
      "##г": 5062,
      "##~": 5063,
      "##6": 5064,
      "##5": 5065,
      "##ш": 5066,
      "##ч": 5067,
      "##В": 5068,
      "##Н": 5069,
      "##Л": 5070,
      "##p": 5071,
      "##e": 5072,
      "##t": 5073,
      "##d": 5074,
      "##c": 5075,
      "##y": 5076,
      "##l": 5077,
      "##ο": 5078,
      "##F": 5079,
      "##Г": 5080,
      "##»": 5081,
      "##*": 5082,
      "##И": 5083,
      "##Ф": 5084,
      "##К": 5085,
      "##…": 5086,
      "##з": 5087,
      "##?": 5088,
      "##Д": 5089,
      "##Ч": 5090,
      "##í": 5091,
      "##P": 5092,
      "##k": 5093,
      "##s": 5094,
      "##З": 5095,
      "##O": 5096,
      "##v": 5097,
      "##w": 5098,
      "##ц": 5099,
      "##|": 5100,
      "##G": 5101,
      "##I": 5102,
      "##S": 5103,
      "##m": 5104,
      "##g": 5105,
      "##á": 5106,
      "##z": 5107,
      "##«": 5108,
      "##ё": 5109,
      "##C": 5110,
      "##N": 5111,
      "##U": 5112,
      "##/": 5113,
      "##L": 5114,
      "##\\": 5115,
      "##R": 5116,
      "##A": 5117,
      "##B": 5118,
      "##E": 5119,
      "##h": 5120,
      "##У": 5121,
      "##≥": 5122,
      "##%": 5123,
      "##Х": 5124,
      "##–": 5125,
      "##Ж": 5126,
      "##Ы": 5127,
      "##Y": 5128,
      "##M": 5129,
      "##X": 5130,
      "##’": 5131,
      "##[": 5132,
      "##=": 5133,
      "##_": 5134,
      "##]": 5135,
      "##э": 5136,
      "##V": 5137,
      "##Й": 5138,
      "##Э": 5139,
      "##щ": 5140,
      "##f": 5141,
      "##ъ": 5142,
      "##“": 5143,
      "##Б": 5144,
      "##!": 5145,
      "##Щ": 5146,
      "##D": 5147,
      "##”": 5148,
      "##j": 5149,
      "##^": 5150,
      "##@": 5151,
      "##і": 5152,
      "##}": 5153,
      "##W": 5154,
      "##H": 5155,
      "##&": 5156,
      "##T": 5157,
      "##√": 5158,
      "##́": 5159,
      "##+": 5160,
      "##$": 5161,
      "##>": 5162,
      "##`": 5163,
      "##²": 5164,
      "##K": 5165,
      "##ϑ": 5166,
      "##¬": 5167,
      "##Ц": 5168,
      "##š": 5169,
      "###": 5170,
      "##№": 5171,
      "##J": 5172,
      "##ł": 5173,
      "##·": 5174,
      "##{": 5175,
      "##प": 5176,
      "##्": 5177,
      "##र": 5178,
      "##ध": 5179,
      "##ा": 5180,
      "##न": 5181,
      "##म": 5182,
      "##ं": 5183,
      "##त": 5184,
      "##ी": 5185,
      "##Ь": 5186,
      "##塩": 5187,
      "##気": 5188,
      "##<": 5189,
      "##廉": 5190,
      "##氏": 5191,
      "##ü": 5192,
      "##q": 5193,
      "##Z": 5194,
      "##​": 5195,
      "##−": 5196,
      "##±": 5197,
      "##‎": 5198,
      "##І": 5199,
      "##È": 5200,
      "##ä": 5201,
      "##è": 5202,
      "##►": 5203,
      "##‘": 5204,
      "##ў": 5205,
      "##°": 5206,
      "##­": 5207,
      "##ѣ": 5208,
      "##€": 5209,
      "##։": 5210,
      "##全": 5211,
      "##面": 5212,
      "##建": 5213,
      "##成": 5214,
      "##小": 5215,
      "##康": 5216,
      "##社": 5217,
      "##会": 5218,
      "##，": 5219,
      "##１": 5220,
      "##３": 5221,
      "##亿": 5222,
      "##人": 5223,
      "##要": 5224,
      "##携": 5225,
      "##手": 5226,
      "##前": 5227,
      "##进": 5228,
      "##。": 5229,
      "##让": 5230,
      "##几": 5231,
      "##千": 5232,
      "##万": 5233,
      "##农": 5234,
      "##村": 5235,
      "##贫": 5236,
      "##困": 5237,
      "##口": 5238,
      "##生": 5239,
      "##活": 5240,
      "##好": 5241,
      "##起": 5242,
      "##来": 5243,
      "##是": 5244,
      "##我": 5245,
      "##心": 5246,
      "##中": 5247,
      "##的": 5248,
      "##牵": 5249,
      "##挂": 5250,
      "##们": 5251,
      "##吹": 5252,
      "##响": 5253,
      "##了": 5254,
      "##打": 5255,
      "##赢": 5256,
      "##扶": 5257,
      "##攻": 5258,
      "##坚": 5259,
      "##战": 5260,
      "##号": 5261,
      "##角": 5262,
      "##党": 5263,
      "##国": 5264,
      "##勠": 5265,
      "##力": 5266,
      "##同": 5267,
      "##着": 5268,
      "##补": 5269,
      "##齐": 5270,
      "##这": 5271,
      "##块": 5272,
      "##短": 5273,
      "##板": 5274,
      "##确": 5275,
      "##保": 5276,
      "##所": 5277,
      "##有": 5278,
      "##如": 5279,
      "##期": 5280,
      "##摆": 5281,
      "##脱": 5282,
      "##对": 5283,
      "##难": 5284,
      "##群": 5285,
      "##众": 5286,
      "##都": 5287,
      "##关": 5288,
      "##爱": 5289,
      "##他": 5290,
      "##从": 5291,
      "##内": 5292,
      "##感": 5293,
      "##受": 5294,
      "##到": 5295,
      "##温": 5296,
      "##暖": 5297,
      "##대": 5298,
      "##박": 5299,
      "##이": 5300,
      "##야": 5301,
      "##ë": 5302,
      "##å": 5303,
      "##æ": 5304,
      "##ò": 5305,
      "##أ": 5306,
      "##د": 5307,
      "##ر": 5308,
      "##ك": 5309,
      "##ن": 5310,
      "##ا": 5311,
      "##ه": 5312,
      "##م": 5313,
      "##ω": 5314,
      "##♣": 5315,
      "##\t": 5316,
      "##Q": 5317,
      "##公": 5318,
      "##司": 5319,
      "##澳": 5320,
      "##門": 5321,
      "##ā": 5322,
      "##َ": 5323,
      "##ء": 5324,
      "##ت": 5325,
      "##ُ": 5326,
      "##ْ": 5327,
      "##ќ": 5328,
      "##•": 5329,
      "##ö": 5330,
      "##ß": 5331,
      "##ӏ": 5332,
      "##ل": 5333,
      "##ِ": 5334,
      "##ي": 5335,
      "##ٌ": 5336,
      "##﴾": 5337,
      "##ά": 5338,
      "##Ө": 5339,
      "##é": 5340,
      "##´": 5341,
      "##≈": 5342,
      "##Ò": 5343,
      "##ṇ": 5344,
      "##ń": 5345,
      "##ħ": 5346,
      "##®": 5347,
      "##월": 5348,
      "##Š": 5349,
      "##ї": 5350,
      "##κ": 5351,
      "##ᛉ": 5352,
      "##ᚨ": 5353,
      "##ᛋ": 5354,
      "##ᚲ": 5355,
      "##ᚺ": 5356,
      "##ᛁ": 5357,
      "##ᛏ": 5358,
      "##ᚾ": 5359,
      "##ᛃ": 5360,
      "##ו": 5361,
      "##ש": 5362,
      "##״": 5363,
      "##ת": 5364,
      "##ʃ": 5365,
      "##ό": 5366,
      "##π": 5367,
      "##υ": 5368,
      "##🚭": 5369,
      "##聖": 5370,
      "##×": 5371,
      "##ý": 5372,
      "##ל": 5373,
      "##ח": 5374,
      "##נ": 5375,
      "##י": 5376,
      "##ğ": 5377,
      "##ɛ": 5378,
      "##א": 5379,
      "##ר": 5380,
      "##ן": 5381,
      "##ה": 5382,
      "##מ": 5383,
      "##ד": 5384,
      "##ž": 5385,
      "##Ә": 5386,
      "##Ҙ": 5387,
      "##₂": 5388,
      "##ב": 5389,
      "##ך": 5390,
      "##ع": 5391,
      "##ف": 5392,
      "##û": 5393,
      "##발": 5394,
      "##표": 5395,
      "##되": 5396,
      "##였": 5397,
      "##다": 5398,
      "##イ": 5399,
      "##ス": 5400,
      "##ラ": 5401,
      "##ム": 5402,
      "##教": 5403,
      "##は": 5404,
      "##、": 5405,
      "##平": 5406,
      "##和": 5407,
      "##な": 5408,
      "##共": 5409,
      "##存": 5410,
      "##を": 5411,
      "##望": 5412,
      "##む": 5413,
      "##々": 5414,
      "##に": 5415,
      "##対": 5416,
      "##し": 5417,
      "##て": 5418,
      "##じ": 5419,
      "##よ": 5420,
      "##う": 5421,
      "##応": 5422,
      "##す": 5423,
      "##る": 5424,
      "##私": 5425,
      "##た": 5426,
      "##ち": 5427,
      "##命": 5428,
      "##い": 5429,
      "##ま": 5430,
      "##ú": 5431,
      "##†": 5432,
      "##❤": 5433,
      "##️": 5434,
      "##💗": 5435,
      "##😆": 5436,
      "##ⁿ": 5437,
      "##ó": 5438,
      "##σ": 5439,
      "##⌘": 5440,
      "##禪": 5441,
      "##î": 5442,
      "##ñ": 5443,
      "##ÿ": 5444,
      "##ṛ": 5445,
      "##خ": 5446,
      "##و": 5447,
      "##ج": 5448,
      "##燕": 5449,
      "##山": 5450,
      "##β": 5451,
      "##ē": 5452,
      "##Ü": 5453,
      "##ק": 5454,
      "##ע": 5455,
      "##Č": 5456,
      "##ê": 5457,
      "##җ": 5458,
      "##ө": 5459,
      "##ï": 5460,
      "##ð": 5461,
      "##à": 5462,
      "##þ": 5463,
      "##³": 5464,
      "##Ё": 5465,
      "##Ъ": 5466,
      "##ə": 5467,
      "##ː": 5468,
      "##ّ": 5469,
      "##ح": 5470,
      "##ة": 5471,
      "##ś": 5472,
      "##ă": 5473,
      "##‑": 5474,
      "##ә": 5475,
      "##ث": 5476,
      "##ʏ": 5477,
      "##Ї": 5478,
      "##役": 5479,
      "##員": 5480,
      "##待": 5481,
      "##遇": 5482,
      "##委": 5483,
      "##ب": 5484,
      "##ט": 5485,
      "## ": 5486,
      "##Χ": 5487,
      "##α": 5488,
      "##Λ": 5489,
      "##Ρ": 5490,
      "##₀": 5491,
      "##⑦": 5492,
      "##→": 5493,
      "##ū": 5494,
      "##ī": 5495,
      "##ذ": 5496,
      "##™": 5497,
      "##ג": 5498,
      "##ی": 5499,
      "##‌": 5500,
      "##包": 5501,
      "##子": 5502,
      "##ʊ": 5503,
      "##£": 5504,
      "##˃": 5505,
      "##天": 5506,
      "##狗": 5507,
      "##γ": 5508,
      "##↑": 5509,
      "##ø": 5510,
      "##§": 5511,
      "##👉": 5512,
      "##🏻": 5513,
      "##Ø": 5514,
      "##â": 5515,
      "##한": 5516,
      "##성": 5517,
      "##부": 5518,
      "##인": 5519,
      "##₃": 5520,
      "##않": 5521,
      "##은": 5522,
      "##č": 5523,
      "##ض": 5524,
      "##₁": 5525,
      "##Ā": 5526,
      "##ḻ": 5527,
      "##အ": 5528,
      "##င": 5529,
      "##်": 5530,
      "##း": 5531,
      "##ဝ": 5532,
      "##ခ": 5533,
      "##ေ": 5534,
      "##တ": 5535,
      "##肖": 5536,
      "##水": 5537,
      "##ً": 5538,
      "##∆": 5539,
      "##ब": 5540,
      "##ढ": 5541,
      "##़": 5542,
      "##ए": 5543,
      "##।": 5544,
      "##द": 5545,
      "##ि": 5546,
      "##व": 5547,
      "##य": 5548,
      "##қ": 5549,
      "##ң": 5550,
      "##θ": 5551,
      "##Δ": 5552,
      "##비": 5553,
      "##覇": 5554,
      "##Є": 5555,
      "##ѕ": 5556,
      "##团": 5557,
      "##派": 5558,
      "##©": 5559,
      "##ѿ": 5560,
      "##Μ": 5561,
      "##ε": 5562,
      "##τ": 5563,
      "##ώ": 5564,
      "##ρ": 5565,
      "##ν": 5566,
      "##ι": 5567,
      "##₅": 5568,
      "##ṭ": 5569,
      "##區": 5570,
      "##ě": 5571,
      "##∗": 5572,
      "##ू": 5573,
      "##ो": 5574,
      "##‚": 5575,
      "##є": 5576,
      "##ô": 5577,
      "##ã": 5578,
      "##ů": 5579,
      "##胃": 5580,
      "##火": 5581,
      "##̄": 5582,
      "##≫": 5583,
      "##ם": 5584,
      "##Ќ": 5585,
      "##ì": 5586,
      "##ς": 5587,
      "##ү": 5588,
      "##昭": 5589,
      "##乌": 5590,
      "##达": 5591,
      "##盟": 5592,
      "##غ": 5593,
      "##Ī": 5594,
      "##∫": 5595,
      "##μ": 5596,
      "##評": 5597,
      "##議": 5598,
      "##क": 5599,
      "##õ": 5600,
      "##Ý": 5601,
      "##Ê": 5602,
      "##Ã": 5603,
      "##ز": 5604,
      "##،": 5605,
      "##∩": 5606,
      "##Π": 5607,
      "##ί": 5608,
      "##ἀ": 5609,
      "##∛": 5610,
      "##♠": 5611,
      "##λ": 5612,
      "##👍": 5613,
      "##ʰ": 5614,
      "##ņ": 5615,
      "##╩": 5616,
      "##⁺": 5617,
      "##¡": 5618,
      "##⌠": 5619,
      "##■": 5620,
      "##🇧": 5621,
      "##ћ": 5622,
      "##⌉": 5623,
      "##Һ": 5624,
      "##ҙ": 5625,
      "##╚": 5626,
      "##ص": 5627,
      "##ق": 5628,
      "##毕": 5629,
      "##津": 5630,
      "##浩": 5631,
      "##应": 5632,
      "##用": 5633,
      "##该": 5634,
      "##库": 5635,
      "##可": 5636,
      "##提": 5637,
      "##供": 5638,
      "##多": 5639,
      "##种": 5640,
      "##功": 5641,
      "##能": 5642,
      "##您": 5643,
      "##将": 5644,
      "##重": 5645,
      "##放": 5646,
      "##在": 5647,
      "##开": 5648,
      "##发": 5649,
      "##而": 5650,
      "##非": 5651,
      "##特": 5652,
      "##定": 5653,
      "##处": 5654,
      "##理": 5655,
      "##器": 5656,
      "##细": 5657,
      "##节": 5658,
      "##上": 5659,
      "##◯": 5660,
      "##வ": 5661,
      "##ீ": 5662,
      "##ட": 5663,
      "##்": 5664,
      "##ு": 5665,
      "##ல": 5666,
      "##ល": 5667,
      "##ំ": 5668,
      "##ដ": 5669,
      "##ា": 5670,
      "##ប": 5671,
      "##់": 5672,
      "##₉": 5673,
      "##ọ": 5674,
      "##ὀ": 5675,
      "##έ": 5676,
      "##ɝ": 5677,
      "##追": 5678,
      "##忍": 5679,
      "##部": 5680,
      "##隊": 5681,
      "##̈": 5682,
      "##ύ": 5683,
      "##❿": 5684,
      "##❽": 5685,
      "##إ": 5686,
      "##皇": 5687,
      "##帝": 5688,
      "##鮫": 5689,
      "##皮": 5690,
      "##聋": 5691,
      "##工": 5692,
      "##Ј": 5693,
      "##ј": 5694,
      "##δ": 5695,
      "##כ": 5696,
      "##坤": 5697,
      "##≡": 5698,
      "##∀": 5699,
      "##¸": 5700,
      "##ण": 5701,
      "##े": 5702,
      "##श": 5703,
      "## ": 5704,
      "##Ţ": 5705,
      "##Α": 5706,
      "##ɔ": 5707,
      "##Á": 5708,
      "##♥": 5709,
      "##Σ": 5710,
      "##ђ": 5711,
      "##ş": 5712,
      "##ı": 5713,
      "##③": 5714,
      "##२": 5715,
      "##५": 5716,
      "##॥": 5717,
      "##⋅": 5718,
      "##フ": 5719,
      "##ォ": 5720,
      "##ク": 5721,
      "##シ": 5722,
      "##ー": 5723,
      "##ア": 5724,
      "##タ": 5725,
      "##█": 5726,
      "##ˆ": 5727,
      "##ḷ": 5728,
      "##‒": 5729,
      "##⇐": 5730,
      "##ç": 5731,
      "##구": 5732,
      "##씨": 5733,
      "##∘": 5734,
      "##Ѕ": 5735,
      "##φ": 5736,
      "##ą": 5737,
      "##ż": 5738,
      "##ֵ": 5739,
      "##˦": 5740,
      "##พ": 5741,
      "##ั": 5742,
      "##ฒ": 5743,
      "##น": 5744,
      "##า": 5745,
      "##ก": 5746,
      "##ร": 5747,
      "##ข": 5748,
      "##อ": 5749,
      "##ง": 5750,
      "##ม": 5751,
      "##ุ": 5752,
      "##ษ": 5753,
      "##ย": 5754,
      "##์": 5755,
      "##บ": 5756,
      "##ธ": 5757,
      "##ใ": 5758,
      "##ช": 5759,
      "##ณ": 5760,
      "##จ": 5761,
      "##ไ": 5762,
      "##ท": 5763,
      "##⁠": 5764,
      "##以": 5765,
      "##χ": 5766,
      "##一": 5767,
      "##פ": 5768,
      "##ĝ": 5769,
      "##ى": 5770,
      "##ط": 5771,
      "##ù": 5772,
      "##≤": 5773,
      "##η": 5774,
      "##⁷": 5775,
      "##˧": 5776,
      "##˩": 5777,
      "##Ï": 5778,
      "##÷": 5779,
      "##毫": 5780,
      "##ස": 5781,
      "##ා": 5782,
      "##ම": 5783,
      "##න": 5784,
      "##්": 5785,
      "##ය": 5786,
      "##צ": 5787,
      "##숭": 5788,
      "##선": 5789,
      "##군": 5790,
      "##🔘": 5791,
      "##̃": 5792,
      "##ु": 5793,
      "##स": 5794,
      "##🏃": 5795,
      "##‍": 5796,
      "##♂": 5797,
      "##Ѧ": 5798,
      "##ส": 5799,
      "##ิ": 5800,
      "##헌": 5801,
      "##왕": 5802,
      "##후": 5803,
      "##Β": 5804,
      "##⃣": 5805,
      "##⠀": 5806,
      "##電": 5807,
      "##源": 5808,
      "##入": 5809,
      "##れ": 5810,
      "##状": 5811,
      "##態": 5812,
      "##で": 5813,
      "##端": 5814,
      "##末": 5815,
      "##デ": 5816,
      "##バ": 5817,
      "##ッ": 5818,
      "##グ": 5819,
      "##効": 5820,
      "##パ": 5821,
      "##ソ": 5822,
      "##コ": 5823,
      "##ン": 5824,
      "##接": 5825,
      "##続": 5826,
      "##く": 5827,
      "##だ": 5828,
      "##さ": 5829,
      "##ˈ": 5830,
      "##ɪ": 5831,
      "##İ": 5832,
      "##洪": 5833,
      "##鍾": 5834,
      "##譱": 5835,
      "##岩": 5836,
      "##里": 5837,
      "##政": 5838,
      "##男": 5839,
      "##순": 5840,
      "##조": 5841,
      "##ṃ": 5842,
      "##Κ": 5843,
      "##💭": 5844,
      "##ҳ": 5845,
      "##�": 5846,
      "##अ": 5847,
      "##ग": 5848,
      "##ज": 5849,
      "##ह": 5850,
      "##ः": 5851,
      "##ę": 5852,
      "##ź": 5853,
      "##ғ": 5854,
      "##ć": 5855,
      "##杉": 5856,
      "##׀": 5857,
      "##ξ": 5858,
      "##🥜": 5859,
      "##ᵣ": 5860,
      "##∈": 5861,
      "##ℝ": 5862,
      "##س": 5863,
      "##झ": 5864,
      "##Ō": 5865,
      "##耆": 5866,
      "##燮": 5867,
      "##陳": 5868,
      "##佳": 5869,
      "##伶": 5870,
      "##˝": 5871,
      "##Í": 5872,
      "##剣": 5873,
      "##道": 5874,
      "##የ": 5875,
      "##ኢ": 5876,
      "##ት": 5877,
      "##ዮ": 5878,
      "##ጵ": 5879,
      "##ያ": 5880,
      "##ῶ": 5881,
      "##并": 5882,
      "##任": 5883,
      "##名": 5884,
      "##代": 5885,
      "##表": 5886,
      "##♀": 5887,
      "##ზ": 5888,
      "##ღ": 5889,
      "##ვ": 5890,
      "##ი": 5891,
      "##ს": 5892,
      "##უ": 5893,
      "##ბ": 5894,
      "##ა": 5895,
      "##ნ": 5896,
      "##높": 5897,
      "##☰": 5898,
      "##〉": 5899,
      "##˨": 5900,
      "##ʌ": 5901,
      "##ƒ": 5902,
      "##‡": 5903,
      "##µ": 5904,
      "##━": 5905,
      "##―": 5906,
      "##ෙ": 5907,
      "##′": 5908,
      "##최": 5909,
      "##룡": 5910,
      "##해": 5911,
      "##邵": 5912,
      "##節": 5913,
      "##؟": 5914,
      "##Қ": 5915,
      "##Ε": 5916,
      "##Γ": 5917,
      "##や": 5918,
      "##심": 5919,
      "##观": 5920,
      "##音": 5921,
      "##桥": 5922,
      "##Ș": 5923,
      "##ӧ": 5924,
      "##ҫ": 5925,
      "##』": 5926,
      "##ₙ": 5927,
      "##∞": 5928,
      "##¹": 5929,
      "##辻": 5930,
      "##井": 5931,
      "##ὶ": 5932,
      "##★": 5933,
      "##ɾ": 5934,
      "##존": 5935,
      "##정": 5936,
      "##孝": 5937,
      "##✘": 5938,
      "##✔": 5939,
      "##⁻": 5940,
      "##⁰": 5941,
      "##․": 5942,
      "##⁵": 5943,
      "##ή": 5944,
      "##소": 5945,
      "##현": 5946,
      "##세": 5947,
      "##자": 5948,
      "##Ú": 5949,
      "##🌎": 5950,
      "##Ђ": 5951,
      "##ۡ": 5952,
      "##太": 5953,
      "##原": 5954,
      "##话": 5955,
      "##컴": 5956,
      "##보": 5957,
      "##ֶ": 5958,
      "##覘": 5959,
      "##き": 5960,
      "##次": 5961,
      "##ῦ": 5962,
      "##ृ": 5963,
      "##¾": 5964,
      "##✅": 5965,
      "##集": 5966,
      "##女": 5967,
      "##破": 5968,
      "##墨": 5969,
      "##환": 5970,
      "##ō": 5971,
      "##ܓ": 5972,
      "##ܙ": 5973,
      "##ܪ": 5974,
      "##ܬ": 5975,
      "##ܐ": 5976,
      "##リ": 5977,
      "##ト": 5978,
      "##ケ": 5979,
      "##Æ": 5980,
      "##ѓ": 5981,
      "##「": 5982,
      "##😥": 5983,
      "##ᵢ": 5984,
      "##西": 5985,
      "##海": 5986,
      "##郡": 5987,
      "##鳴": 5988,
      "##ห": 5989,
      "##้": 5990,
      "##ต": 5991,
      "##ด": 5992,
      "##ี": 5993,
      "##ʾ": 5994,
      "##김": 5995,
      "##손": 5996,
      "##근": 5997,
      "##″": 5998,
      "##ז": 5999,
      "##識": 6000,
      "##仁": 6001,
      "##親": 6002,
      "##王": 6003,
      "##ਤ": 6004,
      "##ੇ": 6005,
      "##च": 6006,
      "##ै": 6007,
      "##↓": 6008,
      "##宜": 6009,
      "##嬪": 6010,
      "##宮": 6011,
      "##🌸": 6012,
      "##浣": 6013,
      "##▪": 6014,
      "##⟨": 6015,
      "##⟩": 6016,
      "##⎛": 6017,
      "##⎝": 6018,
      "##Ö": 6019,
      "##१": 6020,
      "##ህ": 6021,
      "##ዝ": 6022,
      "##ባ": 6023,
      "##ዊ": 6024,
      "##ٍ": 6025,
      "##ţ": 6026,
      "##ѧ": 6027,
      "##½": 6028,
      "##∼": 6029,
      "##ش": 6030,
      "##顯": 6031,
      "##뉴": 6032,
      "##파": 6033,
      "##워": 6034,
      "##트": 6035,
      "##럭": 6036,
      "##ۚ": 6037,
      "##記": 6038,
      "##の": 6039,
      "##順": 6040,
      "##行": 6041,
      "##っ": 6042,
      "##後": 6043,
      "##エ": 6044,
      "##押": 6045,
      "##・": 6046,
      "##¯": 6047,
      "##ツ": 6048,
      "##‖": 6049,
      "##Ω": 6050,
      "##葛": 6051,
      "##藤": 6052,
      "##ӣ": 6053,
      "##계": 6054,
      "##원": 6055,
      "##º": 6056,
      "##宗": 6057,
      "##¦": 6058,
      "##香": 6059,
      "##合": 6060,
      "##¶": 6061,
      "##¢": 6062,
      "##გ": 6063,
      "##დ": 6064,
      "##მ": 6065,
      "##ო": 6066,
      "##წ": 6067,
      "##ე": 6068,
      "##რ": 6069,
      "##悪": 6070,
      "##ノ": 6071,
      "##召": 6072,
      "##使": 6073,
      "##レ": 6074,
      "##ル": 6075,
      "##ハ": 6076,
      "##ҡ": 6077,
      "##ė": 6078,
      "##チ": 6079,
      "##ェ": 6080,
      "##ャ": 6081,
      "##州": 6082,
      "##ἐ": 6083,
      "##ℚ": 6084,
      "##金": 6085,
      "##炳": 6086,
      "##儒": 6087,
      "##抱": 6088,
      "##え": 6089,
      "##➠": 6090,
      "##ὰ": 6091,
      "##そ": 6092,
      "##が": 6093,
      "##嫌": 6094,
      "##ど": 6095,
      "##本": 6096,
      "##当": 6097,
      "##創": 6098,
      "##造": 6099,
      "##興": 6100,
      "##味": 6101,
      "##深": 6102,
      "##も": 6103,
      "##持": 6104,
      "##げ": 6105,
      "##ょ": 6106,
      "##か": 6107,
      "##？": 6108,
      "##」": 6109,
      "##ٱ": 6110,
      "##ٰ": 6111,
      "##종": 6112,
      "##ӗ": 6113,
      "##ὴ": 6114,
      "##塞": 6115,
      "##∠": 6116,
      "##😍": 6117,
      "##న": 6118,
      "##ి": 6119,
      "##반": 6120,
      "##남": 6121,
      "##њ": 6122,
      "##∂": 6123,
      "##ѐ": 6124,
      "##ヤ": 6125,
      "##マ": 6126,
      "##株": 6127,
      "##式": 6128,
      "##Ο": 6129,
      "##Υ": 6130,
      "##ວ": 6131,
      "##ຽ": 6132,
      "##ງ": 6133,
      "##ຈ": 6134,
      "##ັ": 6135,
      "##ນ": 6136,
      "##竹": 6137,
      "##取": 6138,
      "##翁": 6139,
      "##Τ": 6140,
      "##இ": 6141,
      "##ங": 6142,
      "##க": 6143,
      "##ை": 6144,
      "##҆": 6145,
      "##ꙋ": 6146,
      "##ס": 6147,
      "##¿": 6148,
      "##閔": 6149,
      "##♦": 6150,
      "##̣": 6151,
      "##畿": 6152,
      "##服": 6153,
      "##╟": 6154,
      "##敖": 6155,
      "##联": 6156,
      "##旗": 6157,
      "##Å": 6158,
      "##ִ": 6159,
      "##ְ": 6160,
      "##ּ": 6161,
      "##ׁ": 6162,
      "##ֹ": 6163,
      "##ψ": 6164,
      "##Ў": 6165,
      "##Θ": 6166,
      "##溪": 6167,
      "##大": 6168,
      "##院": 6169,
      "##君": 6170,
      "##Ա": 6171,
      "##ր": 6172,
      "##ց": 6173,
      "##ա": 6174,
      "##խ": 6175,
      "##ף": 6176,
      "##క": 6177,
      "##ొ": 6178,
      "##స": 6179,
      "##ా": 6180,
      "##గ": 6181,
      "##ం": 6182,
      "##చ": 6183,
      "##∬": 6184,
      "##ǔ": 6185,
      "##ָ": 6186,
      "##ұ": 6187,
      "##방": 6188,
      "##탄": 6189,
      "##년": 6190,
      "##단": 6191,
      "##Њ": 6192,
      "##수": 6193,
      "##┗": 6194,
      "##┅": 6195,
      "##◉": 6196,
      "##恭": 6197,
      "##ª": 6198,
      "##": 6199,
      "##ञ": 6200,
      "##虹": 6201,
      "##岬": 6202,
      "##ხ": 6203,
      "##ლ": 6204,
      "##₽": 6205,
      "##ھ": 6206,
      "##ʧ": 6207,
      "##ẵ": 6208,
      "##ʤ": 6209,
      "##↗": 6210,
      "##장": 6211,
      "##렬": 6212,
      "##驾": 6213,
      "##驶": 6214,
      "##黄": 6215,
      "##色": 6216,
      "##汽": 6217,
      "##车": 6218,
      "##很": 6219,
      "##擅": 6220,
      "##长": 6221,
      "##交": 6222,
      "##际": 6223,
      "##且": 6224,
      "##智": 6225,
      "##慧": 6226,
      "##无": 6227,
      "##论": 6228,
      "##还": 6229,
      "##路": 6230,
      "##何": 6231,
      "##情": 6232,
      "##况": 6233,
      "##说": 6234,
      "##不": 6235,
      "##问": 6236,
      "##题": 6237,
      "##适": 6238,
      "##切": 6239,
      "##광": 6240,
      "##산": 6241,
      "##₄": 6242,
      "##📍": 6243,
      "##唱": 6244,
      "##歌": 6245,
      "##┣": 6246,
      "##臺": 6247,
      "##灣": 6248,
      "##航": 6249,
      "##空": 6250,
      "##ŋ": 6251,
      "##安": 6252,
      "##阳": 6253,
      "##¤": 6254,
      "##ᵏ": 6255,
      "##›": 6256,
      "##홍": 6257,
      "##낙": 6258,
      "##임": 6259,
      "##љ": 6260,
      "##①": 6261,
      "##顾": 6262,
      "##绍": 6263,
      "##培": 6264,
      "##🧬": 6265,
      "##⅝": 6266,
      "##題": 6267,
      "##楽": 6268,
      "##沈": 6269,
      "##㴶": 6270,
      "##药": 6271,
      "##豆": 6272,
      "##민": 6273,
      "##치": 6274,
      "##경": 6275,
      "##⁄": 6276,
      "##文": 6277,
      "##化": 6278,
      "##É": 6279,
      "##ǝ": 6280,
      "##œ": 6281,
      "##圓": 6282,
      "##Ɛ": 6283,
      "##Į": 6284,
      "##ř": 6285,
      "##⁴": 6286,
      "##ζ": 6287,
      "##沧": 6288,
      "##专": 6289,
      "##区": 6290,
      "##भ": 6291,
      "##̇": 6292,
      "##ɑ": 6293,
      "##🧠": 6294,
      "##🎓": 6295,
      "##〗": 6296,
      "##横": 6297,
      "##綱": 6298,
      "##審": 6299,
      "##☺": 6300,
      "##ल": 6301,
      "##圭": 6302,
      "##‐": 6303,
      "##Ћ": 6304,
      "##ɚ": 6305,
      "##ǫ": 6306,
      "##ӯ": 6307,
      "##ҷ": 6308,
      "##↔": 6309,
      "##〰": 6310,
      "##증": 6311,
      "##ḍ": 6312,
      "##‹": 6313,
      "##华": 6314,
      "##歆": 6315,
      "##ӱ": 6316,
      "##绥": 6317,
      "##芬": 6318,
      "##河": 6319,
      "##居": 6320,
      "##民": 6321,
      "##注": 6322,
      "##请": 6323,
      "##求": 6324,
      "##普": 6325,
      "##京": 6326,
      "##总": 6327,
      "##统": 6328,
      "##亲": 6329,
      "##笔": 6330,
      "##为": 6331,
      "##纪": 6332,
      "##念": 6333,
      "##雕": 6334,
      "##塑": 6335,
      "##词": 6336,
      "##下": 6337,
      "##就": 6338,
      "##市": 6339,
      "##收": 6340,
      "##回": 6341,
      "##信": 6342,
      "##：": 6343,
      "##ṅ": 6344,
      "##Ⅱ": 6345,
      "##歳": 6346,
      "##ヶ": 6347,
      "##月": 6348,
      "##間": 6349,
      "##東": 6350,
      "##劇": 6351,
      "##場": 6352,
      "##開": 6353,
      "##！": 6354,
      "##地": 6355,
      "##獄": 6356,
      "##編": 6357,
      "##序": 6358,
      "##章": 6359,
      "##진": 6360,
      "##양": 6361,
      "##﴿": 6362,
      "##행": 6363,
      "## ": 6364,
      "##숙": 6365,
      "##신": 6366,
      "##공": 6367,
      "##주": 6368,
      "##💫": 6369,
      "##һ": 6370,
      "##나": 6371,
      "##Ң": 6372,
      "##ῆ": 6373,
      "##ﬁ": 6374,
      "##ș": 6375,
      "##🌟": 6376,
      "##Φ": 6377,
      "##এ": 6378,
      "##র": 6379,
      "##শ": 6380,
      "##া": 6381,
      "##দ": 6382,
      "##ѵ": 6383,
      "##白": 6384,
      "##龙": 6385,
      "##潭": 6386,
      "##悦": 6387,
      "##삼": 6388,
      "##탕": 6389,
      "##서": 6390,
      "##용": 6391,
      "##갑": 6392,
      "##Ś": 6393,
      "##규": 6394,
      "##Կ": 6395,
      "##պ": 6396,
      "##դ": 6397,
      "##ո": 6398,
      "##վ": 6399,
      "##կ": 6400,
      "##ի": 6401,
      "##め": 6402,
      "##گ": 6403,
      "##ƶ": 6404,
      "##ț": 6405,
      "##📚": 6406,
      "##✨": 6407,
      "##ґ": 6408,
      "##ظ": 6409,
      "##내": 6410,
      "##각": 6411,
      "##漢": 6412,
      "##陽": 6413,
      "##효": 6414,
      "##آ": 6415,
      "##🥓": 6416,
      "##☝": 6417,
      "##ṣ": 6418,
      "##Ӏ": 6419,
      "##재": 6420,
      "##창": 6421,
      "##ʀ": 6422,
      "##ҧ": 6423,
      "##年": 6424,
      "##日": 6425,
      "##‰": 6426,
      "##저": 6427,
      "##하": 6428,
      "##Ѣ": 6429,
      "##城": 6430,
      "##家": 6431,
      "##ᴒ": 6432,
      "##庆": 6433,
      "##主": 6434,
      "##㍻": 6435,
      "##Ἀ": 6436,
      "##ɕ": 6437,
      "##Â": 6438,
      "##听": 6439,
      "##⑤": 6440,
      "##ő": 6441,
      "##尉": 6442,
      "##図": 6443,
      "##掛": 6444,
      "##濟": 6445,
      "##謙": 6446,
      "##ک": 6447,
      "##崇": 6448,
      "##₋": 6449,
      "##택": 6450,
      "##Î": 6451,
      "##瑞": 6452,
      "##幸": 6453,
      "##咖": 6454,
      "##啡": 6455,
      "##🦸": 6456,
      "##🌞": 6457,
      "##💕": 6458,
      "##明": 6459,
      "##純": 6460,
      "##徽": 6461,
      "##正": 6462,
      "##元": 6463,
      "##粹": 6464,
      "##寧": 6465,
      "##敬": 6466,
      "##獻": 6467,
      "##莊": 6468,
      "##穆": 6469,
      "##哲": 6470,
      "##后": 6471,
      "##약": 6472,
      "##刺": 6473,
      "##身": 6474,
      "##무": 6475,
      "##를": 6476,
      "##ὐ": 6477,
      "##晉": 6478,
      "##唐": 6479,
      "##叔": 6480,
      "##虞": 6481,
      "##鳥": 6482,
      "##经": 6483,
      "##棚": 6484,
      "##县": 6485,
      "##复": 6486,
      "##旦": 6487,
      "##诗": 6488,
      "##ഠ": 6489,
      "##ൊ": 6490,
      "##ɣ": 6491,
      "##🎸": 6492,
      "##🔥": 6493,
      "##尹": 6494,
      "##固": 6495,
      "##机": 6496,
      "##场": 6497,
      "##ư": 6498,
      "##ờ": 6499,
      "##ச": 6500,
      "##ி": 6501,
      "##ப": 6502,
      "##ூ": 6503,
      "##ர": 6504,
      "##ว": 6505,
      "##ป": 6506,
      "##ဍ": 6507,
      "##ရ": 6508,
      "##က": 6509,
      "##ာ": 6510,
      "##ẹ": 6511,
      "##Ł": 6512,
      "##đ": 6513,
      "##亭": 6514,
      "##̂": 6515,
      "##現": 6516,
      "##世": 6517,
      "##死": 6518,
      "##神": 6519,
      "##お": 6520,
      "##ペ": 6521,
      "##汝": 6522,
      "##隣": 6523,
      "##殺": 6524,
      "##戮": 6525,
      "##せ": 6526,
      "##⚡": 6527,
      "##ಭ": 6528,
      "##ಾ": 6529,
      "##ರ": 6530,
      "##ತ": 6531,
      "##ष": 6532,
      "##🌌": 6533,
      "##樂": 6534,
      "##언": 6535,
      "##︰": 6536,
      "##四": 6537,
      "##五": 6538,
      "##径": 6539,
      "##九": 6540,
      "##〇": 6541,
      "##糎": 6542,
      "##砲": 6543,
      "##Ι": 6544,
      "##ਸ": 6545,
      "##ਾ": 6546,
      "##ਰ": 6547,
      "##葉": 6548,
      "##光": 6549,
      "##ऽ": 6550,
      "##🧡": 6551,
      "##懐": 6552,
      "##風": 6553,
      "##藻": 6554,
      "##Օ": 6555,
      "##գ": 6556,
      "##ւ": 6557,
      "##թ": 6558,
      "##ն": 6559,
      "##ૐ": 6560,
      "##朱": 6561,
      "##屺": 6562,
      "##瞻": 6563,
      "##雍": 6564,
      "##💧": 6565,
      "##≠": 6566,
      "##尾": 6567,
      "##蛇": 6568,
      "##则": 6569,
      "##爬": 6570,
      "##动": 6571,
      "##物": 6572,
      "##具": 6573,
      "##完": 6574,
      "##征": 6575,
      "##∝": 6576,
      "##ŵ": 6577,
      "##兪": 6578,
      "##治": 6579,
      "##ਨ": 6580,
      "##左": 6581,
      "##根": 6582,
      "##─": 6583,
      "##Ν": 6584,
      "##☕": 6585,
      "##ម": 6586,
      "##ហ": 6587,
      "##Ҡ": 6588,
      "##つ": 6589,
      "##食": 6590,
      "##臓": 6591,
      "##発": 6592,
      "##作": 6593,
      "##最": 6594,
      "##初": 6595,
      "##症": 6596,
      "##自": 6597,
      "##覚": 6598,
      "##ら": 6599,
      "##救": 6600,
      "##急": 6601,
      "##療": 6602,
      "##室": 6603,
      "##り": 6604,
      "##均": 6605,
      "##時": 6606,
      "##ぐ": 6607,
      "##必": 6608,
      "##ῖ": 6609,
      "##ῐ": 6610,
      "##始": 6611,
      "##殿": 6612,
      "##傻": 6613,
      "##瓜": 6614,
      "##기": 6615,
      "##ǐ": 6616,
      "##℃": 6617,
      "##Ħ": 6618,
      "##ʼ": 6619,
      "##ʿ": 6620,
      "##까": 6621,
      "##지": 6622,
      "##의": 6623,
      "##陶": 6624,
      "##乐": 6625,
      "##ǎ": 6626,
      "##ئ": 6627,
      "##ۗ": 6628,
      "##협": 6629,
      "##ῷ": 6630,
      "##Ί": 6631,
      "##Đ": 6632,
      "##∑": 6633,
      "##草": 6634,
      "##书": 6635,
      "##ҍ": 6636,
      "##ֲ": 6637,
      "##《": 6638,
      "##》": 6639,
      "##ญ": 6640,
      "##₹": 6641,
      "##㍼": 6642,
      "##ӑ": 6643,
      "##域": 6644,
      "##危": 6645,
      "##機": 6646,
      "##┘": 6647,
      "##ន": 6648,
      "##្": 6649,
      "##棕": 6650,
      "##视": 6651,
      "##庭": 6652,
      "##传": 6653,
      "##首": 6654,
      "##选": 6655,
      "##时": 6656,
      "##现": 6657,
      "##得": 6658,
      "##冷": 6659,
      "##静": 6660,
      "##Ἰ": 6661,
      "##視": 6662,
      "##聽": 6663,
      "##Ó": 6664,
      "##云": 6665,
      "##雾": 6666,
      "##Έ": 6667,
      "##ℤ": 6668,
      "##🌈": 6669,
      "##相": 6670,
      "##撲": 6671,
      "##連": 6672,
      "##𝛾": 6673,
      "##👇": 6674,
      "##Ұ": 6675,
      "##申": 6676,
      "##ਮ": 6677,
      "##ੰ": 6678,
      "##ੀ": 6679,
      "##미": 6680,
      "##니": 6681,
      "##시": 6682,
      "##리": 6683,
      "##즈": 6684,
      "##⎣": 6685,
      "##⎦": 6686,
      "##無": 6687,
      "##门": 6688,
      "##峒": 6689,
      "##断": 6690,
      "##崖": 6691,
      "##Ǻ": 6692,
      "##మ": 6693,
      "##ూ": 6694,
      "##వ": 6695,
      "##ే": 6696,
      "##ట": 6697,
      "##ర": 6698,
      "##ు": 6699,
      "##動": 6700,
      "##科": 6701,
      "##技": 6702,
      "##学": 6703,
      "##ḥ": 6704,
      "##🌻": 6705,
      "##🎉": 6706,
      "##😕": 6707,
      "##驪": 6708,
      "##ӈ": 6709,
      "##ӄ": 6710,
      "##『": 6711,
      "##훈": 6712,
      "##◀": 6713,
      "##伊": 6714,
      "##茂": 6715,
      "##乃": 6716,
      "##母": 6717,
      "##შ": 6718,
      "##新": 6719,
      "##ὲ": 6720,
      "##▓": 6721,
      "##ؤ": 6722,
      "##ර": 6723,
      "##₣": 6724,
      "##●": 6725,
      "##∨": 6726,
      "##陰": 6727,
      "##赴": 6728,
      "##头": 6729,
      "##😀": 6730,
      "##七": 6731,
      "##黒": 6732,
      "##Ñ": 6733,
      "##ແ": 6734,
      "##ຕ": 6735,
      "##່": 6736,
      "##າ": 6737,
      "##ອ": 6738,
      "##ີ": 6739,
      "##້": 6740,
      "##ບ": 6741,
      "##ໍ": 6742,
      "##ມ": 6743,
      "##ກ": 6744,
      "##ຂ": 6745,
      "##ໂ": 6746,
      "##ຍ": 6747,
      "##ເ": 6748,
      "##ປ": 6749,
      "##ລ": 6750,
      "##✓": 6751,
      "##登": 6752,
      "##莱": 6753,
      "##倉": 6754,
      "##ړ": 6755,
      "##¥": 6756,
      "##˙": 6757,
      "##٠": 6758,
      "##아": 6759,
      "##랑": 6760,
      "##슈": 6761,
      "##퍼": 6762,
      "##料": 6763,
      "##酒": 6764,
      "##钱": 6765,
      "##黑": 6766,
      "##🎒": 6767,
      "##⏳": 6768,
      "##ɐ": 6769,
      "##沙": 6770,
      "##璇": 6771,
      "##빈": 6772,
      "##묘": 6773,
      "##▷": 6774,
      "##Ä": 6775,
      "##耳": 6776,
      "##朵": 6777,
      "##眼": 6778,
      "##炸": 6779,
      "##糕": 6780,
      "##ѡ": 6781,
      "##Ἐ": 6782,
      "##Ꙗ": 6783,
      "##Գ": 6784,
      "##յ": 6785,
      "##լ": 6786,
      "##զ": 6787,
      "##Ù": 6788,
      "##석": 6789,
      "##린": 6790,
      "##永": 6791,
      "##遠": 6792,
      "##⊗": 6793,
      "##ѝ": 6794,
      "##😉": 6795,
      "##ӽ": 6796,
      "##안": 6797,
      "##ほ": 6798,
      "##と": 6799,
      "##ん": 6800,
      "##聞": 6801,
      "##ぼ": 6802,
      "##声": 6803,
      "##堂": 6804,
      "##˚": 6805,
      "##თ": 6806,
      "##პ": 6807,
      "##კ": 6808,
      "##职": 6809,
      "##业": 6810,
      "##术": 6811,
      "##师": 6812,
      "##范": 6813,
      "##ൈ": 6814,
      "##ɡ": 6815,
      "##言": 6816,
      "##몽": 6817,
      "##刃": 6818,
      "##川": 6819,
      "##高": 6820,
      "##燦": 6821,
      "##Ӱ": 6822,
      "##ҥ": 6823,
      "##權": 6824,
      "##昕": 6825,
      "##ミ": 6826,
      "##͜": 6827,
      "##ʖ": 6828,
      "##峭": 6829,
      "##壁": 6830,
      "##🏥": 6831,
      "##¨": 6832,
      "##ⁱ": 6833,
      "##ꙑ": 6834,
      "##በ": 6835,
      "##አ": 6836,
      "##ካ": 6837,
      "##ል": 6838,
      "##ァ": 6839,
      "##🍵": 6840,
      "##✤": 6841,
      "##売": 6842,
      "##茶": 6843,
      "##ჯ": 6844,
      "##録": 6845,
      "##연": 6846,
      "##일": 6847,
      "##ሕ": 6848,
      "##ブ": 6849,
      "##ネ": 6850,
      "##＝": 6851,
      "##ド": 6852,
      "##ゥ": 6853,
      "##ュ": 6854,
      "##ニ": 6855,
      "##爵": 6856,
      "##ィ": 6857,
      "##☹": 6858,
      "##祖": 6859,
      "##▶": 6860,
      "##থ": 6861,
      "##ে": 6862,
      "##ক": 6863,
      "##겸": 6864,
      "##ɘ": 6865,
      "##蓝": 6866,
      "##红": 6867,
      "##绿": 6868,
      "##银": 6869,
      "##速": 6870,
      "##颜": 6871,
      "##远": 6872,
      "##于": 6873,
      "##些": 6874,
      "##各": 6875,
      "##样": 6876,
      "##通": 6877,
      "##被": 6878,
      "##涂": 6879,
      "##满": 6880,
      "##也": 6881,
      "##许": 6882,
      "##疑": 6883,
      "##否": 6884,
      "##影": 6885,
      "##整": 6886,
      "##体": 6887,
      "##事": 6888,
      "##实": 6889,
      "##证": 6890,
      "##此": 6891,
      "##个": 6892,
      "##计": 6893,
      "##数": 6894,
      "##据": 6895,
      "##¼": 6896,
      "##유": 6897,
      "##📌": 6898,
      "##罗": 6899,
      "##贯": 6900,
      "##˥": 6901,
      "##台": 6902,
      "##線": 6903,
      "##ʐ": 6904,
      "##ʲ": 6905,
      "##͡": 6906,
      "##華": 6907,
      "##☾": 6908,
      "##ᛖ": 6909,
      "##ᚳ": 6910,
      "##ᚻ": 6911,
      "##Ż": 6912,
      "##テ": 6913,
      "##網": 6914,
      "##絡": 6915,
      "##결": 6916,
      "##혼": 6917,
      "##ϳ": 6918,
      "##快": 6919,
      "##客": 6920,
      "##佛": 6921,
      "##說": 6922,
      "##箭": 6923,
      "##喻": 6924,
      "##經": 6925,
      "##천": 6926,
      "##پ": 6927,
      "##冬": 6928,
      "##Ⅹ": 6929,
      "##ਵ": 6930,
      "##ੱ": 6931,
      "##ਧ": 6932,
      "##ウ": 6933,
      "##指": 6934,
      "##示": 6935,
      "##戦": 6936,
      "##ἠ": 6937,
      "##👌": 6938,
      "##府": 6939,
      "##傅": 6940,
      "##恒": 6941,
      "##╧": 6942,
      "##鐵": 6943,
      "##管": 6944,
      "##局": 6945,
      "##杞": 6946,
      "##융": 6947,
      "##준": 6948,
      "##顔": 6949,
      "##ַ": 6950,
      "##־": 6951,
      "##出": 6952,
      "##鬼": 6953,
      "##没": 6954,
      "##寿": 6955,
      "##老": 6956,
      "##병": 6957,
      "##ḗ": 6958,
      "##ǵ": 6959,
      "##費": 6960,
      "##ϋ": 6961,
      "##상": 6962,
      "##💪": 6963,
      "##😃": 6964,
      "##⇩": 6965,
      "##益": 6966,
      "##笹": 6967,
      "##송": 6968,
      "##宁": 6969,
      "##夏": 6970,
      "##法": 6971,
      "##警": 6972,
      "##察": 6973,
      "##み": 6974,
      "##喀": 6975,
      "##喇": 6976,
      "##沁": 6977,
      "##右": 6978,
      "##翼": 6979,
      "##愛": 6980,
      "##覺": 6981,
      "##羅": 6982,
      "##載": 6983,
      "##濤": 6984,
      "##ट": 6985,
      "##ਪ": 6986,
      "##ਿ": 6987,
      "##਼": 6988,
      "##梅": 6989,
      "##ঘ": 6990,
      "##ো": 6991,
      "##ষ": 6992,
      "##ɹ": 6993,
      "##汶": 6994,
      "##震": 6995,
      "##య": 6996,
      "##డ": 6997,
      "##木": 6998,
      "##筆": 6999,
      "##💖": 7000,
      "##건": 7001,
      "##Ҳ": 7002,
      "##秒": 7003,
      "##セ": 7004,
      "##メ": 7005,
      "##亀": 7006,
      "##田": 7007,
      "##藩": 7008,
      "##♭": 7009,
      "##￣": 7010,
      "##ស": 7011,
      "##រ": 7012,
      "##៊": 7013,
      "##ុ": 7014,
      "##ہ": 7015,
      "##": 7016,
      "##布": 7017,
      "##⁹": 7018,
      "##萧": 7019,
      "##話": 7020,
      "##わ": 7021,
      "##慶": 7022,
      "##確": 7023,
      "##朝": 7024,
      "##շ": 7025,
      "##ժ": 7026,
      "##մ": 7027,
      "##﻿": 7028,
      "##容": 7029,
      "##劫": 7030,
      "##醉": 7031,
      "##অ": 7032,
      "##প": 7033,
      "##ি": 7034,
      "##ধ": 7035,
      "##ত": 7036,
      "##∙": 7037,
      "##Ð": 7038,
      "##波": 7039,
      "##班": 7040,
      "##縣": 7041,
      "##夫": 7042,
      "##ļ": 7043,
      "##호": 7044,
      "##毘": 7045,
      "##ܝ": 7046,
      "##ܲ": 7047,
      "##ܠ": 7048,
      "##ܕ": 7049,
      "##݁": 7050,
      "##ܵ": 7051,
      "##ܒ": 7052,
      "##݂": 7053,
      "##ܘ": 7054,
      "##ܿ": 7055,
      "##魚": 7056,
      "##吾": 7057,
      "##ṁ": 7058,
      "##Þ": 7059,
      "##俊": 7060,
      "##龍": 7061,
      "##別": 7062,
      "##李": 7063,
      "##振": 7064,
      "##স": 7065,
      "##清": 7066,
      "##豊": 7067,
      "##ფ": 7068,
      "##ᛟ": 7069,
      "##직": 7070,
      "##古": 7071,
      "##典": 7072,
      "##思": 7073,
      "##⚽": 7074,
      "##": 7075,
      "##林": 7076,
      "##曦": 7077,
      "##修": 7078,
      "##験": 7079,
      "##者": 7080,
      "##ồ": 7081,
      "##六": 7082,
      "##甜": 7083,
      "##ম": 7084,
      "##ু": 7085,
      "##হ": 7086,
      "##্": 7087,
      "##◆": 7088,
      "##甲": 7089,
      "##骨": 7090,
      "##業": 7091,
      "##總": 7092,
      "##半": 7093,
      "##夢": 7094,
      "##愁": 7095,
      "##將": 7096,
      "##勇": 7097,
      "##忠": 7098,
      "##魂": 7099,
      "##依": 7100,
      "##舊": 7101,
      "##守": 7102,
      "##遼": 7103,
      "##ஜ": 7104,
      "##ா": 7105,
      "##ன": 7106,
      "##ய": 7107,
      "##국": 7108,
      "##어": 7109,
      "##干": 7110,
      "##🏁": 7111,
      "##吉": 7112,
      "##₊": 7113,
      "##Ē": 7114,
      "##տ": 7115,
      "##尧": 7116,
      "##④": 7117,
      "##Ⅷ": 7118,
      "##湾": 7119,
      "##运": 7120,
      "##極": 7121,
      "##卿": 7122,
      "##เ": 7123,
      "##ศ": 7124,
      "##̀": 7125,
      "##潘": 7126,
      "##南": 7127,
      "##േ": 7128,
      "##ﾠ": 7129,
      "##考": 7130,
      "##報": 7131,
      "##告": 7132,
      "##更": 7133,
      "##緊": 7134,
      "##専": 7135,
      "##少": 7136,
      "##銭": 7137,
      "##け": 7138,
      "##こ": 7139,
      "##À": 7140,
      "##८": 7141,
      "##덕": 7142,
      "##영": 7143,
      "##⊃": 7144,
      "##泉": 7145,
      "##ڠ": 7146,
      "##⚗": 7147,
      "##洛": 7148,
      "##萨": 7149,
      "##ば": 7150,
      "##べ": 7151,
      "##ɟ": 7152,
      "##靴": 7153,
      "##あ": 7154,
      "##谁": 7155,
      "##写": 7156,
      "##명": 7157,
      "##⚠": 7158,
      "##忻": 7159,
      "##ボ": 7160,
      "##โ": 7161,
      "##ワ": 7162,
      "##ダ": 7163,
      "##Ψ": 7164,
      "##혜": 7165,
      "##灝": 7166,
      "##二": 7167,
      "##谛": 7168,
      "##📈": 7169,
      "##🌵": 7170,
      "##𝐀": 7171,
      "##𝐥": 7172,
      "##𝐨": 7173,
      "##𝐞": 7174,
      "##牧": 7175,
      "##谿": 7176,
      "##洞": 7177,
      "##举": 7178,
      "##结": 7179,
      "##果": 7180,
      "##副": 7181,
      "##已": 7182,
      "##直": 7183,
      "##छ": 7184,
      "##ǒ": 7185,
      "##俞": 7186,
      "##Љ": 7187,
      "##₩": 7188,
      "##张": 7189,
      "##照": 7190,
      "##片": 7191,
      "##拍": 7192,
      "##俄": 7193,
      "##斯": 7194,
      "##亦": 7195,
      "##為": 7196,
      "##假": 7197,
      "##義": 7198,
      "##Ѡ": 7199,
      "##ứ": 7200,
      "##Ἡ": 7201,
      "##Ț": 7202,
      "##疲": 7203,
      "##労": 7204,
      "##ゆ": 7205,
      "##休": 7206,
      "##兹": 7207,
      "##涅": 7208,
      "##佐": 7209,
      "##语": 7210,
      "##϶": 7211,
      "##ᴛ": 7212,
      "##ᴏ": 7213,
      "##↯": 7214,
      "##涼": 7215,
      "##Ӑ": 7216,
      "##烈": 7217,
      "##ű": 7218,
      "##锐": 7219,
      "##আ": 7220,
      "##ন": 7221,
      "##ΰ": 7222,
      "##池": 7223,
      "##②": 7224,
      "##粟": 7225,
      "##믿": 7226,
      "##음": 7227,
      "##隶": 7228,
      "##ϕ": 7229,
      "##Ç": 7230,
      "##青": 7231,
      "##団": 7232,
      "##庾": 7233,
      "##桔": 7234,
      "##樹": 7235,
      "##兒": 7236,
      "##舞": 7237,
      "##蹈": 7238,
      "##풍": 7239,
      "##武": 7240,
      "##汉": 7241,
      "##Ғ": 7242,
      "##ឌ": 7243,
      "##ិ": 7244,
      "##友": 7245,
      "##谊": 7246,
      "##碑": 7247,
      "##彰": 7248,
      "##位": 7249,
      "##翻": 7250,
      "##译": 7251,
      "##姑": 7252,
      "##娘": 7253,
      "##挽": 7254,
      "##绩": 7255,
      "##意": 7256,
      "##然": 7257,
      "##因": 7258,
      "##鲨": 7259,
      "##列": 7260,
      "##软": 7261,
      "##鱼": 7262,
      "##邑": 7263,
      "##借": 7264,
      "##淨": 7265,
      "##其": 7266,
      "##ʁ": 7267,
      "##蘇": 7268,
      "##塗": 7269,
      "##善": 7270,
      "##酿": 7271,
      "##坪": 7272,
      "##坝": 7273,
      "##僕": 7274,
      "##細": 7275,
      "##Η": 7276,
      "##カ": 7277,
      "##ʹ": 7278,
      "##那": 7279,
      "##字": 7280,
      "##술": 7281,
      "##百": 7282,
      "##石": 7283,
      "##여": 7284,
      "##ᴦ": 7285,
      "##आ": 7286,
      "##┐": 7287,
      "##弁": 7288,
      "##문": 7289,
      "##護": 7290,
      "##符": 7291,
      "##淀": 7292,
      "##ผ": 7293,
      "##ฟ": 7294,
      "##极": 7295,
      "##至": 7296,
      "##Ү": 7297,
      "##∥": 7298,
      "##🧺": 7299,
      "##梁": 7300,
      "##楷": 7301,
      "##⭐": 7302,
      "##열": 7303,
      "##［": 7304,
      "##袋": 7305,
      "##❌": 7306,
      "##☆": 7307,
      "##๖": 7308,
      "##ۣ": 7309,
      "##ۜ": 7310,
      "##譬": 7311,
      "##😎": 7312,
      "##淑": 7313,
      "##가": 7314,
      "##Ѓ": 7315,
      "##吴": 7316,
      "##品": 7317,
      "##Ｖ": 7318,
      "##Ｓ": 7319,
      "##キ": 7320,
      "##オ": 7321,
      "##再": 7322,
      "## ": 7323,
      "##ਊ": 7324,
      "##ਜ": 7325,
      "##ƹ": 7326,
      "##谷": 7327,
      "##砚": 7328,
      "##沐": 7329,
      "##昂": 7330,
      "##४": 7331,
      "##백": 7332,
      "##Մ": 7333,
      "##ծ": 7334,
      "##旅": 7335,
      "##ɜ": 7336,
      "##Հ": 7337,
      "##բ": 7338,
      "##ս": 7339,
      "##Ƀ": 7340,
      "##议": 7341,
      "##郎": 7342,
      "##ꡈ": 7343,
      "##浮": 7344,
      "##◦": 7345,
      "##ň": 7346,
      "##평": 7347,
      "##̉": 7348,
      "##Ë": 7349,
      "##드": 7350,
      "##래": 7351,
      "##곤": 7352,
      "##ὼ": 7353,
      "##尙": 7354,
      "##觀": 7355,
      "##Ì": 7356,
      "##➋": 7357,
      "##◁": 7358,
      "##📰": 7359,
      "##乡": 7360,
      "##健": 7361,
      "##之": 7362,
      "##⑥": 7363,
      "##ყ": 7364,
      "##🤗": 7365,
      "##령": 7366,
      "##면": 7367,
      "##趙": 7368,
      "##禧": 7369,
      "##錫": 7370,
      "##វ": 7371,
      "##ត": 7372,
      "##ៃ": 7373,
      "##ក": 7374,
      "##ច": 7375,
      "##ង": 7376,
      "##ភ": 7377,
      "##េ": 7378,
      "##ទ": 7379,
      "##គ": 7380,
      "##យ": 7381,
      "##鸥": 7382,
      "##鹭": 7383,
      "##実": 7384,
      "##プ": 7385,
      "##権": 7386,
      "##限": 7387,
      "##印": 7388,
      "##船": 7389,
      "##足": 7390,
      "##届": 7391,
      "##청": 7392,
      "##彼": 7393,
      "##三": 7394,
      "##飲": 7395,
      "##ぶ": 7396,
      "##ந": 7397,
      "##த": 7398,
      "##ᠮ": 7399,
      "##ᠣ": 7400,
      "##ᠩ": 7401,
      "##ᠭ": 7402,
      "##ᠯ": 7403,
      "##᠎": 7404,
      "##ᠦ": 7405,
      "##ᠨ": 7406,
      "##✗": 7407,
      "##英": 7408,
      "##雄": 7409,
      "##📖": 7410,
      "##생": 7411,
      "##윤": 7412,
      "##귀": 7413,
      "##見": 7414,
      "##ጉ": 7415,
      "##ዳ": 7416,
      "##ች": 7417,
      "##↲": 7418,
      "##栖": 7419,
      "##２": 7420,
      "##０": 7421,
      "##６": 7422,
      "##决": 7423,
      "##胜": 7424,
      "##阶": 7425,
      "##段": 7426,
      "##十": 7427,
      "##八": 7428,
      "##未": 7429,
      "##５": 7430,
      "##展": 7431,
      "##方": 7432,
      "##向": 7433,
      "##景": 7434,
      "##令": 7435,
      "##鼓": 7436,
      "##催": 7437,
      "##奋": 7438,
      "##但": 7439,
      "##福": 7440,
      "##降": 7441,
      "##树": 7442,
      "##立": 7443,
      "##继": 7444,
      "##续": 7445,
      "##埋": 7446,
      "##苦": 7447,
      "##彻": 7448,
      "##创": 7449,
      "##协": 7450,
      "##调": 7451,
      "##享": 7452,
      "##推": 7453,
      "##构": 7454,
      "##性": 7455,
      "##改": 7456,
      "##革": 7457,
      "##促": 7458,
      "##义": 7459,
      "##营": 7460,
      "##步": 7461,
      "##←": 7462,
      "##裙": 7463,
      "##동": 7464,
      "##엄": 7465,
      "##బ": 7466,
      "##双": 7467,
      "##超": 7468,
      "##即": 7469,
      "##笄": 7470,
      "##ひ": 7471,
      "##奥": 7472,
      "##袁": 7473,
      "##煥": 7474,
      "##Ѵ": 7475,
      "##ヅ": 7476,
      "##誕": 7477,
      "##柏": 7478,
      "##侯": 7479,
      "##ੋ": 7480,
      "##ਦ": 7481,
      "##防": 7482,
      "##彈": 7483,
      "##團": 7484,
      "##😷": 7485,
      "##恵": 7486,
      "##比": 7487,
      "##ロ": 7488,
      "##語": 7489,
      "##ᛝ": 7490,
      "##姜": 7491,
      "##ϊ": 7492,
      "##🎟": 7493,
      "##魔": 7494,
      "##隆": 7495,
      "##抗": 7496,
      "##争": 7497,
      "##暨": 7498,
      "##界": 7499,
      "##反": 7500,
      "##利": 7501,
      "##７": 7502,
      "##周": 7503,
      "##盛": 7504,
      "##阅": 7505,
      "##兵": 7506,
      "##真": 7507,
      "##施": 7508,
      "##强": 7509,
      "##军": 7510,
      "##略": 7511,
      "##宣": 7512,
      "##裁": 7513,
      "##马": 7514,
      "##先": 7515,
      "##加": 7516,
      "##坡": 7517,
      "##跨": 7518,
      "##越": 7519,
      "##握": 7520,
      "##两": 7521,
      "##岸": 7522,
      "##系": 7523,
      "##胞": 7524,
      "##愿": 7525,
      "##딸": 7526,
      "##鴻": 7527,
      "##淳": 7528,
      "##🔸": 7529,
      "##🌱": 7530,
      "##💡": 7531,
      "##😊": 7532,
      "##鮮": 7533,
      "##═": 7534,
      "##학": 7535,
      "##街": 7536,
      "##ล": 7537,
      "##ٗ": 7538,
      "##황": 7539,
      "##育": 7540,
      "##Ⓩ": 7541,
      "##Ⓨ": 7542,
      "##Ⓛ": 7543,
      "##Ⓢ": 7544,
      "##Ⓡ": 7545,
      "##Ⓤ": 7546,
      "##ٶ": 7547,
      "##ە": 7548,
      "##̯": 7549,
      "##ť": 7550,
      "##چ": 7551,
      "##ʺ": 7552,
      "##❕": 7553,
      "##裝": 7554,
      "##ɵ": 7555,
      "##ോ": 7556,
      "##皥": 7557,
      "##浓": 7558,
      "##ΐ": 7559,
      "##車": 7560,
      "##乗": 7561,
      "##ゃ": 7562,
      "##毛": 7563,
      "##眾": 7564,
      "##奉": 7565,
      "##🎤": 7566,
      "##残": 7567,
      "##∅": 7568,
      "##ぜ": 7569,
      "##ও": 7570,
      "##য": 7571,
      "##়": 7572,
      "##Ÿ": 7573,
      "##昌": 7574,
      "##ʷ": 7575,
      "##ả": 7576,
      "##ʎ": 7577,
      "##江": 7578,
      "##戸": 7579,
      "##凉": 7580,
      "##ể": 7581,
      "##😔": 7582,
      "##國": 7583,
      "##學": 7584,
      "##館": 7585,
      "##鸡": 7586,
      "##笼": 7587,
      "##ീ": 7588,
      "##➎": 7589,
      "##ॠ": 7590,
      "##サ": 7591,
      "##ˌ": 7592,
      "##渠": 7593,
      "##ὺ": 7594,
      "##ҵ": 7595,
      "##韓": 7596,
      "##胤": 7597,
      "##劉": 7598,
      "##備": 7599,
      "##𝜆": 7600,
      "##𝜊": 7601,
      "##Ό": 7602,
      "##外": 7603,
      "##伝": 7604,
      "##び": 7605,
      "##今": 7606,
      "##度": 7607,
      "##敵": 7608,
      "##モ": 7609,
      "##馬": 7610,
      "##ਉ": 7611,
      "##੍": 7612,
      "##ਹ": 7613,
      "##ਂ": 7614,
      "##野": 7615,
      "##ঠ": 7616,
      "##Ş": 7617,
      "##血": 7618,
      "##逌": 7619,
      "##ʉ": 7620,
      "##׃": 7621,
      "##⋊": 7622,
      "##弼": 7623,
      "##Ս": 7624,
      "## ": 7625,
      "##ۖ": 7626,
      "##参": 7627,
      "##姓": 7628,
      "##ỳ": 7629,
      "##Ն": 7630,
      "##祐": 7631,
      "##星": 7632,
      "##ѩ": 7633,
      "##🌍": 7634,
      "##봉": 7635,
      "##림": 7636,
      "##∃": 7637,
      "##♫": 7638,
      "##ძ": 7639,
      "##激": 7640,
      "##励": 7641,
      "##◄": 7642,
      "##港": 7643,
      "##ᵀ": 7644,
      "##ὸ": 7645,
      "##堯": 7646,
      "##薩": 7647,
      "##北": 7648,
      "##宝": 7649,
      "##铁": 7650,
      "##克": 7651,
      "##勤": 7652,
      "##设": 7653,
      "##ϭ": 7654,
      "##簡": 7655,
      "##🧪": 7656,
      "##희": 7657,
      "##제": 7658,
      "##嘉": 7659,
      "##狄": 7660,
      "##威": 7661,
      "##≪": 7662,
      "##∇": 7663,
      "##泥": 7664,
      "##东": 7665,
      "##♯": 7666,
      "##ත": 7667,
      "##ඟ": 7668,
      "##ץ": 7669,
      "##幹": 7670,
      "##知": 7671,
      "##看": 7672,
      "##候": 7673,
      "##买": 7674,
      "##习": 7675,
      "##虑": 7676,
      "##呢": 7677,
      "##编": 7678,
      "##估": 7679,
      "##橙": 7680,
      "##辆": 7681,
      "##💙": 7682,
      "##＊": 7683,
      "##予": 7684,
      "##約": 7685,
      "##制": 7686,
      "##ӷ": 7687,
      "##獣": 7688,
      "##แ": 7689,
      "##ซ": 7690,
      "##ᠡ": 7691,
      "##ะ": 7692,
      "##℗": 7693,
      "##↵": 7694,
      "##🛍": 7695,
      "##ܩ": 7696,
      "##ܫ": 7697,
      "##🙉": 7698,
      "##🙊": 7699,
      "##🙈": 7700,
      "##∪": 7701,
      "##圧": 7702,
      "##目": 7703,
      "##ື": 7704,
      "##⁸": 7705,
      "##✎": 7706,
      "##蕭": 7707,
      "##衍": 7708,
      "##थ": 7709,
      "##︎": 7710,
      "##ἡ": 7711,
      "##😢": 7712,
      "##良": 7713,
      "##惠": 7714,
      "##廟": 7715,
      "##號": 7716,
      "##久": 7717,
      "##闻": 7718,
      "##态": 7719,
      "##徐": 7720,
      "##悲": 7721,
      "##鸿": 7722,
      "##肅": 7723,
      "##ǣ": 7724,
      "##ἔ": 7725,
      "##📞": 7726,
      "##ׂ": 7727,
      "##畢": 7728,
      "##琨": 7729,
      "##Ⅲ": 7730,
      "##巴": 7731,
      "##භ": 7732,
      "##ව": 7733,
      "##ි": 7734,
      "##ට": 7735,
      "##ສ": 7736,
      "##ະ": 7737,
      "##ຫ": 7738,
      "##ດ": 7739,
      "##🤔": 7740,
      "##💎": 7741,
      "##件": 7742,
      "##회": 7743,
      "##价": 7744,
      "##错": 7745,
      "##७": 7746,
      "##Ζ": 7747,
      "##德": 7748,
      "##ѻ": 7749,
      "##ਕ": 7750,
      "##ỏ": 7751,
      "##⊇": 7752,
      "##穴": 7753,
      "##条": 7754,
      "##落": 7755,
      "##梨": 7756,
      "##県": 7757,
      "##央": 7758,
      "##茅": 7759,
      "##葺": 7760,
      "##屋": 7761,
      "##納": 7762,
      "##駐": 7763,
      "##ご": 7764,
      "##ざ": 7765,
      "##Ѿ": 7766,
      "##ἰ": 7767,
      "##ῃ": 7768,
      "##♢": 7769,
      "##馆": 7770,
      "##Ά": 7771,
      "##ɭ": 7772,
      "##🙂": 7773,
      "##间": 7774,
      "##筲": 7775,
      "##箕": 7776,
      "##譚": 7777,
      "##ⵜ": 7778,
      "##ⴰ": 7779,
      "##ⵎ": 7780,
      "##ⵙ": 7781,
      "##ⵍ": 7782,
      "##ⵢ": 7783,
      "##譜": 7784,
      "##": 7785,
      "##ȝ": 7786,
      "##ぎ": 7787,
      "##익": 7788,
      "##🍦": 7789,
      "##恩": 7790,
      "##返": 7791,
      "##玄": 7792,
      "##🏛": 7793,
      "##丘": 7794,
      "##악": 7795,
      "##플": 7796,
      "##철": 7797,
      "##鄚": 7798,
      "##鄭": 7799,
      "##漪": 7800,
      "##尤": 7801,
      "##ሌ": 7802,
      "##ሎ": 7803,
      "##고": 7804,
      "##궁": 7805,
      "##Ô": 7806,
      "##본": 7807,
      "##관": 7808,
      "##扬": 7809,
      "##鉴": 7810,
      "##程": 7811,
      "##拉": 7812,
      "##松": 7813,
      "##赛": 7814,
      "##嵐": 7815,
      "##猫": 7816,
      "##股": 7817,
      "##霊": 7818,
      "##介": 7819,
      "##商": 7820,
      "##長": 7821,
      "##⇓": 7822,
      "##故": 7823,
      "##春": 7824,
      "##麻": 7825,
      "##烦": 7826,
      "##你": 7827,
      "##卫": 7828,
      "##🚀": 7829,
      "##虚": 7830,
      "##蹴": 7831,
      "##鞠": 7832,
      "##▻": 7833,
      "##중": 7834,
      "##💢": 7835,
      "##盘": 7836,
      "##基": 7837,
      "##饭": 7838,
      "##💊": 7839,
      "##🔍": 7840,
      "##😁": 7841,
      "##ὖ": 7842,
      "##献": 7843,
      "##（": 7844,
      "##）": 7845,
      "##阿": 7846,
      "##含": 7847,
      "##例": 7848,
      "##第": 7849,
      "##師": 7850,
      "##ਆ": 7851,
      "##露": 7852,
      "## ": 7853,
      "##ێ": 7854,
      "##ც": 7855,
      "##ڤ": 7856,
      "##撃": 7857,
      "##Պ": 7858,
      "##ե": 7859,
      "##˗": 7860,
      "##ⷭ": 7861,
      "##҇": 7862,
      "##熙": 7863,
      "##崔": 7864,
      "##🏿": 7865,
      "##ዱ": 7866,
      "##ር": 7867,
      "##ɒ": 7868,
      "##☞": 7869,
      "##ₖ": 7870,
      "##🎈": 7871,
      "##🎂": 7872,
      "##紹": 7873,
      "##🏒": 7874,
      "##ʽ": 7875,
      "##Ɓ": 7876,
      "##포": 7877,
      "##함": 7878,
      "##衆": 7879,
      "##志": 7880,
      "##朋": 7881,
      "##士": 7882,
      "##‼": 7883,
      "##肃": 7884,
      "##研": 7885,
      "##究": 7886,
      "##员": 7887,
      "##ຄ": 7888,
      "##ຳ": 7889,
      "##↪": 7890,
      "##్": 7891,
      "##ో": 7892,
      "##湖": 7893,
      "##⋀": 7894,
      "##예": 7895,
      "##餓": 7896,
      "##準": 7897,
      "##頂": 7898,
      "##☛": 7899,
      "##貞": 7900,
      "##◌": 7901,
      "##烏": 7902,
      "##頭": 7903,
      "##勞": 7904,
      "##균": 7905,
      "##座": 7906,
      "##҃": 7907,
      "##花": 7908,
      "##ŷ": 7909,
      "##ট": 7910,
      "##ল": 7911,
      "##ৃ": 7912,
      "##গ": 7913,
      "##史": 7914,
      "##辞": 7915,
      "##纂": 7916,
      "##흥": 7917,
      "##🔹": 7918,
      "##阴": 7919,
      "##巷": 7920,
      "##説": 7921,
      "##総": 7922,
      "##사": 7923,
      "##強": 7924,
      "##決": 7925,
      "##완": 7926,
      "##問": 7927,
      "##解": 7928,
      "##へ": 7929,
      "##訳": 7930,
      "##ெ": 7931,
      "##ம": 7932,
      "##ள": 7933,
      "##฿": 7934,
      "##訴": 7935,
      "##訟": 7936,
      "##書": 7937,
      "##礎": 7938,
      "##徴": 7939,
      "##答": 7940,
      "##策": 7941,
      "##試": 7942,
      "##₨": 7943,
      "##ɫ": 7944,
      "##џ": 7945,
      "##🌺": 7946,
      "##妓": 7947,
      "##➡": 7948,
      "##🐉": 7949,
      "##🔦": 7950,
      "##Ӗ": 7951,
      "##⚙": 7952,
      "##우": 7953,
      "##⤵": 7954,
      "##📝": 7955,
      "##☑": 7956,
      "##ู": 7957,
      "##่": 7958,
      "##መ": 7959,
      "##ራ": 7960,
      "##ሮ": 7961,
      "##उ": 7962,
      "##延": 7963,
      "##℉": 7964,
      "##乘": 7965,
      "##➍": 7966,
      "##₸": 7967,
      "##Ἑ": 7968,
      "##۱": 7969,
      "##۳": 7970,
      "##۵": 7971,
      "##۷": 7972,
      "##統": 7973,
      "##😭": 7974,
      "##į": 7975,
      "##🔻": 7976,
      "##ተ": 7977,
      "##ቀ": 7978,
      "##ላ": 7979,
      "##ሉ": 7980,
      "##牛": 7981,
      "##峰": 7982,
      "##ჩ": 7983,
      "##季": 7984,
      "##😂": 7985,
      "##༔": 7986,
      "##Ґ": 7987,
      "##▒": 7988,
      "##ヒ": 7989,
      "##❀": 7990,
      "##₷": 7991,
      "##象": 7992,
      "##◾": 7993,
      "##ᵖ": 7994,
      "##油": 7995,
      "##溫": 7996,
      "##〈": 7997,
      "##🌿": 7998,
      "##ế": 7999,
      "##ʔ": 8000,
      "##罽": 8001,
      "##賓": 8002,
      "##ʒ": 8003,
      "##ٻ": 8004,
      "##吕": 8005,
      "##體": 8006,
      "##ሚ": 8007,
      "##ለ": 8008,
      "##ው": 8009,
      "##還": 8010,
      "##昔": 8011,
      "##〜": 8012,
      "##舎": 8013,
      "##過": 8014,
      "##ᚩ": 8015,
      "##么": 8016,
      "##又": 8017,
      "##什": 8018,
      "##ҕ": 8019,
      "##暹": 8020,
      "##Ӳ": 8021,
      "##張": 8022,
      "##합": 8023,
      "##違": 8024,
      "##ゴ": 8025,
      "##🔌": 8026,
      "##軍": 8027,
      "##🩺": 8028,
      "##热": 8029,
      "##气": 8030,
      "##校": 8031,
      "##🇹": 8032,
      "##🇭": 8033,
      "##⎵": 8034,
      "##慕": 8035,
      "##軾": 8036,
      "##ీ": 8037,
      "##ప": 8038,
      "##녕": 8039,
      "##ٹ": 8040,
      "##祉": 8041,
      "##站": 8042,
      "##擬": 8043,
      "##목": 8044,
      "##刑": 8045,
      "##務": 8046,
      "##ख": 8047,
      "##諮": 8048,
      "##臣": 8049,
      "##Ξ": 8050,
      "##Ž": 8051,
      "##俳": 8052,
      "##優": 8053,
      "##楊": 8054,
      "##Ĥ": 8055,
      "##ค": 8056,
      "##Ո": 8057,
      "##ղ": 8058,
      "##օ": 8059,
      "##ʻ": 8060,
      "##ѳ": 8061,
      "##ろ": 8062,
      "##歩": 8063,
      "##Ḳ": 8064,
      "##個": 8065,
      "##Ե": 8066,
      "##ɯ": 8067,
      "##🍰": 8068,
      "##├": 8069,
      "##전": 8070,
      "##적": 8071,
      "##洗": 8072,
      "##ँ": 8073,
      "##프": 8074,
      "##로": 8075,
      "##그": 8076,
      "##램": 8077,
      "##🌪": 8078,
      "##๑": 8079,
      "##塘": 8080,
      "##沽": 8081,
      "##協": 8082,
      "##磁": 8083,
      "##९": 8084,
      "##ℕ": 8085,
      "##陀": 8086,
      "##秘": 8087,
      "##诺": 8088,
      "##族": 8089,
      "##Ҫ": 8090,
      "##ᾶ": 8091,
      "##骼": 8092,
      "##由": 8093,
      "##硬": 8094,
      "##它": 8095,
      "##属": 8096,
      "##纲": 8097,
      "##鳍": 8098,
      "##鳃": 8099,
      "##呼": 8100,
      "##吸": 8101,
      "##妍": 8102,
      "##瓚": 8103,
      "##˂": 8104,
      "##郭": 8105,
      "##曾": 8106,
      "##炘": 8107,
      "##➌": 8108,
      "##ാ": 8109,
      "##😱": 8110,
      "##ﮬ": 8111,
      "##晚": 8112,
      "##ტ": 8113,
      "##🤫": 8114,
      "##𝐁": 8115,
      "##𝐮": 8116,
      "##𝐛": 8117,
      "##𝐫": 8118,
      "##𝐲": 8119,
      "##ㅇ": 8120,
      "##강": 8121,
      "##ਲ": 8122,
      "##ੌ": 8123,
      "##✌": 8124,
      "##☮": 8125,
      "##ὁ": 8126,
      "##近": 8127,
      "##僧": 8128,
      "##赦": 8129,
      "##ⓑ": 8130,
      "##∧": 8131,
      "##들": 8132,
      "##∏": 8133,
      "##輔": 8134,
      "##显": 8135,
      "##％": 8136,
      "##与": 8137,
      "##浅": 8138,
      "##級": 8139,
      "##✍": 8140,
      "##噶": 8141,
      "##尔": 8142,
      "##╖": 8143,
      "##谢": 8144,
      "##🌃": 8145,
      "##요": 8146,
      "##壽": 8147,
      "##Ą": 8148,
      "##隸": 8149,
      "##尚": 8150,
      "##०": 8151,
      "##進": 8152,
      "##∎": 8153,
      "##往": 8154,
      "##Õ": 8155,
      "##🙏": 8156,
      "##邯": 8157,
      "##郸": 8158,
      "##죽": 8159,
      "##ـ": 8160,
      "##引": 8161,
      "##退": 8162,
      "##勧": 8163,
      "##緣": 8164,
      "##茹": 8165,
      "##ǧ": 8166,
      "##ਅ": 8167,
      "##ギ": 8168,
      "##ビ": 8169,
      "##　": 8170,
      "##靖": 8171,
      "##勝": 8172,
      "##듀": 8173,
      "##履": 8174,
      "##雙": 8175,
      "##迴": 8176,
      "##羽": 8177,
      "##👆": 8178,
      "##웅": 8179,
      "##乾": 8180,
      "##ໄ": 8181,
      "##복": 8182,
      "##Ⅶ": 8183,
      "##ǹ": 8184,
      "##❗": 8185,
      "##❓": 8186,
      "##⌂": 8187,
      "##午": 8188,
      "##妈": 8189,
      "##做": 8190,
      "##爸": 8191,
      "##美": 8192,
      "##芝": 8193,
      "##ছ": 8194,
      "##ల": 8195,
      "##－": 8196,
      "##呉": 8197,
      "##ἶ": 8198,
      "##⬇": 8199,
      "##🎵": 8200,
      "##種": 8201,
      "##📺": 8202,
      "##･": 8203,
      "##⇥": 8204,
      "##刻": 8205,
      "##ड": 8206,
      "##⌊": 8207,
      "##⇒": 8208,
      "##儉": 8209,
      "##側": 8210,
      "##ქ": 8211,
      "##⅙": 8212,
      "##敷": 8213,
      "##島": 8214,
      "##☼": 8215,
      "##징": 8216,
      "##肝": 8217,
      "##⊆": 8218,
      "##당": 8219,
      "##을": 8220,
      "##ຊ": 8221,
      "##材": 8222,
      "##麦": 8223,
      "##粉": 8224,
      "##揚": 8225,
      "##ね": 8226,
      "##等": 8227,
      "##結": 8228,
      "##構": 8229,
      "##찬": 8230,
      "##🥁": 8231,
      "##❖": 8232,
      "##ద": 8233,
      "##승": 8234,
      "##ಜ": 8235,
      "##ಯ": 8236,
      "##雲": 8237,
      "##ը": 8238,
      "##ӳ": 8239,
      "##鳳": 8240,
      "##晸": 8241,
      "##처": 8242,
      "##経": 8243,
      "##坐": 8244,
      "##炎": 8245,
      "##瓶": 8246,
      "##陈": 8247,
      "##↳": 8248,
      "##ⵏ": 8249,
      "##升": 8250,
      "##］": 8251,
      "##🥩": 8252,
      "##⇑": 8253,
      "##ግ": 8254,
      "##ን": 8255,
      "##ቦ": 8256,
      "##土": 8257,
      "##ố": 8258,
      "##̆": 8259,
      "##旺": 8260,
      "##卡": 8261,
      "##🥭": 8262,
      "##𝐑": 8263,
      "##𝐝": 8264,
      "##丰": 8265,
      "##轄": 8266,
      "##项": 8267,
      "##约": 8268,
      "##😄": 8269,
      "##坦": 8270,
      "##蕷": 8271,
      "##钓": 8272,
      "##Ə": 8273,
      "##萬": 8274,
      "##ਭ": 8275,
      "##ਈ": 8276,
      "##ਓ": 8277,
      "##愍": 8278,
      "##懷": 8279,
      "##浄": 8280,
      "##づ": 8281,
      "##伦": 8282,
      "##裕": 8283,
      "##ȳ": 8284,
      "##│": 8285,
      "##資": 8286,
      "##彌": 8287,
      "##凍": 8288,
      "##維": 8289,
      "##耿": 8290,
      "##ˮ": 8291,
      "##🏼": 8292,
      "##礪": 8293,
      "##秀": 8294,
      "##给": 8295,
      "##封": 8296,
      "##希": 8297,
      "##拯": 8298,
      "##混": 8299,
      "##嘎": 8300,
      "##丽": 8301,
      "##娅": 8302,
      "##致": 8303,
      "##赞": 8304,
      "##互": 8305,
      "##值": 8306,
      "##铭": 8307,
      "##记": 8308,
      "##过": 8309,
      "##去": 8310,
      "##肉": 8311,
      "##桂": 8312,
      "##ĕ": 8313,
      "##🚫": 8314,
      "##ฐ": 8315,
      "##능": 8316,
      "##도": 8317,
      "##₪": 8318,
      "##疇": 8319,
      "##△": 8320,
      "##ϲ": 8321,
      "##ʙ": 8322,
      "##ᴇ": 8323,
      "##乙": 8324,
      "##瀑": 8325,
      "##ὄ": 8326,
      "##⟶": 8327,
      "##⌥": 8328,
      "##견": 8329,
      "##陆": 8330,
      "##इ": 8331,
      "##芒": 8332,
      "##盾": 8333,
      "##絵": 8334,
      "##尊": 8335,
      "##杲": 8336,
      "##分": 8337,
      "##芳": 8338,
      "##ব": 8339,
      "##ἱ": 8340,
      "##╕": 8341,
      "##萊": 8342,
      "##🎻": 8343,
      "##勒": 8344,
      "##⅔": 8345,
      "##총": 8346,
      "##ジ": 8347,
      "##賀": 8348,
      "##帖": 8349,
      "##እ": 8350,
      "##ና": 8351,
      "##량": 8352,
      "##岛": 8353,
      "##擂": 8354,
      "##墩": 8355,
      "##姬": 8356,
      "##贺": 8357,
      "##兰": 8358,
      "##鯰": 8359,
      "##鱸": 8360,
      "##鰈": 8361,
      "##鱈": 8362,
      "##鰻": 8363,
      "##😦": 8364,
      "##΄": 8365,
      "##충": 8366,
      "##级": 8367,
      "##岳": 8368,
      "##廃": 8369,
      "##刀": 8370,
      "##形": 8371,
      "##質": 8372,
      "##ぃ": 8373,
      "##折": 8374,
      "##憲": 8375,
      "##妃": 8376,
      "##💍": 8377,
      "##ք": 8378,
      "##것": 8379,
      "##终": 8380,
      "##案": 8381,
      "##앙": 8382,
      "##盐": 8383,
      "##☉": 8384,
      "##融": 8385,
      "##섭": 8386,
      "##ۢ": 8387,
      "##ẚ": 8388,
      "##마": 8389,
      "##화": 8390,
      "##❂": 8391,
      "##ﷺ": 8392,
      "##ɨ": 8393,
      "##끝": 8394,
      "##접": 8395,
      "##ឃ": 8396,
      "##ἄ": 8397,
      "##𝐓": 8398,
      "##𝐧": 8399,
      "##杨": 8400,
      "##禹": 8401,
      "##廷": 8402,
      "##⁡": 8403,
      "##苏": 8404,
      "##靑": 8405,
      "##證": 8406,
      "##遺": 8407,
      "##恢": 8408,
      "##ി": 8409,
      "##오": 8410,
      "##算": 8411,
      "##曜": 8412,
      "##菜": 8413,
      "##麺": 8414,
      "##製": 8415,
      "##扱": 8416,
      "##煮": 8417,
      "##込": 8418,
      "##素": 8419,
      "##晴": 8420,
      "##調": 8421,
      "##単": 8422,
      "##付": 8423,
      "##医": 8424,
      "##紙": 8425,
      "##句": 8426,
      "##捷": 8427,
      "##ฉ": 8428,
      "##ᚱ": 8429,
      "##ᚷ": 8430,
      "##ᛣ": 8431,
      "##➨": 8432,
      "##銀": 8433,
      "##菩": 8434,
      "##喜": 8435,
      "##ふ": 8436,
      "##ぇ": 8437,
      "##🎗": 8438,
      "##🔟": 8439,
      "##ἑ": 8440,
      "##宏": 8441,
      "##選": 8442,
      "##👑": 8443,
      "##담": 8444,
      "##➏": 8445,
      "##币": 8446,
      "##ੈ": 8447,
      "##ਟ": 8448,
      "##肺": 8449,
      "##ㄴ": 8450,
      "##著": 8451,
      "##失": 8452,
      "##想": 8453,
      "##証": 8454,
      "##剛": 8455,
      "##필": 8456,
      "##ų": 8457,
      "##ộ": 8458,
      "##淸": 8459,
      "##Җ": 8460,
      "##😡": 8461,
      "##ệ": 8462,
      "##ឍ": 8463,
      "##Ⅰ": 8464,
      "##柳": 8465,
      "##划": 8466,
      "##巧": 8467,
      "##ổ": 8468,
      "##🦐": 8469,
      "##广": 8470,
      "##秋": 8471,
      "##₴": 8472,
      "##赤": 8473,
      "##鷲": 8474,
      "##浚": 8475,
      "##६": 8476,
      "##阮": 8477,
      "##榮": 8478,
      "##暁": 8479,
      "##魏": 8480,
      "##👎": 8481,
      "##⁃": 8482,
      "##െ": 8483,
      "##走": 8484,
      "##ฆ": 8485,
      "##☀": 8486,
      "##蚊": 8487,
      "##Զ": 8488,
      "##遜": 8489,
      "##ጨ": 8490,
      "##ም": 8491,
      "##ሯ": 8492,
      "##溥": 8493,
      "##侗": 8494,
      "##鲍": 8495,
      "##若": 8496,
      "##泽": 8497,
      "##囚": 8498,
      "##徒": 8499,
      "##Ʈ": 8500,
      "##怒": 8501,
      "##胡": 8502,
      "##蝶": 8503,
      "##蘭": 8504,
      "##ஊ": 8505,
      "##ທ": 8506,
      "##ູ": 8507,
      "##祘": 8508,
      "##😴": 8509,
      "##圣": 8510,
      "##闘": 8511,
      "##駆": 8512,
      "##두": 8513,
      "##慣": 8514,
      "##彷": 8515,
      "##徨": 8516,
      "##坂": 8517,
      "##繁": 8518,
      "##밀": 8519,
      "##雪": 8520,
      "##⋃": 8521,
      "##🥗": 8522,
      "##💠": 8523,
      "##⇧": 8524,
      "##Ě": 8525,
      "##ណ": 8526,
      "##ី": 8527,
      "##ជ": 8528,
      "##ព": 8529,
      "##ภ": 8530,
      "##ถ": 8531,
      "##♪": 8532,
      "##🔗": 8533,
      "##雨": 8534,
      "##設": 8535,
      "##幕": 8536,
      "##椅": 8537,
      "##⩽": 8538,
      "##隴": 8539,
      "##宋": 8540,
      "##應": 8541,
      "##⑧": 8542,
      "##ヨ": 8543,
      "##歯": 8544,
      "##₆": 8545,
      "##ฯ": 8546,
      "##祥": 8547,
      "##勐": 8548,
      "##厂": 8549,
      "##ཚ": 8550,
      "##ེ": 8551,
      "##ག": 8552,
      "##🤓": 8553,
      "##फ": 8554,
      "##ɤ": 8555,
      "##💥": 8556,
      "##̶": 8557,
      "##‾": 8558,
      "##墓": 8559,
      "##⁶": 8560,
      "##ѥ": 8561,
      "##ዲ": 8562,
      "##ስ": 8563,
      "##Ϭ": 8564,
      "##ᖃ": 8565,
      "##ᐅ": 8566,
      "##ᔨ": 8567,
      "##ᒪ": 8568,
      "##ᔭ": 8569,
      "##ᑐ": 8570,
      "##ᖏ": 8571,
      "##ᑦ": 8572,
      "##～": 8573,
      "##博": 8574,
      "##ⴻ": 8575,
      "##ⵣ": 8576,
      "##ⵔ": 8577,
      "##欢": 8578,
      "##需": 8579,
      "##积": 8580,
      "##环": 8581,
      "##境": 8582,
      "##流": 8583,
      "##舒": 8584,
      "##尽": 8585,
      "##较": 8586,
      "##慢": 8587,
      "##量": 8588,
      "##避": 8589,
      "##免": 8590,
      "##突": 8591,
      "##⛵": 8592,
      "##✫": 8593,
      "##🍝": 8594,
      "##Ճ": 8595,
      "##통": 8596,
      "##ĵ": 8597,
      "##װ": 8598,
      "##肾": 8599,
      "##姐": 8600,
      "##ḭ": 8601,
      "##Յ": 8602,
      "##筝": 8603,
      "##常": 8604,
      "##湯": 8605,
      "##変": 8606,
      "##仮": 8607,
      "##ₓ": 8608,
      "##ʂ": 8609,
      "##간": 8610,
      "##洲": 8611,
      "##画": 8612,
      "##위": 8613,
      "##或": 8614,
      "##易": 8615,
      "##脾": 8616,
      "##暴": 8617,
      "##躁": 8618,
      "##寬": 8619,
      "##۰": 8620,
      "##휘": 8621,
      "##ൗ": 8622,
      "##伎": 8623,
      "##ఉ": 8624,
      "##త": 8625,
      "##寺": 8626,
      "##ｫ": 8627,
      "##莫": 8628,
      "##₱": 8629,
      "##只": 8630,
      "##球": 8631,
      "##园": 8632,
      "##领": 8633,
      "##导": 8634,
      "##带": 8635,
      "##质": 8636,
      "##变": 8637,
      "##务": 8638,
      "##缺": 8639,
      "##席": 8640,
      "##陷": 8641,
      "##悯": 8642,
      "##责": 8643,
      "##敞": 8644,
      "##怀": 8645,
      "##己": 8646,
      "##临": 8647,
      "##伸": 8648,
      "##援": 8649,
      "##圈": 8650,
      "##ᚹ": 8651,
      "##ᛗ": 8652,
      "##ᛈ": 8653,
      "##ὅ": 8654,
      "##叫": 8655,
      "##絶": 8656,
      "##ナ": 8657,
      "##蝴": 8658,
      "##Ŝ": 8659,
      "##ਇ": 8660,
      "##ੂ": 8661,
      "##♛": 8662,
      "##Ϳ": 8663,
      "##⚐": 8664,
      "##⚹": 8665,
      "##≅": 8666,
      "##ớ": 8667,
      "##焉": 8668,
      "##Џ": 8669,
      "##노": 8670,
      "##⁂": 8671,
      "##夕": 8672,
      "##忙": 8673,
      "##眺": 8674,
      "##埔": 8675,
      "##億": 8676,
      "##┬": 8677,
      "##ֻ": 8678,
      "##ˀ": 8679,
      "##奭": 8680,
      "##孙": 8681,
      "##权": 8682,
      "##ធ": 8683,
      "##淵": 8684,
      "##ⅆ": 8685,
      "##襄": 8686,
      "##漫": 8687,
      "##ٖ": 8688,
      "##洙": 8689,
      "##卍": 8690,
      "##卐": 8691,
      "##絲": 8692,
      "##孔": 8693,
      "##羡": 8694,
      "##˸": 8695,
      "##ʦ": 8696,
      "##Ć": 8697,
      "##靈": 8698,
      "##寶": 8699,
      "##💉": 8700,
      "##甚": 8701,
      "##距": 8702,
      "##判": 8703,
      "##及": 8704,
      "##犬": 8705,
      "##承": 8706,
      "##ⲙ": 8707,
      "##ⲏ": 8708,
      "##ⲛ": 8709,
      "##ⲁ": 8710,
      "##综": 8711,
      "##🤑": 8712,
      "##峡": 8713,
      "##鲜": 8714,
      "##諴": 8715,
      "##հ": 8716,
      "##ึ": 8717,
      "##潗": 8718,
      "##": 8719,
      "##": 8720,
      "##染": 8721,
      "##桜": 8722,
      "##𝐌": 8723,
      "##🖧": 8724,
      "##閏": 8725,
      "##麼": 8726,
      "##ぴ": 8727,
      "##ᴩ": 8728,
      "##资": 8729,
      "##敢": 8730,
      "##孩": 8731,
      "##投": 8732,
      "##Ӧ": 8733,
      "##ӟ": 8734,
      "##彦": 8735,
      "##ぬ": 8736,
      "##乱": 8737,
      "##髪": 8738,
      "##関": 8739,
      "##Ѫ": 8740,
      "##縮": 8741,
      "##ョ": 8742,
      "##̲": 8743,
      "##╳": 8744,
      "##ゼ": 8745,
      "##黃": 8746,
      "##珹": 8747,
      "##⊕": 8748,
      "##জ": 8749,
      "##篆": 8750,
      "##⅜": 8751,
      "##侵": 8752,
      "##住": 8753,
      "##岁": 8754,
      "##父": 8755,
      "##担": 8756,
      "##她": 8757,
      "##驻": 8758,
      "##扎": 8759,
      "##抓": 8760,
      "##却": 8761,
      "##牺": 8762,
      "##牲": 8763,
      "##皆": 8764,
      "##笑": 8765,
      "##⅓": 8766,
      "##陸": 8767,
      "##衣": 8768,
      "##🌅": 8769,
      "##փ": 8770,
      "##徕": 8771,
      "##난": 8772,
      "##ۥ": 8773,
      "##靜": 8774,
      "##悟": 8775,
      "##💯": 8776,
      "##Բ": 8777,
      "##권": 8778,
      "##흔": 8779,
      "##𝑓": 8780,
      "##👩": 8781,
      "##👱": 8782,
      "##豐": 8783,
      "##壤": 8784,
      "##🔺": 8785,
      "##曹": 8786,
      "##丕": 8787,
      "##👋": 8788,
      "##倍": 8789,
      "##談": 8790,
      "##娛": 8791,
      "##娱": 8792,
      "##🧽": 8793,
      "##🧤": 8794,
      "##🚰": 8795,
      "##𝛽": 8796,
      "##록": 8797,
      "##※": 8798,
      "##兆": 8799,
      "##酔": 8800,
      "##綸": 8801,
      "##🎅": 8802,
      "##晦": 8803,
      "##朴": 8804,
      "##☿": 8805,
      "##˞": 8806,
      "##ⴷ": 8807,
      "##ⵓ": 8808,
      "##ⴳ": 8809,
      "##는": 8810,
      "##俯": 8811,
      "##┏": 8812,
      "##터": 8813,
      "##㬀": 8814,
      "##శ": 8815,
      "##贈": 8816,
      "##👨": 8817,
      "##💼": 8818,
      "##飞": 8819,
      "##幾": 8820,
      "##麗": 8821,
      "##番": 8822,
      "##秉": 8823,
      "##ṉ": 8824,
      "##🕊": 8825,
      "##丞": 8826,
      "##鄗": 8827,
      "##閑": 8828,
      "##撥": 8829,
      "##邏": 8830,
      "##勿": 8831,
      "##辣": 8832,
      "##渗": 8833,
      "##透": 8834,
      "##劲": 8835,
      "##▬": 8836,
      "##✱": 8837,
      "##달": 8838,
      "##禎": 8839,
      "##穂": 8840,
      "##丹": 8841,
      "##་": 8842,
      "##ཁ": 8843,
      "##ང": 8844,
      "##།": 8845,
      "##🇨": 8846,
      "##🇳": 8847,
      "##🇵": 8848,
      "##🇰": 8849,
      "##丈": 8850,
      "##薬": 8851,
      "##ග": 8852,
      "##◊": 8853,
      "##羊": 8854,
      "##虎": 8855,
      "##🎮": 8856,
      "##💃": 8857,
      "##ੁ": 8858,
      "##ỉ": 8859,
      "##孫": 8860,
      "##冠": 8861,
      "##觚": 8862,
      "##欽": 8863,
      "##ꙗ": 8864,
      "##ჭ": 8865,
      "##ነ": 8866,
      "##ጋ": 8867,
      "##ㅁ": 8868,
      "##䷑": 8869,
      "##😞": 8870,
      "##판": 8871,
      "##점": 8872,
      "##ԇ": 8873,
      "##ԍ": 8874,
      "##奪": 8875,
      "##仏": 8876,
      "##離": 8877,
      "##ொ": 8878,
      "##ழ": 8879,
      "##購": 8880,
      "##څ": 8881,
      "##ښ": 8882,
      "##ἴ": 8883,
      "##┴": 8884,
      "##㼅": 8885,
      "##🎄": 8886,
      "##‧": 8887,
      "##楫": 8888,
      "##瞿": 8889,
      "##泳": 8890,
      "##😋": 8891,
      "##ポ": 8892,
      "##🐧": 8893,
      "##ɬ": 8894,
      "##森": 8895,
      "##🍨": 8896,
      "##游": 8897,
      "##洋": 8898,
      "##糯": 8899,
      "##米": 8900,
      "##菊": 8901,
      "##御": 8902,
      "##紋": 8903,
      "##像": 8904,
      "##类": 8905,
      "##遭": 8906,
      "##巨": 8907,
      "##损": 8908,
      "##弥": 8909,
      "##每": 8910,
      "##沉": 8911,
      "##验": 8912,
      "##哀": 8913,
      "##递": 8914,
      "##称": 8915,
      "##别": 8916,
      "##见": 8917,
      "##差": 8918,
      "##ㅅ": 8919,
      "##‏": 8920,
      "##✈": 8921,
      "##ջ": 8922,
      "##Ẹ": 8923,
      "##祚": 8924,
      "##ĩ": 8925,
      "##ේ": 8926,
      "##ﺍ": 8927,
      "##ﻟ": 8928,
      "##ﺪ": 8929,
      "##ﻳ": 8930,
      "##ﻦ": 8931,
      "##雁": 8932,
      "##冰": 8933,
      "##浏": 8934,
      "##览": 8935,
      "##ভ": 8936,
      "##₇": 8937,
      "##ਡ": 8938,
      "##♄": 8939,
      "##丑": 8940,
      "##寅": 8941,
      "##卯": 8942,
      "##辰": 8943,
      "##巳": 8944,
      "##酉": 8945,
      "##戌": 8946,
      "##亥": 8947,
      "##呂": 8948,
      "##爾": 8949,
      "##徵": 8950,
      "##ѫ": 8951,
      "##荖": 8952,
      "##消": 8953,
      "##耗": 8954,
      "##ٓ": 8955,
      "##ወ": 8956,
      "##ጡ": 8957,
      "##⟹": 8958,
      "##掖": 8959,
      "##🍭": 8960,
      "##🗝": 8961,
      "##昇": 8962,
      "##💐": 8963,
      "##☸": 8964,
      "##ڿ": 8965,
      "##ڰ": 8966,
      "##ᛥ": 8967,
      "##鹤": 8968,
      "##ཀ": 8969,
      "##ཤ": 8970,
      "##མ": 8971,
      "##ར": 8972,
      "##終": 8973,
      "##륜": 8974,
      "##Ӯ": 8975,
      "##과": 8976,
      "##Ἠ": 8977,
      "##官": 8978,
      "##ホ": 8979,
      "##復": 8980,
      "##☭": 8981,
      "##鍵": 8982,
      "##柔": 8983,
      "##術": 8984,
      "##Ƃ": 8985,
      "##甄": 8986,
      "##ብ": 8987,
      "##ታ": 8988,
      "##➕": 8989,
      "##祿": 8990,
      "##🏖": 8991,
      "##⊥": 8992,
      "##티": 8993,
      "##宿": 8994,
      "##衝": 8995,
      "##🚌": 8996,
      "##ʋ": 8997,
      "##鎭": 8998,
      "##宅": 8999,
      "##曲": 9000,
      "##Ἴ": 9001,
      "##ģ": 9002,
      "##ฺ": 9003,
      "##ํ": 9004,
      "##碩": 9005,
      "##額": 9006,
      "##駙": 9007,
      "##અ": 9008,
      "##મ": 9009,
      "##દ": 9010,
      "##ા": 9011,
      "##વ": 9012,
      "##Ḥ": 9013,
      "##珪": 9014,
      "##馨": 9015,
      "##孽": 9016,
      "##黎": 9017,
      "##Ń": 9018,
      "##處": 9019,
      "##ˣ": 9020,
      "##冀": 9021,
      "##😌": 9022,
      "##賢": 9023,
      "##논": 9024,
      "##쟁": 9025,
      "##熊": 9026,
      "##🔴": 9027,
      "##装": 9028,
      "##ನ": 9029,
      "##ು": 9030,
      "##丫": 9031,
      "##瘾": 9032,
      "##😘": 9033,
      "##溢": 9034,
      "##倡": 9035,
      "##伙": 9036,
      "##伴": 9037,
      "##挚": 9038,
      "##础": 9039,
      "##鬃": 9040,
      "##३": 9041,
      "##悉": 9042,
      "## ": 9043,
      "##爷": 9044,
      "##ơ": 9045,
      "##許": 9046,
      "##🎇": 9047,
      "##ガ": 9048,
      "##沖": 9049,
      "##夜": 9050,
      "##ፓ": 9051,
      "##ቲ": 9052,
      "##ợ": 9053,
      "##ɲ": 9054,
      "##助": 9055,
      "##萍": 9056,
      "##楠": 9057,
      "##奇": 9058,
      "##跡": 9059,
      "##謎": 9060,
      "##흡": 9061,
      "##维": 9062,
      "##ⰶ": 9063,
      "##ⱃ": 9064,
      "##ⱐ": 9065,
      "##ⱅ": 9066,
      "##ⰲ": 9067,
      "##ⰰ": 9068,
      "##ռ": 9069,
      "##ㅣ": 9070,
      "##Ģ": 9071,
      "##陵": 9072,
      "##伽": 9073,
      "##婆": 9074,
      "##蹉": 9075,
      "##從": 9076,
      "##禮": 9077,
      "##發": 9078,
      "##數": 9079,
      "##來": 9080,
      "##諸": 9081,
      "##乞": 9082,
      "##毒": 9083,
      "##傷": 9084,
      "##舉": 9085,
      "##疼": 9086,
      "##痛": 9087,
      "##雖": 9088,
      "##惟": 9089,
      "##攝": 9090,
      "##忽": 9091,
      "##漏": 9092,
      "##虛": 9093,
      "##盡": 9094,
      "##瀛": 9095,
      "##邺": 9096,
      "##駟": 9097,
      "##盧": 9098,
      "##🍴": 9099,
      "##藥": 9100,
      "##淮": 9101,
      "##웃": 9102,
      "##🙁": 9103,
      "##Ȝ": 9104,
      "##ሓ": 9105,
      "##𝐂": 9106,
      "##𝐚": 9107,
      "##律": 9108,
      "##遅": 9109,
      "##妻": 9110,
      "##懸": 9111,
      "##働": 9112,
      "##噌": 9113,
      "##汁": 9114,
      "##🌹": 9115,
      "##禁": 9116,
      "##录": 9117,
      "##ď": 9118,
      "##ং": 9119,
      "##媽": 9120,
      "##碗": 9121,
      "##ዕ": 9122,
      "##ይ": 9123,
      "##Ƿ": 9124,
      "##喬": 9125,
      "##邢": 9126,
      "##円": 9127,
      "##좌": 9128,
      "##ậ": 9129,
      "##║": 9130,
      "##🏾": 9131,
      "##ճ": 9132,
      "##չ": 9133,
      "##온": 9134,
      "##ϸ": 9135,
      "##盲": 9136,
      "##摸": 9137,
      "##縞": 9138,
      "##鯵": 9139,
      "##ᴗ": 9140,
      "##➤": 9141,
      "##🌑": 9142,
      "##⁉": 9143,
      "##厅": 9144,
      "##简": 9145,
      "##汪": 9146,
      "##余": 9147,
      "##砯": 9148,
      "##ശ": 9149,
      "##ന": 9150,
      "##്": 9151,
      "##ത": 9152,
      "##ഗ": 9153,
      "##ര": 9154,
      "##鶴": 9155,
      "##특": 9156,
      "##별": 9157,
      "##疏": 9158,
      "##ᛚ": 9159,
      "##ᚣ": 9160,
      "##ᚢ": 9161,
      "##ᛒ": 9162,
      "##瀞": 9163,
      "##Ｐ": 9164,
      "##宫": 9165,
      "##軌": 9166,
      "##埅": 9167,
      "##租": 9168,
      "##ヴ": 9169,
      "##背": 9170,
      "##負": 9171,
      "##와": 9172,
      "##🎃": 9173,
      "##억": 9174,
      "##집": 9175,
      "##‿": 9176,
      "##에": 9177,
      "##欣": 9178,
      "##伤": 9179,
      "##轮": 9180,
      "##灾": 9181,
      "##爆": 9182,
      "##圳": 9183,
      "##滑": 9184,
      "##恐": 9185,
      "##怖": 9186,
      "##杀": 9187,
      "##害": 9188,
      "##逝": 9189,
      "##息": 9190,
      "##恼": 9191,
      "##努": 9192,
      "##障": 9193,
      "##财": 9194,
      "##产": 9195,
      "##ʑ": 9196,
      "##婚": 9197,
      "##ಮ": 9198,
      "##ಲ": 9199,
      "##ೖ": 9200,
      "##Ɂ": 9201,
      "##敏": 9202,
      "##敍": 9203,
      "##Œ": 9204,
      "##ই": 9205,
      "##르": 9206,
      "##甘": 9207,
      "##橋": 9208,
      "##揆": 9209,
      "##買": 9210,
      "##🤖": 9211,
      "##Ἅ": 9212,
      "##鎮": 9213,
      "##🇦": 9214,
      "##🇪": 9215,
      "##鞍": 9216,
      "##猛": 9217,
      "##処": 9218,
      "##爽": 9219,
      "##邦": 9220,
      "##蛋": 9221,
      "##☻": 9222,
      "##銳": 9223,
      "##佘": 9224,
      "##‣": 9225,
      "##ḳ": 9226,
      "##또": 9227,
      "##狐": 9228,
      "##塚": 9229,
      "##ᾰ": 9230,
      "##獲": 9231,
      "##☷": 9232,
      "##騫": 9233,
      "##氣": 9234,
      "##獅": 9235,
      "##랜": 9236,
      "##디": 9237,
      "##🎥": 9238,
      "##賈": 9239,
      "##钜": 9240,
      "##鹿": 9241,
      "##杯": 9242,
      "##棋": 9243,
      "##幻": 9244,
      "##斉": 9245,
      "##殉": 9246,
      "##葬": 9247,
      "##麟": 9248,
      "##Ṭ": 9249,
      "##樊": 9250,
      "##秖": 9251,
      "##排": 9252,
      "##庄": 9253,
      "##͠": 9254,
      "##⑨": 9255,
      "##쐥": 9256,
      "##식": 9257,
      "##⊰": 9258,
      "##雞": 9259,
      "##飯": 9260,
      "##▸": 9261,
      "##😏": 9262,
      "##养": 9263,
      "##운": 9264,
      "##衡": 9265,
      "##鉄": 9266,
      "##輪": 9267,
      "##楀": 9268,
      "##애": 9269,
      "##ਯ": 9270,
      "##徳": 9271,
      "##ฬ": 9272,
      "##ఇ": 9273,
      "##ठ": 9274,
      "##ቅ": 9275,
      "##傘": 9276,
      "##忘": 9277,
      "##만": 9278,
      "##🥦": 9279,
      "##沃": 9280,
      "##Ă": 9281,
      "##혁": 9282,
      "##転": 9283,
      "##卵": 9284,
      "##외": 9285,
      "##ኞ": 9286,
      "##ϰ": 9287,
      "##棐": 9288,
      "##胄": 9289,
      "##라": 9290,
      "##길": 9291,
      "##▲": 9292,
      "##於": 9293,
      "##🎨": 9294,
      "##ɥ": 9295,
      "##誠": 9296,
      "##↹": 9297,
      "##망": 9298,
      "##ἅ": 9299,
      "##🍂": 9300,
      "## ": 9301,
      "##昻": 9302,
      "##艦": 9303,
      "##ᒾ": 9304,
      "##懿": 9305,
      "##荐": 9306,
      "##歓": 9307,
      "##迎": 9308,
      "##Û": 9309,
      "##ヌ": 9310,
      "##狮": 9311,
      "##醫": 9312,
      "##扒": 9313,
      "##៍": 9314,
      "##ὑ": 9315,
      "##连": 9316,
      "##법": 9317,
      "##역": 9318,
      "##姫": 9319,
      "##綾": 9320,
      "##٢": 9321,
      "##٣": 9322,
      "##既": 9323,
      "##🌊": 9324,
      "##ʞ": 9325,
      "##〒": 9326,
      "##腐": 9327,
      "##塔": 9328,
      "##채": 9329,
      "##ಠ": 9330,
      "##캅": 9331,
      "##祭": 9332,
      "##ᴓ": 9333,
      "##兴": 9334,
      "##😅": 9335,
      "##貫": 9336,
      "##彩": 9337,
      "##斑": 9338,
      "##斓": 9339,
      "##胁": 9340,
      "##亮": 9341,
      "##散": 9342,
      "##○": 9343,
      "##宇": 9344,
      "##ዶ": 9345,
      "##⌋": 9346,
      "##嵆": 9347,
      "##😳": 9348,
      "##Ⅵ": 9349,
      "##̍": 9350,
      "##⅚": 9351,
      "##辽": 9352,
      "##顧": 9353,
      "##啓": 9354,
      "##贞": 9355,
      "##園": 9356,
      "##ױ": 9357,
      "##➥": 9358,
      "##廣": 9359,
      "##昨": 9360,
      "##吗": 9361,
      "##◈": 9362,
      "##작": 9363,
      "##惡": 9364,
      "##스": 9365,
      "##템": 9366,
      "##鐸": 9367,
      "##慈": 9368,
      "##庵": 9369,
      "##ㄱ": 9370,
      "##点": 9371,
      "##ḫ": 9372,
      "##願": 9373,
      "##嫁": 9374,
      "##給": 9375,
      "##霙": 9376,
      "##湛": 9377,
      "##": 9378,
      "##埃": 9379,
      "##拥": 9380,
      "##稳": 9381,
      "##审": 9382,
      "##慎": 9383,
      "##预": 9384,
      "##测": 9385,
      "##曮": 9386,
      "##秦": 9387,
      "##ἕ": 9388,
      "##💰": 9389,
      "##ደ": 9390,
      "##▼": 9391,
      "##版": 9392,
      "##춘": 9393,
      "##緋": 9394,
      "##받": 9395,
      "##염": 9396,
      "##ừ": 9397,
      "##̑": 9398,
      "##获": 9399,
      "##济": 9400,
      "##增": 9401,
      "##严": 9402,
      "##败": 9403,
      "##斗": 9404,
      "##规": 9405,
      "##圆": 9406,
      "##බ": 9407,
      "##හ": 9408,
      "##ල": 9409,
      "##🥚": 9410,
      "##會": 9411,
      "##🧙": 9412,
      "##ĥ": 9413,
      "##ˎ": 9414,
      "##従": 9415,
      "##浹": 9416,
      "##弟": 9417,
      "##庫": 9418,
      "##罕": 9419,
      "##Ⅸ": 9420,
      "##｛": 9421,
      "##寀": 9422,
      "##Ⅾ": 9423,
      "##顺": 9424,
      "##↩": 9425,
      "##ਥ": 9426,
      "##ぁ": 9427,
      "##苔": 9428,
      "##巻": 9429,
      "##；": 9430,
      "##玉": 9431,
      "##＋": 9432,
      "##🌶": 9433,
      "##ҟ": 9434,
      "##ܣ": 9435,
      "##ܟ": 9436,
      "##ǂ": 9437,
      "##菌": 9438,
      "##읍": 9439,
      "##跳": 9440,
      "##밤": 9441,
      "##這": 9442,
      "##ἁ": 9443,
      "##Ѳ": 9444,
      "##翊": 9445,
      "##극": 9446,
      "##🧐": 9447,
      "##태": 9448,
      "##ⓐ": 9449,
      "##倫": 9450,
      "##炬": 9451,
      "##燵": 9452,
      "##帰": 9453,
      "##熱": 9454,
      "##ὕ": 9455,
      "##述": 9456,
      "##할": 9457,
      "##❬": 9458,
      "##❭": 9459,
      "##奎": 9460,
      "##韩": 9461,
      "##🗣": 9462,
      "##鏡": 9463,
      "##ஓ": 9464,
      "##જ": 9465,
      "##입": 9466,
      "##٤": 9467,
      "##费": 9468,
      "##ὔ": 9469,
      "##耶": 9470,
      "##ऋ": 9471,
      "## ": 9472,
      "##ձ": 9473,
      "##渰": 9474,
      "##㍽": 9475,
      "##羲": 9476,
      "##貴": 9477,
      "##擥": 9478,
      "##Չ": 9479,
      "##ɦ": 9480,
      "##₤": 9481,
      "##➊": 9482,
      "##락": 9483,
      "##仕": 9484,
      "##導": 9485,
      "##富": 9486,
      "##禄": 9487,
      "##崎": 9488,
      "##ֿ": 9489,
      "##ⓘ": 9490,
      "##ਣ": 9491,
      "##북": 9492,
      "##ạ": 9493,
      "##店": 9494,
      "##早": 9495,
      "##餐": 9496,
      "##迪": 9497,
      "##拜": 9498,
      "##转": 9499,
      "##择": 9500,
      "##围": 9501,
      "##般": 9502,
      "##脏": 9503,
      "##穿": 9504,
      "##梭": 9505,
      "##ਚ": 9506,
      "##ौ": 9507,
      "##婦": 9508,
      "##➜": 9509,
      "##🧼": 9510,
      "##郁": 9511,
      "##ľ": 9512,
      "##笨": 9513,
      "##队": 9514,
      "##🎶": 9515,
      "##組": 9516,
      "##織": 9517,
      "##⊂": 9518,
      "##📉": 9519,
      "##误": 9520,
      "##坠": 9521,
      "##梦": 9522,
      "##ฮ": 9523,
      "##蒙": 9524,
      "##📷": 9525,
      "##妙": 9526,
      "##卜": 9527,
      "##仙": 9528,
      "##映": 9529,
      "##ặ": 9530,
      "##４": 9531,
      "##办": 9532,
      "##纳": 9533,
      "##货": 9534,
      "##组": 9535,
      "##织": 9536,
      "##款": 9537,
      "##篮": 9538,
      "##Ｃ": 9539,
      "##９": 9540,
      "##型": 9541,
      "##线": 9542,
      "##蝉": 9543,
      "##暗": 9544,
      "##探": 9545,
      "##射": 9546,
      "##屠": 9547,
      "##呦": 9548,
      "##贝": 9549,
      "##奖": 9550,
      "##毓": 9551,
      "##খ": 9552,
      "##📘": 9553,
      "##ぽ": 9554,
      "##ぷ": 9555,
      "##ﻇ": 9556,
      "##ﻬ": 9557,
      "##ﻴ": 9558,
      "##ﺮ": 9559,
      "##𓂓": 9560,
      "##稽": 9561,
      "##ॐ": 9562,
      "##黙": 9563,
      "##苺": 9564,
      "##👕": 9565,
      "##ǰ": 9566,
      "##׳": 9567,
      "##🍒": 9568,
      "##𝐜": 9569,
      "##ᡶ": 9570,
      "##ᡠ": 9571,
      "##ᡥ": 9572,
      "##ᡝ": 9573,
      "##鱓": 9574,
      "##⏱": 9575,
      "##丸": 9576,
      "##曄": 9577,
      "##Ή": 9578,
      "##仲": 9579,
      "##奚": 9580,
      "##👙": 9581,
      "##娄": 9582,
      "##底": 9583,
      "##弓": 9584,
      "##퇴": 9585,
      "##💔": 9586,
      "##衫": 9587,
      "##릉": 9588,
      "##廮": 9589,
      "##💤": 9590,
      "##🔈": 9591,
      "##鐘": 9592,
      "##乳": 9593,
      "##⑩": 9594,
      "##哉": 9595,
      "##蒲": 9596,
      "##̌": 9597,
      "##🥇": 9598,
      "##窟": 9599,
      "##頼": 9600,
      "##🤣": 9601,
      "##﬩": 9602,
      "##토": 9603,
      "##속": 9604,
      "##촌": 9605,
      "##架": 9606,
      "##膝": 9607,
      "##溌": 9608,
      "##絃": 9609,
      "##衷": 9610,
      "##份": 9611,
      "##戈": 9612,
      "##帛": 9613,
      "##□": 9614,
      "##罪": 9615,
      "##渊": 9616,
      "##ำ": 9617,
      "##ឿ": 9618,
      "##ʝ": 9619,
      "##內": 9620,
      "##ḿ": 9621,
      "##📕": 9622,
      "##磷": 9623,
      "##董": 9624,
      "##晗": 9625,
      "##鵬": 9626,
      "##བ": 9627,
      "##房": 9628,
      "##📢": 9629,
      "##风": 9630,
      "##키": 9631,
      "##薯": 9632,
      "##蓣": 9633,
      "##ཏ": 9634,
      "##賃": 9635,
      "##ず": 9636,
      "##払": 9637,
      "##筋": 9638,
      "##Ⅳ": 9639,
      "##異": 9640,
      "##Ջ": 9641,
      "##ఎ": 9642,
      "##ᐃ": 9643,
      "##ᓄ": 9644,
      "##🏆": 9645,
      "##👊": 9646,
      "##载": 9647,
      "##邀": 9648,
      "##码": 9649,
      "##网": 9650,
      "##📊": 9651,
      "##엑": 9652,
      "##셀": 9653,
      "##𝐆": 9654,
      "##𝐩": 9655,
      "##𝐟": 9656,
      "##𝐢": 9657,
      "##𝐭": 9658,
      "##💚": 9659,
      "##堅": 9660,
      "##♕": 9661,
      "##ས": 9662,
      "##ྒ": 9663,
      "##ྲ": 9664,
      "##ོ": 9665,
      "##ལ": 9666,
      "##🍋": 9667,
      "##𝐋": 9668,
      "##𝐦": 9669,
      "##🌷": 9670,
      "##Ⓐ": 9671,
      "##ಕ": 9672,
      "##ೃ": 9673,
      "##ಷ": 9674,
      "##ಣ": 9675,
      "##ಚ": 9676,
      "##게": 9677,
      "##☢": 9678,
      "##ề": 9679,
      "##㋿": 9680,
      "##匂": 9681,
      "##匏": 9682,
      "##怪": 9683,
      "##窯": 9684,
      "##👻": 9685,
      "##ං": 9686,
      "##ක": 9687,
      "##료": 9688,
      "##ϵ": 9689,
      "##ㅡ": 9690,
      "##🏔": 9691,
      "##ੜ": 9692,
      "##금": 9693,
      "##ṓ": 9694,
      "##ᠪ": 9695,
      "##ᠤ": 9696,
      "##ᠷ": 9697,
      "##ᠢ": 9698,
      "##ᠶ": 9699,
      "##ᠠ": 9700,
      "##ᠳ": 9701,
      "##栄": 9702,
      "##虏": 9703,
      "##砦": 9704,
      "##🌐": 9705,
      "##🤝": 9706,
      "##丛": 9707,
      "##磬": 9708,
      "##Ĕ": 9709,
      "##ĸ": 9710,
      "##飛": 9711,
      "##ụ": 9712,
      "##晓": 9713,
      "##渡": 9714,
      "##㍾": 9715,
      "##詩": 9716,
      "##📹": 9717,
      "##澂": 9718,
      "##睦": 9719,
      "##🔶": 9720,
      "##虽": 9721,
      "##⇀": 9722,
      "##舜": 9723,
      "##Տ": 9724,
      "##ཞ": 9725,
      "##ི": 9726,
      "##\n": 9727,
      "##冥": 9728,
      "##｝": 9729,
      "##凌": 9730,
      "##➝": 9731,
      "##率": 9732,
      "##贾": 9733,
      "##诩": 9734,
      "##ḏ": 9735,
      "##豪": 9736,
      "##ਗ": 9737,
      "##ữ": 9738,
      "##ắ": 9739,
      "##樣": 9740,
      "##ਏ": 9741,
      "##ʕ": 9742,
      "##窓": 9743,
      "##✆": 9744,
      "##☎": 9745,
      "##😓": 9746,
      "##Է": 9747,
      "##諡": 9748,
      "##추": 9749,
      "##鄂": 9750,
      "##🚑": 9751,
      "##紅": 9752,
      "##椿": 9753,
      "##으": 9754,
      "##播": 9755,
      "##电": 9756,
      "##侨": 9757,
      "##祝": 9758,
      "##⇔": 9759,
      "##₥": 9760,
      "##Ἁ": 9761,
      "##ິ": 9762,
      "##ຖ": 9763,
      "##ໃ": 9764,
      "##ƣ": 9765,
      "##认": 9766,
      "##週": 9767,
      "##🌰": 9768,
      "##ۦ": 9769,
      "##錦": 9770,
      "##♡": 9771,
      "##論": 9772,
      "##🚶": 9773,
      "##ۍ": 9774,
      "##잡": 9775,
      "##置": 9776,
      "##賴": 9777,
      "##壌": 9778,
      "##掌": 9779,
      "##瞳": 9780,
      "##អ": 9781,
      "##ឫ": 9782,
      "##♃": 9783,
      "##ɓ": 9784,
      "##➖": 9785,
      "##⅛": 9786,
      "##格": 9787,
      "##觉": 9788,
      "##盗": 9789,
      "##雀": 9790,
      "##尖": 9791,
      "##精": 9792,
      "##挑": 9793,
      "##怎": 9794,
      "##吧": 9795,
      "##Ȣ": 9796,
      "##與": 9797,
      "##출": 9798,
      "##চ": 9799,
      "##👏": 9800,
      "##῾": 9801,
      "##ྫ": 9802,
      "##ད": 9803,
      "##ན": 9804,
      "##པ": 9805,
      "##郑": 9806,
      "##柒": 9807,
      "##ឥ": 9808,
      "##ズ": 9809,
      "##難": 9810,
      "##憤": 9811,
      "##傾": 9812,
      "##鋼": 9813,
      "##錬": 9814,
      "##乍": 9815,
      "##洩": 9816,
      "##": 9817,
      "##♏": 9818,
      "##♬": 9819,
      "##冊": 9820,
      "##📱": 9821,
      "##ṯ": 9822,
      "##焕": 9823,
      "##⎞": 9824,
      "##⎠": 9825,
      "##۹": 9826,
      "##٦": 9827,
      "##焼": 9828,
      "##◇": 9829,
      "##矣": 9830,
      "##😫": 9831,
      "##ᴄ": 9832,
      "##络": 9833,
      "##剧": 9834,
      "##련": 9835,
      "##钟": 9836,
      "##敲": 9837,
      "##缕": 9838,
      "##旧": 9839,
      "##ܡ": 9840,
      "##ܼ": 9841,
      "##秩": 9842,
      "##۩": 9843,
      "##伏": 9844,
      "##鐡": 9845,
      "##₰": 9846,
      "##🧘": 9847,
      "##ġ": 9848,
      "##運": 9849,
      "##積": 9850,
      "##讀": 9851,
      "##⌈": 9852,
      "##🔐": 9853,
      "##ˢ": 9854,
      "##曅": 9855,
      "##礼": 9856,
      "##病": 9857,
      "##铢": 9858,
      "##┌": 9859,
      "##┤": 9860,
      "##👓": 9861,
      "##棍": 9862,
      "##滚": 9863,
      "##財": 9864,
      "##감": 9865,
      "##洽": 9866,
      "##損": 9867,
      "##Թ": 9868,
      "##홀": 9869,
      "##🍸": 9870,
      "##ሩ": 9871,
      "##𝕂": 9872,
      "##密": 9873,
      "##⌚": 9874,
      "##≔": 9875,
      "##漁": 9876,
      "##渔": 9877,
      "##屏": 9878,
      "##타": 9879,
      "##쿠": 9880,
      "##妄": 9881,
      "##檜": 9882,
      "##峨": 9883,
      "##眉": 9884,
      "##ཆ": 9885,
      "##ུ": 9886,
      "##개": 9887,
      "##赫": 9888,
      "##描": 9889,
      "##読": 9890,
      "##🙌": 9891,
      "##紫": 9892,
      "##ӓ": 9893,
      "##ื": 9894,
      "##ී": 9895,
      "##⇄": 9896,
      "##禅": 9897,
      "##模": 9898,
      "##💆": 9899,
      "##💁": 9900,
      "##猿": 9901,
      "##領": 9902,
      "##և": 9903,
      "##⏎": 9904,
      "##ಶ": 9905,
      "##ೕ": 9906,
      "##戴": 9907,
      "##": 9908,
      "##ਬ": 9909,
      "##⇌": 9910,
      "##있": 9911,
      "##잖": 9912,
      "##腹": 9913,
      "##උ": 9914,
      "##ද": 9915,
      "##贵": 9916,
      "##辖": 9917,
      "##𝐃": 9918,
      "##𝐰": 9919,
      "##Ⓜ": 9920,
      "##Ⓑ": 9921,
      "##按": 9922,
      "##堡": 9923,
      "##绘": 9924,
      "##筑": 9925,
      "##宾": 9926,
      "##⋁": 9927,
      "##灰": 9928,
      "##勾": 9929,
      "##🏡": 9930,
      "##ฑ": 9931,
      "##懋": 9932,
      "##鉉": 9933,
      "##衛": 9934,
      "##📧": 9935,
      "##⊱": 9936,
      "##缸": 9937,
      "##✉": 9938,
      "##農": 9939,
      "##柱": 9940,
      "##铅": 9941,
      "##ओ": 9942,
      "##☽": 9943,
      "##⌀": 9944,
      "##ŏ": 9945,
      "##⩾": 9946,
      "##엽": 9947,
      "##ủ": 9948,
      "##叩": 9949,
      "##泓": 9950,
      "##達": 9951,
      "##鸟": 9952,
      "##؛": 9953,
      "##泰": 9954,
      "##🌳": 9955,
      "##汤": 9956,
      "##✡": 9957,
      "##洮": 9958,
      "##岷": 9959,
      "##蓋": 9960,
      "##途": 9961,
      "##偶": 9962,
      "##便": 9963,
      "##關": 9964,
      "##欲": 9965,
      "##丝": 9966,
      "##鬱": 9967,
      "##Վ": 9968,
      "##晟": 9969,
      "##ⲉ": 9970,
      "##ⲕ": 9971,
      "##ⲧ": 9972,
      "##ⲣ": 9973,
      "##ⲓ": 9974,
      "##ⲟ": 9975,
      "##Ӈ": 9976,
      "##ሃ": 9977,
      "##ኑ": 9978,
      "##贇": 9979,
      "##ǁ": 9980,
      "##敦": 9981,
      "##煌": 9982,
      "##珍": 9983,
      "##ｻ": 9984,
      "##豹": 9985,
      "##賞": 9986,
      "##섬": 9987,
      "##ண": 9988,
      "##ே": 9989,
      "##掉": 9990,
      "##哪": 9991,
      "##항": 9992,
      " п": 9993,
      "##ст": 9994,
      " в": 9995,
      "##ен": 9996,
      " с": 9997,
      "##но": 9998,
      " и": 9999,
      "##ра": 10000,
      "##на": 10001,
      "##то": 10002,
      "##ко": 10003,
      "##ро": 10004,
      " о": 10005,
      " \n": 10006,
      "##ре": 10007,
      "##го": 10008,
      "##ли": 10009,
      "##ни": 10010,
      " по": 10011,
      "##ль": 10012,
      " д": 10013,
      "##те": 10014,
      "##ва": 10015,
      "##ка": 10016,
      "##ны": 10017,
      "##ри": 10018,
      "##не": 10019,
      " м": 10020,
      "##ет": 10021,
      " на": 10022,
      "##ло": 10023,
      "##ла": 10024,
      "##во": 10025,
      "##ени": 10026,
      " б": 10027,
      "##та": 10028,
      "##ть": 10029,
      "##ки": 10030,
      "##за": 10031,
      "##ле": 10032,
      "##да": 10033,
      "##ер": 10034,
      " ч": 10035,
      "##ти": 10036,
      " у": 10037,
      " не": 10038,
      "##ся": 10039,
      " ко": 10040,
      "##ми": 10041,
      "##ви": 10042,
      "##ру": 10043,
      "##ля": 10044,
      "##ци": 10045,
      "##ди": 10046,
      "##ем": 10047,
      " ра": 10048,
      " со": 10049,
      " про": 10050,
      " за": 10051,
      " к": 10052,
      "##ста": 10053,
      " э": 10054,
      "##ес": 10055,
      " а": 10056,
      " В": 10057,
      "##по": 10058,
      "##де": 10059,
      "##ма": 10060,
      " П": 10061,
      "##до": 10062,
      "##ест": 10063,
      "##мо": 10064,
      "##бо": 10065,
      " С": 10066,
      " ка": 10067,
      " от": 10068,
      " 1": 10069,
      " во": 10070,
      " при": 10071,
      " что": 10072,
      "##сти": 10073,
      " об": 10074,
      "##хо": 10075,
      " го": 10076,
      "##сто": 10077,
      "##чи": 10078,
      " до": 10079,
      "##ры": 10080,
      "##ения": 10081,
      "##ча": 10082,
      " мо": 10083,
      " бы": 10084,
      "##ве": 10085,
      "##си": 10086,
      "##ско": 10087,
      "##ду": 10088,
      " вы": 10089,
      " г": 10090,
      " то": 10091,
      " К": 10092,
      " (": 10093,
      "##ей": 10094,
      "##ной": 10095,
      "##ных": 10096,
      "##же": 10097,
      " из": 10098,
      "##тель": 10099,
      "##со": 10100,
      "##ну": 10101,
      "##жи": 10102,
      "##ши": 10103,
      "##лу": 10104,
      " т": 10105,
      "##ги": 10106,
      "##ные": 10107,
      "##ение": 10108,
      "##ку": 10109,
      " ф": 10110,
      " Н": 10111,
      " е": 10112,
      "##ного": 10113,
      " пре": 10114,
      "##зо": 10115,
      " ре": 10116,
      "##сь": 10117,
      "##га": 10118,
      "##се": 10119,
      "##ере": 10120,
      " О": 10121,
      "##вы": 10122,
      "##чес": 10123,
      " М": 10124,
      " это": 10125,
      "##щи": 10126,
      " та": 10127,
      "##па": 10128,
      "##ме": 10129,
      "##мен": 10130,
      " А": 10131,
      " те": 10132,
      " -": 10133,
      "##ют": 10134,
      " «": 10135,
      "##сть": 10136,
      " 2": 10137,
      " кото": 10138,
      "##ный": 10139,
      "##лю": 10140,
      "##са": 10141,
      "##му": 10142,
      " Д": 10143,
      " я": 10144,
      " бо": 10145,
      "##ски": 10146,
      "##пи": 10147,
      " раз": 10148,
      "##ты": 10149,
      "##ется": 10150,
      " И": 10151,
      "##ту": 10152,
      " з": 10153,
      "##вани": 10154,
      " но": 10155,
      "##ря": 10156,
      " Т": 10157,
      "##ня": 10158,
      " По": 10159,
      " Р": 10160,
      "##м,": 10161,
      " Б": 10162,
      " для": 10163,
      "##зи": 10164,
      " как": 10165,
      "##жа": 10166,
      "##лен": 10167,
      " ма": 10168,
      "##пе": 10169,
      "##ции": 10170,
      "##ше": 10171,
      "##сле": 10172,
      " под": 10173,
      "##ан": 10174,
      "##бы": 10175,
      "##ву": 10176,
      "##вен": 10177,
      " сво": 10178,
      " ис": 10179,
      " ст": 10180,
      "##вер": 10181,
      " —": 10182,
      "##жно": 10183,
      "##вать": 10184,
      "##би": 10185,
      "##ор": 10186,
      " Г": 10187,
      " де": 10188,
      "##вля": 10189,
      " 19": 10190,
      "##мы": 10191,
      " ли": 10192,
      " ста": 10193,
      "##ды": 10194,
      "##зы": 10195,
      "##ным": 10196,
      "##ная": 10197,
      " которы": 10198,
      " си": 10199,
      "##ное": 10200,
      "##ров": 10201,
      "##су": 10202,
      " ме": 10203,
      "##чески": 10204,
      "##ар": 10205,
      " се": 10206,
      " или": 10207,
      "##об": 10208,
      " все": 10209,
      " ин": 10210,
      "##це": 10211,
      "##ке": 10212,
      " так": 10213,
      " пред": 10214,
      "##ще": 10215,
      " пере": 10216,
      "##нов": 10217,
      "##гра": 10218,
      "##вет": 10219,
      " Э": 10220,
      " ва": 10221,
      "##гу": 10222,
      "##кой": 10223,
      "##аль": 10224,
      " его": 10225,
      "##00": 10226,
      " са": 10227,
      " \"": 10228,
      " кон": 10229,
      " ни": 10230,
      "##ство": 10231,
      "##тов": 10232,
      " рас": 10233,
      "##он": 10234,
      "##ности": 10235,
      "##про": 10236,
      " ми": 10237,
      "##ша": 10238,
      "##ран": 10239,
      "##гда": 10240,
      "##ков": 10241,
      "##ющи": 10242,
      " Л": 10243,
      "##зу": 10244,
      "##ность": 10245,
      "##ак": 10246,
      " воз": 10247,
      "##пу": 10248,
      "##бе": 10249,
      " он": 10250,
      "##фи": 10251,
      " На": 10252,
      "##ном": 10253,
      "##й,": 10254,
      "##сси": 10255,
      "##ска": 10256,
      "##тив": 10257,
      "##мя": 10258,
      " ве": 10259,
      " Е": 10260,
      "##лько": 10261,
      " ча": 10262,
      " пра": 10263,
      "##ния": 10264,
      "##ходи": 10265,
      "##жен": 10266,
      " бу": 10267,
      " вре": 10268,
      " дру": 10269,
      "##ха": 10270,
      "##пра": 10271,
      "##лся": 10272,
      "##ба": 10273,
      " су": 10274,
      " У": 10275,
      "##ца": 10276,
      "##мер": 10277,
      "##ние": 10278,
      "##ент": 10279,
      " хо": 10280,
      "##м.": 10281,
      "##ться": 10282,
      "##чен": 10283,
      "##ской": 10284,
      "##лы": 10285,
      " года": 10286,
      " ро": 10287,
      "##ского": 10288,
      "##ную": 10289,
      "##каза": 10290,
      "##ща": 10291,
      " жи": 10292,
      " 3": 10293,
      "##жет": 10294,
      " ви": 10295,
      "##зна": 10296,
      "##пре": 10297,
      "##лет": 10298,
      "##щест": 10299,
      " да": 10300,
      "## —": 10301,
      " же": 10302,
      " Ф": 10303,
      " од": 10304,
      "##ства": 10305,
      "##тся": 10306,
      "##че": 10307,
      "##).": 10308,
      "##ствен": 10309,
      "##ления": 10310,
      "##стоя": 10311,
      " З": 10312,
      " лю": 10313,
      "##вания": 10314,
      " зна": 10315,
      "##льзо": 10316,
      " рабо": 10317,
      "##стви": 10318,
      " па": 10319,
      " боль": 10320,
      "##вя": 10321,
      "##ция": 10322,
      " дол": 10323,
      "##ван": 10324,
      "##сту": 10325,
      " обра": 10326,
      " ш": 10327,
      " был": 10328,
      " пер": 10329,
      "##вой": 10330,
      "##дер": 10331,
      " испо": 10332,
      "##она": 10333,
      "##чест": 10334,
      " после": 10335,
      " Ч": 10336,
      "##ек": 10337,
      "##нима": 10338,
      "##ными": 10339,
      " ос": 10340,
      " ком": 10341,
      "##ении": 10342,
      " чтобы": 10343,
      "##ский": 10344,
      "##ден": 10345,
      "##ются": 10346,
      "##ело": 10347,
      "##лее": 10348,
      " сто": 10349,
      "##стро": 10350,
      " фи": 10351,
      " их": 10352,
      " ц": 10353,
      " может": 10354,
      "##при": 10355,
      "##бу": 10356,
      "##лись": 10357,
      "##сы": 10358,
      " Х": 10359,
      "##),": 10360,
      " бе": 10361,
      " мы": 10362,
      "##er": 10363,
      " ди": 10364,
      " прои": 10365,
      "##нии": 10366,
      " ру": 10367,
      " Ко": 10368,
      "##е,": 10369,
      "##й.": 10370,
      "##х,": 10371,
      "##ему": 10372,
      " году": 10373,
      "##дет": 10374,
      " 20": 10375,
      "##..": 10376,
      "##ком": 10377,
      " х": 10378,
      " ле": 10379,
      " –": 10380,
      " также": 10381,
      "##ром": 10382,
      " полу": 10383,
      "##в,": 10384,
      "##пы": 10385,
      " время": 10386,
      "##но,": 10387,
      " 4": 10388,
      "##клю": 10389,
      "##in": 10390,
      " было": 10391,
      "##от": 10392,
      " слу": 10393,
      " которые": 10394,
      " ку": 10395,
      "##дин": 10396,
      "##дя": 10397,
      "##ление": 10398,
      "##лек": 10399,
      "##кого": 10400,
      " Я": 10401,
      " Со": 10402,
      " пи": 10403,
      "##тер": 10404,
      " сло": 10405,
      "##елове": 10406,
      "##рии": 10407,
      "##лось": 10408,
      " Ка": 10409,
      "##кра": 10410,
      " пу": 10411,
      "##род": 10412,
      "##».": 10413,
      "##йте": 10414,
      "##сло": 10415,
      "##ю,": 10416,
      "##логи": 10417,
      " 5": 10418,
      "##ника": 10419,
      "##зыва": 10420,
      " мен": 10421,
      " челове": 10422,
      " Это": 10423,
      "##го,": 10424,
      " они": 10425,
      "##ть,": 10426,
      "##вание": 10427,
      "##лась": 10428,
      "##ман": 10429,
      "##ред": 10430,
      " Ро": 10431,
      " явля": 10432,
      "##вши": 10433,
      "##вест": 10434,
      "##фор": 10435,
      "##ми,": 10436,
      "##зда": 10437,
      "##т,": 10438,
      "##зво": 10439,
      "##я,": 10440,
      " спо": 10441,
      "##мет": 10442,
      "##три": 10443,
      " стра": 10444,
      "##сли": 10445,
      "##on": 10446,
      "##рен": 10447,
      " эти": 10448,
      "##чно": 10449,
      "##жд": 10450,
      "##том": 10451,
      "##соб": 10452,
      " му": 10453,
      "##ник": 10454,
      " только": 10455,
      " Во": 10456,
      " Но": 10457,
      "##мени": 10458,
      "##пол": 10459,
      "##an": 10460,
      "##ней": 10461,
      "##л,": 10462,
      "##ских": 10463,
      " более": 10464,
      "##дар": 10465,
      " сле": 10466,
      "##тор": 10467,
      "##пер": 10468,
      " помо": 10469,
      "##руп": 10470,
      "##ству": 10471,
      "##став": 10472,
      "##ью": 10473,
      " име": 10474,
      "##лож": 10475,
      " ор": 10476,
      "##хи": 10477,
      "##»,": 10478,
      "##тельно": 10479,
      "##спо": 10480,
      " чи": 10481,
      "##жда": 10482,
      "##жду": 10483,
      " нача": 10484,
      " когда": 10485,
      "##бли": 10486,
      " свои": 10487,
      "##вед": 10488,
      " которо": 10489,
      "##есть": 10490,
      " быть": 10491,
      " само": 10492,
      " были": 10493,
      "##теле": 10494,
      "##кры": 10495,
      "##в.": 10496,
      " За": 10497,
      "##вые": 10498,
      " чем": 10499,
      " други": 10500,
      "##вых": 10501,
      "##чение": 10502,
      "##гла": 10503,
      " свя": 10504,
      "##преде": 10505,
      " пла": 10506,
      "##ению": 10507,
      "##дь": 10508,
      "##к,": 10509,
      " могу": 10510,
      "##ением": 10511,
      "##ин": 10512,
      "##если": 10513,
      "##тя": 10514,
      " тре": 10515,
      " оста": 10516,
      "##цы": 10517,
      " Ш": 10518,
      " ав": 10519,
      " =": 10520,
      "##емы": 10521,
      " При": 10522,
      "##ватель": 10523,
      " це": 10524,
      "##вая": 10525,
      " если": 10526,
      "##чения": 10527,
      " Мо": 10528,
      " Ма": 10529,
      "##вал": 10530,
      "##19": 10531,
      "##циаль": 10532,
      "##тро": 10533,
      "##тре": 10534,
      "##ск": 10535,
      "##ми.": 10536,
      " который": 10537,
      "##ки,": 10538,
      "##дела": 10539,
      " была": 10540,
      " она": 10541,
      "##нг": 10542,
      " отно": 10543,
      " S": 10544,
      "##стра": 10545,
      "##тери": 10546,
      "##ставля": 10547,
      "##кие": 10548,
      " дан": 10549,
      " объ": 10550,
      "##ких": 10551,
      " исто": 10552,
      "##en": 10553,
      " ба": 10554,
      " 200": 10555,
      "##or": 10556,
      " Ра": 10557,
      " мест": 10558,
      " \\": 10559,
      "##прав": 10560,
      " использо": 10561,
      "##х.": 10562,
      "##ений": 10563,
      " ак": 10564,
      "##торы": 10565,
      " гла": 10566,
      " вер": 10567,
      " 6": 10568,
      " ар": 10569,
      " вс": 10570,
      " I": 10571,
      "##бра": 10572,
      "##нд": 10573,
      "##шо": 10574,
      " орга": 10575,
      "##тра": 10576,
      " жиз": 10577,
      "##ar": 10578,
      " пе": 10579,
      "##тому": 10580,
      " созда": 10581,
      " дей": 10582,
      " 18": 10583,
      "##ена": 10584,
      "##льно": 10585,
      " фор": 10586,
      "##es": 10587,
      " Бо": 10588,
      " есть": 10589,
      " образо": 10590,
      " можно": 10591,
      " Не": 10592,
      "##можно": 10593,
      " Вы": 10594,
      "##вали": 10595,
      "##кон": 10596,
      " того,": 10597,
      " A": 10598,
      " пол": 10599,
      "##и,": 10600,
      " прави": 10601,
      " ее": 10602,
      " будет": 10603,
      "##рь": 10604,
      " 201": 10605,
      "##дов": 10606,
      "##тически": 10607,
      " является": 10608,
      " могут": 10609,
      " между": 10610,
      "##спе": 10611,
      "##мест": 10612,
      " C": 10613,
      "##теля": 10614,
      "##бя": 10615,
      "##сла": 10616,
      "##вого": 10617,
      " гра": 10618,
      " лет": 10619,
      "##цион": 10620,
      "##нь": 10621,
      " вой": 10622,
      "##ев": 10623,
      " поли": 10624,
      "##кое": 10625,
      "##ческой": 10626,
      "##at": 10627,
      "##дей": 10628,
      "##вый": 10629,
      "##ён": 10630,
      "##тия": 10631,
      "##жения": 10632,
      " ду": 10633,
      " опреде": 10634,
      " обла": 10635,
      " сист": 10636,
      "##ская": 10637,
      "##цию": 10638,
      " этом": 10639,
      "##ень": 10640,
      "##емо": 10641,
      "##его": 10642,
      "##чита": 10643,
      " каж": 10644,
      " ки": 10645,
      "##е.": 10646,
      "##писа": 10647,
      "##шения": 10648,
      "##луч": 10649,
      "##-то": 10650,
      "##ун": 10651,
      " ок": 10652,
      " неско": 10653,
      "##али": 10654,
      " этого": 10655,
      "##кан": 10656,
      "##ера": 10657,
      " им": 10658,
      "##ка,": 10659,
      "##сты": 10660,
      "##бле": 10661,
      "##т.": 10662,
      "##шь": 10663,
      " уча": 10664,
      "##чень": 10665,
      "##вает": 10666,
      "##кую": 10667,
      "##щей": 10668,
      " Та": 10669,
      " следу": 10670,
      "##ят": 10671,
      " случа": 10672,
      "##чь": 10673,
      " Он": 10674,
      " ну": 10675,
      "##вори": 10676,
      "##шей": 10677,
      " Если": 10678,
      "##нако": 10679,
      "##енно": 10680,
      " t": 10681,
      "##ские": 10682,
      " кра": 10683,
      "##ур": 10684,
      "##кая": 10685,
      "##льзу": 10686,
      "##стави": 10687,
      "##al": 10688,
      "##следо": 10689,
      " уже": 10690,
      "##стре": 10691,
      "##лия": 10692,
      " Про": 10693,
      " где": 10694,
      " Росси": 10695,
      "##льта": 10696,
      "##пера": 10697,
      "##рован": 10698,
      " вопро": 10699,
      " 7": 10700,
      "##обра": 10701,
      "##ли,": 10702,
      "##судар": 10703,
      "##ровать": 10704,
      "##зя": 10705,
      "##и.": 10706,
      " обо": 10707,
      "##ким": 10708,
      "##рая": 10709,
      "##ском": 10710,
      "##he": 10711,
      "##ний": 10712,
      " Ва": 10713,
      " органи": 10714,
      " пар": 10715,
      "##форма": 10716,
      " осно": 10717,
      "##рак": 10718,
      "##ки.": 10719,
      "##ющих": 10720,
      "##ональ": 10721,
      " M": 10722,
      " Да": 10723,
      "##ющие": 10724,
      " ско": 10725,
      "##ников": 10726,
      "##лов": 10727,
      " груп": 10728,
      "##лич": 10729,
      " получи": 10730,
      "##ге": 10731,
      " би": 10732,
      " вос": 10733,
      " работа": 10734,
      "##нови": 10735,
      " действи": 10736,
      "##на,": 10737,
      " очень": 10738,
      " еще": 10739,
      "##чет": 10740,
      "##рон": 10741,
      " разви": 10742,
      " эк": 10743,
      " 8": 10744,
      " P": 10745,
      "##ступ": 10746,
      "##ено": 10747,
      " сдела": 10748,
      "##ческого": 10749,
      " дела": 10750,
      "##рия": 10751,
      "##есь": 10752,
      " возможно": 10753,
      "##жест": 10754,
      " тех": 10755,
      " Од": 10756,
      " ты": 10757,
      " T": 10758,
      " проц": 10759,
      "##ход": 10760,
      " иг": 10761,
      "##рав": 10762,
      "##води": 10763,
      "##бря": 10764,
      "##чество": 10765,
      "##вод": 10766,
      "##ны,": 10767,
      "##кла": 10768,
      "##ключа": 10769,
      " 10": 10770,
      "##щего": 10771,
      "##кре": 10772,
      "##ческих": 10773,
      "##лага": 10774,
      " сказа": 10775,
      " без": 10776,
      " больше": 10777,
      "##ходя": 10778,
      " Па": 10779,
      "##дом": 10780,
      "##зульта": 10781,
      "##вре": 10782,
      "##сно": 10783,
      " Ми": 10784,
      " сред": 10785,
      " тер": 10786,
      "##дель": 10787,
      "##фф": 10788,
      "##лли": 10789,
      " много": 10790,
      "##к.": 10791,
      "##цу": 10792,
      "##тен": 10793,
      "##щее": 10794,
      "##обходи": 10795,
      "##н,": 10796,
      " сущест": 10797,
      "##личи": 10798,
      " поч": 10799,
      "##ет,": 10800,
      " авто": 10801,
      " чу": 10802,
      "##рой": 10803,
      " инте": 10804,
      " Са": 10805,
      "##сс": 10806,
      "##ете": 10807,
      " том,": 10808,
      "##жение": 10809,
      "##le": 10810,
      " коман": 10811,
      "##мента": 10812,
      "##рабо": 10813,
      "##ерез": 10814,
      " язы": 10815,
      " себя": 10816,
      " мно": 10817,
      " га": 10818,
      " Ц": 10819,
      "##мери": 10820,
      " сер": 10821,
      "##нее": 10822,
      " ответ": 10823,
      " высо": 10824,
      "##л.": 10825,
      "##вно": 10826,
      " То": 10827,
      " Как": 10828,
      "##держа": 10829,
      "##коно": 10830,
      " неко": 10831,
      "##ША": 10832,
      " спе": 10833,
      "##it": 10834,
      "##ез": 10835,
      " ти": 10836,
      "##шение": 10837,
      "##st": 10838,
      "##\".": 10839,
      " государ": 10840,
      "##тели": 10841,
      "##шего": 10842,
      "##руд": 10843,
      "##рова": 10844,
      " горо": 10845,
      "##20": 10846,
      " результа": 10847,
      "##рта": 10848,
      " несколько": 10849,
      "##рук": 10850,
      "##ую": 10851,
      " необходи": 10852,
      "##грам": 10853,
      " буду": 10854,
      "##бор": 10855,
      "##смо": 10856,
      "##вор": 10857,
      "##\",": 10858,
      " коли": 10859,
      " жен": 10860,
      "##ющий": 10861,
      " США": 10862,
      "##дол": 10863,
      " B": 10864,
      " Дж": 10865,
      " долж": 10866,
      "##льзователь": 10867,
      " Го": 10868,
      "##нен": 10869,
      "##ит": 10870,
      "##сов": 10871,
      "##ка.": 10872,
      " состоя": 10873,
      "##йти": 10874,
      "##ции,": 10875,
      " меня": 10876,
      " вла": 10877,
      " тем": 10878,
      " г.": 10879,
      "##слу": 10880,
      "##сте": 10881,
      " способ": 10882,
      "##яви": 10883,
      " До": 10884,
      " пробле": 10885,
      "##ic": 10886,
      " поло": 10887,
      "##цо": 10888,
      "##вра": 10889,
      " соот": 10890,
      " 9": 10891,
      " соб": 10892,
      " ту": 10893,
      " которая": 10894,
      "##пример": 10895,
      " сторо": 10896,
      " даже": 10897,
      " произво": 10898,
      "##чной": 10899,
      " говори": 10900,
      "##лез": 10901,
      "##тем": 10902,
      "##вое": 10903,
      " сооб": 10904,
      "##бой": 10905,
      "##станов": 10906,
      " кла": 10907,
      "##мина": 10908,
      " этой": 10909,
      " использу": 10910,
      "##ших": 10911,
      "##re": 10912,
[...]
