{
  "version": "1.0",
  "truncation": null,
  "padding": null,
  "added_tokens": [
    {
      "id": 0,
      "content": "[UNK]",
      "single_word": false,
      "lstrip": false,
      "rstrip": false,
      "normalized": false,
      "special": true
    },
    {
      "id": 1,
      "content": "[PAD]",
      "single_word": false,
      "lstrip": false,
      "rstrip": false,
      "normalized": false,
      "special": true
    },
    {
      "id": 2,
      "content": "[CLS]",
      "single_word": false,
      "lstrip": false,
      "rstrip": false,
      "normalized": false,
      "special": true
    },
    {
      "id": 3,
      "content": "[SEP]",
      "single_word": false,
      "lstrip": false,
      "rstrip": false,
      "normalized": false,
      "special": true
    }
  ],
  "normalizer": null,
  "pre_tokenizer": {
    "type": "Metaspace",
    "replacement": " ",
    "prepend_scheme": "always",
    "split": true
  },
  "post_processor": null,
  "decoder": {
    "type": "Metaspace",
    "replacement": " ",
    "prepend_scheme": "always",
    "split": true
  },
  "model": {
    "type": "BPE",
    "dropout": null,
    "unk_token": "[UNK]",
    "continuing_subword_prefix": null,
    "end_of_word_suffix": null,
    "fuse_unk": false,
    "byte_fallback": false,
    "ignore_merges": false,
    "vocab": {
      "[UNK]": 0,
      "[PAD]": 1,
      "[CLS]": 2,
      "[SEP]": 3,
      "\t": 4,
      "\n": 5,
      " ": 6,
      "!": 7,
      "\"": 8,
      "#": 9,
      "$": 10,
      "%": 11,
      "&": 12,
      "'": 13,
      "(": 14,
      ")": 15,
      "*": 16,
      "+": 17,
      ",": 18,
      "-": 19,
      ".": 20,
      "/": 21,
      "0": 22,
      "1": 23,
      "2": 24,
      "3": 25,
      "4": 26,
      "5": 27,
      "6": 28,
      "7": 29,
      "8": 30,
      "9": 31,
      ":": 32,
      ";": 33,
      "<": 34,
      "=": 35,
      ">": 36,
      "?": 37,
      "@": 38,
      "A": 39,
      "B": 40,
      "C": 41,
      "D": 42,
      "E": 43,
      "F": 44,
      "G": 45,
      "H": 46,
      "I": 47,
      "J": 48,
      "K": 49,
      "L": 50,
      "M": 51,
      "N": 52,
      "O": 53,
      "P": 54,
      "Q": 55,
      "R": 56,
      "S": 57,
      "T": 58,
      "U": 59,
      "V": 60,
      "W": 61,
      "X": 62,
      "Y": 63,
      "Z": 64,
      "[": 65,
      "\\": 66,
      "]": 67,
      "^": 68,
      "_": 69,
      "`": 70,
      "a": 71,
      "b": 72,
      "c": 73,
      "d": 74,
      "e": 75,
      "f": 76,
      "g": 77,
      "h": 78,
      "i": 79,
      "j": 80,
      "k": 81,
      "l": 82,
      "m": 83,
      "n": 84,
      "o": 85,
      "p": 86,
      "q": 87,
      "r": 88,
      "s": 89,
      "t": 90,
      "u": 91,
      "v": 92,
      "w": 93,
      "x": 94,
      "y": 95,
      "z": 96,
      "{": 97,
      "|": 98,
      "}": 99,
      "~": 100,
      "": 101,
      "": 102,
      "": 103,
      "": 104,
      "": 105,
      "": 106,
      "": 107,
      "": 108,
      " ": 109,
      "¡": 110,
      "¢": 111,
      "£": 112,
      "¤": 113,
      "¥": 114,
      "¦": 115,
      "§": 116,
      "¨": 117,
      "©": 118,
      "ª": 119,
      "«": 120,
      "¬": 121,
      "­": 122,
      "®": 123,
      "¯": 124,
      "°": 125,
      "±": 126,
      "²": 127,
      "³": 128,
      "´": 129,
      "µ": 130,
      "¶": 131,
      "·": 132,
      "¸": 133,
      "¹": 134,
      "º": 135,
      "»": 136,
      "¼": 137,
      "½": 138,
      "¾": 139,
      "¿": 140,
      "À": 141,
      "Á": 142,
      "Â": 143,
      "Ã": 144,
      "Ä": 145,
      "Å": 146,
      "Æ": 147,
      "Ç": 148,
      "È": 149,
      "É": 150,
      "Ê": 151,
      "Ë": 152,
      "Ì": 153,
      "Í": 154,
      "Î": 155,
      "Ï": 156,
      "Ð": 157,
      "Ñ": 158,
      "Ò": 159,
      "Ó": 160,
      "Ô": 161,
      "Õ": 162,
      "Ö": 163,
      "×": 164,
      "Ø": 165,
      "Ù": 166,
      "Ú": 167,
      "Û": 168,
      "Ü": 169,
      "Ý": 170,
      "Þ": 171,
      "ß": 172,
      "à": 173,
      "á": 174,
      "â": 175,
      "ã": 176,
      "ä": 177,
      "å": 178,
      "æ": 179,
      "ç": 180,
      "è": 181,
      "é": 182,
      "ê": 183,
      "ë": 184,
      "ì": 185,
      "í": 186,
      "î": 187,
      "ï": 188,
      "ð": 189,
      "ñ": 190,
      "ò": 191,
      "ó": 192,
      "ô": 193,
      "õ": 194,
      "ö": 195,
      "÷": 196,
      "ø": 197,
      "ù": 198,
      "ú": 199,
      "û": 200,
      "ü": 201,
      "ý": 202,
      "þ": 203,
      "ÿ": 204,
      "Ā": 205,
      "ā": 206,
      "Ă": 207,
      "ă": 208,
      "Ą": 209,
      "ą": 210,
      "Ć": 211,
      "ć": 212,
      "Č": 213,
      "č": 214,
      "ď": 215,
      "Đ": 216,
      "đ": 217,
      "Ē": 218,
      "ē": 219,
      "Ĕ": 220,
      "ĕ": 221,
      "ė": 222,
      "ę": 223,
      "Ě": 224,
      "ě": 225,
      "ĝ": 226,
      "ğ": 227,
      "ġ": 228,
      "Ģ": 229,
      "ģ": 230,
      "Ĥ": 231,
      "ĥ": 232,
      "Ħ": 233,
      "ħ": 234,
      "ĩ": 235,
      "Ī": 236,
      "ī": 237,
      "Į": 238,
      "į": 239,
      "İ": 240,
      "ı": 241,
      "ĵ": 242,
      "ĸ": 243,
      "ļ": 244,
      "ľ": 245,
      "Ł": 246,
      "ł": 247,
      "Ń": 248,
      "ń": 249,
      "ņ": 250,
      "ň": 251,
      "ŋ": 252,
      "Ō": 253,
      "ō": 254,
      "ŏ": 255,
      "ő": 256,
      "Œ": 257,
      "œ": 258,
      "ř": 259,
      "Ś": 260,
      "ś": 261,
      "Ŝ": 262,
      "Ş": 263,
      "ş": 264,
      "Š": 265,
      "š": 266,
      "Ţ": 267,
      "ţ": 268,
      "ť": 269,
      "ū": 270,
      "ů": 271,
      "ű": 272,
      "ų": 273,
      "ŵ": 274,
      "ŷ": 275,
      "Ÿ": 276,
      "ź": 277,
      "Ż": 278,
      "ż": 279,
      "Ž": 280,
      "ž": 281,
      "Ɓ": 282,
      "Ƃ": 283,
      "Ə": 284,
      "Ɛ": 285,
      "ƒ": 286,
      "ơ": 287,
      "ƣ": 288,
      "Ʈ": 289,
      "ư": 290,
      "ƶ": 291,
      "ƹ": 292,
      "ǁ": 293,
      "ǂ": 294,
      "ǎ": 295,
      "ǐ": 296,
      "ǒ": 297,
      "ǔ": 298,
      "ǝ": 299,
      "ǣ": 300,
      "ǧ": 301,
      "ǫ": 302,
      "ǰ": 303,
      "ǵ": 304,
      "Ƿ": 305,
      "ǹ": 306,
      "Ǻ": 307,
      "Ș": 308,
      "ș": 309,
      "Ț": 310,
      "ț": 311,
      "Ȝ": 312,
      "ȝ": 313,
      "Ȣ": 314,
      "ȳ": 315,
      "Ɂ": 316,
      "Ƀ": 317,
      "ɐ": 318,
      "ɑ": 319,
      "ɒ": 320,
      "ɓ": 321,
      "ɔ": 322,
      "ɕ": 323,
      "ɘ": 324,
      "ə": 325,
      "ɚ": 326,
      "ɛ": 327,
      "ɜ": 328,
      "ɝ": 329,
      "ɟ": 330,
      "ɡ": 331,
      "ɣ": 332,
      "ɤ": 333,
      "ɥ": 334,
      "ɦ": 335,
      "ɨ": 336,
      "ɪ": 337,
      "ɫ": 338,
      "ɬ": 339,
      "ɭ": 340,
      "ɯ": 341,
      "ɲ": 342,
      "ɵ": 343,
      "ɹ": 344,
      "ɾ": 345,
      "ʀ": 346,
      "ʁ": 347,
      "ʂ": 348,
      "ʃ": 349,
      "ʉ": 350,
      "ʊ": 351,
      "ʋ": 352,
      "ʌ": 353,
      "ʎ": 354,
      "ʏ": 355,
      "ʐ": 356,
      "ʑ": 357,
      "ʒ": 358,
      "ʔ": 359,
      "ʕ": 360,
      "ʖ": 361,
      "ʙ": 362,
      "ʝ": 363,
      "ʞ": 364,
      "ʤ": 365,
      "ʦ": 366,
      "ʧ": 367,
      "ʰ": 368,
      "ʲ": 369,
      "ʷ": 370,
      "ʹ": 371,
      "ʺ": 372,
      "ʻ": 373,
      "ʼ": 374,
      "ʽ": 375,
      "ʾ": 376,
      "ʿ": 377,
      "ˀ": 378,
      "˂": 379,
      "˃": 380,
      "ˆ": 381,
      "ˈ": 382,
      "ˌ": 383,
      "ˎ": 384,
      "ː": 385,
      "˗": 386,
      "˙": 387,
      "˚": 388,
      "˝": 389,
      "˞": 390,
      "ˢ": 391,
      "ˣ": 392,
      "˥": 393,
      "˦": 394,
      "˧": 395,
      "˨": 396,
      "˩": 397,
      "ˮ": 398,
      "˸": 399,
      "̀": 400,
      "́": 401,
      "̂": 402,
      "̃": 403,
      "̄": 404,
      "̆": 405,
      "̇": 406,
      "̈": 407,
      "̉": 408,
      "̌": 409,
      "̍": 410,
      "̑": 411,
      "̣": 412,
      "̯": 413,
      "̲": 414,
      "̶": 415,
      "͜": 416,
      "͠": 417,
      "͡": 418,
      "Ϳ": 419,
      "΄": 420,
      "Ά": 421,
      "Έ": 422,
      "Ή": 423,
      "Ί": 424,
      "Ό": 425,
      "ΐ": 426,
      "Α": 427,
      "Β": 428,
      "Γ": 429,
      "Δ": 430,
      "Ε": 431,
      "Ζ": 432,
      "Η": 433,
      "Θ": 434,
      "Ι": 435,
      "Κ": 436,
      "Λ": 437,
      "Μ": 438,
      "Ν": 439,
      "Ξ": 440,
      "Ο": 441,
      "Π": 442,
      "Ρ": 443,
      "Σ": 444,
      "Τ": 445,
      "Υ": 446,
      "Φ": 447,
      "Χ": 448,
      "Ψ": 449,
      "Ω": 450,
      "ά": 451,
      "έ": 452,
      "ή": 453,
      "ί": 454,
      "ΰ": 455,
      "α": 456,
      "β": 457,
      "γ": 458,
      "δ": 459,
      "ε": 460,
      "ζ": 461,
      "η": 462,
      "θ": 463,
      "ι": 464,
      "κ": 465,
      "λ": 466,
      "μ": 467,
      "ν": 468,
      "ξ": 469,
      "ο": 470,
      "π": 471,
      "ρ": 472,
      "ς": 473,
      "σ": 474,
      "τ": 475,
      "υ": 476,
      "φ": 477,
      "χ": 478,
      "ψ": 479,
      "ω": 480,
      "ϊ": 481,
      "ϋ": 482,
      "ό": 483,
      "ύ": 484,
      "ώ": 485,
      "ϑ": 486,
      "ϕ": 487,
      "Ϭ": 488,
      "ϭ": 489,
      "ϰ": 490,
      "ϲ": 491,
      "ϳ": 492,
      "ϵ": 493,
      "϶": 494,
      "ϸ": 495,
      "Ё": 496,
      "Ђ": 497,
      "Ѓ": 498,
      "Є": 499,
      "Ѕ": 500,
      "І": 501,
      "Ї": 502,
      "Ј": 503,
      "Љ": 504,
      "Њ": 505,
      "Ћ": 506,
      "Ќ": 507,
      "Ў": 508,
      "Џ": 509,
      "А": 510,
      "Б": 511,
      "В": 512,
      "Г": 513,
      "Д": 514,
      "Е": 515,
      "Ж": 516,
      "З": 517,
      "И": 518,
      "Й": 519,
      "К": 520,
      "Л": 521,
      "М": 522,
      "Н": 523,
      "О": 524,
      "П": 525,
      "Р": 526,
      "С": 527,
      "Т": 528,
      "У": 529,
      "Ф": 530,
      "Х": 531,
      "Ц": 532,
      "Ч": 533,
      "Ш": 534,
      "Щ": 535,
      "Ъ": 536,
      "Ы": 537,
      "Ь": 538,
      "Э": 539,
      "Ю": 540,
      "Я": 541,
      "а": 542,
      "б": 543,
      "в": 544,
      "г": 545,
      "д": 546,
      "е": 547,
      "ж": 548,
      "з": 549,
      "и": 550,
      "й": 551,
      "к": 552,
      "л": 553,
      "м": 554,
      "н": 555,
      "о": 556,
      "п": 557,
      "р": 558,
      "с": 559,
      "т": 560,
      "у": 561,
      "ф": 562,
      "х": 563,
      "ц": 564,
      "ч": 565,
      "ш": 566,
      "щ": 567,
      "ъ": 568,
      "ы": 569,
      "ь": 570,
      "э": 571,
      "ю": 572,
      "я": 573,
      "ѐ": 574,
      "ё": 575,
      "ђ": 576,
      "ѓ": 577,
      "є": 578,
      "ѕ": 579,
      "і": 580,
      "ї": 581,
      "ј": 582,
      "љ": 583,
      "њ": 584,
      "ћ": 585,
      "ќ": 586,
      "ѝ": 587,
      "ў": 588,
      "џ": 589,
      "Ѡ": 590,
      "ѡ": 591,
      "Ѣ": 592,
      "ѣ": 593,
      "ѥ": 594,
      "Ѧ": 595,
      "ѧ": 596,
      "ѩ": 597,
      "Ѫ": 598,
      "ѫ": 599,
      "Ѳ": 600,
      "ѳ": 601,
      "Ѵ": 602,
      "ѵ": 603,
      "ѻ": 604,
      "Ѿ": 605,
      "ѿ": 606,
      "҃": 607,
      "҆": 608,
      "҇": 609,
      "ҍ": 610,
      "Ґ": 611,
      "ґ": 612,
      "Ғ": 613,
      "ғ": 614,
      "ҕ": 615,
      "Җ": 616,
      "җ": 617,
      "Ҙ": 618,
      "ҙ": 619,
      "Қ": 620,
      "қ": 621,
      "ҟ": 622,
      "Ҡ": 623,
      "ҡ": 624,
      "Ң": 625,
      "ң": 626,
      "ҥ": 627,
      "ҧ": 628,
      "Ҫ": 629,
      "ҫ": 630,
      "Ү": 631,
      "ү": 632,
      "Ұ": 633,
      "ұ": 634,
      "Ҳ": 635,
      "ҳ": 636,
      "ҵ": 637,
      "ҷ": 638,
      "Һ": 639,
      "һ": 640,
      "Ӏ": 641,
      "ӄ": 642,
      "Ӈ": 643,
      "ӈ": 644,
      "ӏ": 645,
      "Ӑ": 646,
      "ӑ": 647,
      "ӓ": 648,
      "Ӗ": 649,
      "ӗ": 650,
      "Ә": 651,
      "ә": 652,
      "ӟ": 653,
      "ӣ": 654,
      "Ӧ": 655,
      "ӧ": 656,
      "Ө": 657,
      "ө": 658,
      "Ӯ": 659,
      "ӯ": 660,
      "Ӱ": 661,
      "ӱ": 662,
      "Ӳ": 663,
      "ӳ": 664,
      "ӷ": 665,
      "ӽ": 666,
      "ԇ": 667,
      "ԍ": 668,
      "Ա": 669,
      "Բ": 670,
      "Գ": 671,
      "Ե": 672,
      "Զ": 673,
      "Է": 674,
      "Թ": 675,
      "Կ": 676,
      "Հ": 677,
      "Ճ": 678,
      "Մ": 679,
      "Յ": 680,
      "Ն": 681,
      "Ո": 682,
      "Չ": 683,
      "Պ": 684,
      "Ջ": 685,
      "Ս": 686,
      "Վ": 687,
      "Տ": 688,
      "Օ": 689,
      "ա": 690,
      "բ": 691,
      "գ": 692,
      "դ": 693,
      "ե": 694,
      "զ": 695,
      "ը": 696,
      "թ": 697,
      "ժ": 698,
      "ի": 699,
      "լ": 700,
      "խ": 701,
      "ծ": 702,
      "կ": 703,
      "հ": 704,
      "ձ": 705,
      "ղ": 706,
      "ճ": 707,
      "մ": 708,
      "յ": 709,
      "ն": 710,
      "շ": 711,
      "ո": 712,
      "չ": 713,
      "պ": 714,
      "ջ": 715,
      "ռ": 716,
      "ս": 717,
      "վ": 718,
      "տ": 719,
      "ր": 720,
      "ց": 721,
      "ւ": 722,
      "փ": 723,
      "ք": 724,
      "օ": 725,
      "և": 726,
      "։": 727,
      "ְ": 728,
      "ֲ": 729,
      "ִ": 730,
      "ֵ": 731,
      "ֶ": 732,
      "ַ": 733,
      "ָ": 734,
      "ֹ": 735,
      "ֻ": 736,
      "ּ": 737,
      "־": 738,
      "ֿ": 739,
      "׀": 740,
      "ׁ": 741,
      "ׂ": 742,
      "׃": 743,
      "א": 744,
      "ב": 745,
      "ג": 746,
      "ד": 747,
      "ה": 748,
      "ו": 749,
      "ז": 750,
      "ח": 751,
      "ט": 752,
      "י": 753,
      "ך": 754,
      "כ": 755,
      "ל": 756,
      "ם": 757,
      "מ": 758,
      "ן": 759,
      "נ": 760,
      "ס": 761,
      "ע": 762,
      "ף": 763,
      "פ": 764,
      "ץ": 765,
      "צ": 766,
      "ק": 767,
      "ר": 768,
      "ש": 769,
      "ת": 770,
      "װ": 771,
      "ױ": 772,
      "׳": 773,
      "״": 774,
      "،": 775,
      "؛": 776,
      "؟": 777,
      "ء": 778,
      "آ": 779,
      "أ": 780,
      "ؤ": 781,
      "إ": 782,
      "ئ": 783,
      "ا": 784,
      "ب": 785,
      "ة": 786,
      "ت": 787,
      "ث": 788,
      "ج": 789,
      "ح": 790,
      "خ": 791,
      "د": 792,
      "ذ": 793,
      "ر": 794,
      "ز": 795,
      "س": 796,
      "ش": 797,
      "ص": 798,
      "ض": 799,
      "ط": 800,
      "ظ": 801,
      "ع": 802,
      "غ": 803,
      "ـ": 804,
      "ف": 805,
      "ق": 806,
      "ك": 807,
      "ل": 808,
      "م": 809,
      "ن": 810,
      "ه": 811,
      "و": 812,
      "ى": 813,
      "ي": 814,
      "ً": 815,
      "ٌ": 816,
      "ٍ": 817,
      "َ": 818,
      "ُ": 819,
      "ِ": 820,
      "ّ": 821,
      "ْ": 822,
      "ٓ": 823,
      "ٖ": 824,
      "ٗ": 825,
      "٠": 826,
      "٢": 827,
      "٣": 828,
      "٤": 829,
      "٦": 830,
      "ٰ": 831,
      "ٱ": 832,
      "ٶ": 833,
      "ٹ": 834,
      "ٻ": 835,
      "پ": 836,
      "څ": 837,
      "چ": 838,
      "ړ": 839,
      "ښ": 840,
      "ڠ": 841,
      "ڤ": 842,
      "ک": 843,
      "گ": 844,
      "ڰ": 845,
      "ھ": 846,
      "ڿ": 847,
      "ہ": 848,
      "ی": 849,
      "ۍ": 850,
      "ێ": 851,
      "ە": 852,
      "ۖ": 853,
      "ۗ": 854,
      "ۚ": 855,
      "ۜ": 856,
      "ۡ": 857,
      "ۢ": 858,
      "ۣ": 859,
      "ۥ": 860,
      "ۦ": 861,
      "۩": 862,
      "۰": 863,
      "۱": 864,
      "۳": 865,
      "۵": 866,
      "۷": 867,
      "۹": 868,
      "ܐ": 869,
      "ܒ": 870,
      "ܓ": 871,
      "ܕ": 872,
      "ܘ": 873,
      "ܙ": 874,
      "ܝ": 875,
      "ܟ": 876,
      "ܠ": 877,
      "ܡ": 878,
      "ܣ": 879,
      "ܩ": 880,
      "ܪ": 881,
      "ܫ": 882,
      "ܬ": 883,
      "ܲ": 884,
      "ܵ": 885,
      "ܼ": 886,
      "ܿ": 887,
      "݁": 888,
      "݂": 889,
      "ँ": 890,
      "ं": 891,
      "ः": 892,
      "अ": 893,
      "आ": 894,
      "इ": 895,
      "उ": 896,
      "ऋ": 897,
      "ए": 898,
      "ओ": 899,
      "क": 900,
      "ख": 901,
      "ग": 902,
      "च": 903,
      "छ": 904,
      "ज": 905,
      "झ": 906,
      "ञ": 907,
      "ट": 908,
      "ठ": 909,
      "ड": 910,
      "ढ": 911,
      "ण": 912,
      "त": 913,
      "थ": 914,
      "द": 915,
      "ध": 916,
      "न": 917,
      "प": 918,
      "फ": 919,
      "ब": 920,
      "भ": 921,
      "म": 922,
      "य": 923,
      "र": 924,
      "ल": 925,
      "व": 926,
      "श": 927,
      "ष": 928,
      "स": 929,
      "ह": 930,
      "़": 931,
      "ऽ": 932,
      "ा": 933,
      "ि": 934,
      "ी": 935,
      "ु": 936,
      "ू": 937,
      "ृ": 938,
      "े": 939,
      "ै": 940,
      "ो": 941,
      "ौ": 942,
      "्": 943,
      "ॐ": 944,
      "ॠ": 945,
      "।": 946,
      "॥": 947,
      "०": 948,
      "१": 949,
      "२": 950,
      "३": 951,
      "४": 952,
      "५": 953,
      "६": 954,
      "७": 955,
      "८": 956,
      "९": 957,
      "ং": 958,
      "অ": 959,
      "আ": 960,
      "ই": 961,
      "এ": 962,
      "ও": 963,
      "ক": 964,
      "খ": 965,
      "গ": 966,
      "ঘ": 967,
      "চ": 968,
      "ছ": 969,
      "জ": 970,
      "ট": 971,
      "ঠ": 972,
      "ত": 973,
      "থ": 974,
      "দ": 975,
      "ধ": 976,
      "ন": 977,
      "প": 978,
      "ব": 979,
      "ভ": 980,
      "ম": 981,
      "য": 982,
      "র": 983,
      "ল": 984,
      "শ": 985,
      "ষ": 986,
      "স": 987,
      "হ": 988,
      "়": 989,
      "া": 990,
      "ি": 991,
      "ু": 992,
      "ৃ": 993,
      "ে": 994,
      "ো": 995,
      "্": 996,
      "ਂ": 997,
      "ਅ": 998,
      "ਆ": 999,
      "ਇ": 1000,
      "ਈ": 1001,
      "ਉ": 1002,
      "ਊ": 1003,
      "ਏ": 1004,
      "ਓ": 1005,
      "ਕ": 1006,
      "ਗ": 1007,
      "ਚ": 1008,
      "ਜ": 1009,
      "ਟ": 1010,
      "ਡ": 1011,
      "ਣ": 1012,
      "ਤ": 1013,
      "ਥ": 1014,
      "ਦ": 1015,
      "ਧ": 1016,
      "ਨ": 1017,
      "ਪ": 1018,
      "ਬ": 1019,
      "ਭ": 1020,
      "ਮ": 1021,
      "ਯ": 1022,
      "ਰ": 1023,
      "ਲ": 1024,
      "ਵ": 1025,
      "ਸ": 1026,
      "ਹ": 1027,
      "਼": 1028,
      "ਾ": 1029,
      "ਿ": 1030,
      "ੀ": 1031,
      "ੁ": 1032,
      "ੂ": 1033,
      "ੇ": 1034,
      "ੈ": 1035,
      "ੋ": 1036,
      "ੌ": 1037,
      "੍": 1038,
      "ੜ": 1039,
      "ੰ": 1040,
      "ੱ": 1041,
      "અ": 1042,
      "જ": 1043,
      "દ": 1044,
      "મ": 1045,
      "વ": 1046,
      "ા": 1047,
      "ૐ": 1048,
      "இ": 1049,
      "ஊ": 1050,
      "ஓ": 1051,
      "க": 1052,
      "ங": 1053,
      "ச": 1054,
      "ஜ": 1055,
      "ட": 1056,
      "ண": 1057,
      "த": 1058,
      "ந": 1059,
      "ன": 1060,
      "ப": 1061,
      "ம": 1062,
      "ய": 1063,
      "ர": 1064,
      "ல": 1065,
      "ள": 1066,
      "ழ": 1067,
      "வ": 1068,
      "ா": 1069,
      "ி": 1070,
      "ீ": 1071,
      "ு": 1072,
      "ூ": 1073,
      "ெ": 1074,
      "ே": 1075,
      "ை": 1076,
      "ொ": 1077,
      "்": 1078,
      "ం": 1079,
      "ఇ": 1080,
      "ఉ": 1081,
      "ఎ": 1082,
      "క": 1083,
      "గ": 1084,
      "చ": 1085,
      "ట": 1086,
      "డ": 1087,
      "త": 1088,
      "ద": 1089,
      "న": 1090,
      "ప": 1091,
      "బ": 1092,
      "మ": 1093,
      "య": 1094,
      "ర": 1095,
      "ల": 1096,
      "వ": 1097,
      "శ": 1098,
      "స": 1099,
      "ా": 1100,
      "ి": 1101,
      "ీ": 1102,
      "ు": 1103,
      "ూ": 1104,
      "ే": 1105,
      "ొ": 1106,
      "ో": 1107,
      "్": 1108,
      "ಕ": 1109,
      "ಚ": 1110,
      "ಜ": 1111,
      "ಠ": 1112,
      "ಣ": 1113,
      "ತ": 1114,
      "ನ": 1115,
      "ಭ": 1116,
      "ಮ": 1117,
      "ಯ": 1118,
      "ರ": 1119,
      "ಲ": 1120,
      "ಶ": 1121,
      "ಷ": 1122,
      "ಾ": 1123,
      "ು": 1124,
      "ೃ": 1125,
      "ೕ": 1126,
      "ೖ": 1127,
      "ഗ": 1128,
      "ഠ": 1129,
      "ത": 1130,
      "ന": 1131,
      "ര": 1132,
      "ശ": 1133,
      "ാ": 1134,
      "ി": 1135,
      "ീ": 1136,
      "െ": 1137,
      "േ": 1138,
      "ൈ": 1139,
      "്": 1140,
      "ൗ": 1141,
      "ං": 1142,
      "උ": 1143,
      "ක": 1144,
      "ග": 1145,
      "ඟ": 1146,
      "ට": 1147,
      "ත": 1148,
      "ද": 1149,
      "න": 1150,
      "බ": 1151,
      "භ": 1152,
      "ම": 1153,
      "ය": 1154,
      "ර": 1155,
      "ල": 1156,
      "ව": 1157,
      "ස": 1158,
      "හ": 1159,
      "්": 1160,
      "ා": 1161,
      "ි": 1162,
      "ී": 1163,
      "ෙ": 1164,
      "ේ": 1165,
      "ก": 1166,
      "ข": 1167,
      "ค": 1168,
      "ฆ": 1169,
      "ง": 1170,
      "จ": 1171,
      "ฉ": 1172,
      "ช": 1173,
      "ซ": 1174,
      "ญ": 1175,
      "ฐ": 1176,
      "ฑ": 1177,
      "ฒ": 1178,
      "ณ": 1179,
      "ด": 1180,
      "ต": 1181,
      "ถ": 1182,
      "ท": 1183,
      "ธ": 1184,
      "น": 1185,
      "บ": 1186,
      "ป": 1187,
      "ผ": 1188,
      "พ": 1189,
      "ฟ": 1190,
      "ภ": 1191,
      "ม": 1192,
      "ย": 1193,
      "ร": 1194,
      "ล": 1195,
      "ว": 1196,
      "ศ": 1197,
      "ษ": 1198,
      "ส": 1199,
      "ห": 1200,
      "ฬ": 1201,
      "อ": 1202,
      "ฮ": 1203,
      "ฯ": 1204,
      "ะ": 1205,
      "ั": 1206,
      "า": 1207,
      "ำ": 1208,
      "ิ": 1209,
      "ี": 1210,
      "ึ": 1211,
      "ื": 1212,
      "ุ": 1213,
      "ู": 1214,
      "ฺ": 1215,
      "฿": 1216,
      "เ": 1217,
      "แ": 1218,
      "โ": 1219,
      "ใ": 1220,
      "ไ": 1221,
      "่": 1222,
      "้": 1223,
      "์": 1224,
      "ํ": 1225,
      "๑": 1226,
      "๖": 1227,
      "ກ": 1228,
      "ຂ": 1229,
      "ຄ": 1230,
      "ງ": 1231,
      "ຈ": 1232,
      "ຊ": 1233,
      "ຍ": 1234,
      "ດ": 1235,
      "ຕ": 1236,
      "ຖ": 1237,
      "ທ": 1238,
      "ນ": 1239,
      "ບ": 1240,
      "ປ": 1241,
      "ມ": 1242,
      "ລ": 1243,
      "ວ": 1244,
      "ສ": 1245,
      "ຫ": 1246,
      "ອ": 1247,
      "ະ": 1248,
      "ັ": 1249,
      "າ": 1250,
      "ຳ": 1251,
      "ິ": 1252,
      "ີ": 1253,
      "ື": 1254,
      "ູ": 1255,
      "ຽ": 1256,
      "ເ": 1257,
      "ແ": 1258,
      "ໂ": 1259,
      "ໃ": 1260,
      "ໄ": 1261,
      "່": 1262,
      "້": 1263,
      "ໍ": 1264,
      "་": 1265,
      "།": 1266,
      "༔": 1267,
      "ཀ": 1268,
      "ཁ": 1269,
      "ག": 1270,
      "ང": 1271,
      "ཆ": 1272,
      "ཏ": 1273,
      "ད": 1274,
      "ན": 1275,
      "པ": 1276,
      "བ": 1277,
      "མ": 1278,
      "ཚ": 1279,
      "ཞ": 1280,
      "ར": 1281,
      "ལ": 1282,
      "ཤ": 1283,
      "ས": 1284,
      "ི": 1285,
      "ུ": 1286,
      "ེ": 1287,
      "ོ": 1288,
      "ྒ": 1289,
      "ྫ": 1290,
      "ྲ": 1291,
      "က": 1292,
      "ခ": 1293,
      "င": 1294,
      "ဍ": 1295,
      "တ": 1296,
      "ရ": 1297,
      "ဝ": 1298,
      "အ": 1299,
      "ာ": 1300,
      "ေ": 1301,
      "း": 1302,
      "်": 1303,
      "ა": 1304,
      "ბ": 1305,
      "გ": 1306,
      "დ": 1307,
      "ე": 1308,
      "ვ": 1309,
      "ზ": 1310,
      "თ": 1311,
      "ი": 1312,
      "კ": 1313,
      "ლ": 1314,
      "მ": 1315,
      "ნ": 1316,
      "ო": 1317,
      "პ": 1318,
      "რ": 1319,
      "ს": 1320,
      "ტ": 1321,
      "უ": 1322,
      "ფ": 1323,
      "ქ": 1324,
      "ღ": 1325,
      "ყ": 1326,
      "შ": 1327,
      "ჩ": 1328,
      "ც": 1329,
      "ძ": 1330,
      "წ": 1331,
      "ჭ": 1332,
      "ხ": 1333,
      "ჯ": 1334,
      "ᄀ": 1335,
      "ᄂ": 1336,
      "ᄃ": 1337,
      "ᄄ": 1338,
      "ᄅ": 1339,
      "ᄆ": 1340,
      "ᄇ": 1341,
      "ᄉ": 1342,
      "ᄊ": 1343,
      "ᄋ": 1344,
      "ᄌ": 1345,
      "ᄎ": 1346,
      "ᄐ": 1347,
      "ᄑ": 1348,
      "ᄒ": 1349,
      "ᅡ": 1350,
      "ᅢ": 1351,
      "ᅣ": 1352,
      "ᅥ": 1353,
      "ᅦ": 1354,
      "ᅧ": 1355,
      "ᅨ": 1356,
      "ᅩ": 1357,
      "ᅪ": 1358,
      "ᅫ": 1359,
      "ᅬ": 1360,
      "ᅭ": 1361,
      "ᅮ": 1362,
      "ᅯ": 1363,
      "ᅱ": 1364,
      "ᅲ": 1365,
      "ᅳ": 1366,
      "ᅴ": 1367,
      "ᅵ": 1368,
      "ᆨ": 1369,
      "ᆫ": 1370,
      "ᆮ": 1371,
      "ᆯ": 1372,
      "ᆷ": 1373,
      "ᆸ": 1374,
      "ᆼ": 1375,
      "ሃ": 1376,
      "ህ": 1377,
      "ለ": 1378,
      "ሉ": 1379,
      "ላ": 1380,
      "ሌ": 1381,
      "ል": 1382,
      "ሎ": 1383,
      "ሓ": 1384,
      "ሕ": 1385,
      "መ": 1386,
      "ሚ": 1387,
      "ም": 1388,
      "ሩ": 1389,
      "ራ": 1390,
      "ር": 1391,
      "ሮ": 1392,
      "ሯ": 1393,
      "ስ": 1394,
      "ቀ": 1395,
      "ቅ": 1396,
      "በ": 1397,
      "ባ": 1398,
      "ብ": 1399,
      "ቦ": 1400,
      "ተ": 1401,
      "ቲ": 1402,
      "ታ": 1403,
      "ት": 1404,
      "ች": 1405,
      "ነ": 1406,
      "ኑ": 1407,
      "ና": 1408,
      "ን": 1409,
      "ኞ": 1410,
      "አ": 1411,
      "ኢ": 1412,
      "እ": 1413,
      "ካ": 1414,
      "ወ": 1415,
      "ዊ": 1416,
      "ው": 1417,
      "ዕ": 1418,
      "ዝ": 1419,
      "የ": 1420,
      "ያ": 1421,
      "ይ": 1422,
      "ዮ": 1423,
      "ደ": 1424,
      "ዱ": 1425,
      "ዲ": 1426,
      "ዳ": 1427,
      "ዶ": 1428,
      "ጉ": 1429,
      "ጋ": 1430,
      "ግ": 1431,
      "ጡ": 1432,
      "ጨ": 1433,
      "ጵ": 1434,
      "ፓ": 1435,
      "ᐃ": 1436,
      "ᐅ": 1437,
      "ᑐ": 1438,
      "ᑦ": 1439,
      "ᒪ": 1440,
      "ᒾ": 1441,
      "ᓄ": 1442,
      "ᔨ": 1443,
      "ᔭ": 1444,
      "ᖃ": 1445,
      "ᖏ": 1446,
      "ᚢ": 1447,
      "ᚣ": 1448,
      "ᚨ": 1449,
      "ᚩ": 1450,
      "ᚱ": 1451,
      "ᚲ": 1452,
      "ᚳ": 1453,
      "ᚷ": 1454,
      "ᚹ": 1455,
      "ᚺ": 1456,
      "ᚻ": 1457,
      "ᚾ": 1458,
      "ᛁ": 1459,
      "ᛃ": 1460,
      "ᛈ": 1461,
      "ᛉ": 1462,
      "ᛋ": 1463,
      "ᛏ": 1464,
      "ᛒ": 1465,
      "ᛖ": 1466,
      "ᛗ": 1467,
      "ᛚ": 1468,
      "ᛝ": 1469,
      "ᛟ": 1470,
      "ᛣ": 1471,
      "ᛥ": 1472,
      "ក": 1473,
      "គ": 1474,
      "ឃ": 1475,
      "ង": 1476,
      "ច": 1477,
      "ជ": 1478,
      "ដ": 1479,
      "ឌ": 1480,
      "ឍ": 1481,
      "ណ": 1482,
      "ត": 1483,
      "ទ": 1484,
      "ធ": 1485,
      "ន": 1486,
      "ប": 1487,
      "ព": 1488,
      "ភ": 1489,
      "ម": 1490,
      "យ": 1491,
      "រ": 1492,
      "ល": 1493,
      "វ": 1494,
      "ស": 1495,
      "ហ": 1496,
      "អ": 1497,
      "ឥ": 1498,
      "ឫ": 1499,
      "ា": 1500,
      "ិ": 1501,
      "ី": 1502,
      "ុ": 1503,
      "ឿ": 1504,
      "េ": 1505,
      "ៃ": 1506,
      "ំ": 1507,
      "៊": 1508,
      "់": 1509,
      "៍": 1510,
      "្": 1511,
      "᠎": 1512,
      "ᠠ": 1513,
      "ᠡ": 1514,
      "ᠢ": 1515,
      "ᠣ": 1516,
      "ᠤ": 1517,
      "ᠦ": 1518,
      "ᠨ": 1519,
      "ᠩ": 1520,
      "ᠪ": 1521,
      "ᠭ": 1522,
      "ᠮ": 1523,
      "ᠯ": 1524,
      "ᠳ": 1525,
      "ᠶ": 1526,
      "ᠷ": 1527,
      "ᡝ": 1528,
      "ᡠ": 1529,
      "ᡥ": 1530,
      "ᡶ": 1531,
      "ᴄ": 1532,
      "ᴇ": 1533,
      "ᴏ": 1534,
      "ᴒ": 1535,
      "ᴓ": 1536,
      "ᴗ": 1537,
      "ᴛ": 1538,
      "ᴦ": 1539,
      "ᴩ": 1540,
      "ᵀ": 1541,
      "ᵏ": 1542,
      "ᵖ": 1543,
      "ᵢ": 1544,
      "ᵣ": 1545,
      "ḍ": 1546,
      "ḏ": 1547,
      "ḗ": 1548,
      "Ḥ": 1549,
      "ḥ": 1550,
      "ḫ": 1551,
      "ḭ": 1552,
      "Ḳ": 1553,
      "ḳ": 1554,
      "ḷ": 1555,
      "ḻ": 1556,
      "ḿ": 1557,
      "ṁ": 1558,
      "ṃ": 1559,
      "ṅ": 1560,
      "ṇ": 1561,
      "ṉ": 1562,
      "ṓ": 1563,
      "ṛ": 1564,
      "ṣ": 1565,
      "Ṭ": 1566,
      "ṭ": 1567,
      "ṯ": 1568,
      "ẚ": 1569,
      "ạ": 1570,
      "ả": 1571,
      "ậ": 1572,
      "ắ": 1573,
      "ẵ": 1574,
      "ặ": 1575,
      "Ẹ": 1576,
      "ẹ": 1577,
      "ế": 1578,
      "ề": 1579,
      "ể": 1580,
      "ệ": 1581,
      "ỉ": 1582,
      "ọ": 1583,
      "ỏ": 1584,
      "ố": 1585,
      "ồ": 1586,
      "ổ": 1587,
      "ộ": 1588,
      "ớ": 1589,
      "ờ": 1590,
      "ợ": 1591,
      "ụ": 1592,
      "ủ": 1593,
      "ứ": 1594,
      "ừ": 1595,
      "ữ": 1596,
      "ỳ": 1597,
      "ἀ": 1598,
      "ἁ": 1599,
      "ἄ": 1600,
      "ἅ": 1601,
      "Ἀ": 1602,
      "Ἁ": 1603,
      "Ἅ": 1604,
      "ἐ": 1605,
      "ἑ": 1606,
      "ἔ": 1607,
      "ἕ": 1608,
      "Ἐ": 1609,
      "Ἑ": 1610,
      "ἠ": 1611,
      "ἡ": 1612,
      "Ἠ": 1613,
      "Ἡ": 1614,
      "ἰ": 1615,
      "ἱ": 1616,
      "ἴ": 1617,
      "ἶ": 1618,
      "Ἰ": 1619,
      "Ἴ": 1620,
      "ὀ": 1621,
      "ὁ": 1622,
      "ὄ": 1623,
      "ὅ": 1624,
      "ὐ": 1625,
      "ὑ": 1626,
      "ὔ": 1627,
      "ὕ": 1628,
      "ὖ": 1629,
      "ὰ": 1630,
      "ὲ": 1631,
      "ὴ": 1632,
      "ὶ": 1633,
      "ὸ": 1634,
      "ὺ": 1635,
      "ὼ": 1636,
      "ᾰ": 1637,
      "ᾶ": 1638,
      "ῃ": 1639,
      "ῆ": 1640,
      "ῐ": 1641,
      "ῖ": 1642,
      "ῦ": 1643,
      "ῶ": 1644,
      "ῷ": 1645,
      "῾": 1646,
      " ": 1647,
      " ": 1648,
      " ": 1649,
      " ": 1650,
      " ": 1651,
      " ": 1652,
      " ": 1653,
      " ": 1654,
      "​": 1655,
      "‌": 1656,
      "‍": 1657,
      "‎": 1658,
      "‏": 1659,
      "‐": 1660,
      "‑": 1661,
      "‒": 1662,
      "–": 1663,
      "—": 1664,
      "―": 1665,
      "‖": 1666,
      "‘": 1667,
      "’": 1668,
      "‚": 1669,
      "“": 1670,
      "”": 1671,
      "„": 1672,
      "†": 1673,
      "‡": 1674,
      "•": 1675,
      "‣": 1676,
      "․": 1677,
      "…": 1678,
      "‧": 1679,
      " ": 1680,
      "‰": 1681,
      "′": 1682,
      "″": 1683,
      "‹": 1684,
      "›": 1685,
      "※": 1686,
      "‼": 1687,
      "‾": 1688,
      "‿": 1689,
      "⁂": 1690,
      "⁃": 1691,
      "⁄": 1692,
      "⁉": 1693,
      "⁠": 1694,
      "⁡": 1695,
      "⁰": 1696,
      "ⁱ": 1697,
      "⁴": 1698,
      "⁵": 1699,
      "⁶": 1700,
      "⁷": 1701,
      "⁸": 1702,
      "⁹": 1703,
      "⁺": 1704,
      "⁻": 1705,
      "ⁿ": 1706,
      "₀": 1707,
      "₁": 1708,
      "₂": 1709,
      "₃": 1710,
      "₄": 1711,
      "₅": 1712,
      "₆": 1713,
      "₇": 1714,
      "₉": 1715,
      "₊": 1716,
      "₋": 1717,
      "ₓ": 1718,
      "ₖ": 1719,
      "ₙ": 1720,
      "₣": 1721,
      "₤": 1722,
      "₥": 1723,
      "₨": 1724,
      "₩": 1725,
      "₪": 1726,
      "€": 1727,
      "₰": 1728,
      "₱": 1729,
      "₴": 1730,
      "₷": 1731,
      "₸": 1732,
      "₹": 1733,
      "₽": 1734,
      "⃣": 1735,
      "℃": 1736,
      "℉": 1737,
      "ℕ": 1738,
      "№": 1739,
      "℗": 1740,
      "ℚ": 1741,
      "ℝ": 1742,
      "™": 1743,
      "ℤ": 1744,
      "ⅆ": 1745,
      "⅓": 1746,
      "⅔": 1747,
      "⅙": 1748,
      "⅚": 1749,
      "⅛": 1750,
      "⅜": 1751,
      "⅝": 1752,
      "Ⅰ": 1753,
      "Ⅱ": 1754,
      "Ⅲ": 1755,
      "Ⅳ": 1756,
      "Ⅵ": 1757,
      "Ⅶ": 1758,
      "Ⅷ": 1759,
      "Ⅸ": 1760,
      "Ⅹ": 1761,
      "Ⅾ": 1762,
      "←": 1763,
      "↑": 1764,
      "→": 1765,
      "↓": 1766,
      "↔": 1767,
      "↗": 1768,
      "↩": 1769,
      "↪": 1770,
      "↯": 1771,
      "↲": 1772,
      "↳": 1773,
      "↵": 1774,
      "↹": 1775,
      "⇀": 1776,
      "⇄": 1777,
      "⇌": 1778,
      "⇐": 1779,
      "⇑": 1780,
      "⇒": 1781,
      "⇓": 1782,
      "⇔": 1783,
      "⇥": 1784,
      "⇧": 1785,
      "⇩": 1786,
      "∀": 1787,
      "∂": 1788,
      "∃": 1789,
      "∅": 1790,
      "∆": 1791,
      "∇": 1792,
      "∈": 1793,
      "∎": 1794,
      "∏": 1795,
      "∑": 1796,
      "−": 1797,
      "∗": 1798,
      "∘": 1799,
      "∙": 1800,
      "√": 1801,
      "∛": 1802,
      "∝": 1803,
      "∞": 1804,
      "∠": 1805,
      "∥": 1806,
      "∧": 1807,
      "∨": 1808,
      "∩": 1809,
      "∪": 1810,
      "∫": 1811,
      "∬": 1812,
      "∼": 1813,
      "≅": 1814,
      "≈": 1815,
      "≔": 1816,
      "≠": 1817,
      "≡": 1818,
      "≤": 1819,
      "≥": 1820,
      "≪": 1821,
      "≫": 1822,
      "⊂": 1823,
      "⊃": 1824,
      "⊆": 1825,
      "⊇": 1826,
      "⊕": 1827,
      "⊗": 1828,
      "⊥": 1829,
      "⊰": 1830,
      "⊱": 1831,
      "⋀": 1832,
      "⋁": 1833,
      "⋃": 1834,
      "⋅": 1835,
      "⋊": 1836,
      "⌀": 1837,
      "⌂": 1838,
      "⌈": 1839,
      "⌉": 1840,
      "⌊": 1841,
      "⌋": 1842,
      "⌘": 1843,
      "⌚": 1844,
      "⌠": 1845,
      "⌥": 1846,
      "⎛": 1847,
      "⎝": 1848,
      "⎞": 1849,
      "⎠": 1850,
      "⎣": 1851,
      "⎦": 1852,
      "⎵": 1853,
      "⏎": 1854,
      "⏱": 1855,
      "⏳": 1856,
      "①": 1857,
      "②": 1858,
      "③": 1859,
      "④": 1860,
      "⑤": 1861,
      "⑥": 1862,
      "⑦": 1863,
      "⑧": 1864,
      "⑨": 1865,
      "⑩": 1866,
      "Ⓐ": 1867,
      "Ⓑ": 1868,
      "Ⓛ": 1869,
      "Ⓜ": 1870,
      "Ⓡ": 1871,
      "Ⓢ": 1872,
      "Ⓤ": 1873,
      "Ⓨ": 1874,
      "Ⓩ": 1875,
      "ⓐ": 1876,
      "ⓑ": 1877,
      "ⓘ": 1878,
      "─": 1879,
      "━": 1880,
      "│": 1881,
      "┅": 1882,
      "┌": 1883,
      "┏": 1884,
      "┐": 1885,
      "┗": 1886,
      "┘": 1887,
      "├": 1888,
      "┣": 1889,
      "┤": 1890,
      "┬": 1891,
      "┴": 1892,
      "═": 1893,
      "║": 1894,
      "╕": 1895,
      "╖": 1896,
      "╚": 1897,
      "╟": 1898,
      "╧": 1899,
      "╩": 1900,
      "╳": 1901,
      "█": 1902,
      "▒": 1903,
      "▓": 1904,
      "■": 1905,
      "□": 1906,
      "▪": 1907,
      "▬": 1908,
      "▲": 1909,
      "△": 1910,
      "▶": 1911,
      "▷": 1912,
      "▸": 1913,
      "►": 1914,
      "▻": 1915,
      "▼": 1916,
      "◀": 1917,
      "◁": 1918,
      "◄": 1919,
      "◆": 1920,
      "◇": 1921,
      "◈": 1922,
      "◉": 1923,
      "◊": 1924,
      "○": 1925,
      "◌": 1926,
      "●": 1927,
      "◦": 1928,
      "◯": 1929,
      "◾": 1930,
      "☀": 1931,
      "★": 1932,
      "☆": 1933,
      "☉": 1934,
      "☎": 1935,
      "☑": 1936,
      "☕": 1937,
      "☛": 1938,
      "☝": 1939,
      "☞": 1940,
      "☢": 1941,
      "☭": 1942,
      "☮": 1943,
      "☰": 1944,
      "☷": 1945,
      "☸": 1946,
      "☹": 1947,
      "☺": 1948,
      "☻": 1949,
      "☼": 1950,
      "☽": 1951,
      "☾": 1952,
      "☿": 1953,
      "♀": 1954,
      "♂": 1955,
      "♃": 1956,
      "♄": 1957,
      "♏": 1958,
      "♕": 1959,
      "♛": 1960,
      "♠": 1961,
      "♡": 1962,
      "♢": 1963,
      "♣": 1964,
      "♥": 1965,
      "♦": 1966,
      "♪": 1967,
      "♫": 1968,
      "♬": 1969,
      "♭": 1970,
      "♯": 1971,
      "⚐": 1972,
      "⚗": 1973,
      "⚙": 1974,
      "⚠": 1975,
      "⚡": 1976,
      "⚹": 1977,
      "⚽": 1978,
      "⛵": 1979,
      "✅": 1980,
      "✆": 1981,
      "✈": 1982,
      "✉": 1983,
      "✌": 1984,
      "✍": 1985,
      "✎": 1986,
      "✓": 1987,
      "✔": 1988,
      "✗": 1989,
      "✘": 1990,
      "✡": 1991,
      "✤": 1992,
      "✨": 1993,
      "✫": 1994,
      "✱": 1995,
      "❀": 1996,
      "❂": 1997,
      "❌": 1998,
      "❓": 1999,
      "❕": 2000,
      "❖": 2001,
      "❗": 2002,
      "❤": 2003,
      "❬": 2004,
      "❭": 2005,
      "❽": 2006,
      "❿": 2007,
      "➊": 2008,
      "➋": 2009,
      "➌": 2010,
      "➍": 2011,
      "➎": 2012,
      "➏": 2013,
      "➕": 2014,
      "➖": 2015,
      "➜": 2016,
      "➝": 2017,
      "➠": 2018,
      "➡": 2019,
      "➤": 2020,
      "➥": 2021,
      "➨": 2022,
      "⟨": 2023,
      "⟩": 2024,
      "⟶": 2025,
      "⟹": 2026,
      "⠀": 2027,
      "⤵": 2028,
      "⩽": 2029,
      "⩾": 2030,
      "⬇": 2031,
      "⭐": 2032,
      "ⰰ": 2033,
      "ⰲ": 2034,
      "ⰶ": 2035,
      "ⱃ": 2036,
      "ⱅ": 2037,
      "ⱐ": 2038,
      "ⲁ": 2039,
      "ⲉ": 2040,
      "ⲏ": 2041,
      "ⲓ": 2042,
      "ⲕ": 2043,
      "ⲙ": 2044,
      "ⲛ": 2045,
      "ⲟ": 2046,
      "ⲣ": 2047,
      "ⲧ": 2048,
      "ⴰ": 2049,
      "ⴳ": 2050,
      "ⴷ": 2051,
      "ⴻ": 2052,
      "ⵍ": 2053,
      "ⵎ": 2054,
      "ⵏ": 2055,
      "ⵓ": 2056,
      "ⵔ": 2057,
      "ⵙ": 2058,
      "ⵜ": 2059,
      "ⵢ": 2060,
      "ⵣ": 2061,
      "ⷭ": 2062,
      "　": 2063,
      "、": 2064,
      "。": 2065,
      "々": 2066,
      "〇": 2067,
      "〈": 2068,
      "〉": 2069,
      "《": 2070,
      "》": 2071,
      "「": 2072,
      "」": 2073,
      "『": 2074,
      "』": 2075,
      "〒": 2076,
      "〗": 2077,
      "〜": 2078,
      "〰": 2079,
      "ぁ": 2080,
      "あ": 2081,
      "ぃ": 2082,
      "い": 2083,
      "う": 2084,
      "ぇ": 2085,
      "え": 2086,
      "お": 2087,
      "か": 2088,
      "が": 2089,
      "き": 2090,
      "ぎ": 2091,
      "く": 2092,
      "ぐ": 2093,
      "け": 2094,
      "げ": 2095,
      "こ": 2096,
      "ご": 2097,
      "さ": 2098,
      "ざ": 2099,
      "し": 2100,
      "じ": 2101,
      "す": 2102,
      "ず": 2103,
      "せ": 2104,
      "ぜ": 2105,
      "そ": 2106,
      "た": 2107,
      "だ": 2108,
      "ち": 2109,
      "っ": 2110,
      "つ": 2111,
      "づ": 2112,
      "て": 2113,
      "で": 2114,
      "と": 2115,
      "ど": 2116,
      "な": 2117,
      "に": 2118,
      "ぬ": 2119,
      "ね": 2120,
      "の": 2121,
      "は": 2122,
      "ば": 2123,
      "ひ": 2124,
      "び": 2125,
      "ぴ": 2126,
      "ふ": 2127,
      "ぶ": 2128,
      "ぷ": 2129,
      "へ": 2130,
      "べ": 2131,
      "ほ": 2132,
      "ぼ": 2133,
      "ぽ": 2134,
      "ま": 2135,
      "み": 2136,
      "む": 2137,
      "め": 2138,
      "も": 2139,
      "ゃ": 2140,
      "や": 2141,
      "ゆ": 2142,
      "ょ": 2143,
      "よ": 2144,
      "ら": 2145,
      "り": 2146,
      "る": 2147,
      "れ": 2148,
      "ろ": 2149,
      "わ": 2150,
      "を": 2151,
      "ん": 2152,
      "ァ": 2153,
      "ア": 2154,
      "ィ": 2155,
      "イ": 2156,
      "ゥ": 2157,
      "ウ": 2158,
      "ェ": 2159,
      "エ": 2160,
      "ォ": 2161,
      "オ": 2162,
      "カ": 2163,
      "ガ": 2164,
      "キ": 2165,
      "ギ": 2166,
      "ク": 2167,
      "グ": 2168,
      "ケ": 2169,
      "コ": 2170,
      "ゴ": 2171,
      "サ": 2172,
      "シ": 2173,
      "ジ": 2174,
      "ス": 2175,
      "ズ": 2176,
      "セ": 2177,
      "ゼ": 2178,
      "ソ": 2179,
      "タ": 2180,
      "ダ": 2181,
      "チ": 2182,
      "ッ": 2183,
      "ツ": 2184,
      "ヅ": 2185,
      "テ": 2186,
      "デ": 2187,
      "ト": 2188,
      "ド": 2189,
      "ナ": 2190,
      "ニ": 2191,
      "ヌ": 2192,
      "ネ": 2193,
      "ノ": 2194,
      "ハ": 2195,
      "バ": 2196,
      "パ": 2197,
      "ヒ": 2198,
      "ビ": 2199,
      "フ": 2200,
      "ブ": 2201,
      "プ": 2202,
      "ペ": 2203,
      "ホ": 2204,
      "ボ": 2205,
      "ポ": 2206,
      "マ": 2207,
      "ミ": 2208,
      "ム": 2209,
      "メ": 2210,
      "モ": 2211,
      "ャ": 2212,
      "ヤ": 2213,
      "ュ": 2214,
      "ョ": 2215,
      "ヨ": 2216,
      "ラ": 2217,
      "リ": 2218,
      "ル": 2219,
      "レ": 2220,
      "ロ": 2221,
      "ワ": 2222,
      "ン": 2223,
      "ヴ": 2224,
      "ヶ": 2225,
      "・": 2226,
      "ー": 2227,
      "ㄱ": 2228,
      "ㄴ": 2229,
      "ㅁ": 2230,
      "ㅅ": 2231,
      "ㅇ": 2232,
      "ㅡ": 2233,
      "ㅣ": 2234,
      "㋿": 2235,
      "㍻": 2236,
      "㍼": 2237,
      "㍽": 2238,
      "㍾": 2239,
      "㬀": 2240,
      "㴶": 2241,
      "㼅": 2242,
      "䷑": 2243,
      "一": 2244,
      "七": 2245,
      "万": 2246,
      "丈": 2247,
      "三": 2248,
      "上": 2249,
      "下": 2250,
      "不": 2251,
      "与": 2252,
      "丑": 2253,
      "专": 2254,
      "且": 2255,
      "丕": 2256,
      "世": 2257,
      "丘": 2258,
      "业": 2259,
      "丛": 2260,
      "东": 2261,
      "丝": 2262,
      "丞": 2263,
      "两": 2264,
      "严": 2265,
      "个": 2266,
      "丫": 2267,
      "中": 2268,
      "丰": 2269,
      "临": 2270,
      "丸": 2271,
      "丹": 2272,
      "为": 2273,
      "主": 2274,
      "丽": 2275,
      "举": 2276,
      "乃": 2277,
      "久": 2278,
      "么": 2279,
      "义": 2280,
      "之": 2281,
      "乌": 2282,
      "乍": 2283,
      "乐": 2284,
      "乗": 2285,
      "乘": 2286,
      "乙": 2287,
      "九": 2288,
      "乞": 2289,
      "也": 2290,
      "习": 2291,
      "乡": 2292,
      "书": 2293,
      "买": 2294,
      "乱": 2295,
      "乳": 2296,
      "乾": 2297,
      "亀": 2298,
      "了": 2299,
      "予": 2300,
      "争": 2301,
      "事": 2302,
      "二": 2303,
      "于": 2304,
      "云": 2305,
      "互": 2306,
      "五": 2307,
      "井": 2308,
      "些": 2309,
      "交": 2310,
      "亥": 2311,
      "亦": 2312,
      "产": 2313,
      "享": 2314,
      "京": 2315,
      "亭": 2316,
      "亮": 2317,
      "亲": 2318,
      "人": 2319,
      "亿": 2320,
      "什": 2321,
      "仁": 2322,
      "今": 2323,
      "介": 2324,
      "从": 2325,
      "仏": 2326,
      "仕": 2327,
      "他": 2328,
      "付": 2329,
      "仙": 2330,
      "代": 2331,
      "令": 2332,
      "以": 2333,
      "们": 2334,
      "仮": 2335,
      "仲": 2336,
      "件": 2337,
      "价": 2338,
      "任": 2339,
      "份": 2340,
      "伊": 2341,
      "伎": 2342,
      "伏": 2343,
      "休": 2344,
      "众": 2345,
      "伙": 2346,
      "会": 2347,
      "伝": 2348,
      "传": 2349,
      "伤": 2350,
      "伦": 2351,
      "估": 2352,
      "伴": 2353,
      "伶": 2354,
      "伸": 2355,
      "伽": 2356,
      "但": 2357,
      "位": 2358,
      "住": 2359,
      "佐": 2360,
      "体": 2361,
      "何": 2362,
      "佘": 2363,
      "余": 2364,
      "佛": 2365,
      "作": 2366,
      "你": 2367,
      "佳": 2368,
      "使": 2369,
      "來": 2370,
      "例": 2371,
      "侗": 2372,
      "供": 2373,
      "依": 2374,
      "侨": 2375,
      "侯": 2376,
      "侵": 2377,
      "便": 2378,
      "促": 2379,
      "俄": 2380,
      "俊": 2381,
      "保": 2382,
      "俞": 2383,
      "信": 2384,
      "修": 2385,
      "俯": 2386,
      "俳": 2387,
      "倉": 2388,
      "個": 2389,
      "倍": 2390,
      "候": 2391,
      "借": 2392,
      "倡": 2393,
      "倫": 2394,
      "值": 2395,
      "假": 2396,
      "做": 2397,
      "健": 2398,
      "側": 2399,
      "偶": 2400,
      "傅": 2401,
      "傘": 2402,
      "備": 2403,
      "催": 2404,
      "傷": 2405,
      "傻": 2406,
      "傾": 2407,
      "働": 2408,
      "像": 2409,
      "僕": 2410,
      "僧": 2411,
      "億": 2412,
      "儉": 2413,
      "儒": 2414,
      "優": 2415,
      "元": 2416,
      "兆": 2417,
      "先": 2418,
      "光": 2419,
      "克": 2420,
      "免": 2421,
      "兒": 2422,
      "党": 2423,
      "入": 2424,
      "內": 2425,
      "全": 2426,
      "兪": 2427,
      "八": 2428,
      "公": 2429,
      "六": 2430,
      "兰": 2431,
      "共": 2432,
      "关": 2433,
      "兴": 2434,
      "兵": 2435,
      "其": 2436,
      "具": 2437,
      "典": 2438,
      "兹": 2439,
      "养": 2440,
      "冀": 2441,
      "内": 2442,
      "円": 2443,
      "冊": 2444,
      "再": 2445,
      "写": 2446,
      "军": 2447,
      "农": 2448,
      "冠": 2449,
      "冥": 2450,
      "冬": 2451,
      "冰": 2452,
      "决": 2453,
      "况": 2454,
      "冷": 2455,
      "凉": 2456,
      "凌": 2457,
      "凍": 2458,
      "几": 2459,
      "処": 2460,
      "出": 2461,
      "刀": 2462,
      "刃": 2463,
      "分": 2464,
      "切": 2465,
      "刑": 2466,
      "划": 2467,
      "列": 2468,
      "则": 2469,
      "创": 2470,
      "初": 2471,
      "判": 2472,
      "別": 2473,
      "利": 2474,
      "别": 2475,
      "到": 2476,
      "制": 2477,
      "刺": 2478,
      "刻": 2479,
      "前": 2480,
      "剛": 2481,
      "剣": 2482,
      "剧": 2483,
      "副": 2484,
      "創": 2485,
      "劇": 2486,
      "劉": 2487,
      "力": 2488,
      "办": 2489,
      "功": 2490,
      "加": 2491,
      "务": 2492,
      "动": 2493,
      "助": 2494,
      "努": 2495,
      "劫": 2496,
      "励": 2497,
      "劲": 2498,
      "労": 2499,
      "効": 2500,
      "勇": 2501,
      "勐": 2502,
      "勒": 2503,
      "動": 2504,
      "務": 2505,
      "勝": 2506,
      "勞": 2507,
      "勠": 2508,
      "勤": 2509,
      "勧": 2510,
      "勾": 2511,
      "勿": 2512,
      "匂": 2513,
      "包": 2514,
      "匏": 2515,
      "化": 2516,
      "北": 2517,
      "区": 2518,
      "医": 2519,
      "區": 2520,
      "十": 2521,
      "千": 2522,
      "升": 2523,
      "午": 2524,
      "半": 2525,
      "卍": 2526,
      "华": 2527,
      "协": 2528,
      "卐": 2529,
      "協": 2530,
      "南": 2531,
      "単": 2532,
      "博": 2533,
      "卜": 2534,
      "卡": 2535,
      "卫": 2536,
      "卯": 2537,
      "印": 2538,
      "危": 2539,
      "即": 2540,
      "却": 2541,
      "卵": 2542,
      "卿": 2543,
      "厂": 2544,
      "厅": 2545,
      "原": 2546,
      "去": 2547,
      "县": 2548,
      "参": 2549,
      "又": 2550,
      "及": 2551,
      "友": 2552,
      "双": 2553,
      "反": 2554,
      "发": 2555,
      "叔": 2556,
      "取": 2557,
      "受": 2558,
      "变": 2559,
      "口": 2560,
      "古": 2561,
      "句": 2562,
      "叩": 2563,
      "只": 2564,
      "叫": 2565,
      "召": 2566,
      "可": 2567,
      "台": 2568,
      "史": 2569,
      "右": 2570,
      "号": 2571,
      "司": 2572,
      "各": 2573,
      "合": 2574,
      "吉": 2575,
      "同": 2576,
      "名": 2577,
      "后": 2578,
      "向": 2579,
      "吕": 2580,
      "吗": 2581,
      "君": 2582,
      "否": 2583,
      "吧": 2584,
      "含": 2585,
      "听": 2586,
      "吴": 2587,
      "吸": 2588,
      "吹": 2589,
      "吾": 2590,
      "呂": 2591,
      "呉": 2592,
      "告": 2593,
      "员": 2594,
      "呢": 2595,
      "呦": 2596,
      "周": 2597,
      "味": 2598,
      "呼": 2599,
      "命": 2600,
      "和": 2601,
      "咖": 2602,
      "哀": 2603,
      "品": 2604,
      "哉": 2605,
      "响": 2606,
      "員": 2607,
      "哪": 2608,
      "哲": 2609,
      "唐": 2610,
      "唱": 2611,
      "商": 2612,
      "問": 2613,
      "啓": 2614,
      "啡": 2615,
      "喀": 2616,
      "善": 2617,
      "喇": 2618,
      "喜": 2619,
      "喬": 2620,
      "喻": 2621,
      "嘉": 2622,
      "嘎": 2623,
      "噌": 2624,
      "器": 2625,
      "噶": 2626,
      "囚": 2627,
      "四": 2628,
      "回": 2629,
      "因": 2630,
      "团": 2631,
      "団": 2632,
      "园": 2633,
      "困": 2634,
      "図": 2635,
      "围": 2636,
      "固": 2637,
      "国": 2638,
      "圆": 2639,
      "圈": 2640,
      "國": 2641,
      "園": 2642,
      "圓": 2643,
      "團": 2644,
      "土": 2645,
      "圣": 2646,
      "圧": 2647,
      "在": 2648,
      "圭": 2649,
      "地": 2650,
      "圳": 2651,
      "场": 2652,
      "坂": 2653,
      "均": 2654,
      "坐": 2655,
      "块": 2656,
      "坚": 2657,
      "坝": 2658,
      "坠": 2659,
      "坡": 2660,
      "坤": 2661,
      "坦": 2662,
      "坪": 2663,
      "型": 2664,
      "埃": 2665,
      "埅": 2666,
      "埋": 2667,
      "城": 2668,
      "埔": 2669,
      "域": 2670,
      "培": 2671,
      "基": 2672,
      "堂": 2673,
      "堅": 2674,
      "堡": 2675,
      "堯": 2676,
      "報": 2677,
      "場": 2678,
      "塑": 2679,
      "塔": 2680,
      "塗": 2681,
      "塘": 2682,
      "塚": 2683,
      "塞": 2684,
      "塩": 2685,
      "境": 2686,
      "墓": 2687,
      "增": 2688,
      "墨": 2689,
      "墩": 2690,
      "壁": 2691,
      "壌": 2692,
      "壤": 2693,
      "士": 2694,
      "声": 2695,
      "売": 2696,
      "壽": 2697,
      "处": 2698,
      "変": 2699,
      "复": 2700,
      "夏": 2701,
      "夕": 2702,
      "外": 2703,
      "多": 2704,
      "夜": 2705,
      "夢": 2706,
      "大": 2707,
      "天": 2708,
      "太": 2709,
      "夫": 2710,
      "央": 2711,
      "失": 2712,
      "头": 2713,
      "奇": 2714,
      "奉": 2715,
      "奋": 2716,
      "奎": 2717,
      "奖": 2718,
      "奚": 2719,
      "奥": 2720,
      "奪": 2721,
      "奭": 2722,
      "女": 2723,
      "她": 2724,
      "好": 2725,
      "如": 2726,
      "妃": 2727,
      "妄": 2728,
      "妈": 2729,
      "妍": 2730,
      "妓": 2731,
      "妙": 2732,
      "妻": 2733,
      "始": 2734,
      "姐": 2735,
      "姑": 2736,
      "姓": 2737,
      "委": 2738,
      "姜": 2739,
      "姫": 2740,
      "姬": 2741,
      "威": 2742,
      "娄": 2743,
      "娅": 2744,
      "娘": 2745,
      "娛": 2746,
      "娱": 2747,
      "婆": 2748,
      "婚": 2749,
      "婦": 2750,
      "媽": 2751,
      "嫁": 2752,
      "嫌": 2753,
      "嬪": 2754,
      "子": 2755,
      "孔": 2756,
      "字": 2757,
      "存": 2758,
      "孙": 2759,
      "孝": 2760,
      "季": 2761,
      "学": 2762,
      "孩": 2763,
      "孫": 2764,
      "學": 2765,
      "孽": 2766,
      "宁": 2767,
      "它": 2768,
      "宅": 2769,
      "宇": 2770,
      "守": 2771,
      "安": 2772,
      "宋": 2773,
      "完": 2774,
      "宏": 2775,
      "宗": 2776,
      "官": 2777,
      "定": 2778,
      "宜": 2779,
      "宝": 2780,
      "实": 2781,
      "実": 2782,
      "审": 2783,
      "客": 2784,
      "宣": 2785,
      "室": 2786,
      "宫": 2787,
      "宮": 2788,
      "害": 2789,
      "家": 2790,
      "容": 2791,
      "宾": 2792,
      "宿": 2793,
      "寀": 2794,
      "寅": 2795,
      "密": 2796,
      "富": 2797,
      "察": 2798,
      "寧": 2799,
      "審": 2800,
      "寬": 2801,
      "寶": 2802,
      "对": 2803,
      "寺": 2804,
      "导": 2805,
      "対": 2806,
      "寿": 2807,
      "封": 2808,
      "専": 2809,
      "射": 2810,
      "将": 2811,
      "將": 2812,
      "尉": 2813,
      "尊": 2814,
      "導": 2815,
      "小": 2816,
      "少": 2817,
      "尔": 2818,
      "尖": 2819,
      "尙": 2820,
      "尚": 2821,
      "尤": 2822,
      "尧": 2823,
      "就": 2824,
      "尹": 2825,
      "尽": 2826,
      "尾": 2827,
      "局": 2828,
      "居": 2829,
      "届": 2830,
      "屋": 2831,
      "屏": 2832,
      "展": 2833,
      "属": 2834,
      "屠": 2835,
      "履": 2836,
      "山": 2837,
      "屺": 2838,
      "岁": 2839,
      "岛": 2840,
      "岩": 2841,
      "岬": 2842,
      "岳": 2843,
      "岷": 2844,
      "岸": 2845,
      "峒": 2846,
      "峡": 2847,
      "峨": 2848,
      "峭": 2849,
      "峰": 2850,
      "島": 2851,
      "崇": 2852,
      "崎": 2853,
      "崔": 2854,
      "崖": 2855,
      "嵆": 2856,
      "嵐": 2857,
      "川": 2858,
      "州": 2859,
      "工": 2860,
      "左": 2861,
      "巧": 2862,
      "巨": 2863,
      "差": 2864,
      "己": 2865,
      "已": 2866,
      "巳": 2867,
      "巴": 2868,
      "巷": 2869,
      "巻": 2870,
      "币": 2871,
      "市": 2872,
      "布": 2873,
      "师": 2874,
      "希": 2875,
      "帖": 2876,
      "帛": 2877,
      "帝": 2878,
      "带": 2879,
      "師": 2880,
      "席": 2881,
      "帰": 2882,
      "常": 2883,
      "幕": 2884,
      "干": 2885,
      "平": 2886,
      "年": 2887,
      "并": 2888,
      "幸": 2889,
      "幹": 2890,
      "幻": 2891,
      "幾": 2892,
      "广": 2893,
      "庄": 2894,
      "庆": 2895,
      "序": 2896,
      "库": 2897,
      "应": 2898,
      "底": 2899,
      "店": 2900,
      "府": 2901,
      "度": 2902,
      "座": 2903,
      "庫": 2904,
      "庭": 2905,
      "庵": 2906,
      "康": 2907,
      "庾": 2908,
      "廃": 2909,
      "廉": 2910,
      "廟": 2911,
      "廣": 2912,
      "廮": 2913,
      "延": 2914,
      "廷": 2915,
      "建": 2916,
      "开": 2917,
      "弁": 2918,
      "式": 2919,
      "弓": 2920,
      "引": 2921,
      "弟": 2922,
      "张": 2923,
      "弥": 2924,
      "張": 2925,
      "強": 2926,
      "强": 2927,
      "弼": 2928,
      "彈": 2929,
      "彌": 2930,
      "当": 2931,
      "录": 2932,
      "形": 2933,
      "彦": 2934,
      "彩": 2935,
      "彰": 2936,
      "影": 2937,
      "彷": 2938,
      "役": 2939,
      "彻": 2940,
      "彼": 2941,
      "往": 2942,
      "征": 2943,
      "径": 2944,
      "待": 2945,
      "很": 2946,
      "律": 2947,
      "後": 2948,
      "徐": 2949,
      "徒": 2950,
      "従": 2951,
      "徕": 2952,
      "得": 2953,
      "從": 2954,
      "御": 2955,
      "徨": 2956,
      "復": 2957,
      "徳": 2958,
      "徴": 2959,
      "徵": 2960,
      "德": 2961,
      "徽": 2962,
      "心": 2963,
      "必": 2964,
      "忍": 2965,
      "志": 2966,
      "忘": 2967,
      "忙": 2968,
      "応": 2969,
      "忠": 2970,
      "快": 2971,
      "念": 2972,
      "忻": 2973,
      "忽": 2974,
      "怀": 2975,
      "态": 2976,
      "怎": 2977,
      "怒": 2978,
      "怖": 2979,
      "思": 2980,
      "急": 2981,
      "性": 2982,
      "怪": 2983,
      "总": 2984,
      "恐": 2985,
      "恒": 2986,
      "恢": 2987,
      "恩": 2988,
      "恭": 2989,
      "息": 2990,
      "恵": 2991,
      "恼": 2992,
      "悉": 2993,
      "悟": 2994,
      "悦": 2995,
      "您": 2996,
      "悪": 2997,
      "悯": 2998,
      "悲": 2999,
      "情": 3000,
      "惟": 3001,
      "惠": 3002,
      "惡": 3003,
      "想": 3004,
      "愁": 3005,
      "愍": 3006,
      "意": 3007,
      "愛": 3008,
      "感": 3009,
      "愿": 3010,
      "慈": 3011,
      "態": 3012,
      "慎": 3013,
      "慕": 3014,
      "慢": 3015,
      "慣": 3016,
      "慧": 3017,
      "慶": 3018,
      "憤": 3019,
      "憲": 3020,
      "應": 3021,
      "懋": 3022,
      "懐": 3023,
      "懷": 3024,
      "懸": 3025,
      "懿": 3026,
      "戈": 3027,
      "戌": 3028,
      "成": 3029,
      "我": 3030,
      "或": 3031,
      "战": 3032,
      "戦": 3033,
      "戮": 3034,
      "戴": 3035,
      "戸": 3036,
      "房": 3037,
      "所": 3038,
      "手": 3039,
      "扎": 3040,
      "扒": 3041,
      "打": 3042,
      "払": 3043,
      "扬": 3044,
      "扱": 3045,
      "扶": 3046,
      "承": 3047,
      "技": 3048,
      "抓": 3049,
      "投": 3050,
      "抗": 3051,
      "折": 3052,
      "抱": 3053,
      "押": 3054,
      "担": 3055,
      "拉": 3056,
      "拍": 3057,
      "拜": 3058,
      "拥": 3059,
      "择": 3060,
      "拯": 3061,
      "持": 3062,
      "挂": 3063,
      "指": 3064,
      "按": 3065,
      "挑": 3066,
      "挚": 3067,
      "振": 3068,
      "挽": 3069,
      "损": 3070,
      "据": 3071,
      "捷": 3072,
      "掉": 3073,
      "掌": 3074,
      "排": 3075,
      "掖": 3076,
      "掛": 3077,
      "探": 3078,
      "接": 3079,
      "推": 3080,
      "揆": 3081,
      "描": 3082,
      "提": 3083,
      "揚": 3084,
      "握": 3085,
      "援": 3086,
      "損": 3087,
      "携": 3088,
      "摆": 3089,
      "摸": 3090,
      "撃": 3091,
      "撥": 3092,
      "播": 3093,
      "撲": 3094,
      "擂": 3095,
      "擅": 3096,
      "擥": 3097,
      "擬": 3098,
      "攝": 3099,
      "收": 3100,
      "改": 3101,
      "攻": 3102,
      "放": 3103,
      "政": 3104,
      "故": 3105,
      "敍": 3106,
      "敏": 3107,
      "救": 3108,
      "敖": 3109,
      "教": 3110,
      "敞": 3111,
      "敢": 3112,
      "散": 3113,
      "敦": 3114,
      "敬": 3115,
      "数": 3116,
      "敲": 3117,
      "整": 3118,
      "敵": 3119,
      "敷": 3120,
      "數": 3121,
      "文": 3122,
      "斉": 3123,
      "斑": 3124,
      "斓": 3125,
      "斗": 3126,
      "料": 3127,
      "断": 3128,
      "斯": 3129,
      "新": 3130,
      "方": 3131,
      "於": 3132,
      "施": 3133,
      "旅": 3134,
      "族": 3135,
      "旗": 3136,
      "无": 3137,
      "既": 3138,
      "日": 3139,
      "旦": 3140,
      "旧": 3141,
      "早": 3142,
      "时": 3143,
      "旺": 3144,
      "昂": 3145,
      "昇": 3146,
      "昌": 3147,
      "明": 3148,
      "易": 3149,
      "昔": 3150,
      "昕": 3151,
      "星": 3152,
      "映": 3153,
      "春": 3154,
      "昨": 3155,
      "昭": 3156,
      "是": 3157,
      "昻": 3158,
      "显": 3159,
      "時": 3160,
      "晉": 3161,
      "晓": 3162,
      "晗": 3163,
      "晚": 3164,
      "晟": 3165,
      "晦": 3166,
      "普": 3167,
      "景": 3168,
      "晴": 3169,
      "晸": 3170,
      "智": 3171,
      "暁": 3172,
      "暖": 3173,
      "暗": 3174,
      "暨": 3175,
      "暴": 3176,
      "暹": 3177,
      "曄": 3178,
      "曅": 3179,
      "曜": 3180,
      "曦": 3181,
      "曮": 3182,
      "曲": 3183,
      "更": 3184,
      "書": 3185,
      "曹": 3186,
      "曾": 3187,
      "最": 3188,
      "會": 3189,
      "月": 3190,
      "有": 3191,
      "朋": 3192,
      "服": 3193,
      "望": 3194,
      "朝": 3195,
      "期": 3196,
      "木": 3197,
      "未": 3198,
      "末": 3199,
      "本": 3200,
      "术": 3201,
      "朱": 3202,
      "朴": 3203,
      "朵": 3204,
      "机": 3205,
      "杀": 3206,
      "权": 3207,
      "杉": 3208,
      "李": 3209,
      "材": 3210,
      "村": 3211,
      "杞": 3212,
      "条": 3213,
      "来": 3214,
      "杨": 3215,
      "杯": 3216,
      "東": 3217,
      "杲": 3218,
      "松": 3219,
      "板": 3220,
      "极": 3221,
      "构": 3222,
      "林": 3223,
      "果": 3224,
      "架": 3225,
      "柏": 3226,
      "柒": 3227,
      "染": 3228,
      "柔": 3229,
      "柱": 3230,
      "柳": 3231,
      "栄": 3232,
      "树": 3233,
      "栖": 3234,
      "校": 3235,
      "株": 3236,
      "样": 3237,
      "根": 3238,
      "格": 3239,
      "桂": 3240,
      "案": 3241,
      "桔": 3242,
      "桜": 3243,
      "桥": 3244,
      "梁": 3245,
      "梅": 3246,
      "梦": 3247,
      "梨": 3248,
      "梭": 3249,
      "棋": 3250,
      "棍": 3251,
      "棐": 3252,
      "棕": 3253,
      "棚": 3254,
      "森": 3255,
      "椅": 3256,
      "椿": 3257,
      "楀": 3258,
      "楊": 3259,
      "楠": 3260,
      "楫": 3261,
      "業": 3262,
      "極": 3263,
      "楷": 3264,
      "楽": 3265,
      "榮": 3266,
      "構": 3267,
      "樂": 3268,
      "樊": 3269,
      "模": 3270,
      "樣": 3271,
      "権": 3272,
      "横": 3273,
      "樹": 3274,
      "橋": 3275,
      "橙": 3276,
      "機": 3277,
      "檜": 3278,
      "權": 3279,
      "次": 3280,
      "欢": 3281,
      "欣": 3282,
      "欲": 3283,
      "欽": 3284,
      "款": 3285,
      "歆": 3286,
      "歌": 3287,
      "歓": 3288,
      "正": 3289,
      "此": 3290,
      "步": 3291,
      "武": 3292,
      "歩": 3293,
      "歯": 3294,
      "歳": 3295,
      "死": 3296,
      "殉": 3297,
      "残": 3298,
      "段": 3299,
      "殺": 3300,
      "殿": 3301,
      "母": 3302,
      "每": 3303,
      "毒": 3304,
      "毓": 3305,
      "比": 3306,
      "毕": 3307,
      "毘": 3308,
      "毛": 3309,
      "毫": 3310,
      "氏": 3311,
      "民": 3312,
      "气": 3313,
      "気": 3314,
      "氣": 3315,
      "水": 3316,
      "永": 3317,
      "汁": 3318,
      "求": 3319,
      "汉": 3320,
      "汝": 3321,
      "江": 3322,
      "池": 3323,
      "汤": 3324,
      "汪": 3325,
      "汶": 3326,
      "決": 3327,
      "汽": 3328,
      "沁": 3329,
      "沃": 3330,
      "沈": 3331,
      "沉": 3332,
      "沐": 3333,
      "沖": 3334,
      "沙": 3335,
      "没": 3336,
      "沧": 3337,
      "河": 3338,
      "油": 3339,
      "治": 3340,
      "沽": 3341,
      "泉": 3342,
      "泓": 3343,
      "法": 3344,
      "波": 3345,
      "泥": 3346,
      "注": 3347,
      "泰": 3348,
      "泳": 3349,
      "泽": 3350,
      "洋": 3351,
      "洗": 3352,
      "洙": 3353,
      "洛": 3354,
      "洞": 3355,
      "津": 3356,
      "洩": 3357,
      "洪": 3358,
      "洮": 3359,
      "洲": 3360,
      "活": 3361,
      "洽": 3362,
      "派": 3363,
      "流": 3364,
      "浄": 3365,
      "浅": 3366,
      "测": 3367,
      "济": 3368,
      "浏": 3369,
      "浓": 3370,
      "浚": 3371,
      "浣": 3372,
      "浩": 3373,
      "浮": 3374,
      "海": 3375,
      "浹": 3376,
      "涂": 3377,
      "涅": 3378,
      "消": 3379,
      "涼": 3380,
      "淀": 3381,
      "淑": 3382,
      "淨": 3383,
      "淮": 3384,
      "深": 3385,
      "淳": 3386,
      "淵": 3387,
      "混": 3388,
      "淸": 3389,
      "清": 3390,
      "渊": 3391,
      "渔": 3392,
      "渗": 3393,
      "渠": 3394,
      "渡": 3395,
      "温": 3396,
      "港": 3397,
      "渰": 3398,
      "游": 3399,
      "湖": 3400,
      "湛": 3401,
      "湯": 3402,
      "湾": 3403,
      "溌": 3404,
      "源": 3405,
      "準": 3406,
      "溢": 3407,
      "溥": 3408,
      "溪": 3409,
      "溫": 3410,
      "滑": 3411,
      "滚": 3412,
      "满": 3413,
      "漁": 3414,
      "漏": 3415,
      "漢": 3416,
      "漪": 3417,
      "漫": 3418,
      "潗": 3419,
      "潘": 3420,
      "潭": 3421,
      "澂": 3422,
      "澳": 3423,
      "激": 3424,
      "濟": 3425,
      "濤": 3426,
      "瀑": 3427,
      "瀛": 3428,
      "瀞": 3429,
      "灝": 3430,
      "灣": 3431,
      "火": 3432,
      "灰": 3433,
      "灾": 3434,
      "炎": 3435,
      "炘": 3436,
      "炬": 3437,
      "炳": 3438,
      "炸": 3439,
      "点": 3440,
      "為": 3441,
      "烈": 3442,
      "烏": 3443,
      "烦": 3444,
      "热": 3445,
      "焉": 3446,
      "焕": 3447,
      "無": 3448,
      "然": 3449,
      "焼": 3450,
      "煌": 3451,
      "煥": 3452,
      "照": 3453,
      "煮": 3454,
      "熊": 3455,
      "熙": 3456,
      "熱": 3457,
      "燕": 3458,
      "燦": 3459,
      "燮": 3460,
      "燵": 3461,
      "爆": 3462,
      "爬": 3463,
      "爱": 3464,
      "爵": 3465,
      "父": 3466,
      "爷": 3467,
      "爸": 3468,
      "爽": 3469,
      "爾": 3470,
      "片": 3471,
      "版": 3472,
      "牛": 3473,
      "牧": 3474,
      "物": 3475,
      "牲": 3476,
      "牵": 3477,
      "特": 3478,
      "牺": 3479,
      "犬": 3480,
      "状": 3481,
      "狄": 3482,
      "狐": 3483,
      "狗": 3484,
      "狮": 3485,
      "猛": 3486,
      "猫": 3487,
      "献": 3488,
      "猿": 3489,
      "獄": 3490,
      "獅": 3491,
      "獣": 3492,
      "獲": 3493,
      "獻": 3494,
      "玄": 3495,
      "率": 3496,
      "玉": 3497,
      "王": 3498,
      "环": 3499,
      "现": 3500,
      "珍": 3501,
      "珪": 3502,
      "班": 3503,
      "珹": 3504,
      "現": 3505,
      "球": 3506,
      "理": 3507,
      "琨": 3508,
      "瑞": 3509,
      "璇": 3510,
      "瓚": 3511,
      "瓜": 3512,
      "瓶": 3513,
      "甄": 3514,
      "甘": 3515,
      "甚": 3516,
      "甜": 3517,
      "生": 3518,
      "用": 3519,
      "田": 3520,
      "由": 3521,
      "甲": 3522,
      "申": 3523,
      "电": 3524,
      "男": 3525,
      "画": 3526,
      "界": 3527,
      "畢": 3528,
      "略": 3529,
      "番": 3530,
      "異": 3531,
      "畿": 3532,
      "疇": 3533,
      "疏": 3534,
      "疑": 3535,
      "疲": 3536,
      "疼": 3537,
      "病": 3538,
      "症": 3539,
      "痛": 3540,
      "瘾": 3541,
      "療": 3542,
      "発": 3543,
      "登": 3544,
      "發": 3545,
      "白": 3546,
      "百": 3547,
      "的": 3548,
      "皆": 3549,
      "皇": 3550,
      "皥": 3551,
      "皮": 3552,
      "益": 3553,
      "盐": 3554,
      "盗": 3555,
      "盘": 3556,
      "盛": 3557,
      "盟": 3558,
      "盡": 3559,
      "盧": 3560,
      "目": 3561,
      "盲": 3562,
      "直": 3563,
      "相": 3564,
      "盾": 3565,
      "眉": 3566,
      "看": 3567,
      "県": 3568,
      "真": 3569,
      "眺": 3570,
      "眼": 3571,
      "眾": 3572,
      "着": 3573,
      "睦": 3574,
      "瞳": 3575,
      "瞻": 3576,
      "瞿": 3577,
      "矣": 3578,
      "知": 3579,
      "短": 3580,
      "石": 3581,
      "码": 3582,
      "研": 3583,
      "砚": 3584,
      "砦": 3585,
      "砯": 3586,
      "砲": 3587,
      "破": 3588,
      "础": 3589,
      "硬": 3590,
      "确": 3591,
      "碑": 3592,
      "碗": 3593,
      "碩": 3594,
      "確": 3595,
      "磁": 3596,
      "磬": 3597,
      "磷": 3598,
      "礎": 3599,
      "礪": 3600,
      "示": 3601,
      "礼": 3602,
      "社": 3603,
      "祉": 3604,
      "祐": 3605,
      "祖": 3606,
      "祘": 3607,
      "祚": 3608,
      "祝": 3609,
      "神": 3610,
      "祥": 3611,
      "祭": 3612,
      "祿": 3613,
      "禁": 3614,
      "禄": 3615,
      "禅": 3616,
      "禎": 3617,
      "福": 3618,
      "禧": 3619,
      "禪": 3620,
      "禮": 3621,
      "禹": 3622,
      "秀": 3623,
      "私": 3624,
      "秉": 3625,
      "秋": 3626,
      "种": 3627,
      "科": 3628,
      "秒": 3629,
      "秖": 3630,
      "秘": 3631,
      "租": 3632,
      "秦": 3633,
      "秩": 3634,
      "积": 3635,
      "称": 3636,
      "程": 3637,
      "種": 3638,
      "稳": 3639,
      "稽": 3640,
      "穂": 3641,
      "穆": 3642,
      "積": 3643,
      "穴": 3644,
      "究": 3645,
      "空": 3646,
      "穿": 3647,
      "突": 3648,
      "窓": 3649,
      "窟": 3650,
      "窯": 3651,
      "立": 3652,
      "站": 3653,
      "章": 3654,
      "端": 3655,
      "竹": 3656,
      "笄": 3657,
      "笑": 3658,
      "笔": 3659,
      "符": 3660,
      "笨": 3661,
      "第": 3662,
      "笹": 3663,
      "笼": 3664,
      "筆": 3665,
      "等": 3666,
      "筋": 3667,
      "筑": 3668,
      "答": 3669,
      "策": 3670,
      "筝": 3671,
      "筲": 3672,
      "简": 3673,
      "箕": 3674,
      "算": 3675,
      "管": 3676,
      "箭": 3677,
      "節": 3678,
      "篆": 3679,
      "篮": 3680,
      "簡": 3681,
      "米": 3682,
      "类": 3683,
      "粉": 3684,
      "粟": 3685,
      "粹": 3686,
      "精": 3687,
      "糎": 3688,
      "糕": 3689,
      "糯": 3690,
      "系": 3691,
      "約": 3692,
      "紅": 3693,
      "紋": 3694,
      "納": 3695,
      "純": 3696,
      "紙": 3697,
      "級": 3698,
      "素": 3699,
      "紫": 3700,
      "細": 3701,
      "紹": 3702,
      "終": 3703,
      "絃": 3704,
      "組": 3705,
      "経": 3706,
      "結": 3707,
      "絡": 3708,
      "給": 3709,
      "統": 3710,
      "絲": 3711,
      "絵": 3712,
      "絶": 3713,
      "經": 3714,
      "続": 3715,
      "維": 3716,
      "綱": 3717,
      "網": 3718,
      "綸": 3719,
      "綾": 3720,
      "緊": 3721,
      "緋": 3722,
      "総": 3723,
      "線": 3724,
      "緣": 3725,
      "編": 3726,
      "縞": 3727,
      "縣": 3728,
      "縮": 3729,
      "總": 3730,
      "繁": 3731,
      "織": 3732,
      "纂": 3733,
      "红": 3734,
      "约": 3735,
      "级": 3736,
      "纪": 3737,
      "纲": 3738,
      "纳": 3739,
      "线": 3740,
      "组": 3741,
      "细": 3742,
      "织": 3743,
      "终": 3744,
      "绍": 3745,
      "经": 3746,
      "结": 3747,
      "绘": 3748,
      "给": 3749,
      "络": 3750,
      "统": 3751,
      "绥": 3752,
      "继": 3753,
      "绩": 3754,
      "续": 3755,
      "维": 3756,
      "综": 3757,
      "绿": 3758,
      "缕": 3759,
      "编": 3760,
      "缸": 3761,
      "缺": 3762,
      "网": 3763,
      "罕": 3764,
      "罗": 3765,
      "罪": 3766,
      "置": 3767,
      "罽": 3768,
      "羅": 3769,
      "羊": 3770,
      "美": 3771,
      "羡": 3772,
      "群": 3773,
      "義": 3774,
      "羲": 3775,
      "羽": 3776,
      "翁": 3777,
      "翊": 3778,
      "翻": 3779,
      "翼": 3780,
      "老": 3781,
      "考": 3782,
      "者": 3783,
      "耆": 3784,
      "而": 3785,
      "耗": 3786,
      "耳": 3787,
      "耶": 3788,
      "耿": 3789,
      "聋": 3790,
      "职": 3791,
      "联": 3792,
      "聖": 3793,
      "聞": 3794,
      "聽": 3795,
      "肃": 3796,
      "肅": 3797,
      "肉": 3798,
      "肖": 3799,
      "肝": 3800,
      "股": 3801,
      "育": 3802,
      "肺": 3803,
      "肾": 3804,
      "胁": 3805,
      "胃": 3806,
      "胄": 3807,
      "背": 3808,
      "胜": 3809,
      "胞": 3810,
      "胡": 3811,
      "胤": 3812,
      "能": 3813,
      "脏": 3814,
      "脱": 3815,
      "脾": 3816,
      "腐": 3817,
      "腹": 3818,
      "膝": 3819,
      "臓": 3820,
      "臣": 3821,
      "自": 3822,
      "至": 3823,
      "致": 3824,
      "臺": 3825,
      "與": 3826,
      "興": 3827,
      "舉": 3828,
      "舊": 3829,
      "舎": 3830,
      "舒": 3831,
      "舜": 3832,
      "舞": 3833,
      "航": 3834,
      "般": 3835,
      "船": 3836,
      "艦": 3837,
      "良": 3838,
      "色": 3839,
      "节": 3840,
      "芒": 3841,
      "芝": 3842,
      "芬": 3843,
      "花": 3844,
      "芳": 3845,
      "苏": 3846,
      "苔": 3847,
      "若": 3848,
      "苦": 3849,
      "英": 3850,
      "苺": 3851,
      "茂": 3852,
      "范": 3853,
      "茅": 3854,
      "茶": 3855,
      "茹": 3856,
      "草": 3857,
      "荐": 3858,
      "荖": 3859,
      "药": 3860,
      "莊": 3861,
      "莫": 3862,
      "莱": 3863,
      "获": 3864,
      "菊": 3865,
      "菌": 3866,
      "菜": 3867,
      "菩": 3868,
      "華": 3869,
      "萊": 3870,
      "萍": 3871,
      "营": 3872,
      "萧": 3873,
      "萨": 3874,
      "萬": 3875,
      "落": 3876,
      "葉": 3877,
      "著": 3878,
      "葛": 3879,
      "董": 3880,
      "葬": 3881,
      "葺": 3882,
      "蒙": 3883,
      "蒲": 3884,
      "蓋": 3885,
      "蓝": 3886,
      "蓣": 3887,
      "蕭": 3888,
      "蕷": 3889,
      "薩": 3890,
      "薬": 3891,
      "薯": 3892,
      "藤": 3893,
      "藥": 3894,
      "藩": 3895,
      "藻": 3896,
      "蘇": 3897,
      "蘭": 3898,
      "虎": 3899,
      "虏": 3900,
      "虑": 3901,
      "處": 3902,
      "虚": 3903,
      "虛": 3904,
      "虞": 3905,
      "號": 3906,
      "虹": 3907,
      "虽": 3908,
      "蚊": 3909,
      "蛇": 3910,
      "蛋": 3911,
      "蝉": 3912,
      "蝴": 3913,
      "蝶": 3914,
      "融": 3915,
      "血": 3916,
      "衆": 3917,
      "行": 3918,
      "衍": 3919,
      "術": 3920,
      "街": 3921,
      "衛": 3922,
      "衝": 3923,
      "衡": 3924,
      "衣": 3925,
      "补": 3926,
      "表": 3927,
      "衫": 3928,
      "衷": 3929,
      "袁": 3930,
      "袋": 3931,
      "被": 3932,
      "裁": 3933,
      "装": 3934,
      "裕": 3935,
      "裙": 3936,
      "裝": 3937,
      "製": 3938,
      "襄": 3939,
      "西": 3940,
      "要": 3941,
      "覇": 3942,
      "見": 3943,
      "視": 3944,
      "覘": 3945,
      "覚": 3946,
      "親": 3947,
      "覺": 3948,
      "觀": 3949,
      "见": 3950,
      "观": 3951,
      "规": 3952,
      "视": 3953,
      "览": 3954,
      "觉": 3955,
      "角": 3956,
      "觚": 3957,
      "解": 3958,
      "言": 3959,
      "記": 3960,
      "訟": 3961,
      "設": 3962,
      "許": 3963,
      "訳": 3964,
      "訴": 3965,
      "証": 3966,
      "評": 3967,
      "試": 3968,
      "詩": 3969,
      "話": 3970,
      "誕": 3971,
      "語": 3972,
      "誠": 3973,
      "說": 3974,
      "説": 3975,
      "読": 3976,
      "調": 3977,
      "談": 3978,
      "論": 3979,
      "諡": 3980,
      "諮": 3981,
      "諴": 3982,
      "諸": 3983,
      "謎": 3984,
      "謙": 3985,
      "證": 3986,
      "識": 3987,
      "譚": 3988,
      "譜": 3989,
      "警": 3990,
      "譬": 3991,
      "議": 3992,
      "譱": 3993,
      "護": 3994,
      "讀": 3995,
      "计": 3996,
      "认": 3997,
      "让": 3998,
      "议": 3999,
      "记": 4000,
      "许": 4001,
      "论": 4002,
      "设": 4003,
      "证": 4004,
      "词": 4005,
      "译": 4006,
      "诗": 4007,
      "话": 4008,
      "该": 4009,
      "诩": 4010,
      "语": 4011,
      "误": 4012,
      "说": 4013,
      "请": 4014,
      "诺": 4015,
      "谁": 4016,
      "调": 4017,
      "谊": 4018,
      "谛": 4019,
      "谢": 4020,
      "谷": 4021,
      "谿": 4022,
      "豆": 4023,
      "豊": 4024,
      "豐": 4025,
      "象": 4026,
      "豪": 4027,
      "豹": 4028,
      "貞": 4029,
      "負": 4030,
      "財": 4031,
      "貫": 4032,
      "貴": 4033,
      "買": 4034,
      "費": 4035,
      "賀": 4036,
      "賃": 4037,
      "資": 4038,
      "賈": 4039,
      "賓": 4040,
      "賞": 4041,
      "賢": 4042,
      "質": 4043,
      "賴": 4044,
      "購": 4045,
      "贇": 4046,
      "贈": 4047,
      "贝": 4048,
      "贞": 4049,
      "财": 4050,
      "责": 4051,
      "败": 4052,
      "货": 4053,
      "质": 4054,
      "贫": 4055,
      "贯": 4056,
      "贵": 4057,
      "费": 4058,
      "贺": 4059,
      "贾": 4060,
      "资": 4061,
      "赛": 4062,
      "赞": 4063,
      "赢": 4064,
      "赤": 4065,
      "赦": 4066,
      "赫": 4067,
      "走": 4068,
      "赴": 4069,
      "起": 4070,
      "超": 4071,
      "越": 4072,
      "趙": 4073,
      "足": 4074,
      "距": 4075,
      "跡": 4076,
      "跨": 4077,
      "路": 4078,
      "跳": 4079,
      "蹈": 4080,
      "蹉": 4081,
      "蹴": 4082,
      "躁": 4083,
      "身": 4084,
      "車": 4085,
      "軌": 4086,
      "軍": 4087,
      "転": 4088,
      "軾": 4089,
      "載": 4090,
      "輔": 4091,
      "輪": 4092,
      "轄": 4093,
      "车": 4094,
      "转": 4095,
      "轮": 4096,
      "软": 4097,
      "载": 4098,
      "较": 4099,
      "辆": 4100,
      "辖": 4101,
      "辞": 4102,
      "辣": 4103,
      "辰": 4104,
      "農": 4105,
      "辻": 4106,
      "込": 4107,
      "辽": 4108,
      "达": 4109,
      "过": 4110,
      "迎": 4111,
      "运": 4112,
      "近": 4113,
      "返": 4114,
      "还": 4115,
      "这": 4116,
      "进": 4117,
      "远": 4118,
      "连": 4119,
      "迪": 4120,
      "述": 4121,
      "迴": 4122,
      "追": 4123,
      "退": 4124,
      "适": 4125,
      "选": 4126,
      "逌": 4127,
      "透": 4128,
      "递": 4129,
      "途": 4130,
      "這": 4131,
      "通": 4132,
      "逝": 4133,
      "速": 4134,
      "造": 4135,
      "連": 4136,
      "週": 4137,
      "進": 4138,
      "遅": 4139,
      "遇": 4140,
      "運": 4141,
      "過": 4142,
      "道": 4143,
      "達": 4144,
      "違": 4145,
      "遜": 4146,
      "遠": 4147,
      "遭": 4148,
      "選": 4149,
      "遺": 4150,
      "遼": 4151,
      "避": 4152,
      "邀": 4153,
      "還": 4154,
      "邏": 4155,
      "邑": 4156,
      "邢": 4157,
      "那": 4158,
      "邦": 4159,
      "邯": 4160,
      "邵": 4161,
      "邺": 4162,
      "郁": 4163,
      "郎": 4164,
      "郑": 4165,
      "郡": 4166,
      "部": 4167,
      "郭": 4168,
      "郸": 4169,
      "都": 4170,
      "鄂": 4171,
      "鄗": 4172,
      "鄚": 4173,
      "鄭": 4174,
      "酉": 4175,
      "酒": 4176,
      "酔": 4177,
      "酿": 4178,
      "醉": 4179,
      "醫": 4180,
      "里": 4181,
      "重": 4182,
      "野": 4183,
      "量": 4184,
      "金": 4185,
      "鉄": 4186,
      "鉉": 4187,
      "鉴": 4188,
      "銀": 4189,
      "銭": 4190,
      "銳": 4191,
      "鋼": 4192,
      "錦": 4193,
      "錫": 4194,
      "錬": 4195,
      "録": 4196,
      "鍵": 4197,
      "鍾": 4198,
      "鎭": 4199,
      "鎮": 4200,
      "鏡": 4201,
      "鐘": 4202,
      "鐡": 4203,
      "鐵": 4204,
      "鐸": 4205,
      "钓": 4206,
      "钜": 4207,
      "钟": 4208,
      "钱": 4209,
      "铁": 4210,
      "铅": 4211,
      "铢": 4212,
      "铭": 4213,
      "银": 4214,
      "锐": 4215,
      "错": 4216,
      "長": 4217,
      "长": 4218,
      "門": 4219,
      "開": 4220,
      "閏": 4221,
      "閑": 4222,
      "間": 4223,
      "閔": 4224,
      "関": 4225,
      "闘": 4226,
      "關": 4227,
      "门": 4228,
      "问": 4229,
      "间": 4230,
      "闻": 4231,
      "阅": 4232,
      "队": 4233,
      "阮": 4234,
      "防": 4235,
      "阳": 4236,
      "阴": 4237,
      "阶": 4238,
      "阿": 4239,
      "陀": 4240,
      "际": 4241,
      "陆": 4242,
      "陈": 4243,
      "降": 4244,
      "限": 4245,
      "院": 4246,
      "陰": 4247,
      "陳": 4248,
      "陵": 4249,
      "陶": 4250,
      "陷": 4251,
      "陸": 4252,
      "陽": 4253,
      "隆": 4254,
      "隊": 4255,
      "障": 4256,
      "隣": 4257,
      "隴": 4258,
      "隶": 4259,
      "隸": 4260,
      "难": 4261,
      "雀": 4262,
      "雁": 4263,
      "雄": 4264,
      "集": 4265,
      "雍": 4266,
      "雕": 4267,
      "雖": 4268,
      "雙": 4269,
      "雞": 4270,
      "離": 4271,
      "難": 4272,
      "雨": 4273,
      "雪": 4274,
      "雲": 4275,
      "電": 4276,
      "雾": 4277,
      "需": 4278,
      "震": 4279,
      "霊": 4280,
      "霙": 4281,
      "露": 4282,
      "靈": 4283,
      "靑": 4284,
      "青": 4285,
      "靖": 4286,
      "静": 4287,
      "靜": 4288,
      "非": 4289,
      "面": 4290,
      "革": 4291,
      "靴": 4292,
      "鞍": 4293,
      "鞠": 4294,
      "韓": 4295,
      "韩": 4296,
      "音": 4297,
      "頂": 4298,
      "順": 4299,
      "領": 4300,
      "頭": 4301,
      "頼": 4302,
      "題": 4303,
      "額": 4304,
      "顔": 4305,
      "願": 4306,
      "顧": 4307,
      "顯": 4308,
      "项": 4309,
      "顺": 4310,
      "顾": 4311,
      "预": 4312,
      "领": 4313,
      "题": 4314,
      "颜": 4315,
      "風": 4316,
      "风": 4317,
      "飛": 4318,
      "飞": 4319,
      "食": 4320,
      "飯": 4321,
      "飲": 4322,
      "餐": 4323,
      "餓": 4324,
      "館": 4325,
      "饭": 4326,
      "馆": 4327,
      "首": 4328,
      "香": 4329,
      "馨": 4330,
      "馬": 4331,
      "駆": 4332,
      "駐": 4333,
      "駙": 4334,
      "駟": 4335,
      "験": 4336,
      "騫": 4337,
      "驪": 4338,
      "马": 4339,
      "驶": 4340,
      "驻": 4341,
      "驾": 4342,
      "验": 4343,
      "骨": 4344,
      "骼": 4345,
      "體": 4346,
      "高": 4347,
      "髪": 4348,
      "鬃": 4349,
      "鬱": 4350,
      "鬼": 4351,
      "魂": 4352,
      "魏": 4353,
      "魔": 4354,
      "魚": 4355,
      "鮫": 4356,
      "鮮": 4357,
      "鯰": 4358,
      "鯵": 4359,
      "鰈": 4360,
      "鰻": 4361,
      "鱈": 4362,
      "鱓": 4363,
      "鱸": 4364,
      "鱼": 4365,
      "鲍": 4366,
      "鲜": 4367,
      "鲨": 4368,
      "鳃": 4369,
      "鳍": 4370,
      "鳥": 4371,
      "鳳": 4372,
      "鳴": 4373,
      "鴻": 4374,
      "鵬": 4375,
      "鶴": 4376,
      "鷲": 4377,
      "鸟": 4378,
      "鸡": 4379,
      "鸥": 4380,
      "鸿": 4381,
      "鹤": 4382,
      "鹭": 4383,
      "鹿": 4384,
      "麗": 4385,
      "麟": 4386,
      "麦": 4387,
      "麺": 4388,
      "麻": 4389,
      "麼": 4390,
      "黃": 4391,
      "黄": 4392,
      "黎": 4393,
      "黑": 4394,
      "黒": 4395,
      "黙": 4396,
      "鼓": 4397,
      "齐": 4398,
      "龍": 4399,
      "龙": 4400,
      "ꙋ": 4401,
      "ꙑ": 4402,
      "Ꙗ": 4403,
      "ꙗ": 4404,
      "ꡈ": 4405,
      "가": 4406,
      "각": 4407,
      "강": 4408,
      "개": 4409,
      "건": 4410,
      "것": 4411,
      "결": 4412,
      "계": 4413,
      "고": 4414,
      "곤": 4415,
      "공": 4416,
      "관": 4417,
      "광": 4418,
      "구": 4419,
      "국": 4420,
      "궁": 4421,
      "권": 4422,
      "균": 4423,
      "그": 4424,
      "극": 4425,
      "기": 4426,
      "길": 4427,
      "김": 4428,
      "까": 4429,
      "끝": 4430,
      "나": 4431,
      "남": 4432,
      "내": 4433,
      "년": 4434,
      "노": 4435,
      "높": 4436,
      "는": 4437,
      "능": 4438,
      "니": 4439,
      "다": 4440,
      "단": 4441,
      "당": 4442,
      "대": 4443,
      "덕": 4444,
      "도": 4445,
      "동": 4446,
      "되": 4447,
      "듀": 4448,
      "드": 4449,
      "또": 4450,
      "라": 4451,
      "락": 4452,
      "랑": 4453,
      "래": 4454,
      "램": 4455,
      "련": 4456,
      "렬": 4457,
      "령": 4458,
      "로": 4459,
      "록": 4460,
      "료": 4461,
      "룡": 4462,
      "르": 4463,
      "를": 4464,
      "리": 4465,
      "만": 4466,
      "면": 4467,
      "명": 4468,
      "목": 4469,
      "몽": 4470,
      "무": 4471,
      "문": 4472,
      "미": 4473,
      "민": 4474,
      "박": 4475,
      "발": 4476,
      "밤": 4477,
      "방": 4478,
      "백": 4479,
      "법": 4480,
      "보": 4481,
      "복": 4482,
      "본": 4483,
      "부": 4484,
      "사": 4485,
      "산": 4486,
      "삼": 4487,
      "상": 4488,
      "서": 4489,
      "선": 4490,
      "섭": 4491,
      "성": 4492,
      "세": 4493,
      "소": 4494,
      "속": 4495,
      "송": 4496,
      "수": 4497,
      "슈": 4498,
      "스": 4499,
      "시": 4500,
      "신": 4501,
      "아": 4502,
      "악": 4503,
      "않": 4504,
      "앙": 4505,
      "야": 4506,
      "양": 4507,
      "어": 4508,
      "언": 4509,
      "에": 4510,
      "여": 4511,
      "였": 4512,
      "영": 4513,
      "예": 4514,
      "오": 4515,
      "와": 4516,
      "외": 4517,
      "요": 4518,
      "용": 4519,
      "운": 4520,
      "웃": 4521,
      "웅": 4522,
      "원": 4523,
      "월": 4524,
      "위": 4525,
      "유": 4526,
      "윤": 4527,
      "은": 4528,
      "을": 4529,
      "의": 4530,
      "이": 4531,
      "인": 4532,
      "일": 4533,
      "임": 4534,
      "입": 4535,
      "있": 4536,
      "작": 4537,
      "잖": 4538,
      "잡": 4539,
      "장": 4540,
      "재": 4541,
      "전": 4542,
      "점": 4543,
      "접": 4544,
      "정": 4545,
      "제": 4546,
      "조": 4547,
      "종": 4548,
      "주": 4549,
      "죽": 4550,
      "중": 4551,
      "즈": 4552,
      "지": 4553,
      "직": 4554,
      "진": 4555,
      "창": 4556,
      "처": 4557,
      "천": 4558,
      "촌": 4559,
      "총": 4560,
      "최": 4561,
      "추": 4562,
      "춘": 4563,
      "충": 4564,
      "치": 4565,
      "캅": 4566,
      "컴": 4567,
      "쿠": 4568,
      "키": 4569,
      "타": 4570,
      "탄": 4571,
      "탕": 4572,
      "터": 4573,
      "템": 4574,
      "토": 4575,
      "통": 4576,
      "퇴": 4577,
      "파": 4578,
      "판": 4579,
      "퍼": 4580,
      "평": 4581,
      "포": 4582,
      "표": 4583,
      "프": 4584,
      "플": 4585,
      "하": 4586,
      "한": 4587,
      "할": 4588,
      "함": 4589,
      "합": 4590,
      "해": 4591,
      "행": 4592,
      "헌": 4593,
      "현": 4594,
      "혜": 4595,
      "혼": 4596,
      "홀": 4597,
      "홍": 4598,
      "화": 4599,
      "환": 4600,
      "황": 4601,
      "회": 4602,
      "후": 4603,
      "훈": 4604,
      "희": 4605,
      "": 4606,
      "ﬁ": 4607,
      "﬩": 4608,
      "ﮬ": 4609,
      "﴾": 4610,
      "﴿": 4611,
      "ﷺ": 4612,
      "︎": 4613,
      "️": 4614,
      "︰": 4615,
      "ﺍ": 4616,
      "ﺪ": 4617,
      "ﺮ": 4618,
      "ﻇ": 4619,
      "ﻟ": 4620,
      "ﻦ": 4621,
      "ﻬ": 4622,
      "ﻳ": 4623,
      "ﻴ": 4624,
      "﻿": 4625,
      "！": 4626,
      "％": 4627,
      "（": 4628,
      "）": 4629,
      "＊": 4630,
      "＋": 4631,
      "，": 4632,
      "－": 4633,
      "０": 4634,
      "１": 4635,
      "２": 4636,
      "３": 4637,
      "４": 4638,
      "５": 4639,
      "６": 4640,
      "７": 4641,
      "９": 4642,
      "：": 4643,
      "；": 4644,
      "＝": 4645,
      "？": 4646,
      "Ｃ": 4647,
      "Ｐ": 4648,
      "Ｓ": 4649,
      "Ｖ": 4650,
      "［": 4651,
      "］": 4652,
      "｛": 4653,
      "｝": 4654,
      "～": 4655,
      "･": 4656,
      "ｫ": 4657,
      "ｻ": 4658,
      "ﾠ": 4659,
      "￣": 4660,
      "�": 4661,
      "𓂓": 4662,
      "𝐀": 4663,
      "𝐁": 4664,
      "𝐂": 4665,
      "𝐃": 4666,
      "𝐆": 4667,
      "𝐋": 4668,
      "𝐌": 4669,
      "𝐑": 4670,
      "𝐓": 4671,
      "𝐚": 4672,
      "𝐛": 4673,
      "𝐜": 4674,
      "𝐝": 4675,
      "𝐞": 4676,
      "𝐟": 4677,
      "𝐢": 4678,
      "𝐥": 4679,
      "𝐦": 4680,
      "𝐧": 4681,
      "𝐨": 4682,
      "𝐩": 4683,
      "𝐫": 4684,
      "𝐭": 4685,
      "𝐮": 4686,
      "𝐰": 4687,
      "𝐲": 4688,
      "𝑓": 4689,
      "𝕂": 4690,
      "𝛽": 4691,
      "𝛾": 4692,
      "𝜆": 4693,
      "𝜊": 4694,
      "🇦": 4695,
      "🇧": 4696,
      "🇨": 4697,
      "🇪": 4698,
      "🇭": 4699,
      "🇰": 4700,
      "🇳": 4701,
      "🇵": 4702,
      "🇹": 4703,
      "🌃": 4704,
      "🌅": 4705,
      "🌈": 4706,
      "🌊": 4707,
      "🌌": 4708,
      "🌍": 4709,
      "🌎": 4710,
      "🌐": 4711,
      "🌑": 4712,
      "🌞": 4713,
      "🌟": 4714,
      "🌪": 4715,
      "🌰": 4716,
      "🌱": 4717,
      "🌳": 4718,
      "🌵": 4719,
      "🌶": 4720,
      "🌷": 4721,
      "🌸": 4722,
      "🌹": 4723,
      "🌺": 4724,
      "🌻": 4725,
      "🌿": 4726,
      "🍂": 4727,
      "🍋": 4728,
      "🍒": 4729,
      "🍝": 4730,
      "🍦": 4731,
      "🍨": 4732,
      "🍭": 4733,
      "🍰": 4734,
      "🍴": 4735,
      "🍵": 4736,
      "🍸": 4737,
      "🎂": 4738,
      "🎃": 4739,
      "🎄": 4740,
      "🎅": 4741,
      "🎇": 4742,
      "🎈": 4743,
      "🎉": 4744,
      "🎒": 4745,
      "🎓": 4746,
      "🎗": 4747,
      "🎟": 4748,
      "🎤": 4749,
      "🎥": 4750,
      "🎨": 4751,
      "🎮": 4752,
      "🎵": 4753,
      "🎶": 4754,
      "🎸": 4755,
      "🎻": 4756,
      "🏁": 4757,
      "🏃": 4758,
      "🏆": 4759,
      "🏒": 4760,
      "🏔": 4761,
      "🏖": 4762,
      "🏛": 4763,
      "🏡": 4764,
      "🏥": 4765,
      "🏻": 4766,
      "🏼": 4767,
      "🏾": 4768,
      "🏿": 4769,
      "🐉": 4770,
      "🐧": 4771,
      "👆": 4772,
      "👇": 4773,
      "👉": 4774,
      "👊": 4775,
      "👋": 4776,
      "👌": 4777,
      "👍": 4778,
      "👎": 4779,
      "👏": 4780,
      "👑": 4781,
      "👓": 4782,
      "👕": 4783,
      "👙": 4784,
      "👨": 4785,
      "👩": 4786,
      "👱": 4787,
      "👻": 4788,
      "💁": 4789,
      "💃": 4790,
      "💆": 4791,
      "💉": 4792,
      "💊": 4793,
      "💍": 4794,
      "💎": 4795,
      "💐": 4796,
      "💔": 4797,
      "💕": 4798,
      "💖": 4799,
      "💗": 4800,
      "💙": 4801,
      "💚": 4802,
      "💠": 4803,
      "💡": 4804,
      "💢": 4805,
      "💤": 4806,
      "💥": 4807,
      "💧": 4808,
      "💪": 4809,
      "💫": 4810,
      "💭": 4811,
      "💯": 4812,
      "💰": 4813,
      "💼": 4814,
      "📈": 4815,
      "📉": 4816,
      "📊": 4817,
      "📌": 4818,
      "📍": 4819,
      "📕": 4820,
      "📖": 4821,
      "📘": 4822,
      "📚": 4823,
      "📝": 4824,
      "📞": 4825,
      "📢": 4826,
      "📧": 4827,
      "📰": 4828,
      "📱": 4829,
      "📷": 4830,
      "📹": 4831,
      "📺": 4832,
      "🔈": 4833,
      "🔌": 4834,
      "🔍": 4835,
      "🔐": 4836,
      "🔗": 4837,
      "🔘": 4838,
      "🔟": 4839,
      "🔥": 4840,
      "🔦": 4841,
      "🔴": 4842,
      "🔶": 4843,
      "🔸": 4844,
      "🔹": 4845,
      "🔺": 4846,
      "🔻": 4847,
      "🕊": 4848,
      "🖧": 4849,
      "🗝": 4850,
      "🗣": 4851,
      "😀": 4852,
      "😁": 4853,
      "😂": 4854,
      "😃": 4855,
      "😄": 4856,
      "😅": 4857,
      "😆": 4858,
      "😉": 4859,
      "😊": 4860,
      "😋": 4861,
      "😌": 4862,
      "😍": 4863,
      "😎": 4864,
      "😏": 4865,
      "😓": 4866,
      "😔": 4867,
      "😕": 4868,
      "😘": 4869,
      "😞": 4870,
      "😡": 4871,
      "😢": 4872,
      "😥": 4873,
      "😦": 4874,
      "😫": 4875,
      "😭": 4876,
      "😱": 4877,
      "😳": 4878,
      "😴": 4879,
      "😷": 4880,
      "🙁": 4881,
      "🙂": 4882,
      "🙈": 4883,
      "🙉": 4884,
      "🙊": 4885,
      "🙌": 4886,
      "🙏": 4887,
      "🚀": 4888,
      "🚌": 4889,
      "🚑": 4890,
      "🚫": 4891,
      "🚭": 4892,
      "🚰": 4893,
      "🚶": 4894,
      "🛍": 4895,
      "🤑": 4896,
      "🤓": 4897,
      "🤔": 4898,
      "🤖": 4899,
      "🤗": 4900,
      "🤝": 4901,
      "🤣": 4902,
      "🤫": 4903,
      "🥁": 4904,
      "🥇": 4905,
      "🥓": 4906,
      "🥗": 4907,
      "🥚": 4908,
      "🥜": 4909,
      "🥦": 4910,
      "🥩": 4911,
      "🥭": 4912,
      "🦐": 4913,
      "🦸": 4914,
      "🧐": 4915,
      "🧘": 4916,
      "🧙": 4917,
      "🧠": 4918,
      "🧡": 4919,
      "🧤": 4920,
      "🧪": 4921,
      "🧬": 4922,
      "🧺": 4923,
      "🧼": 4924,
      "🧽": 4925,
      "🩺": 4926,
      " п": 4927,
      "ст": 4928,
      " в": 4929,
      "ен": 4930,
      " с": 4931,
      "но": 4932,
      " и": 4933,
      "ра": 4934,
      "на": 4935,
      "то": 4936,
      "ко": 4937,
      "ро": 4938,
      " о": 4939,
      "ре": 4940,
      "го": 4941,
      "ли": 4942,
      "ни": 4943,
      " по": 4944,
      "ль": 4945,
      " д": 4946,
      "те": 4947,
      "ва": 4948,
      "ка": 4949,
      "ны": 4950,
      "ри": 4951,
      "не": 4952,
      " м": 4953,
      "ет": 4954,
      " на": 4955,
      "ло": 4956,
      "ла": 4957,
      "во": 4958,
      "ени": 4959,
      " б": 4960,
      "та": 4961,
      "ть": 4962,
      "ки": 4963,
      "за": 4964,
      "ле": 4965,
      "да": 4966,
      "ер": 4967,
      " ч": 4968,
      ".\n": 4969,
      "ти": 4970,
      " у": 4971,
      " не": 4972,
      "ся": 4973,
      " ко": 4974,
      "ми": 4975,
      "ви": 4976,
      "ру": 4977,
      "ля": 4978,
      "ци": 4979,
      "ди": 4980,
      "ем": 4981,
      " ра": 4982,
      " со": 4983,
      " про": 4984,
      " за": 4985,
      " к": 4986,
      "ста": 4987,
      " э": 4988,
      "ес": 4989,
      " а": 4990,
      "по": 4991,
      "де": 4992,
      "ма": 4993,
      "до": 4994,
      "ест": 4995,
      "мо": 4996,
      "бо": 4997,
      " ка": 4998,
      " от": 4999,
      " во": 5000,
      " при": 5001,
      " что": 5002,
      "сти": 5003,
      " об": 5004,
      "хо": 5005,
      " го": 5006,
      " 1": 5007,
      "сто": 5008,
      "чи": 5009,
      " до": 5010,
      "ры": 5011,
      "ения": 5012,
      " В": 5013,
      "ча": 5014,
      " мо": 5015,
      "си": 5016,
      "ве": 5017,
      " бы": 5018,
      "ско": 5019,
      "ду": 5020,
      " вы": 5021,
      " г": 5022,
      " С": 5023,
      " то": 5024,
      "ей": 5025,
      "ной": 5026,
      " (": 5027,
      "ных": 5028,
      "же": 5029,
      " П": 5030,
      " из": 5031,
      "тель": 5032,
      "со": 5033,
      "ну": 5034,
      "жи": 5035,
      "ши": 5036,
      " К": 5037,
      "лу": 5038,
      " т": 5039,
      "ги": 5040,
      "ные": 5041,
      "ение": 5042,
      "ку": 5043,
      " ф": 5044,
      "ного": 5045,
      " е": 5046,
      " пре": 5047,
      "зо": 5048,
      " ре": 5049,
      "сь": 5050,
      "га": 5051,
      "се": 5052,
      "ере": 5053,
      "вы": 5054,
      "чес": 5055,
      "щи": 5056,
      " это": 5057,
      " та": 5058,
      "па": 5059,
      "ме": 5060,
      "мен": 5061,
      " те": 5062,
      "ют": 5063,
      "сть": 5064,
      " кото": 5065,
      "ный": 5066,
      "лю": 5067,
      "са": 5068,
      "му": 5069,
      " «": 5070,
      " М": 5071,
      " Н": 5072,
      " я": 5073,
      " бо": 5074,
      "ски": 5075,
      "пи": 5076,
      " 2": 5077,
      "ты": 5078,
      " раз": 5079,
      " О": 5080,
      "ется": 5081,
      "ту": 5082,
      " з": 5083,
      "вани": 5084,
      " но": 5085,
      " А": 5086,
      "ря": 5087,
      "ня": 5088,
      "м,": 5089,
      ".\n\n": 5090,
      " для": 5091,
      "зи": 5092,
      " как": 5093,
      " Д": 5094,
      "жа": 5095,
      "лен": 5096,
      " ма": 5097,
      "пе": 5098,
      "ции": 5099,
      "ше": 5100,
      "сле": 5101,
      "ан": 5102,
      " под": 5103,
      "бы": 5104,
      "ву": 5105,
      "вен": 5106,
      " сво": 5107,
      " Б": 5108,
      " ис": 5109,
      "вер": 5110,
      " ст": 5111,
      " Р": 5112,
      " И": 5113,
      " Т": 5114,
      "ор": 5115,
      "жно": 5116,
      "вать": 5117,
      "би": 5118,
      " де": 5119,
      "вля": 5120,
      " -": 5121,
      " 19": 5122,
      "мы": 5123,
      " ли": 5124,
      " ста": 5125,
      "ды": 5126,
      "зы": 5127,
      " —": 5128,
      "ным": 5129,
      "ная": 5130,
      " которы": 5131,
      " си": 5132,
      "ное": 5133,
      "ров": 5134,
      "су": 5135,
      "об": 5136,
      "чески": 5137,
      " ме": 5138,
      "ар": 5139,
      " се": 5140,
      " или": 5141,
      " все": 5142,
      " Г": 5143,
      "це": 5144,
      " ин": 5145,
      "ке": 5146,
      " так": 5147,
      "ще": 5148,
      " пред": 5149,
      " пере": 5150,
      "нов": 5151,
      "гра": 5152,
      "вет": 5153,
      " ва": 5154,
      "гу": 5155,
      "кой": 5156,
      "аль": 5157,
      " его": 5158,
      "00": 5159,
      " са": 5160,
      "про": 5161,
      "он": 5162,
      " кон": 5163,
      "ство": 5164,
      " ни": 5165,
      "тов": 5166,
      "ности": 5167,
      " рас": 5168,
      " ми": 5169,
      "ша": 5170,
      " По": 5171,
      "ран": 5172,
      "гда": 5173,
      "ков": 5174,
      "ющи": 5175,
      "зу": 5176,
      " \"": 5177,
      "ность": 5178,
      "ак": 5179,
      "пу": 5180,
      " воз": 5181,
      "фи": 5182,
      " он": 5183,
      "ном": 5184,
      "й,": 5185,
      "бе": 5186,
      "сси": 5187,
      " Э": 5188,
      "ска": 5189,
      "тив": 5190,
      "мя": 5191,
      " ве": 5192,
      "лько": 5193,
      " ча": 5194,
      "ния": 5195,
      " пра": 5196,
      "ходи": 5197,
      "жен": 5198,
      " бу": 5199,
      " вре": 5200,
      " дру": 5201,
      "ха": 5202,
      " Л": 5203,
      "пра": 5204,
      "ба": 5205,
      "лся": 5206,
      " су": 5207,
      "ца": 5208,
      "мер": 5209,
      "ние": 5210,
      "ент": 5211,
      " хо": 5212,
      "ться": 5213,
      "чен": 5214,
      "ской": 5215,
      "лы": 5216,
      " года": 5217,
      " ро": 5218,
      "ского": 5219,
      "ную": 5220,
      "каза": 5221,
      "ща": 5222,
      " жи": 5223,
      "пре": 5224,
      "жет": 5225,
      " ви": 5226,
      "зна": 5227,
      "лет": 5228,
      "щест": 5229,
      " —": 5230,
      " же": 5231,
      " да": 5232,
      " од": 5233,
      "ства": 5234,
      "че": 5235,
      "тся": 5236,
      " Е": 5237,
      "ствен": 5238,
      "ления": 5239,
      "стоя": 5240,
      "вания": 5241,
      " лю": 5242,
      "льзо": 5243,
      " зна": 5244,
      "стви": 5245,
      " рабо": 5246,
      " па": 5247,
      " боль": 5248,
      "вя": 5249,
      "ция": 5250,
      " дол": 5251,
      "сту": 5252,
      "ван": 5253,
      " У": 5254,
      " обра": 5255,
      " ш": 5256,
      " был": 5257,
      " пер": 5258,
      "вой": 5259,
      "дер": 5260,
      " испо": 5261,
      "она": 5262,
      "чест": 5263,
      " после": 5264,
      "По": 5265,
      "ек": 5266,
      "нима": 5267,
      "ными": 5268,
      " Ф": 5269,
      " ос": 5270,
      " ком": 5271,
      " На": 5272,
      "ении": 5273,
      "ский": 5274,
      "ден": 5275,
      " чтобы": 5276,
      "ются": 5277,
      " 3": 5278,
      "ело": 5279,
      "лее": 5280,
      " сто": 5281,
      ":\n": 5282,
      "стро": 5283,
      " фи": 5284,
      " их": 5285,
      "при": 5286,
      " ц": 5287,
      " может": 5288,
      "бу": 5289,
      "лись": 5290,
      "ком": 5291,
      "сы": 5292,
      "),": 5293,
      "ром": 5294,
      " \n": 5295,
      " бе": 5296,
      " мы": 5297,
      "er": 5298,
      " ди": 5299,
      " З": 5300,
      " прои": 5301,
      "нии": 5302,
      "е,": 5303,
      " ру": 5304,
      "х,": 5305,
      "ему": 5306,
      " году": 5307,
      "дет": 5308,
      " ле": 5309,
      " х": 5310,
      " также": 5311,
      " полу": 5312,
      " 20": 5313,
      "в,": 5314,
      "от": 5315,
      "пы": 5316,
      " время": 5317,
      "но,": 5318,
      "клю": 5319,
      "in": 5320,
      " было": 5321,
      " слу": 5322,
      ".\nВ": 5323,
      " Х": 5324,
      " которые": 5325,
      "дин": 5326,
      "дя": 5327,
      " ку": 5328,
      "ление": 5329,
      "лек": 5330,
      "кого": 5331,
      "тер": 5332,
      " пи": 5333,
      " сло": 5334,
      "елове": 5335,
      "рии": 5336,
      "лось": 5337,
      "кра": 5338,
      "род": 5339,
      " пу": 5340,
      "м.": 5341,
      "сло": 5342,
      " Ч": 5343,
      "йте": 5344,
      "ю,": 5345,
      "логи": 5346,
      " –": 5347,
      "ника": 5348,
      "зыва": 5349,
      "..": 5350,
      " мен": 5351,
      " челове": 5352,
      "го,": 5353,
      "ть,": 5354,
      " они": 5355,
      "вание": 5356,
      "лась": 5357,
      "ман": 5358,
      "ред": 5359,
      "вши": 5360,
      "вест": 5361,
      " явля": 5362,
      "фор": 5363,
      "ми,": 5364,
      "ней": 5365,
      "зда": 5366,
      "т,": 5367,
      "зво": 5368,
      "я,": 5369,
      "том": 5370,
      " спо": 5371,
      "мет": 5372,
      "три": 5373,
      "сли": 5374,
      " стра": 5375,
      "on": 5376,
      "рен": 5377,
      " Ко": 5378,
      " эти": 5379,
      "лей": 5380,
      "чно": 5381,
      "жд": 5382,
      "?\n": 5383,
      "соб": 5384,
      " Ка": 5385,
      "ник": 5386,
      " му": 5387,
      "ений": 5388,
      " только": 5389,
      "пол": 5390,
      "an": 5391,
      "л,": 5392,
      "ских": 5393,
      "мени": 5394,
      "дар": 5395,
      " более": 5396,
      "тор": 5397,
      "пер": 5398,
      " сле": 5399,
      " 4": 5400,
      " помо": 5401,
      "руп": 5402,
      "став": 5403,
      "ству": 5404,
      " Ро": 5405,
      "ью": 5406,
      "лож": 5407,
      " име": 5408,
      " Я": 5409,
      " ор": 5410,
      "хи": 5411,
      "»,": 5412,
      "спо": 5413,
      "тельно": 5414,
      ").": 5415,
      " Со": 5416,
      "жда": 5417,
      " чи": 5418,
      "жду": 5419,
      "бли": 5420,
      " 5": 5421,
      " нача": 5422,
      " свои": 5423,
      " когда": 5424,
      "вед": 5425,
      " которо": 5426,
      " Это": 5427,
      "есть": 5428,
      " быть": 5429,
      " были": 5430,
      " само": 5431,
      "кры": 5432,
      "вые": 5433,
      " чем": 5434,
      " други": 5435,
      "гла": 5436,
      "вых": 5437,
      "чение": 5438,
      " свя": 5439,
      "преде": 5440,
      "ению": 5441,
      "дь": 5442,
      " пла": 5443,
      "к,": 5444,
      "ением": 5445,
      " могу": 5446,
      "ин": 5447,
      "19": 5448,
      "если": 5449,
      "\n\n": 5450,
      "тя": 5451,
      " тре": 5452,
      " оста": 5453,
      "цы": 5454,
      " ав": 5455,
      "емы": 5456,
      "ватель": 5457,
      " =": 5458,
      "вая": 5459,
      " це": 5460,
      "чения": 5461,
      "дов": 5462,
      "вал": 5463,
      "циаль": 5464,
      " если": 5465,
      "тре": 5466,
      "тро": 5467,
      " Но": 5468,
      "ск": 5469,
      " который": 5470,
      "ки,": 5471,
      "дела": 5472,
      " была": 5473,
      "стра": 5474,
      "нг": 5475,
      " она": 5476,
      " отно": 5477,
      "тери": 5478,
      "ставля": 5479,
      "кие": 5480,
      " дан": 5481,
      " объ": 5482,
      "ких": 5483,
      "en": 5484,
      " ба": 5485,
      " исто": 5486,
      "or": 5487,
      " мест": 5488,
      "прав": 5489,
      "торы": 5490,
      " использо": 5491,
      " 200": 5492,
      " ак": 5493,
      "ев": 5494,
      " гла": 5495,
      " вер": 5496,
      " ар": 5497,
      " вс": 5498,
      " S": 5499,
      "бра": 5500,
      "дей": 5501,
      " Во": 5502,
      "нд": 5503,
      "шо": 5504,
      " орга": 5505,
      "тра": 5506,
      "ar": 5507,
      " жиз": 5508,
      " Ма": 5509,
      " Ш": 5510,
      "тому": 5511,
      " созда": 5512,
      " дей": 5513,
      "ена": 5514,
      "льно": 5515,
      "es": 5516,
      " фор": 5517,
      "\n-": 5518,
      " образо": 5519,
      " есть": 5520,
      "кон": 5521,
      "можно": 5522,
      " можно": 5523,
      "вали": 5524,
      " того,": 5525,
      " пе": 5526,
      " Мо": 5527,
      "и,": 5528,
      " I": 5529,
      " пол": 5530,
      " прави": 5531,
      " ее": 5532,
      "рь": 5533,
      " 18": 5534,
      " будет": 5535,
      " За": 5536,
      "На": 5537,
      "тически": 5538,
      " является": 5539,
      "спе": 5540,
      " могут": 5541,
      " между": 5542,
      " 201": 5543,
      "мест": 5544,
      "теля": 5545,
      "сла": 5546,
      "бя": 5547,
      "вого": 5548,
      " лет": 5549,
      " гра": 5550,
      "вый": 5551,
      "цион": 5552,
      "нь": 5553,
      " вой": 5554,
      "кое": 5555,
      " поли": 5556,
      "ческой": 5557,
      "at": 5558,
      "ён": 5559,
      " A": 5560,
      "тия": 5561,
      "жения": 5562,
      " этом": 5563,
      "его": 5564,
      " ду": 5565,
      " опреде": 5566,
      " обла": 5567,
      ".\n-": 5568,
      "ская": 5569,
      "цию": 5570,
      " сист": 5571,
      "чита": 5572,
      "ень": 5573,
      "емо": 5574,
      " каж": 5575,
      " ки": 5576,
      "писа": 5577,
      "шения": 5578,
      "луч": 5579,
      "али": 5580,
      "-то": 5581,
      "ун": 5582,
      "ера": 5583,
      " ок": 5584,
      " C": 5585,
      " 6": 5586,
      " неско": 5587,
      " им": 5588,
      "кан": 5589,
      " этого": 5590,
      "ка,": 5591,
      ".\nС": 5592,
      "сты": 5593,
      "шь": 5594,
      " \\": 5595,
      "чень": 5596,
      " уча": 5597,
      "ят": 5598,
      "вает": 5599,
      "кую": 5600,
      "щей": 5601,
      "ские": 5602,
      " следу": 5603,
      " случа": 5604,
      "чь": 5605,
      "вори": 5606,
      " Бо": 5607,
      "шей": 5608,
      "нако": 5609,
      "лов": 5610,
      " ну": 5611,
      "енно": 5612,
      "ний": 5613,
      "ур": 5614,
      " кра": 5615,
      "кая": 5616,
      "льзу": 5617,
      "стави": 5618,
      "al": 5619,
      " t": 5620,
      "следо": 5621,
      "».": 5622,
      "ге": 5623,
      " уже": 5624,
      "стре": 5625,
      "лия": 5626,
      "льта": 5627,
      "пера": 5628,
      "рован": 5629,
      "обра": 5630,
      " вопро": 5631,
      " где": 5632,
      "ли,": 5633,
      " Росси": 5634,
      "ким": 5635,
      "ском": 5636,
      "сов": 5637,
      "судар": 5638,
      "ровать": 5639,
      "ющих": 5640,
      "зя": 5641,
      "рая": 5642,
      " обо": 5643,
      "бле": 5644,
      "he": 5645,
      " При": 5646,
      " Ра": 5647,
      " органи": 5648,
      "форма": 5649,
      " пар": 5650,
      " осно": 5651,
      "рак": 5652,
      "ющие": 5653,
      "ит": 5654,
      "ональ": 5655,
      " Он": 5656,
      " ско": 5657,
      "лич": 5658,
      "ников": 5659,
      " груп": 5660,
      " получи": 5661,
      ")\n": 5662,
      " вос": 5663,
      "нови": 5664,
      " работа": 5665,
      "на,": 5666,
      " действи": 5667,
      "рон": 5668,
      "чет": 5669,
      " очень": 5670,
      " еще": 5671,
      " разви": 5672,
      " эк": 5673,
      "ступ": 5674,
      "ено": 5675,
      "ческого": 5676,
      "рия": 5677,
      " сдела": 5678,
      " дела": 5679,
      "есь": 5680,
      "жест": 5681,
      " тех": 5682,
      " M": 5683,
      " возможно": 5684,
      "рой": 5685,
      " ты": 5686,
      "нее": 5687,
      " проц": 5688,
      "ход": 5689,
      "дом": 5690,
      "рав": 5691,
      " иг": 5692,
      "води": 5693,
      "бря": 5694,
      "чество": 5695,
      "кла": 5696,
      "вод": 5697,
      "ны,": 5698,
      " Не": 5699,
      "ключа": 5700,
      " Вы": 5701,
      "щего": 5702,
      "ми.": 5703,
      "кре": 5704,
      "ческих": 5705,
      ".\nП": 5706,
      "лага": 5707,
      "щее": 5708,
      " без": 5709,
      " сказа": 5710,
      " больше": 5711,
      "ходя": 5712,
      "сно": 5713,
      "зульта": 5714,
      ".\nПо": 5715,
      " P": 5716,
      "дель": 5717,
      "фф": 5718,
      " тер": 5719,
      "лли": 5720,
      " сред": 5721,
      " Та": 5722,
      " много": 5723,
      "вре": 5724,
      ".\nО": 5725,
      "20": 5726,
      "цу": 5727,
      "тен": 5728,
      " 7": 5729,
      "обходи": 5730,
      "н,": 5731,
      "телей": 5732,
      "личи": 5733,
      " сущест": 5734,
      "ет,": 5735,
      " поч": 5736,
      " авто": 5737,
      " чу": 5738,
      " инте": 5739,
      "сс": 5740,
      " T": 5741,
      "ете": 5742,
      " Ва": 5743,
      "жение": 5744,
      "le": 5745,
      " том,": 5746,
      ".\nК": 5747,
      "рабо": 5748,
      "мента": 5749,
      " коман": 5750,
      "ерез": 5751,
      " язы": 5752,
      " себя": 5753,
      " мно": 5754,
      "мери": 5755,
      " га": 5756,
      " сер": 5757,
      " ответ": 5758,
      " высо": 5759,
      "вно": 5760,
      "держа": 5761,
      "которы": 5762,
      " 8": 5763,
      "коно": 5764,
      "ША": 5765,
      "it": 5766,
      " спе": 5767,
      "ез": 5768,
      " 10": 5769,
      "сте": 5770,
      " би": 5771,
      "шение": 5772,
      "st": 5773,
      " ти": 5774,
      "х.": 5775,
      " государ": 5776,
      "тели": 5777,
      "шего": 5778,
      "руд": 5779,
      "рова": 5780,
      " горо": 5781,
      "рук": 5782,
      ".\n\nВ": 5783,
      " результа": 5784,
      "бор": 5785,
      "ую": 5786,
      "грам": 5787,
      "ющий": 5788,
      " несколько": 5789,
      "вор": 5790,
      "смо": 5791,
      " необходи": 5792,
      " буду": 5793,
      "\",": 5794,
      "дол": 5795,
      " коли": 5796,
      "бой": 5797,
      "рта": 5798,
      " жен": 5799,
      " долж": 5800,
      "льзователь": 5801,
      "нен": 5802,
      " США": 5803,
      " состоя": 5804,
      "ции,": 5805,
      "йти": 5806,
      "слу": 5807,
      " вла": 5808,
      " меня": 5809,
      " тем": 5810,
      " Да": 5811,
      " Па": 5812,
      " Если": 5813,
      " способ": 5814,
      "яви": 5815,
      "ники": 5816,
      "лом": 5817,
      " пробле": 5818,
      "ic": 5819,
      "вое": 5820,
      "цо": 5821,
      " B": 5822,
      "вра": 5823,
      "зе": 5824,
      " соот": 5825,
      "тем": 5826,
      " поло": 5827,
      " соб": 5828,
      "пример": 5829,
      " ту": 5830,
      " Ми": 5831,
      " которая": 5832,
      " сторо": 5833,
      "чной": 5834,
      " даже": 5835,
      " произво": 5836,
      " говори": 5837,
      " сооб": 5838,
      "лез": 5839,
      "станов": 5840,
      "мина": 5841,
      "ших": 5842,
      " кла": 5843,
      " этой": 5844,
      "ети": 5845,
      " Дж": 5846,
      "re": 5847,
      " использу": 5848,
      "стя": 5849,
      "ходит": 5850,
      " ги": 5851,
      " друго": 5852,
      " информа": 5853,
      "шен": 5854,
      " 199": 5855,
      " рай": 5856,
      "лаго": 5857,
      " Са": 5858,
      " послед": 5859,
      "ссист": 5860,
      "ческие": 5861,
      ". ": 5862,
      "с,": 5863,
      "нер": 5864,
      " ж": 5865,
      "вро": 5866,
      " один": 5867,
      " дви": 5868,
      " То": 5869,
      " через": 5870,
      " Ц": 5871,
      "лан": 5872,
      " ю": 5873,
      "стран": 5874,
      " г.": 5875,
      " пло": 5876,
      " дву": 5877,
      "та,": 5878,
      "менно": 5879,
      " процес": 5880,
      " Од": 5881,
      " луч": 5882,
      " кар": 5883,
      " этот": 5884,
      " сем": 5885,
      "ссистент": 5886,
      " нау": 5887,
      "ла,": 5888,
      "пас": 5889,
      "льзователь:": 5890,
      "Ассистент": 5891,
      "Ассистент:": 5892,
      " извест": 5893,
      "ья": 5894,
      " фа": 5895,
      " просто": 5896,
      "--": 5897,
      "щен": 5898,
      " Про": 5899,
      " смо": 5900,
      "стей": 5901,
      "ностью": 5902,
      " ха": 5903,
      " жизни": 5904,
      "ций": 5905,
      " над": 5906,
      "нения": 5907,
      "нут": 5908,
      ".\n\nПо": 5909,
      " мне": 5910,
      "зан": 5911,
      " уда": 5912,
      " бес": 5913,
      "чу": 5914,
      " ри": 5915,
      "графи": 5916,
      "ра,": 5917,
      " день": 5918,
      "дели": 5919,
      "ждения": 5920,
      " 9": 5921,
      "кти": 5922,
      " наз": 5923,
      " против": 5924,
      "ема": 5925,
      " ла": 5926,
      " исследо": 5927,
      " общест": 5928,
      "1.": 5929,
      "льной": 5930,
      " Го": 5931,
      " ему": 5932,
      " соответ": 5933,
      " зада": 5934,
      " позво": 5935,
      "тан": 5936,
      "кто": 5937,
      "кий": 5938,
      "циональ": 5939,
      " счита": 5940,
      "нали": 5941,
      " филь": 5942,
      " хоро": 5943,
      " них": 5944,
      " всех": 5945,
      "имо": 5946,
      " своей": 5947,
      " фун": 5948,
      " R": 5949,
      "вым": 5950,
      "щения": 5951,
      " Ни": 5952,
      "да,": 5953,
      "2.": 5954,
      "ности,": 5955,
      "реди": 5956,
      "ac": 5957,
      "цен": 5958,
      " чет": 5959,
      " D": 5960,
      "держи": 5961,
      "этому": 5962,
      "щая": 5963,
      "вается": 5964,
      "ou": 5965,
      "лле": 5966,
      "пла": 5967,
      " кор": 5968,
      "ты,": 5969,
      " основ": 5970,
      " два": 5971,
      "ваться": 5972,
      " голо": 5973,
      " (1": 5974,
      "фа": 5975,
      "в.": 5976,
      " вто": 5977,
      " откры": 5978,
      " компа": 5979,
      "кономи": 5980,
      " части": 5981,
      "ному": 5982,
      "тур": 5983,
      "тера": 5984,
      "is": 5985,
      "om": 5986,
      " всего": 5987,
      "вую": 5988,
      " самы": 5989,
      " 15": 5990,
      " времени": 5991,
      " коро": 5992,
      "доб": 5993,
      "т.": 5994,
      " находи": 5995,
      "казыва": 5996,
      "ва,": 5997,
      " ло": 5998,
      "\nВ": 5999,
      "рес": 6000,
      "ффек": 6001,
      " то,": 6002,
      "яв": 6003,
      "виси": 6004,
      " стро": 6005,
      "те,": 6006,
      "им": 6007,
      " вз": 6008,
      " некоторы": 6009,
      ";\n": 6010,
      "теле": 6011,
      " цент": 6012,
      " которых": 6013,
      "вом": 6014,
      "пример,": 6015,
      "кси": 6016,
      " вам": 6017,
      " качест": 6018,
      "зации": 6019,
      "л.": 6020,
      "рио": 6021,
      " обес": 6022,
      "и.": 6023,
      "чных": 6024,
      "ем,": 6025,
      " X": 6026,
      "ряд": 6027,
      " тра": 6028,
      ".\nД": 6029,
      "чина": 6030,
      " вне": 6031,
      "льный": 6032,
      " ша": 6033,
      "дук": 6034,
      "рт": 6035,
      " часть": 6036,
      " уни": 6037,
      "ета": 6038,
      "ках": 6039,
      "лин": 6040,
      " матери": 6041,
      " 194": 6042,
      "прави": 6043,
      " програм": 6044,
      " распо": 6045,
      "тей": 6046,
      "строй": 6047,
      " +": 6048,
      "оне": 6049,
      " свой": 6050,
      " обы": 6051,
      " нужно": 6052,
      " сы": 6053,
      "-за": 6054,
      "ступа": 6055,
      " различ": 6056,
      "ним": 6057,
      "жу": 6058,
      " продол": 6059,
      " совет": 6060,
      " кни": 6061,
      "яс": 6062,
      " других": 6063,
      " Ю": 6064,
      "тов,": 6065,
      " приня": 6066,
      " включа": 6067,
      "той": 6068,
      " F": 6069,
      "бер": 6070,
      "вести": 6071,
      "слови": 6072,
      " кри": 6073,
      "твер": 6074,
      "бира": 6075,
      " свою": 6076,
      " ци": 6077,
      " значи": 6078,
      ".\nИ": 6079,
      "0-": 6080,
      " обеспе": 6081,
      " выпол": 6082,
      "ки.": 6083,
      " кто": 6084,
      "жете": 6085,
      "вле": 6086,
      " три": 6087,
      "вар": 6088,
      " ры": 6089,
      " точ": 6090,
      " пос": 6091,
      "рий": 6092,
      " фак": 6093,
      " Ки": 6094,
      " Ве": 6095,
      "зд": 6096,
      " G": 6097,
      "фо": 6098,
      "к.": 6099,
      "них": 6100,
      "льные": 6101,
      "кус": 6102,
      " 0": 6103,
      "льных": 6104,
      "ское": 6105,
      " области": 6106,
      "ion": 6107,
      " До": 6108,
      " зем": 6109,
      " измен": 6110,
      "вич": 6111,
      " кре": 6112,
      " место": 6113,
      "мерикан": 6114,
      " необходимо": 6115,
      "ческий": 6116,
      "един": 6117,
      "ским": 6118,
      "вают": 6119,
      " помощ": 6120,
      "пад": 6121,
      "десь": 6122,
      " проис": 6123,
      "е.": 6124,
      "из": 6125,
      " Как": 6126,
      " количество": 6127,
      "сколь": 6128,
      "ками": 6129,
      " вмест": 6130,
      " мог": 6131,
      "ляр": 6132,
      " эффек": 6133,
      " предпо": 6134,
      " /": 6135,
      " него": 6136,
      " показа": 6137,
      " харак": 6138,
      " ши": 6139,
      " слова": 6140,
      "г.": 6141,
      " ию": 6142,
      " многи": 6143,
      " стать": 6144,
      "мент": 6145,
      " W": 6146,
      " часто": 6147,
      "перь": 6148,
      " этих": 6149,
      " Ж": 6150,
      " Ба": 6151,
      "3.": 6152,
      "туры": 6153,
      "ёт": 6154,
      " дея": 6155,
      " N": 6156,
      "д,": 6157,
      "сса": 6158,
      "et": 6159,
      " благо": 6160,
      " полити": 6161,
      " сти": 6162,
      " функ": 6163,
      " имеет": 6164,
      " предо": 6165,
      " дости": 6166,
      "шин": 6167,
      " виде": 6168,
      " c": 6169,
      "но-": 6170,
      " стал": 6171,
      ".\nТ": 6172,
      "с.": 6173,
      "ку,": 6174,
      "щение": 6175,
      " призна": 6176,
      "ставляет": 6177,
      " 17": 6178,
      "el": 6179,
      " которой": 6180,
      " чув": 6181,
      "льного": 6182,
      "лено": 6183,
      " глав": 6184,
      "шая": 6185,
      "пло": 6186,
      "10": 6187,
      " эта": 6188,
      " куль": 6189,
      "ющей": 6190,
      " перед": 6191,
      " совер": 6192,
      "ro": 6193,
      " L": 6194,
      "ген": 6195,
      "роме": 6196,
      "as": 6197,
      "гля": 6198,
      " игра": 6199,
      "лены": 6200,
      " собствен": 6201,
      "скольку": 6202,
      "ут": 6203,
      " должны": 6204,
      " н": 6205,
      " называ": 6206,
      "ео": 6207,
      "дой": 6208,
      " экономи": 6209,
      "ed": 6210,
      " рус": 6211,
      " тру": 6212,
      " Ин": 6213,
      "II": 6214,
      "него": 6215,
      " 12": 6216,
      "тие": 6217,
      "нти": 6218,
      " своих": 6219,
      ":\n\n": 6220,
      " элек": 6221,
      " s": 6222,
      "ется,": 6223,
      "хра": 6224,
      "ка.": 6225,
      "am": 6226,
      " защи": 6227,
      "ке,": 6228,
      "год": 6229,
      "лий": 6230,
      " согла": 6231,
      " продук": 6232,
      " шко": 6233,
      "щих": 6234,
      "стато": 6235,
      " поня": 6236,
      " Однако": 6237,
      " комп": 6238,
      " Си": 6239,
      " особ": 6240,
      "нение": 6241,
      "тки": 6242,
      " окру": 6243,
      " H": 6244,
      " нас": 6245,
      " успе": 6246,
      "ложен": 6247,
      " теле": 6248,
      " Ви": 6249,
      " себе": 6250,
      "СР": 6251,
      "рования": 6252,
      "чные": 6253,
      " её": 6254,
      " (19": 6255,
      " вас": 6256,
      "стве": 6257,
      " иде": 6258,
      "ях": 6259,
      " мето": 6260,
      "нить": 6261,
      " встре": 6262,
      "**": 6263,
      " услови": 6264,
      " фо": 6265,
      " Ли": 6266,
      "цев": 6267,
      " Так": 6268,
      "коло": 6269,
      "фе": 6270,
      " E": 6271,
      " 198": 6272,
      "кт": 6273,
      "рую": 6274,
      "тельство": 6275,
      "публи": 6276,
      "За": 6277,
      ".\nН": 6278,
      "зма": 6279,
      " выра": 6280,
      "ссо": 6281,
      " двух": 6282,
      " p": 6283,
      "цией": 6284,
      " моло": 6285,
      " перио": 6286,
      " спи": 6287,
      "риан": 6288,
      "ческая": 6289,
      " учи": 6290,
      "ложение": 6291,
      ") —": 6292,
      " уров": 6293,
      "ложи": 6294,
      "сите": 6295,
      " человек": 6296,
      "дра": 6297,
      " зо": 6298,
      "\nС": 6299,
      "еди": 6300,
      "тий": 6301,
      " влия": 6302,
      " 16": 6303,
      "нача": 6304,
      "ing": 6305,
      "сут": 6306,
      " потре": 6307,
      "воз": 6308,
      "рито": 6309,
      " наи": 6310,
      " Ку": 6311,
      ".\nМ": 6312,
      " деятель": 6313,
      "тельства": 6314,
      " бра": 6315,
      "ём": 6316,
      ".\nНа": 6317,
      "4.": 6318,
      "кло": 6319,
      "\".": 6320,
      " вра": 6321,
      "il": 6322,
      "шим": 6323,
      "ведения": 6324,
      " дере": 6325,
      "боль": 6326,
      "ды,": 6327,
      "хва": 6328,
      " долла": 6329,
      "...": 6330,
      " женщи": 6331,
      "нию": 6332,
      "лении": 6333,
      "нем": 6334,
      " стре": 6335,
      "гре": 6336,
      "туа": 6337,
      " d": 6338,
      "18": 6339,
      "чный": 6340,
      "чного": 6341,
      " ад": 6342,
      " руко": 6343,
      "нитель": 6344,
      " нем": 6345,
      "ил": 6346,
      "кро": 6347,
      "раз": 6348,
      " потому": 6349,
      " упо": 6350,
      "ств": 6351,
      " Ар": 6352,
      "ружи": 6353,
      " От": 6354,
      " Все": 6355,
      "вший": 6356,
      "грани": 6357,
      " внима": 6358,
      " воен": 6359,
      "ров,": 6360,
      "тиво": 6361,
      " занима": 6362,
      " социаль": 6363,
      " нет": 6364,
      " своего": 6365,
      " год": 6366,
      " уве": 6367,
      "вета": 6368,
      " переда": 6369,
      " ген": 6370,
      "р.": 6371,
      "р,": 6372,
      " После": 6373,
      "тура": 6374,
      " насе": 6375,
      " лишь": 6376,
      " т.": 6377,
      "верх": 6378,
      "мии": 6379,
      " содержа": 6380,
      "мой": 6381,
      " кли": 6382,
      ".\n\nПользователь:": 6383,
      " пов": 6384,
      "нет": 6385,
      ".\n\nС": 6386,
      " истори": 6387,
      " обу": 6388,
      "||": 6389,
      " сов": 6390,
      " нам": 6391,
      " пря": 6392,
      " тор": 6393,
      " диа": 6394,
      "щий": 6395,
      " России": 6396,
      "времен": 6397,
      "шие": 6398,
      " мене": 6399,
      "of": 6400,
      "на.": 6401,
      "шел": 6402,
      " понима": 6403,
      " [": 6404,
      "готов": 6405,
      " можете": 6406,
      "ol": 6407,
      "меча": 6408,
      "мини": 6409,
      "не,": 6410,
      "чить": 6411,
      " побе": 6412,
      "ствие": 6413,
      "вала": 6414,
      "тно": 6415,
      "Ра": 6416,
      " сим": 6417,
      "хов": 6418,
      " которое": 6419,
      "ческое": 6420,
      " Они": 6421,
      "ший": 6422,
      "тных": 6423,
      "нова": 6424,
      " людей": 6425,
      "знача": 6426,
      " роди": 6427,
      " настоя": 6428,
      "явля": 6429,
      " Ре": 6430,
      " том": 6431,
      " опера": 6432,
      "стер": 6433,
      " Су": 6434,
      "вании": 6435,
      " направ": 6436,
      "бро": 6437,
      " конце": 6438,
      " Пер": 6439,
      " the": 6440,
      "ложения": 6441,
      "лена": 6442,
      "тора": 6443,
      "жде": 6444,
      " уч": 6445,
      "ющим": 6446,
      " уг": 6447,
      " ней": 6448,
      " 197": 6449,
      " город": 6450,
      "жден": 6451,
      "ступи": 6452,
      "ванием": 6453,
      " американ": 6454,
      " использовать": 6455,
      "ян": 6456,
      "прия": 6457,
      " Се": 6458,
      " пси": 6459,
      " проек": 6460,
      " Из": 6461,
      " качестве": 6462,
      " должен": 6463,
      " нео": 6464,
      " сте": 6465,
      "фес": 6466,
      " Что": 6467,
      " собой": 6468,
      " другие": 6469,
      " большо": 6470,
      " работы": 6471,
      " люди": 6472,
      "мати": 6473,
      " оказа": 6474,
      " мар": 6475,
      "ющ": 6476,
      "рения": 6477,
      "роят": 6478,
      " террито": 6479,
      " всегда": 6480,
      " право": 6481,
      " сот": 6482,
      " пока": 6483,
      "ны.": 6484,
      "and": 6485,
      "блю": 6486,
      "дый": 6487,
      "над": 6488,
      " искус": 6489,
      "рей": 6490,
      "правля": 6491,
      " f": 6492,
      " хотя": 6493,
      " такие": 6494,
      " оч": 6495,
      " ху": 6496,
      " бли": 6497,
      " оп": 6498,
      " 196": 6499,
      " тран": 6500,
      " одной": 6501,
      " прош": 6502,
      " недо": 6503,
      "ёр": 6504,
      " здесь": 6505,
      "\nП": 6506,
      " дума": 6507,
      " получа": 6508,
      "мена": 6509,
      " муж": 6510,
      " музы": 6511,
      "вших": 6512,
      " V": 6513,
      "ть.": 6514,
      " случае": 6515,
      "му,": 6516,
      " должно": 6517,
      " Алек": 6518,
      "тек": 6519,
      " расска": 6520,
      "нологи": 6521,
      "-й": 6522,
      " примен": 6523,
      "щие": 6524,
      " пара": 6525,
      " дет": 6526,
      "скую": 6527,
      "народ": 6528,
      "ября": 6529,
      " произ": 6530,
      "000": 6531,
      " физи": 6532,
      "руг": 6533,
      "стой": 6534,
      " из-за": 6535,
      " пы": 6536,
      "воря": 6537,
      "висимо": 6538,
      " производ": 6539,
      " представи": 6540,
      " затем": 6541,
      " доро": 6542,
      " писа": 6543,
      "ены": 6544,
      "сом": 6545,
      "нес": 6546,
      "версите": 6547,
      " поэтому": 6548,
      " Ру": 6549,
      " лег": 6550,
      "ющего": 6551,
      " доба": 6552,
      " m": 6553,
      "тить": 6554,
      " одно": 6555,
      " управ": 6556,
      "д.": 6557,
      " гу": 6558,
      "пита": 6559,
      "ню": 6560,
      " эле": 6561,
      " коне": 6562,
      "ССР": 6563,
      "дви": 6564,
      " пример": 6565,
      " Евро": 6566,
      "веден": 6567,
      "стоян": 6568,
      " любо": 6569,
      " живо": 6570,
      "ло,": 6571,
      " w": 6572,
      "рави": 6573,
      " энер": 6574,
      " Ме": 6575,
      " относи": 6576,
      " b": 6577,
      "ллек": 6578,
      " позволя": 6579,
      " Для": 6580,
      "ять": 6581,
      " Кон": 6582,
      "ейча": 6583,
      " интер": 6584,
      "ене": 6585,
      " осо": 6586,
      " смер": 6587,
      "щё": 6588,
      "нан": 6589,
      "стри": 6590,
      " материа": 6591,
      " ,": 6592,
      " Ста": 6593,
      " Мар": 6594,
      " важ": 6595,
      "н.": 6596,
      " течение": 6597,
      " «С": 6598,
      "циали": 6599,
      "лла": 6600,
      "ot": 6601,
      "бри": 6602,
      "ния,": 6603,
      " причи": 6604,
      " таких": 6605,
      " реши": 6606,
      " системы": 6607,
      "us": 6608,
      " города": 6609,
      " будут": 6610,
      " сту": 6611,
      " разрабо": 6612,
      " заня": 6613,
      "ц,": 6614,
      " офи": 6615,
      " 14": 6616,
      "тии": 6617,
      " отнош": 6618,
      "ом": 6619,
      " которого": 6620,
      "что": 6621,
      "ждение": 6622,
      " определен": 6623,
      " сделать": 6624,
      " около": 6625,
      " тя": 6626,
      " забо": 6627,
      " аль": 6628,
      "5.": 6629,
      " Об": 6630,
      "ков,": 6631,
      " скоро": 6632,
      " обя": 6633,
      "ствует": 6634,
      " дома": 6635,
      "дера": 6636,
      " 193": 6637,
      " противо": 6638,
      " a": 6639,
      "тами": 6640,
      " кро": 6641,
      " осу": 6642,
      " сла": 6643,
      "ствия": 6644,
      "или": 6645,
      " анг": 6646,
      "ница": 6647,
      " прода": 6648,
      "лки": 6649,
      "стов": 6650,
      " начина": 6651,
      "\nК": 6652,
      " актив": 6653,
      "пусти": 6654,
      " электро": 6655,
      "гов": 6656,
      " возра": 6657,
      " Фран": 6658,
      "ститу": 6659,
      "более": 6660,
      "ений,": 6661,
      "чены": 6662,
      " ситуа": 6663,
      "еры": 6664,
      " ря": 6665,
      " чер": 6666,
      " нор": 6667,
      "са,": 6668,
      "чего": 6669,
      " свобо": 6670,
      " данных": 6671,
      "12": 6672,
      "нуть": 6673,
      "гово": 6674,
      " Бу": 6675,
      " тек": 6676,
      " мень": 6677,
      "нци": 6678,
      " повы": 6679,
      "ток": 6680,
      "вид": 6681,
      "ством": 6682,
      " глу": 6683,
      " неза": 6684,
      " уби": 6685,
      "im": 6686,
      " круп": 6687,
      "ent": 6688,
      " написа": 6689,
      "ют,": 6690,
      " уста": 6691,
      " ради": 6692,
      " Га": 6693,
      " Ла": 6694,
      "струк": 6695,
      "вшие": 6696,
      " меся": 6697,
      "лича": 6698,
      " безо": 6699,
      "гру": 6700,
      " установ": 6701,
      "ье": 6702,
      " распро": 6703,
      "?\nАссистент:": 6704,
      " пор": 6705,
      "след": 6706,
      "ей,": 6707,
      "льное": 6708,
      " меди": 6709,
      "мов": 6710,
      "вари": 6711,
      "обре": 6712,
      " вариан": 6713,
      " ска": 6714,
      " дли": 6715,
      " продолжа": 6716,
      " помощью": 6717,
      ".,": 6718,
      " шта": 6719,
      " участ": 6720,
      ";\n-": 6721,
      " являются": 6722,
      " эффектив": 6723,
      "ции.": 6724,
      "тельных": 6725,
      " Она": 6726,
      " пода": 6727,
      "доро": 6728,
      " поскольку": 6729,
      "та.": 6730,
      ").\n": 6731,
      "дии": 6732,
      "жем": 6733,
      "-ли": 6734,
      " государствен": 6735,
      "ерт": 6736,
      " современ": 6737,
      "ель": 6738,
      " объек": 6739,
      "шу": 6740,
      " изу": 6741,
      " сли": 6742,
      " уро": 6743,
      " 13": 6744,
      " обна": 6745,
      " профес": 6746,
      " человека": 6747,
      "тельной": 6748,
      "держ": 6749,
      " 195": 6750,
      " образом,": 6751,
      "бре": 6752,
      " принима": 6753,
      " того": 6754,
      " (в": 6755,
      " ог": 6756,
      " представ": 6757,
      " контро": 6758,
      " сра": 6759,
      " допол": 6760,
      "того": 6761,
      "нами": 6762,
      " участи": 6763,
      " сни": 6764,
      "ch": 6765,
      " жизнь": 6766,
      " и,": 6767,
      " вопрос": 6768,
      "!\n": 6769,
      " СССР": 6770,
      "ёл": 6771,
      " расс": 6772,
      "пада": 6773,
      "ган": 6774,
      "ссий": 6775,
      " опы": 6776,
      "ad": 6777,
      " тео": 6778,
      " Вели": 6779,
      "шли": 6780,
      "иль": 6781,
      "пара": 6782,
      "лением": 6783,
      "жида": 6784,
      "ным,": 6785,
      " лучше": 6786,
      "id": 6787,
      " вместе": 6788,
      "жении": 6789,
      "няя": 6790,
      "шки": 6791,
      " постоян": 6792,
      "пуска": 6793,
      "пря": 6794,
      ".\nА": 6795,
      " связи": 6796,
      " ино": 6797,
      " жа": 6798,
      ".\n—": 6799,
      " истории": 6800,
      "слен": 6801,
      "фика": 6802,
      " непо": 6803,
      "вин": 6804,
      "ейчас": 6805,
      "тельные": 6806,
      " 11": 6807,
      " го": 6808,
      " тогда": 6809,
      " реги": 6810,
      "ху": 6811,
      " вес": 6812,
      " существу": 6813,
      "стан": 6814,
      "дите": 6815,
      " ограни": 6816,
      "шем": 6817,
      "рев": 6818,
      " мира": 6819,
      "нк": 6820,
      "ствии": 6821,
      "бора": 6822,
      " Хо": 6823,
      "рует": 6824,
      "мети": 6825,
      " 30": 6826,
      " рав": 6827,
      "г,": 6828,
      " именно": 6829,
      "тря": 6830,
      "чер": 6831,
      " даль": 6832,
      " Гер": 6833,
      " реб": 6834,
      " нару": 6835,
      "вайте": 6836,
      "дро": 6837,
      "стью": 6838,
      " of": 6839,
      " бере": 6840,
      " степ": 6841,
      "шую": 6842,
      " года,": 6843,
      " пес": 6844,
      " другой": 6845,
      "бур": 6846,
      "деть": 6847,
      " вза": 6848,
      " такой": 6849,
      " $": 6850,
      " Мы": 6851,
      " чемпи": 6852,
      " особенно": 6853,
      " четы": 6854,
      " ещё": 6855,
      "ющее": 6856,
      " утвер": 6857,
      " пози": 6858,
      "тельный": 6859,
      "тин": 6860,
      "волю": 6861,
      " испол": 6862,
      "ствовать": 6863,
      "\nИ": 6864,
      "17": 6865,
      " тем,": 6866,
      " пользо": 6867,
      " посе": 6868,
      " стан": 6869,
      "я.": 6870,
      "Если": 6871,
      " найти": 6872,
      "хода": 6873,
      " жела": 6874,
      " достато": 6875,
      " университе": 6876,
      " там": 6877,
      "ницы": 6878,
      " сказал": 6879,
      "виде": 6880,
      " миро": 6881,
      " 25": 6882,
      "ьте": 6883,
      " одного": 6884,
      " всё": 6885,
      " организа": 6886,
      " находится": 6887,
      "циа": 6888,
      " группы": 6889,
      " сотруд": 6890,
      "Это": 6891,
      "льная": 6892,
      "\n|": 6893,
      " широ": 6894,
      " войны": 6895,
      " наблю": 6896,
      " прав": 6897,
      "телем": 6898,
      " режи": 6899,
      " состав": 6900,
      "рование": 6901,
      " некоторые": 6902,
      " гор": 6903,
      " эту": 6904,
      "жной": 6905,
      " сре": 6906,
      "дить": 6907,
      "ow": 6908,
      "матри": 6909,
      "15": 6910,
      " сохра": 6911,
      " возду": 6912,
      " чего": 6913,
      "мни": 6914,
      " h": 6915,
      " уси": 6916,
      " среди": 6917,
      "нием": 6918,
      " результате": 6919,
      "кс": 6920,
      " Ха": 6921,
      " част": 6922,
      "ства,": 6923,
      " требу": 6924,
      " котором": 6925,
      "сона": 6926,
      "мыш": 6927,
      " внут": 6928,
      " хи": 6929,
      "сти,": 6930,
      " хорошо": 6931,
      " убе": 6932,
      "зм": 6933,
      "вить": 6934,
      " ал": 6935,
      "ктор": 6936,
      " долларов": 6937,
      " Ри": 6938,
      "лё": 6939,
      "пере": 6940,
      "чей": 6941,
      " подо": 6942,
      "ig": 6943,
      " окон": 6944,
      " тот": 6945,
      "мень": 6946,
      " прези": 6947,
      " гру": 6948,
      " тыся": 6949,
      "кар": 6950,
      " мя": 6951,
      " Лу": 6952,
      " собы": 6953,
      " Когда": 6954,
      " две": 6955,
      " Те": 6956,
      "шест": 6957,
      "оз": 6958,
      " каждый": 6959,
      " “": 6960,
      "еро": 6961,
      "мы,": 6962,
      "ником": 6963,
      " осущест": 6964,
      " источ": 6965,
      "лого": 6966,
      " анали": 6967,
      "16": 6968,
      "санд": 6969,
      "-либо": 6970,
      "щу": 6971,
      " следует": 6972,
      " струк": 6973,
      " безопас": 6974,
      " гражда": 6975,
      "----": 6976,
      "кими": 6977,
      " бро": 6978,
      " наде": 6979,
      "зер": 6980,
      "ести": 6981,
      " анти": 6982,
      " почти": 6983,
      "чества": 6984,
      " пыта": 6985,
      " n": 6986,
      "рю": 6987,
      " мини": 6988,
      "пли": 6989,
      " технологи": 6990,
      " выше": 6991,
      " реаль": 6992,
      " сол": 6993,
      " связан": 6994,
      " Пре": 6995,
      "un": 6996,
      " неме": 6997,
      "ке.": 6998,
      " O": 6999,
      "ности.": 7000,
      " №": 7001,
      " Моск": 7002,
      "ur": 7003,
      "ваются": 7004,
      " свое": 7005,
      " неболь": 7006,
      " интере": 7007,
      ",5": 7008,
      "oo": 7009,
      "ору": 7010,
      " однако": 7011,
      "когда": 7012,
      " реко": 7013,
      "ct": 7014,
      "ологи": 7015,
      " А.": 7016,
      " вероят": 7017,
      "тай": 7018,
      "фер": 7019,
      " взя": 7020,
      "ваний": 7021,
      " помочь": 7022,
      "чная": 7023,
      " генера": 7024,
      " Ан": 7025,
      "нах": 7026,
      " оши": 7027,
      " каждо": 7028,
      "кола": 7029,
      " срав": 7030,
      "диви": 7031,
      " Его": 7032,
      " роль": 7033,
      " спосо": 7034,
      "зии": 7035,
      "деля": 7036,
      "Что": 7037,
      " милли": 7038,
      "рите": 7039,
      "жать": 7040,
      " игро": 7041,
      "вались": 7042,
      "ат": 7043,
      "рин": 7044,
      " указа": 7045,
      " деся": 7046,
      " сель": 7047,
      " своим": 7048,
      "шее": 7049,
      " цер": 7050,
      "лии": 7051,
      "стру": 7052,
      "зь": 7053,
      " U": 7054,
      " отра": 7055,
      " «К": 7056,
      ":\n-": 7057,
      " дерев": 7058,
      "тельного": 7059,
      "тый": 7060,
      " худо": 7061,
      "дж": 7062,
      " цен": 7063,
      "тной": 7064,
      "мите": 7065,
      "дно": 7066,
      " \\(": 7067,
      " описа": 7068,
      " фран": 7069,
      " вели": 7070,
      " специаль": 7071,
      "ристи": 7072,
      " зву": 7073,
      " места": 7074,
      "вался": 7075,
      " жур": 7076,
      " Укра": 7077,
      " образом": 7078,
      "ность,": 7079,
      " памя": 7080,
      "нии,": 7081,
      " быстро": 7082,
      "ведение": 7083,
      " обе": 7084,
      "ющая": 7085,
      "у,": 7086,
      " компо": 7087,
      "тельное": 7088,
      "ма,": 7089,
      " энерги": 7090,
      " обычно": 7091,
      " еди": 7092,
      "ры,": 7093,
      " сам": 7094,
      "коне": 7095,
      "лить": 7096,
      " например,": 7097,
      " практи": 7098,
      "сков": 7099,
      " труд": 7100,
      "тные": 7101,
      " вот": 7102,
      " ян": 7103,
      "ческую": 7104,
      " важно": 7105,
      " какой": 7106,
      " (2": 7107,
      "ter": 7108,
      " Кар": 7109,
      "—19": 7110,
      " обществен": 7111,
      " дека": 7112,
      " расположен": 7113,
      " экс": 7114,
      "лев": 7115,
      " фото": 7116,
      " наиболее": 7117,
      "раб": 7118,
      "нской": 7119,
      "фици": 7120,
      "сь,": 7121,
      " изобра": 7122,
      " люби": 7123,
      "емых": 7124,
      " попу": 7125,
      " стран": 7126,
      "жных": 7127,
      " октя": 7128,
      "вобо": 7129,
      " возможность": 7130,
      " которую": 7131,
      " сент": 7132,
      " подоб": 7133,
      " ника": 7134,
      "нев": 7135,
      " различных": 7136,
      " изда": 7137,
      " отдель": 7138,
      " внимание": 7139,
      " отношения": 7140,
      "ить": 7141,
      " прекра": 7142,
      " внутрен": 7143,
      "\nО": 7144,
      " мет": 7145,
      "ента": 7146,
      " кру": 7147,
      " стороны": 7148,
      " узна": 7149,
      "14": 7150,
      " устрой": 7151,
      " означа": 7152,
      " in": 7153,
      "га,": 7154,
      " авгу": 7155,
      "кам": 7156,
      " постро": 7157,
      " сме": 7158,
      "зяй": 7159,
      " первый": 7160,
      "ключи": 7161,
      " кур": 7162,
      " существо": 7163,
      " 192": 7164,
      " заболе": 7165,
      "дца": 7166,
      " воло": 7167,
      " развития": 7168,
      " Лю": 7169,
      " смы": 7170,
      " числе": 7171,
      "чета": 7172,
      "мом": 7173,
      "льным": 7174,
      "лён": 7175,
      " Му": 7176,
      " центра": 7177,
      "виа": 7178,
      " Кра": 7179,
      "шла": 7180,
      " этим": 7181,
      " Де": 7182,
      " похо": 7183,
      "ю.": 7184,
      " янва": 7185,
      "менты": 7186,
      " борь": 7187,
      " бло": 7188,
      " улуч": 7189,
      " «В": 7190,
      "пей": 7191,
      " тради": 7192,
      "ис": 7193,
      " доступ": 7194,
      " соста": 7195,
      "министра": 7196,
      " появи": 7197,
      "ться,": 7198,
      " района": 7199,
      " произо": 7200,
      "эн": 7201,
      "чно,": 7202,
      " поддерж": 7203,
      " закон": 7204,
      " бри": 7205,
      " второй": 7206,
      " несколь": 7207,
      " финан": 7208,
      " Ав": 7209,
      "доров": 7210,
      ".\nБ": 7211,
      " Александ": 7212,
      " тр": 7213,
      " объяс": 7214,
      " менее": 7215,
      " проводи": 7216,
      "тах": 7217,
      " Пу": 7218,
      "кви": 7219,
      " работу": 7220,
      "шком": 7221,
      " регу": 7222,
      "чки": 7223,
      "кова": 7224,
      " националь": 7225,
      "нского": 7226,
      " ули": 7227,
      "нять": 7228,
      " маши": 7229,
      "сить": 7230,
      "тых": 7231,
      " доку": 7232,
      "-го": 7233,
      " тоже": 7234,
      "гна": 7235,
      " международ": 7236,
      " начала": 7237,
      " внеш": 7238,
      " вол": 7239,
      "ческим": 7240,
      " 100": 7241,
      "выми": 7242,
      " «М": 7243,
      "тов.": 7244,
      "дума": 7245,
      " остро": 7246,
      " система": 7247,
      " очере": 7248,
      "сер": 7249,
      " большин": 7250,
      "\nПо": 7251,
      " имеют": 7252,
      "ре,": 7253,
      " сбор": 7254,
      "ку.": 7255,
      " дер": 7256,
      "тических": 7257,
      "лению": 7258,
      " семь": 7259,
      " взаимо": 7260,
      "ir": 7261,
      "мущест": 7262,
      "ду,": 7263,
      " друг": 7264,
      " соответству": 7265,
      "ной,": 7266,
      " наро": 7267,
      "лось,": 7268,
      " годы": 7269,
      " зако": 7270,
      "ну,": 7271,
      "будь": 7272,
      "еха": 7273,
      " неу": 7274,
      ".\nУ": 7275,
      "онов": 7276,
      "таль": 7277,
      " *": 7278,
      " одна": 7279,
      " какие": 7280,
      " теперь": 7281,
      "воль": 7282,
      "13": 7283,
      "um": 7284,
      " значение": 7285,
      " мере": 7286,
      "ниц": 7287,
      "6.": 7288,
      "чным": 7289,
      "риа": 7290,
      " чита": 7291,
      "Ро": 7292,
      "моби": 7293,
      " весь": 7294,
      " психо": 7295,
      " хра": 7296,
      " требо": 7297,
      " года.": 7298,
      " Бе": 7299,
      "лка": 7300,
      "ли.": 7301,
      "ссе": 7302,
      "лой": 7303,
      "чное": 7304,
      " разме": 7305,
      " обяза": 7306,
      "их": 7307,
      " архи": 7308,
      " конкре": 7309,
      "гие": 7310,
      "вень": 7311,
      "цент": 7312,
      " деле": 7313,
      " оно": 7314,
      " сезо": 7315,
      " потом": 7316,
      " представля": 7317,
      "iv": 7318,
      "щает": 7319,
      " связа": 7320,
      " станови": 7321,
      " мат": 7322,
      " литера": 7323,
      "\nД": 7324,
      " множест": 7325,
      " попы": 7326,
      " цель": 7327,
      "цуз": 7328,
      " вну": 7329,
      " спа": 7330,
      "пто": 7331,
      " по-": 7332,
      " стали": 7333,
      "едера": 7334,
      " россий": 7335,
      " принци": 7336,
      "ay": 7337,
      " Пи": 7338,
      " (с": 7339,
      "1,": 7340,
      " заяви": 7341,
      "нул": 7342,
      "меть": 7343,
      " аб": 7344,
      " бое": 7345,
      " испы": 7346,
      "дент": 7347,
      " Кроме": 7348,
      " ей": 7349,
      " бан": 7350,
      " англий": 7351,
      "тар": 7352,
      " реак": 7353,
      " исследования": 7354,
      "да.": 7355,
      " либо": 7356,
      " производи": 7357,
      " Ис": 7358,
      " клу": 7359,
      "евра": 7360,
      "чем": 7361,
      "тка": 7362,
      " возвра": 7363,
      " апре": 7364,
      " таким": 7365,
      " комму": 7366,
      "лень": 7367,
      " служ": 7368,
      " запи": 7369,
      "ag": 7370,
      " четыре": 7371,
      " Ди": 7372,
      "ления,": 7373,
      "даря": 7374,
      "вшего": 7375,
      " (по": 7376,
      " детей": 7377,
      " выз": 7378,
      "шить": 7379,
      " территории": 7380,
      " положи": 7381,
      "лений": 7382,
      " коло": 7383,
      " сум": 7384,
      " самом": 7385,
      " получил": 7386,
      " сейчас": 7387,
      "ы,": 7388,
      " предлага": 7389,
      " .": 7390,
      " J": 7391,
      " форма": 7392,
      "мышлен": 7393,
      " дня": 7394,
      "дователь": 7395,
      " возник": 7396,
      "скому": 7397,
      "вли": 7398,
      " С.": 7399,
      " ним": 7400,
      "-2": 7401,
      " систем": 7402,
      ".\nПри": 7403,
      "ut": 7404,
      " Сан": 7405,
      " реали": 7406,
      "ум": 7407,
      " све": 7408,
      "шка": 7409,
      "тон": 7410,
      "йн": 7411,
      " одним": 7412,
      " времен": 7413,
      " период": 7414,
      "утбо": 7415,
      "лим": 7416,
      "ти,": 7417,
      " Украи": 7418,
      " полностью": 7419,
      " мета": 7420,
      "сем": 7421,
      " потреб": 7422,
      " поку": 7423,
      " дело": 7424,
      "чном": 7425,
      " компании": 7426,
      " Герма": 7427,
      "лых": 7428,
      " площа": 7429,
      " никогда": 7430,
      " основе": 7431,
      "щем": 7432,
      "лосо": 7433,
      " ничего": 7434,
      " многих": 7435,
      " вся": 7436,
      " М.": 7437,
      "em": 7438,
      "лиги": 7439,
      " число": 7440,
      "годня": 7441,
      " пора": 7442,
      "тный": 7443,
      "жды": 7444,
      " помога": 7445,
      "пор": 7446,
      "Ре": 7447,
      "част": 7448,
      "кому": 7449,
      "дия": 7450,
      " буд": 7451,
      "мир": 7452,
      " «П": 7453,
      " должна": 7454,
      " всем": 7455,
      " болез": 7456,
      "ходят": 7457,
      "рок": 7458,
      " рекомен": 7459,
      "0-х": 7460,
      " достаточно": 7461,
      "хани": 7462,
      " стар": 7463,
      " февра": 7464,
      " стала": 7465,
      " l": 7466,
      "вало": 7467,
      "-ни": 7468,
      "\nМ": 7469,
      " K": 7470,
      "нению": 7471,
      ").\n\n": 7472,
      " поддержи": 7473,
      " сегодня": 7474,
      " (на": 7475,
      " назна": 7476,
      " распростран": 7477,
      " составляет": 7478,
      " определя": 7479,
      " арми": 7480,
      " мир": 7481,
      " отве": 7482,
      " Ле": 7483,
      " В.": 7484,
      " сопро": 7485,
      " облада": 7486,
      " един": 7487,
      "но.": 7488,
      "нные": 7489,
      "ста,": 7490,
      " году,": 7491,
      " права": 7492,
      " слишком": 7493,
      "ль,": 7494,
      " начале": 7495,
      " обеспечи": 7496,
      " дав": 7497,
      " спро": 7498,
      "os": 7499,
      "тые": 7500,
      " темпера": 7501,
      " вид": 7502,
      "__": 7503,
      ".\nГ": 7504,
      "водя": 7505,
      "тите": 7506,
      " низ": 7507,
      " пользова": 7508,
      " собра": 7509,
      "графия": 7510,
      "жные": 7511,
      "....": 7512,
      " составля": 7513,
      "50": 7514,
      " долго": 7515,
      "емые": 7516,
      "мпа": 7517,
      " многие": 7518,
      " поверх": 7519,
      " изменения": 7520,
      " века": 7521,
      " говоря": 7522,
      " тан": 7523,
      "дной": 7524,
      " свет": 7525,
      " уче": 7526,
      "нных": 7527,
      "лит": 7528,
      "й.": 7529,
      " могли": 7530,
      "зов": 7531,
      "лети": 7532,
      "-нибудь": 7533,
      " мас": 7534,
      " професси": 7535,
      "скими": 7536,
      "ческом": 7537,
      " мор": 7538,
      "жествен": 7539,
      "не.": 7540,
      "сок": 7541,
      " публи": 7542,
      " and": 7543,
      "они": 7544,
      " действия": 7545,
      "нок": 7546,
      "тая": 7547,
      " укра": 7548,
      " можем": 7549,
      " решения": 7550,
      "личие": 7551,
      " техни": 7552,
      "лик": 7553,
      "30": 7554,
      " отсут": 7555,
      "ex": 7556,
      "джа": 7557,
      " пись": 7558,
      " гото": 7559,
      " разре": 7560,
      " пле": 7561,
      "чат": 7562,
      " реш": 7563,
      " наблюда": 7564,
      " пои": 7565,
      "рус": 7566,
      " выступа": 7567,
      "ла.": 7568,
      " автомоби": 7569,
      "тические": 7570,
      "дов,": 7571,
      " поме": 7572,
      "ation": 7573,
      " Вер": 7574,
      "куль": 7575,
      " момент": 7576,
      "ставить": 7577,
      "роб": 7578,
      "ванию": 7579,
      " получить": 7580,
      " серь": 7581,
      "лы,": 7582,
      "жит": 7583,
      " иметь": 7584,
      " завер": 7585,
      " немец": 7586,
      " пита": 7587,
      " Раз": 7588,
      " 24": 7589,
      " интерес": 7590,
      " древ": 7591,
      "щим": 7592,
      " восто": 7593,
      "ествен": 7594,
      " происходит": 7595,
      " сере": 7596,
      " форму": 7597,
      "вери": 7598,
      " решение": 7599,
      "влека": 7600,
      " встреча": 7601,
      " стоит": 7602,
      "образ": 7603,
      " верну": 7604,
      "шать": 7605,
      " надо": 7606,
      " Ло": 7607,
      "хран": 7608,
      "сур": 7609,
      " взгля": 7610,
      " некоторых": 7611,
      " Вот": 7612,
      " приве": 7613,
      "смотре": 7614,
      "ра.": 7615,
      "ца,": 7616,
      "ните": 7617,
      " Вла": 7618,
      " страны": 7619,
      "сть,": 7620,
      " норма": 7621,
      " тур": 7622,
      "чествен": 7623,
      " 50": 7624,
      " ум": 7625,
      " край": 7626,
      " наза": 7627,
      " Эти": 7628,
      "нди": 7629,
      "ht": 7630,
      "нной": 7631,
      "креп": 7632,
      "ком,": 7633,
      " расши": 7634,
      " мире": 7635,
      "тельным": 7636,
      "сон": 7637,
      "лета": 7638,
      " Ду": 7639,
      "каде": 7640,
      " типа": 7641,
      " что-то": 7642,
      " ожида": 7643,
      " вещест": 7644,
      "седа": 7645,
      "рами": 7646,
      " увеличи": 7647,
      " глаза": 7648,
      "рез": 7649,
      " строи": 7650,
      ".\n\nП": 7651,
      " дополнитель": 7652,
      " характер": 7653,
      " напря": 7654,
      "так": 7655,
      " форми": 7656,
      " находя": 7657,
      "7.": 7658,
      " увер": 7659,
      " Ти": 7660,
      " поте": 7661,
      " разо": 7662,
      " пунк": 7663,
      "йской": 7664,
      " поро": 7665,
      " верси": 7666,
      "оло": 7667,
      "де,": 7668,
      " прежде": 7669,
      " характери": 7670,
      " почему": 7671,
      " Поэтому": 7672,
      "ешь": 7673,
      " |": 7674,
      " самых": 7675,
      " Под": 7676,
      " фай": 7677,
      " мину": 7678,
      " данные": 7679,
      " оцен": 7680,
      "надле": 7681,
      " персона": 7682,
      " «О": 7683,
      " стоя": 7684,
      "шло": 7685,
      " степени": 7686,
      " прямо": 7687,
      " хоте": 7688,
      "тного": 7689,
      "чка": 7690,
      " ау": 7691,
      "ги,": 7692,
      "шает": 7693,
      " чемпиона": 7694,
      " «Д": 7695,
      "чную": 7696,
      " проблемы": 7697,
      " компью": 7698,
      " действительно": 7699,
      " треть": 7700,
      " спра": 7701,
      "мые": 7702,
      " уви": 7703,
      " Сер": 7704,
      " приро": 7705,
      " дра": 7706,
      " такое": 7707,
      "лиза": 7708,
      " власти": 7709,
      " пя": 7710,
      " имени": 7711,
      " первой": 7712,
      "ску": 7713,
      ".\n\nО": 7714,
      "юз": 7715,
      "лко": 7716,
      " отлича": 7717,
      " здоров": 7718,
      "теги": 7719,
      " гре": 7720,
      " минут": 7721,
      " потен": 7722,
      " двига": 7723,
      " управления": 7724,
      " ново": 7725,
      "служи": 7726,
      "ровал": 7727,
      "рое": 7728,
      " районе": 7729,
      "каз": 7730,
      " религи": 7731,
      "дко": 7732,
      " ана": 7733,
      " дней": 7734,
      "дей,": 7735,
      "лый": 7736,
      " народ": 7737,
      " зависимо": 7738,
      "ul": 7739,
      " снова": 7740,
      " оконча": 7741,
      "ющую": 7742,
      "ь,": 7743,
      " специали": 7744,
      "баты": 7745,
      " популяр": 7746,
      " клю": 7747,
      "слов": 7748,
      " говорит": 7749,
      "кет": 7750,
      " ран": 7751,
      " официаль": 7752,
      "11": 7753,
      " мужчи": 7754,
      " простран": 7755,
      " конф": 7756,
      "вольно": 7757,
      "ва.": 7758,
      " сразу": 7759,
      " принадле": 7760,
      " оборо": 7761,
      "od": 7762,
      "ению,": 7763,
      "гро": 7764,
      "ние,": 7765,
      "ай": 7766,
      "рд": 7767,
      "писы": 7768,
      " октября": 7769,
      " руковод": 7770,
      " инф": 7771,
      "дина": 7772,
      " моз": 7773,
      " ори": 7774,
      " организации": 7775,
      "гер": 7776,
      "обще": 7777,
      "ям": 7778,
      "чении": 7779,
      " сентября": 7780,
      " инстру": 7781,
      " умень": 7782,
      " медици": 7783,
      " Этот": 7784,
      " авиа": 7785,
      "том,": 7786,
      " вызыва": 7787,
      "эй": 7788,
      " мыш": 7789,
      ".\n«": 7790,
      "ни,": 7791,
      "дел": 7792,
      "лют": 7793,
      "визи": 7794,
      "чать": 7795,
      "ясь": 7796,
      "сов,": 7797,
      " суб": 7798,
      " полез": 7799,
      " механи": 7800,
      "шенно": 7801,
      "там": 7802,
      "сил": 7803,
      " ды": 7804,
      " опас": 7805,
      "читы": 7806,
      "емой": 7807,
      " июля": 7808,
      "док": 7809,
      " июня": 7810,
      "вей": 7811,
      " рассматри": 7812,
      " Мак": 7813,
      " Совет": 7814,
      "зем": 7815,
      ".\n\nНа": 7816,
      "цени": 7817,
      " футбо": 7818,
      " нескольких": 7819,
      " км": 7820,
      "л-": 7821,
      " француз": 7822,
      "\nА": 7823,
      " конку": 7824,
      " евро": 7825,
      "са.": 7826,
      " «А": 7827,
      " Пере": 7828,
      " ск": 7829,
      " уровня": 7830,
      "имущест": 7831,
      " уровень": 7832,
      " бога": 7833,
      " этому": 7834,
      "стоит": 7835,
      " поле": 7836,
      " ошиб": 7837,
      "треб": 7838,
      " собира": 7839,
      "op": 7840,
      " Ита": 7841,
      " поэ": 7842,
      " попро": 7843,
      " Бер": 7844,
      " The": 7845,
      " приводи": 7846,
      " Би": 7847,
      "ственного": 7848,
      "нный": 7849,
      " участие": 7850,
      " зрения": 7851,
      "ты.": 7852,
      " прибы": 7853,
      "ное,": 7854,
      " января": 7855,
      "ров.": 7856,
      "e,": 7857,
      " измени": 7858,
      "циона": 7859,
      " револю": 7860,
      "жал": 7861,
      "th": 7862,
      "емон": 7863,
      " огром": 7864,
      " позволяет": 7865,
      " капита": 7866,
      " возмо": 7867,
      " делать": 7868,
      "тать": 7869,
      " экспе": 7870,
      " включая": 7871,
      "сы,": 7872,
      "ментов": 7873,
      " мощ": 7874,
      "вок": 7875,
      "цию,": 7876,
      "ia": 7877,
      "ция,": 7878,
      " рын": 7879,
      "ющими": 7880,
      "Не": 7881,
      " подтвер": 7882,
      "клад": 7883,
      " группа": 7884,
      "рах": 7885,
      " ваш": 7886,
      " равно": 7887,
      " захва": 7888,
      " стол": 7889,
      " марта": 7890,
      "ды.": 7891,
      " Ор": 7892,
      " класси": 7893,
      "чил": 7894,
      "ru": 7895,
      " всей": 7896,
      "бом": 7897,
      " ребен": 7898,
      " обнаружи": 7899,
      "длен": 7900,
      " возника": 7901,
      "тего": 7902,
      "мин": 7903,
      "круг": 7904,
      ".\n\nИ": 7905,
      ".\n\nК": 7906,
      "гани": 7907,
      " 22": 7908,
      " хозяй": 7909,
      " Воз": 7910,
      " зда": 7911,
      "пен": 7912,
      " легко": 7913,
      "rac": 7914,
      " оди": 7915,
      " новых": 7916,
      "естествен": 7917,
      " «Б": 7918,
      "ra": 7919,
      " имя": 7920,
      " раст": 7921,
      " немного": 7922,
      " информации": 7923,
      " твор": 7924,
      " движения": 7925,
      " содержи": 7926,
      " Боль": 7927,
      "вана": 7928,
      "мено": 7929,
      "тиру": 7930,
      " средства": 7931,
      " мая": 7932,
      " администра": 7933,
      " разных": 7934,
      "бло": 7935,
      "а,": 7936,
      " мона": 7937,
      " пово": 7938,
      " малень": 7939,
      "|\n|": 7940,
      " подготов": 7941,
      "смот": 7942,
      "емый": 7943,
      "туаль": 7944,
      " которым": 7945,
      " р": 7946,
      " помощи": 7947,
      "рит": 7948,
      "чением": 7949,
      "лые": 7950,
      " так,": 7951,
      "первые": 7952,
      " In": 7953,
      " стало": 7954,
      " меньше": 7955,
      " точки": 7956,
      " примерно": 7957,
      " преду": 7958,
      "дит": 7959,
      " ап": 7960,
      " Пет": 7961,
      "льную": 7962,
      "лав": 7963,
      "oc": 7964,
      "мых": 7965,
      "ственно": 7966,
      "форми": 7967,
      "новре": 7968,
      "рого": 7969,
      " съ": 7970,
      " кино": 7971,
      " сокра": 7972,
      " сай": 7973,
      "Те": 7974,
      " августа": 7975,
      "22": 7976,
      "рию": 7977,
      "же,": 7978,
      "цов": 7979,
      " кры": 7980,
      " ито": 7981,
      " каждого": 7982,
      " Анг": 7983,
      "бов": 7984,
      " полови": 7985,
      "вшей": 7986,
      " становится": 7987,
      "кото": 7988,
      "лад": 7989,
      " to": 7990,
      " эмо": 7991,
      " работ": 7992,
      " видео": 7993,
      " выс": 7994,
      " Пе": 7995,
      "ство,": 7996,
      "зей": 7997,
      " декабря": 7998,
      " кана": 7999,
      " внутри": 8000,
      " ресур": 8001,
      "вы,": 8002,
      " Пред": 8003,
      "слав": 8004,
      "кой,": 8005,
      " название": 8006,
      "рыв": 8007,
      "туре": 8008,
      " смерти": 8009,
      " тяже": 8010,
      " Например,": 8011,
      "дий": 8012,
      " новые": 8013,
      "емокра": 8014,
      "8.": 8015,
      " представляет": 8016,
      "ri": 8017,
      " сами": 8018,
      " сет": 8019,
      "начала": 8020,
      "ницу": 8021,
      " кисло": 8022,
      "вания,": 8023,
      " заклю": 8024,
      " большой": 8025,
      "бран": 8026,
      "числен": 8027,
      " ноября": 8028,
      " людей,": 8029,
      "вода": 8030,
      "нский": 8031,
      " II": 8032,
      " перво": 8033,
      " интеллек": 8034,
      "ту,": 8035,
      " комплек": 8036,
      " биз": 8037,
      " близ": 8038,
      "ers": 8039,
      " предполага": 8040,
      " симво": 8041,
      " закры": 8042,
      "тивных": 8043,
      "рам": 8044,
      " неиз": 8045,
      " карти": 8046,
      "сор": 8047,
      "0,": 8048,
      "тере": 8049,
      " стратеги": 8050,
      " возможности": 8051,
      " государства": 8052,
      "тельность": 8053,
      " пожа": 8054,
      " приобре": 8055,
      " поряд": 8056,
      " яв": 8057,
      " превра": 8058,
      " Бы": 8059,
      " апреля": 8060,
      "рии,": 8061,
      " y": 8062,
      " 0,": 8063,
      " же,": 8064,
      "говор": 8065,
      " часов": 8066,
      " мало": 8067,
      " Фи": 8068,
      " воздей": 8069,
      " успеш": 8070,
      "бере": 8071,
      " институ": 8072,
      " сколько": 8073,
      "лимпи": 8074,
      " каса": 8075,
      "чай": 8076,
      "жает": 8077,
      " трех": 8078,
      " оде": 8079,
      " тысяч": 8080,
      " преступ": 8081,
      " золо": 8082,
      " расстоя": 8083,
      " глубо": 8084,
      " населения": 8085,
      " игры": 8086,
      " умер": 8087,
      " паци": 8088,
      "рее": 8089,
      " геро": 8090,
      "вшись": 8091,
      " фрон": 8092,
      " упра": 8093,
      " образ": 8094,
      " созна": 8095,
      ":\n\n1.": 8096,
      " ощу": 8097,
      " най": 8098,
      " стоимо": 8099,
      "Но": 8100,
      " запа": 8101,
      "поли": 8102,
      "рица": 8103,
      "рос": 8104,
      "жением": 8105,
      " отда": 8106,
      " тон": 8107,
      " дене": 8108,
      "ния.": 8109,
      ".\n\"": 8110,
      " (18": 8111,
      " преимущест": 8112,
      "ле,": 8113,
      "ков.": 8114,
      " уго": 8115,
      "шта": 8116,
      "ew": 8117,
      "дения": 8118,
      " поги": 8119,
      " рабочи": 8120,
      " процесс": 8121,
      "мор": 8122,
      "снов": 8123,
      "нам": 8124,
      "сред": 8125,
      "арь": 8126,
      " мл": 8127,
      "езд": 8128,
      " газ": 8129,
      "гно": 8130,
      " шо": 8131,
      " присут": 8132,
      " St": 8133,
      "кну": 8134,
      " ответствен": 8135,
      " прак": 8136,
      " Аль": 8137,
      " транспо": 8138,
      " ото": 8139,
      " отде": 8140,
      " городе": 8141,
      " журна": 8142,
      " Никола": 8143,
      "веро": 8144,
      " члено": 8145,
      " освобо": 8146,
      " использования": 8147,
      "ленных": 8148,
      "дри": 8149,
      " 190": 8150,
      " окружа": 8151,
      "нов,": 8152,
      " свиде": 8153,
      "ске": 8154,
      " кня": 8155,
      " проте": 8156,
      "жный": 8157,
      " филосо": 8158,
      "зован": 8159,
      " Амери": 8160,
      " другими": 8161,
      " цвет": 8162,
      "гли": 8163,
      " выбра": 8164,
      " нее": 8165,
      "те.": 8166,
      "тивные": 8167,
      "2,": 8168,
      " вообще": 8169,
      " жест": 8170,
      "стойчи": 8171,
      "принима": 8172,
      " Ша": 8173,
      "щую": 8174,
      " Влади": 8175,
      " возможно,": 8176,
      " президен": 8177,
      "цена": 8178,
      " промышлен": 8179,
      " что,": 8180,
      "):": 8181,
      " разно": 8182,
      " восста": 8183,
      "пуск": 8184,
      " году.": 8185,
      "ныне": 8186,
      " ква": 8187,
      " сю": 8188,
      "ссии": 8189,
      " катего": 8190,
      " рам": 8191,
      " макси": 8192,
      " ката": 8193,
      " ссы": 8194,
      " протя": 8195,
      "ствуют": 8196,
      "ников,": 8197,
      " февраля": 8198,
      " оружи": 8199,
      " тол": 8200,
      " слово": 8201,
      " гер": 8202,
      "лина": 8203,
      " Нью": 8204,
      "3,": 8205,
      "стория": 8206,
      " начал": 8207,
      "тил": 8208,
      "?\n-": 8209,
      "av": 8210,
      "мира": 8211,
      " крити": 8212,
      "пов": 8213,
      ".\nКак": 8214,
      "дут": 8215,
      "ционных": 8216,
      " существует": 8217,
      "лл": 8218,
      " род": 8219,
      " путе": 8220,
      "туру": 8221,
      " оказыва": 8222,
      " совмест": 8223,
      " яр": 8224,
      "няет": 8225,
      " пути": 8226,
      " карь": 8227,
      "25": 8228,
      "ст,": 8229,
      " беспо": 8230,
      " каза": 8231,
      " деятельности": 8232,
      " естествен": 8233,
      " войска": 8234,
      "Ли": 8235,
      " g": 8236,
      " напо": 8237,
      " одну": 8238,
      "льном": 8239,
      " коллек": 8240,
      "ностей": 8241,
      "отя": 8242,
      " довольно": 8243,
      "валась": 8244,
      " тро": 8245,
      "ентов": 8246,
      " своем": 8247,
      "огда": 8248,
      "ристо": 8249,
      "тива": 8250,
      ".\nЯ": 8251,
      "телей,": 8252,
      " года": 8253,
      "-П": 8254,
      "ливо": 8255,
      " отправи": 8256,
      "ными,": 8257,
      " 40": 8258,
      "телями": 8259,
      " че": 8260,
      " (о": 8261,
      " составе": 8262,
      "кор": 8263,
      " утвержда": 8264,
      " потеря": 8265,
      " такого": 8266,
      " соедин": 8267,
      " серьез": 8268,
      " холо": 8269,
      "ess": 8270,
      " худож": 8271,
      ".\nСо": 8272,
      " рез": 8273,
      " своими": 8274,
      " позд": 8275,
      " Ген": 8276,
      " выи": 8277,
      " Север": 8278,
      "новить": 8279,
      " вдо": 8280,
      " спу": 8281,
      "мон": 8282,
      "нице": 8283,
      " заяв": 8284,
      " Гу": 8285,
      " («": 8286,
      " воды": 8287,
      " показыва": 8288,
      "ями": 8289,
      " евре": 8290,
      " лу": 8291,
      " новый": 8292,
      "чено": 8293,
      " фон": 8294,
      " совершенно": 8295,
      "зывать": 8296,
      "ный,": 8297,
      " благодаря": 8298,
      "ce": 8299,
      " Чтобы": 8300,
      "ap": 8301,
      " гео": 8302,
      " //": 8303,
      " запад": 8304,
      " управля": 8305,
      " друга": 8306,
      "йтесь": 8307,
      " силы": 8308,
      " попа": 8309,
      "прос": 8310,
      " дво": 8311,
      " провер": 8312,
      " самым": 8313,
      "которые": 8314,
      " дальней": 8315,
      "навли": 8316,
      " фильма": 8317,
      "тельности": 8318,
      " индиви": 8319,
      " комна": 8320,
      " эпи": 8321,
      " Ча": 8322,
      " v": 8323,
      "ные,": 8324,
      " x": 8325,
      " студен": 8326,
      "ций,": 8327,
      "носи": 8328,
      " услу": 8329,
      " крас": 8330,
      " нашей": 8331,
      " выда": 8332,
      " культур": 8333,
      " настоящее": 8334,
      " цело": 8335,
      " время,": 8336,
      " Восто": 8337,
      " уничто": 8338,
      "тировать": 8339,
      "груз": 8340,
      "Ка": 8341,
      "рение": 8342,
      "com": 8343,
      " оте": 8344,
      "мая": 8345,
      ".\nНо": 8346,
      " языка": 8347,
      " ата": 8348,
      " сложно": 8349,
      " Эта": 8350,
      "ений.": 8351,
      "ктора": 8352,
      "ционной": 8353,
      "фри": 8354,
      "ме,": 8355,
      " спор": 8356,
      " трени": 8357,
      " микро": 8358,
      " стандар": 8359,
      "лами": 8360,
      "лях": 8361,
      " музыка": 8362,
      " единствен": 8363,
      " всю": 8364,
      " зависимости": 8365,
      "-А": 8366,
      "»\n": 8367,
      " i": 8368,
      " финансо": 8369,
      "жо": 8370,
      " това": 8371,
      "тельная": 8372,
      " угро": 8373,
      " четвер": 8374,
      "венно": 8375,
      " самого": 8376,
      "клады": 8377,
      "ский,": 8378,
      " месте": 8379,
      "9.": 8380,
      "тори": 8381,
      "гази": 8382,
      " привести": 8383,
      " доказа": 8384,
      " 23": 8385,
      " разру": 8386,
      "оте": 8387,
      " иногда": 8388,
      " арти": 8389,
      " импе": 8390,
      "нюю": 8391,
      " запре": 8392,
      " обсу": 8393,
      " Бра": 8394,
      ".\nЕсли": 8395,
      " ан": 8396,
      "ете,": 8397,
      " очередь": 8398,
      "юза": 8399,
      " **": 8400,
      " сек": 8401,
      "чности": 8402,
      "ющихся": 8403,
      " воору": 8404,
      " удалось": 8405,
      "приятия": 8406,
      " различные": 8407,
      " человек,": 8408,
      " заключа": 8409,
      ")\n\n": 8410,
      " неде": 8411,
      " случай": 8412,
      "ствовал": 8413,
      " Таким": 8414,
      " Зем": 8415,
      " избе": 8416,
      " торго": 8417,
      " награ": 8418,
      "ov": 8419,
      "емого": 8420,
      " отношении": 8421,
      ".\nАссистент:": 8422,
      " нес": 8423,
      " вокруг": 8424,
      " невоз": 8425,
      "гом": 8426,
      "сад": 8427,
      " влияние": 8428,
      "ленной": 8429,
      "вели": 8430,
      "лыша": 8431,
      " сна": 8432,
      "ческими": 8433,
      " Рес": 8434,
      " выбо": 8435,
      "пута": 8436,
      "руется": 8437,
      " плане": 8438,
      " информацию": 8439,
      "жить": 8440,
      "вил": 8441,
      "est": 8442,
      "тический": 8443,
      " значения": 8444,
      "редо": 8445,
      " плани": 8446,
      " разде": 8447,
      " уз": 8448,
      " годов": 8449,
      " см": 8450,
      "40": 8451,
      " той": 8452,
      " отказа": 8453,
      " секре": 8454,
      " первого": 8455,
      " Свя": 8456,
      " счет": 8457,
      " опубли": 8458,
      " проблема": 8459,
      "гло": 8460,
      " отмеча": 8461,
      " любой": 8462,
      "ind": 8463,
      "ква": 8464,
      "мар": 8465,
      " посвя": 8466,
      ".\nЗа": 8467,
      "бург": 8468,
      " 1,": 8469,
      " одном": 8470,
      "жей": 8471,
      " появля": 8472,
      "лем": 8473,
      " руководи": 8474,
      " числа": 8475,
      " 28": 8476,
      "щается": 8477,
      "гни": 8478,
      "рудо": 8479,
      "зирован": 8480,
      "торов": 8481,
      "руют": 8482,
      " сигна": 8483,
      " армии": 8484,
      " приз": 8485,
      " сторон": 8486,
      "тчи": 8487,
      ".\nПользователь:": 8488,
      " изобре": 8489,
      "ваны": 8490,
      "ленные": 8491,
      " дире": 8492,
      "цы,": 8493,
      "}{": 8494,
      " осуществля": 8495,
      " одновре": 8496,
      " поко": 8497,
      " \nВ": 8498,
      " вопросы": 8499,
      "ъек": 8500,
      " 21": 8501,
      " работать": 8502,
      "ения,": 8503,
      " создания": 8504,
      "цеп": 8505,
      " взаимодей": 8506,
      "тика": 8507,
      "вшая": 8508,
      " деву": 8509,
      "ходить": 8510,
      "стин": 8511,
      " XV": 8512,
      " состоит": 8513,
      "довлет": 8514,
      " коми": 8515,
      " создать": 8516,
      "спек": 8517,
      " Также": 8518,
      " мате": 8519,
      "еру": 8520,
      ".\n\nД": 8521,
      "лок": 8522,
      " культуры": 8523,
      " тай": 8524,
      " вклю": 8525,
      " рес": 8526,
      " 26": 8527,
      " Май": 8528,
      " пять": 8529,
      " ат": 8530,
      "валось": 8531,
      "сят": 8532,
      " множество": 8533,
      "сен": 8534,
      " тка": 8535,
      "лся,": 8536,
      "вез": 8537,
      " некото": 8538,
      " Велико": 8539,
      "ром,": 8540,
      "леко": 8541,
      "льзя": 8542,
      "тся,": 8543,
      "-м": 8544,
      "восто": 8545,
      " радио": 8546,
      " «Т": 8547,
      "ник,": 8548,
      "сед": 8549,
      " учеб": 8550,
      " желез": 8551,
      "ита": 8552,
      " сообщи": 8553,
      " Республи": 8554,
      " корпу": 8555,
      "гласно": 8556,
      "брита": 8557,
      "образо": 8558,
      " независимо": 8559,
      " модель": 8560,
      " делает": 8561,
      " настро": 8562,
      ".\nРа": 8563,
      "зже": 8564,
      "жного": 8565,
      " верх": 8566,
      " семей": 8567,
      " подвер": 8568,
      " 27": 8569,
      " Ге": 8570,
      "ec": 8571,
      "ном,": 8572,
      " совсем": 8573,
      " Ско": 8574,
      " циф": 8575,
      "frac": 8576,
      " фильм": 8577,
      " отмети": 8578,
      " :": 8579,
      "ол": 8580,
      " неда": 8581,
      "ля,": 8582,
      " Миха": 8583,
      "тым": 8584,
      "нте": 8585,
      "frac{": 8586,
      " ходе": 8587,
      " британ": 8588,
      " колле": 8589,
      " север": 8590,
      "щении": 8591,
      " И.": 8592,
      " лицо": 8593,
      " тебе": 8594,
      " Да,": 8595,
      " стату": 8596,
      "ab": 8597,
      " соответствии": 8598,
      "езда": 8599,
      "голь": 8600,
      "//": 8601,
      " применя": 8602,
      "4,": 8603,
      " прибли": 8604,
      " види": 8605,
      " вашего": 8606,
      " вспо": 8607,
      "зить": 8608,
      " вет": 8609,
      "анта": 8610,
      " фло": 8611,
      "ление,": 8612,
      " наши": 8613,
      " следующий": 8614,
      "рхи": 8615,
      " трен": 8616,
      " указыва": 8617,
      " практически": 8618,
      "енных": 8619,
      " относительно": 8620,
      "зор": 8621,
      " развитие": 8622,
      "60": 8623,
      " психи": 8624,
      " нового": 8625,
      " пото": 8626,
      "ist": 8627,
      " впервые": 8628,
      ".\nНе": 8629,
      " лица": 8630,
      " 2010": 8631,
      "200": 8632,
      "ub": 8633,
      "ско-": 8634,
      "вел": 8635,
      "чек": 8636,
      "спользу": 8637,
      " приходи": 8638,
      "вание,": 8639,
      "all": 8640,
      " тут": 8641,
      " ряд": 8642,
      " лет,": 8643,
      " целью": 8644,
      "e.": 8645,
      "лам": 8646,
      " каждой": 8647,
      "дан": 8648,
      " фра": 8649,
      " годах": 8650,
      "ровали": 8651,
      " контра": 8652,
      "няется": 8653,
      " предмет": 8654,
      "\nТ": 8655,
      "1)": 8656,
      "чность": 8657,
      "мь": 8658,
      " 1.": 8659,
      " th": 8660,
      "хе": 8661,
      " урав": 8662,
      " рекла": 8663,
      "\nНа": 8664,
      " тебя": 8665,
      " выгля": 8666,
      " непри": 8667,
      "ус": 8668,
      " приводит": 8669,
      " духов": 8670,
      " учены": 8671,
      " работе": 8672,
      " обви": 8673,
      "гну": 8674,
      " сыгра": 8675,
      "лло": 8676,
      "суль": 8677,
      " Y": 8678,
      " цели": 8679,
      "цей": 8680,
      "\nБ": 8681,
      " мировой": 8682,
      " кораб": 8683,
      "ступил": 8684,
      "шестви": 8685,
      " крови": 8686,
      "пода": 8687,
      " Затем": 8688,
      "никами": 8689,
      " Федера": 8690,
      " Джон": 8691,
      " непосред": 8692,
      " работает": 8693,
      " Великобрита": 8694,
      "тья": 8695,
      " употреб": 8696,
      ".\nПро": 8697,
      " убий": 8698,
      " профессиональ": 8699,
      "ссив": 8700,
      " свобод": 8701,
      " экспери": 8702,
      "ковой": 8703,
      "средо": 8704,
      " Япо": 8705,
      "ко,": 8706,
      " купи": 8707,
      " Лени": 8708,
      "боро": 8709,
      " импера": 8710,
      " церков": 8711,
      "гры": 8712,
      " человека,": 8713,
      " бю": 8714,
      " био": 8715,
      " ус": 8716,
      "джи": 8717,
      " турни": 8718,
      ".\nВо": 8719,
      " вместо": 8720,
      " исклю": 8721,
      "дио": 8722,
      "шед": 8723,
      " акаде": 8724,
      " XI": 8725,
      " посте": 8726,
      " сильно": 8727,
      " предложи": 8728,
      " оцени": 8729,
      "ционные": 8730,
      " постоянно": 8731,
      " основном": 8732,
      "сили": 8733,
      " губер": 8734,
      "били": 8735,
      " Чер": 8736,
      "тию": 8737,
      "тиви": 8738,
      " постав": 8739,
      " массо": 8740,
      " модели": 8741,
      " рассказа": 8742,
      "полне": 8743,
      "скоре": 8744,
      " Тем": 8745,
      "шему": 8746,
      "льчи": 8747,
      " \"С": 8748,
      "ника,": 8749,
      " Анд": 8750,
      "еты": 8751,
      "дами": 8752,
      "к-": 8753,
      " пользу": 8754,
      "ферен": 8755,
      " особен": 8756,
      " обрабо": 8757,
      "тации": 8758,
      " Сле": 8759,
      "мым": 8760,
      " ведь": 8761,
      "рони": 8762,
      " отрица": 8763,
      " правительство": 8764,
      ".\nЭ": 8765,
      "жай": 8766,
      " любы": 8767,
      " граждан": 8768,
      "тное": 8769,
      "гина": 8770,
      "печат": 8771,
      " индивиду": 8772,
      "чему": 8773,
      " кроме": 8774,
      " Российской": 8775,
      "``": 8776,
      " изо": 8777,
      " удо": 8778,
      "\nГ": 8779,
      " тен": 8780,
      " симпто": 8781,
      " программ": 8782,
      " кле": 8783,
      " условия": 8784,
      " осозна": 8785,
      " сотрудни": 8786,
      "Йор": 8787,
      "tp": 8788,
      "рги": 8789,
      " используется": 8790,
      "ства.": 8791,
      "21": 8792,
      " сцена": 8793,
      "телям": 8794,
      " Джей": 8795,
      "тивной": 8796,
      " Ту": 8797,
      "ав": 8798,
      "пан": 8799,
      "мый": 8800,
      "нее,": 8801,
      " мой": 8802,
      "стом": 8803,
      " прод": 8804,
      " Вто": 8805,
      " клет": 8806,
      ".\n2.": 8807,
      " 000": 8808,
      " Европы": 8809,
      " небольшо": 8810,
      " людя": 8811,
      " самой": 8812,
      " Че": 8813,
      " программы": 8814,
      "новь": 8815,
      "гото": 8816,
      " правило,": 8817,
      "юсь": 8818,
      " предложения": 8819,
      "нии.": 8820,
      "вшим": 8821,
      " упомина": 8822,
      " магази": 8823,
      " хими": 8824,
      "солют": 8825,
      " компания": 8826,
      "спользо": 8827,
      "зация": 8828,
      " гг.": 8829,
      " конструк": 8830,
      " условиях": 8831,
      " Джо": 8832,
      " водо": 8833,
      " новой": 8834,
      " вашей": 8835,
      "логии": 8836,
      " команды": 8837,
      " парт": 8838,
      "п.": 8839,
      " республи": 8840,
      "сти.": 8841,
      "чению": 8842,
      "\\[": 8843,
      " кило": 8844,
      "тесь": 8845,
      "чо": 8846,
      "нил": 8847,
      " силу": 8848,
      "ве,": 8849,
      " корот": 8850,
      " раза": 8851,
      "ана": 8852,
      "23": 8853,
      " другим": 8854,
      " европей": 8855,
      " безопасности": 8856,
      " добро": 8857,
      " первую": 8858,
      "ровки": 8859,
      " прожи": 8860,
      " мысли": 8861,
      "способ": 8862,
      "сной": 8863,
      "евич": 8864,
      " секу": 8865,
      "ющиеся": 8866,
      " роли": 8867,
      " упраж": 8868,
      " бело": 8869,
      " использование": 8870,
      " непре": 8871,
      "ственных": 8872,
      "5,": 8873,
      " подроб": 8874,
      " сро": 8875,
      "ard": 8876,
      " иностран": 8877,
      "стры": 8878,
      " жерт": 8879,
      "циони": 8880,
      ".\n\nБ": 8881,
      " скорость": 8882,
      " замет": 8883,
      "тивного": 8884,
      " район": 8885,
      " '": 8886,
      "тельно,": 8887,
      "чевид": 8888,
      "стях": 8889,
      " компози": 8890,
      " цвета": 8891,
      " доби": 8892,
      " «И": 8893,
      "s,": 8894,
      "вшиеся": 8895,
      " Нью-": 8896,
      " 60": 8897,
      " Цент": 8898,
      " «Г": 8899,
      " кос": 8900,
      " солда": 8901,
      " тому": 8902,
      "нему": 8903,
      "лог": 8904,
      " образования": 8905,
      "--------": 8906,
      " уверен": 8907,
      "б-": 8908,
      " конца": 8909,
      " еже": 8910,
      "вос": 8911,
      " Бар": 8912,
      " нер": 8913,
      "мести": 8914,
      " партии": 8915,
      " зависи": 8916,
      " учиты": 8917,
      "тили": 8918,
      " удовлет": 8919,
      " недостато": 8920,
      "тная": 8921,
      "ev": 8922,
      "во,": 8923,
      " коле": 8924,
      "сам": 8925,
      "шёл": 8926,
      "фон": 8927,
      "ланд": 8928,
      " потенциаль": 8929,
      " повре": 8930,
      "кин": 8931,
      "дова": 8932,
      "80": 8933,
      " (С": 8934,
      " автор": 8935,
      ".\nЧ": 8936,
      "III": 8937,
      " опти": 8938,
      " рядом": 8939,
      " аэ": 8940,
      " орден": 8941,
      " высоко": 8942,
      " основан": 8943,
      " демон": 8944,
      " 189": 8945,
      " включает": 8946,
      ".\nЛ": 8947,
      "цев,": 8948,
      "клон": 8949,
      ".\nВы": 8950,
      " рамках": 8951,
      " кого": 8952,
      "ёх": 8953,
      "чё": 8954,
      "-лет": 8955,
      "ным.": 8956,
      " судь": 8957,
      " полно": 8958,
      " длин": 8959,
      " 2014": 8960,
      "тором": 8961,
      " назад": 8962,
      "ссия": 8963,
      " сочета": 8964,
      " общества": 8965,
      " тю": 8966,
      " систему": 8967,
      " появ": 8968,
      " обучения": 8969,
      " скры": 8970,
      " ранее": 8971,
      "ристиан": 8972,
      "тельную": 8973,
      " количества": 8974,
      " книги": 8975,
      " япо": 8976,
      ".\n\n2.": 8977,
      " сф": 8978,
      "тия,": 8979,
      " логи": 8980,
      " зу": 8981,
      "ОН": 8982,
      "вшихся": 8983,
      "ak": 8984,
      "тке": 8985,
      " реда": 8986,
      "ных,": 8987,
      "og": 8988,
      "дах": 8989,
      " дивизи": 8990,
      " последние": 8991,
      " предна": 8992,
      " двумя": 8993,
      "6,": 8994,
      " покры": 8995,
      "лимпий": 8996,
      " китай": 8997,
      "рец": 8998,
      " дис": 8999,
      " ними": 9000,
      ".\nФ": 9001,
      "цами": 9002,
      " самостоя": 9003,
      " Н.": 9004,
      "тивный": 9005,
      " законо": 9006,
      "ww": 9007,
      "все": 9008,
      " учени": 9009,
      "пет": 9010,
      " зара": 9011,
      "ложении": 9012,
      "qu": 9013,
      "рить": 9014,
      " ниже": 9015,
      "зом": 9016,
      "тения": 9017,
      " иска": 9018,
      "2)": 9019,
      " готов": 9020,
      ".\nЕ": 9021,
      " канди": 9022,
      "дил": 9023,
      "ну.": 9024,
      " любов": 9025,
      "нного": 9026,
      " предложение": 9027,
      "оро": 9028,
      " формы": 9029,
      " удоб": 9030,
      " страда": 9031,
      " 2009": 9032,
      "луй": 9033,
      "лег": 9034,
      "if": 9035,
      " л": 9036,
      "Теперь": 9037,
      "писи": 9038,
      " содержит": 9039,
      " позна": 9040,
      "чис": 9041,
      " частью": 9042,
      "our": 9043,
      " добав": 9044,
      "ционного": 9045,
      "pp": 9046,
      " восстанов": 9047,
      " перево": 9048,
      "-по": 9049,
      "зон": 9050,
      " образу": 9051,
      " забы": 9052,
      "енные": 9053,
      " сня": 9054,
      "дыду": 9055,
      " Есть": 9056,
      "ондо": 9057,
      "средото": 9058,
      " празд": 9059,
      "дете": 9060,
      " тому,": 9061,
      "ющем": 9062,
      " выну": 9063,
      "ственной": 9064,
      " вновь": 9065,
      "ллю": 9066,
      " пят": 9067,
      " идет": 9068,
      " нельзя": 9069,
      "мую": 9070,
      "дня": 9071,
      " вполне": 9072,
      "ться.": 9073,
      "говори": 9074,
      " выигра": 9075,
      "ленный": 9076,
      "йо": 9077,
      " r": 9078,
      "://": 9079,
      "твра": 9080,
      "терна": 9081,
      "вов": 9082,
      "ньше": 9083,
      " кресть": 9084,
      " препара": 9085,
      "править": 9086,
      " максима": 9087,
      " зе": 9088,
      " характеристи": 9089,
      " Оте": 9090,
      "ств,": 9091,
      " уника": 9092,
      "зья": 9093,
      " моря": 9094,
      " функции": 9095,
      " Нес": 9096,
      "з,": 9097,
      "art": 9098,
      "рис": 9099,
      ".\nЭто": 9100,
      ");": 9101,
      " 2013": 9102,
      " меда": 9103,
      " чрез": 9104,
      " с.": 9105,
      " середи": 9106,
      "-3": 9107,
      "ort": 9108,
      " распреде": 9109,
      " одновременно": 9110,
      " положение": 9111,
      " сх": 9112,
      " ваши": 9113,
      " упа": 9114,
      " Между": 9115,
      "тической": 9116,
      " события": 9117,
      " реша": 9118,
      " кандида": 9119,
      "га.": 9120,
      " веду": 9121,
      " следующие": 9122,
      " отвеча": 9123,
      ".\n\n3.": 9124,
      " язык": 9125,
      "лов,": 9126,
      "довательно,": 9127,
      ".\n–": 9128,
      " согласно": 9129,
      " это,": 9130,
      " покупа": 9131,
      " устойчи": 9132,
      " эпо": 9133,
      "блиоте": 9134,
      "Чтобы": 9135,
      "сив": 9136,
      "ам": 9137,
      " другу": 9138,
      "щать": 9139,
      "сколько": 9140,
      "город": 9141,
      "мия": 9142,
      " Хотя": 9143,
      " значительно": 9144,
      " 2008": 9145,
      " выбор": 9146,
      "ру,": 9147,
      " дать": 9148,
      " десяти": 9149,
      " правительства": 9150,
      " проявля": 9151,
      "мера": 9152,
      "чи,": 9153,
      " аппара": 9154,
      " протяжении": 9155,
      " 2012": 9156,
      "НИ": 9157,
      " зло": 9158,
      " согласи": 9159,
      " предпоч": 9160,
      "ний,": 9161,
      " данным": 9162,
      " большинство": 9163,
      " раньше": 9164,
      " первых": 9165,
      " продолжи": 9166,
      "ill": 9167,
      " ныне": 9168,
      "ду.": 9169,
      " меро": 9170,
      " пересе": 9171,
      " конфлик": 9172,
      " весьма": 9173,
      " Поль": 9174,
      "дам": 9175,
      " получен": 9176,
      "графии": 9177,
      "45": 9178,
      " Сто": 9179,
      " сом": 9180,
      " Кор": 9181,
      " 29": 9182,
      " Чи": 9183,
      " деятельность": 9184,
      " лечения": 9185,
      " поки": 9186,
      " предотвра": 9187,
      "ногие": 9188,
      " присо": 9189,
      " невозможно": 9190,
      " раство": 9191,
      " столи": 9192,
      " речь": 9193,
      "кли": 9194,
      " прото": 9195,
      " бума": 9196,
      "вых,": 9197,
      "гут": 9198,
      "].": 9199,
      " фигу": 9200,
      "циях": 9201,
      " пиш": 9202,
      "эр": 9203,
      " тех,": 9204,
      " предостав": 9205,
      " Тур": 9206,
      " тела": 9207,
      "баль": 9208,
      "стями": 9209,
      " запо": 9210,
      " процесса": 9211,
      "стров": 9212,
      " отвер": 9213,
      "ord": 9214,
      " соба": 9215,
      "смотря": 9216,
      " знамени": 9217,
      "бар": 9218,
      "цес": 9219,
      "ками,": 9220,
      " пяти": 9221,
      " плохо": 9222,
      " сети": 9223,
      "пят": 9224,
      "ная,": 9225,
      "пущен": 9226,
      " церкви": 9227,
      " Дже": 9228,
      " самый": 9229,
      " Ио": 9230,
      " сопрово": 9231,
      "ко-": 9232,
      " началь": 9233,
      " жизни,": 9234,
      "сточ": 9235,
      " связь": 9236,
      " состави": 9237,
      " своему": 9238,
      " демокра": 9239,
      " трав": 9240,
      " производства": 9241,
      " Коро": 9242,
      " гаран": 9243,
      " транс": 9244,
      " список": 9245,
      " состояние": 9246,
      " религиоз": 9247,
      " подня": 9248,
      " дает": 9249,
      "рома": 9250,
      "хождения": 9251,
      " относится": 9252,
      " подума": 9253,
      "жным": 9254,
      " работал": 9255,
      " домаш": 9256,
      "чными": 9257,
      " re": 9258,
      "ляции": 9259,
      " (и": 9260,
      " носи": 9261,
      " привы": 9262,
      "едини": 9263,
      "цем": 9264,
      "лава": 9265,
      "кса": 9266,
      " ниж": 9267,
      " относя": 9268,
      "nd": 9269,
      " помощь": 9270,
      " 2011": 9271,
      "цер": 9272,
      "енти": 9273,
      " ше": 9274,
      " объедин": 9275,
      "жений": 9276,
      "eb": 9277,
      " животных": 9278,
      "s.": 9279,
      " союз": 9280,
      "бина": 9281,
      "-М": 9282,
      " замеча": 9283,
      "ik": 9284,
      " президент": 9285,
      "надца": 9286,
      " неф": 9287,
      "Ша": 9288,
      " времени,": 9289,
      "тным": 9290,
      "рем": 9291,
      " путем": 9292,
      " \\)": 9293,
      " рассказыва": 9294,
      "аким": 9295,
      " сказать,": 9296,
      " общее": 9297,
      "еси": 9298,
      "вили": 9299,
      " Ну": 9300,
      " XX": 9301,
      " --": 9302,
      " индивидуаль": 9303,
      " сил": 9304,
      " тво": 9305,
      "гар": 9306,
      ".\nДля": 9307,
      "ой": 9308,
      "гой": 9309,
      "\nУ": 9310,
      " хочет": 9311,
      " украин": 9312,
      " поддержа": 9313,
      " точно": 9314,
      "гент": 9315,
      "рас": 9316,
      " наших": 9317,
      " навы": 9318,
      "град": 9319,
      " выход": 9320,
      " теа": 9321,
      "ума": 9322,
      " досто": 9323,
      "вать,": 9324,
      " учре": 9325,
      "хом": 9326,
      " предела": 9327,
      " частности,": 9328,
      "днако": 9329,
      " предыду": 9330,
      "24": 9331,
      " несмотря": 9332,
      " общей": 9333,
      " сначала": 9334,
      " 2.": 9335,
      " университета": 9336,
      " удар": 9337,
      " бит": 9338,
      " Ива": 9339,
      " путь": 9340,
      "хот": 9341,
      " стороны,": 9342,
      " проблем": 9343,
      "ook": 9344,
      " отлич": 9345,
      "раздо": 9346,
      " цар": 9347,
      " состоянии": 9348,
      "ха,": 9349,
      " рода": 9350,
      " регуляр": 9351,
      " Дру": 9352,
      " концеп": 9353,
      "центра": 9354,
      " Москов": 9355,
      "ография": 9356,
      "дать": 9357,
      "филь": 9358,
      "чку": 9359,
      "эт": 9360,
      "рко": 9361,
      "чно-": 9362,
      " серд": 9363,
      " зависит": 9364,
      " выска": 9365,
      " Пари": 9366,
      " эко": 9367,
      "изво": 9368,
      " Ги": 9369,
      " женщин": 9370,
      "дят": 9371,
      " команди": 9372,
      " насто": 9373,
      " дом": 9374,
      ".\n\nТ": 9375,
      " Ты": 9376,
      " социальных": 9377,
      " скорее": 9378,
      " возрасте": 9379,
      " 2007": 9380,
      " мальчи": 9381,
      " обнару": 9382,
      " контек": 9383,
      " самое": 9384,
      " думаю,": 9385,
      "тальян": 9386,
      " здоро": 9387,
      " паль": 9388,
      " форме": 9389,
      "^2": 9390,
      " ключе": 9391,
      " руки": 9392,
      " процессе": 9393,
      " поля": 9394,
      " держа": 9395,
      " первым": 9396,
      "одо": 9397,
      " провин": 9398,
      " стреми": 9399,
      " Лондо": 9400,
      "пози": 9401,
      " \\frac{": 9402,
      "нера": 9403,
      " краси": 9404,
      " размер": 9405,
      " увели": 9406,
      " голов": 9407,
      " всего,": 9408,
      " оборудо": 9409,
      "ву,": 9410,
      "75": 9411,
      ".\n3.": 9412,
      " поль": 9413,
      " сообщест": 9414,
      " подписа": 9415,
      " тепло": 9416,
      " боя": 9417,
      " тело": 9418,
      " Бело": 9419,
      "конец,": 9420,
      " плат": 9421,
      " гло": 9422,
      " обеспечения": 9423,
      "лайн": 9424,
      " вещи": 9425,
      " сосредото": 9426,
      " план": 9427,
      "ей.": 9428,
      " хочу": 9429,
      " лет.": 9430,
      " Им": 9431,
      " прос": 9432,
      " просты": 9433,
      " реки": 9434,
      " уровне": 9435,
      "лер": 9436,
      " %": 9437,
      "ждая": 9438,
      " Ал": 9439,
      " испыта": 9440,
      "смотреть": 9441,
      " \"М": 9442,
      " языке": 9443,
      " данной": 9444,
      "ТО": 9445,
      " гипо": 9446,
      " исключи": 9447,
      " электри": 9448,
      " гон": 9449,
      ");\n": 9450,
      " никто": 9451,
      " куда": 9452,
      "жению": 9453,
      "ос": 9454,
      " for": 9455,
      "чена": 9456,
      " совершен": 9457,
      "гать": 9458,
      "хан": 9459,
      " корре": 9460,
      " средств": 9461,
      "мана": 9462,
      " чаще": 9463,
      "нести": 9464,
      "ение,": 9465,
      "дных": 9466,
      " вече": 9467,
      "нин": 9468,
      "ревно": 9469,
      " последователь": 9470,
      ":\nАссистент:": 9471,
      " пережи": 9472,
      " последу": 9473,
      " смотре": 9474,
      "\nФ": 9475,
      " военно": 9476,
      " ца": 9477,
      " тера": 9478,
      " усили": 9479,
      " переме": 9480,
      " выбора": 9481,
      " Каза": 9482,
      " посо": 9483,
      "обе": 9484,
      "за,": 9485,
      ".\n\n4.": 9486,
      "речи": 9487,
      "хар": 9488,
      " достижения": 9489,
      " обрати": 9490,
      " обстоя": 9491,
      "мотря": 9492,
      "-а": 9493,
      "лова": 9494,
      "ди,": 9495,
      " Вен": 9496,
      "льными": 9497,
      " первые": 9498,
      " получения": 9499,
      " измер": 9500,
      " 2015": 9501,
      "ковых": 9502,
      "ционный": 9503,
      " архитек": 9504,
      " Франции": 9505,
      " миллионов": 9506,
      " k": 9507,
      "тех": 9508,
      " игру": 9509,
      "зировать": 9510,
      " названием": 9511,
      " школы": 9512,
      " сайте": 9513,
      " Здесь": 9514,
      " альбо": 9515,
      " 2,": 9516,
      "лиру": 9517,
      "начально": 9518,
      "ant": 9519,
      " впечат": 9520,
      " Й": 9521,
      "денти": 9522,
      "вла": 9523,
      " Мне": 9524,
      " аре": 9525,
      " посети": 9526,
      " ини": 9527,
      "зия": 9528,
      " Запад": 9529,
      "стр": 9530,
      " приш": 9531,
      " очи": 9532,
      " ге": 9533,
      " Ch": 9534,
      " командо": 9535,
      " разные": 9536,
      " паро": 9537,
      " описы": 9538,
      " класса": 9539,
      "-я": 9540,
      " теории": 9541,
      " людь": 9542,
      " гораздо": 9543,
      " километ": 9544,
      "7,": 9545,
      " Пра": 9546,
      " хва": 9547,
      "роде": 9548,
      "жная": 9549,
      "70": 9550,
      "деб": 9551,
      " пригла": 9552,
      "ябре": 9553,
      " полага": 9554,
      " «Л": 9555,
      " терро": 9556,
      " Некоторые": 9557,
      "вича": 9558,
      " сделал": 9559,
      " история": 9560,
      " Изра": 9561,
      "мимо": 9562,
      " \\]": 9563,
      " печа": 9564,
      "8,": 9565,
      "лись,": 9566,
      "ie": 9567,
      " теку": 9568,
      " движение": 9569,
      " бом": 9570,
      " северо": 9571,
      "ступления": 9572,
      " трудно": 9573,
      " посред": 9574,
      " заболевания": 9575,
      " опублико": 9576,
      " означает,": 9577,
      ".\nОт": 9578,
      " хотел": 9579,
      " выяс": 9580,
      " исче": 9581,
      " момен": 9582,
      "бка": 9583,
      " пой": 9584,
      " основных": 9585,
      " графи": 9586,
      "емся": 9587,
      " ассо": 9588,
      "пти": 9589,
      "щему": 9590,
      " Мон": 9591,
      "работа": 9592,
      " Германии": 9593,
      " оз": 9594,
      " г.": 9595,
      "-1": 9596,
      "жены": 9597,
      "рина": 9598,
      " \"В": 9599,
      " фер": 9600,
      " компонен": 9601,
      " продви": 9602,
      "меня": 9603,
      "ждении": 9604,
      "смотри": 9605,
      " предназна": 9606,
      " %": 9607,
      "бай": 9608,
      "ходов": 9609,
      " лекар": 9610,
      " Нью-Йор": 9611,
      "лировать": 9612,
      " большое": 9613,
      " обязательно": 9614,
      " абсолют": 9615,
      " прид": 9616,
      " психологи": 9617,
      "сю": 9618,
      " чувство": 9619,
      " Зна": 9620,
      " 2000": 9621,
      " подчер": 9622,
      "щихся": 9623,
      " (у": 9624,
      "пя": 9625,
      " Дэ": 9626,
      " сказать": 9627,
      " 2016": 9628,
      "лья": 9629,
      "лах": 9630,
      " его,": 9631,
      "коми": 9632,
      "рованных": 9633,
      " первом": 9634,
      " результаты": 9635,
      " нега": 9636,
      " помогает": 9637,
      " находятся": 9638,
      "пар": 9639,
      " стране": 9640,
      "послед": 9641,
      " № ": 9642,
      " деньги": 9643,
      "ction": 9644,
      "так,": 9645,
      " ува": 9646,
      " угле": 9647,
      " РФ": 9648,
      " противопо": 9649,
      " сохран": 9650,
      " (например,": 9651,
      " цве": 9652,
      " препода": 9653,
      " фир": 9654,
      " увидеть": 9655,
      " инвести": 9656,
      " начали": 9657,
      " Теперь": 9658,
      "ной.": 9659,
      " осуществ": 9660,
      " опыт": 9661,
      "сами": 9662,
      " видов": 9663,
      "лив": 9664,
      " Тогда": 9665,
      "де.": 9666,
      "мос": 9667,
      "зиру": 9668,
      " <": 9669,
      "эм": 9670,
      "кой.": 9671,
      "ность.": 9672,
      " правильно": 9673,
      "ина": 9674,
      " которому": 9675,
      " нена": 9676,
      " ид": 9677,
      "ри,": 9678,
      " затра": 9679,
      "гам": 9680,
      "se": 9681,
      "шек": 9682,
      "вес": 9683,
      " парамет": 9684,
      " сравнению": 9685,
      " нуж": 9686,
      " сторону": 9687,
      " реа": 9688,
      "тку": 9689,
      "леку": 9690,
      " году": 9691,
      " парла": 9692,
      " итоге": 9693,
      " журнали": 9694,
      " напи": 9695,
      "силь": 9696,
      " сих": 9697,
      " имен": 9698,
      "сылки": 9699,
      "33": 9700,
      " осве": 9701,
      " Шта": 9702,
      " возгла": 9703,
      " располага": 9704,
      " фина": 9705,
      "нских": 9706,
      " учё": 9707,
      " парти": 9708,
      " статьи": 9709,
      " всему": 9710,
      "ight": 9711,
      "ётся": 9712,
      "шите": 9713,
      " Гре": 9714,
      "рик": 9715,
      " случаях": 9716,
      " лож": 9717,
      " распростра": 9718,
      " дальше": 9719,
      " ужа": 9720,
      " стары": 9721,
      " завое": 9722,
      " величи": 9723,
      " оке": 9724,
      " исход": 9725,
      " библиоте": 9726,
      ".com": 9727,
      " художествен": 9728,
      "ine": 9729,
      " инжен": 9730,
      " Аб": 9731,
      " посла": 9732,
      " линии": 9733,
      "ходили": 9734,
      " испыты": 9735,
      "нили": 9736,
      "шими": 9737,
      " Коне": 9738,
      "зы,": 9739,
      " 2006": 9740,
      " США,": 9741,
      "ell": 9742,
      " Пар": 9743,
      " Государ": 9744,
      "кер": 9745,
      " намер": 9746,
      " гри": 9747,
      " говорить": 9748,
      " обязан": 9749,
      "лите": 9750,
      "пора": 9751,
      "тием": 9752,
      " бой": 9753,
      " деревня": 9754,
      " табли": 9755,
      " суд": 9756,
      "ходил": 9757,
      " требует": 9758,
      " стоимость": 9759,
      "новения": 9760,
      " дыха": 9761,
      " стара": 9762,
      "-С": 9763,
      "шению": 9764,
      " случае,": 9765,
      " Рас": 9766,
      " большую": 9767,
      "тологи": 9768,
      " безу": 9769,
      " Прави": 9770,
      " больше,": 9771,
      " вни": 9772,
      " пост": 9773,
      " очевид": 9774,
      "гами": 9775,
      ".\nПосле": 9776,
      " рекоменду": 9777,
      " наш": 9778,
      "ма.": 9779,
      " родился": 9780,
      "вшийся": 9781,
      "ществу": 9782,
      "лым": 9783,
      "енок": 9784,
      "чин": 9785,
      "писко": 9786,
      " получили": 9787,
      " ль": 9788,
      " спорт": 9789,
      " обеспечить": 9790,
      "99": 9791,
      " тыс.": 9792,
      "ствием": 9793,
      "оль": 9794,
      "тник": 9795,
      "чёт": 9796,
      "цеду": 9797,
      " отношение": 9798,
      " Нор": 9799,
      " привлека": 9800,
      " меч": 9801,
      "ней,": 9802,
      " сверх": 9803,
      "гает": 9804,
      " стен": 9805,
      "рованы": 9806,
      "ждён": 9807,
      " документа": 9808,
      "ющийся": 9809,
      "мах": 9810,
      "ob": 9811,
      " объяви": 9812,
      " вероятно,": 9813,
      " которыми": 9814,
      "78": 9815,
      "28": 9816,
      " центр": 9817,
      " Гри": 9818,
      " многочислен": 9819,
      "нная": 9820,
      "бы,": 9821,
      " нрави": 9822,
      "теля,": 9823,
      " одинако": 9824,
      "дже": 9825,
      " имел": 9826,
      " означает": 9827,
      "ast": 9828,
      "нос": 9829,
      " заключается": 9830,
      " позже": 9831,
      "эль": 9832,
      " хотите": 9833,
      " юри": 9834,
      " другом": 9835,
      " член": 9836,
      " законода": 9837,
      "гей": 9838,
      " \\t": 9839,
      ".\n\nГ": 9840,
      "ud": 9841,
      " комите": 9842,
      "сия": 9843,
      " каких": 9844,
      "страи": 9845,
      " используя": 9846,
      "тр": 9847,
      " неделю": 9848,
      " спокой": 9849,
      "тое": 9850,
      ".\nХ": 9851,
      "66": 9852,
      "зре": 9853,
      " убеди": 9854,
      "гроки": 9855,
      "мере": 9856,
      "ватели": 9857,
      " ими": 9858,
      " перемен": 9859,
      "ваясь": 9860,
      " юго": 9861,
      " сцен": 9862,
      " кампа": 9863,
      " другого": 9864,
      " касается": 9865,
      "ственные": 9866,
      " Соедин": 9867,
      " компьютер": 9868,
      " сове": 9869,
      " общего": 9870,
      " укреп": 9871,
      " вынужден": 9872,
      " сви": 9873,
      " друзья": 9874,
      "ления.": 9875,
      " Госпо": 9876,
      " Александр": 9877,
      "пенно": 9878,
      " сест": 9879,
      "лая": 9880,
      " войск": 9881,
      "int": 9882,
      " сообщения": 9883,
      " Союза": 9884,
      " федера": 9885,
      " главным": 9886,
      " море": 9887,
      " медлен": 9888,
      " 188": 9889,
      " команду": 9890,
      "сро": 9891,
      "куп": 9892,
      "суаль": 9893,
      " пище": 9894,
      " квадра": 9895,
      "ев,": 9896,
      " рекоменда": 9897,
      "мое": 9898,
      " Кры": 9899,
      "ели": 9900,
      " отличие": 9901,
      " впере": 9902,
      " рождения": 9903,
      " сообщает": 9904,
      "-восто": 9905,
      "СТ": 9906,
      "ле.": 9907,
      "берите": 9908,
      "ext": 9909,
      " (М": 9910,
      "гри": 9911,
      " быть,": 9912,
      "____": 9913,
      " Кана": 9914,
      " догово": 9915,
      "щаться": 9916,
      ".\nР": 9917,
      " XIX": 9918,
      " поста": 9919,
      "ang": 9920,
      "тельными": 9921,
      "рованные": 9922,
      "тисти": 9923,
      "циями": 9924,
      "чественной": 9925,
      " погиб": 9926,
      " пти": 9927,
      " предоставля": 9928,
      " энергии": 9929,
      " причина": 9930,
      "end": 9931,
      " роман": 9932,
      " Европе": 9933,
      " требования": 9934,
      " могла": 9935,
      "брь": 9936,
      ".\nТак": 9937,
      "шении": 9938,
      " действий": 9939,
      " сосу": 9940,
      "ева": 9941,
      " целе": 9942,
      "ал": 9943,
      "тную": 9944,
      "щена": 9945,
      " словам": 9946,
      "наче": 9947,
      "a,": 9948,
      " стиму": 9949,
      " мяг": 9950,
      " утра": 9951,
      " используют": 9952,
      " масшта": 9953,
      " экра": 9954,
      " Испа": 9955,
      "-К": 9956,
      " бизне": 9957,
      " блю": 9958,
      " Кита": 9959,
      " христиан": 9960,
      "ip": 9961,
      " особо": 9962,
      " станет": 9963,
      " поможет": 9964,
      " Гар": 9965,
      "спи": 9966,
      "страда": 9967,
      "нович": 9968,
      " Центра": 9969,
      " власть": 9970,
      "тую": 9971,
      " итальян": 9972,
      "можно,": 9973,
      " вд": 9974,
      " Использу": 9975,
      " данном": 9976,
      " крат": 9977,
      "щими": 9978,
      "емая": 9979,
      " Украины": 9980,
      "........": 9981,
      " писал": 9982,
      " элемента": 9983,
      " честь": 9984,
      "фикации": 9985,
      " выполня": 9986,
      " членов": 9987,
      " принять": 9988,
      " мастер": 9989,
      " метров": 9990,
      " гар": 9991,
      " попада": 9992,
      " соревно": 9993,
      " проз": 9994,
      " начинает": 9995,
      "пру": 9996,
      " менее,": 9997,
      " математи": 9998,
      "оны": 9999,
      " обслужи": 10000,
      " превы": 10001,
      "рии.": 10002,
      "сей": 10003,
      " нашего": 10004,
      " став": 10005,
      " поиска": 10006,
      "дом,": 10007,
      " 35": 10008,
      " молоды": 10009,
      "разу": 10010,
      " ребенка": 10011,
      "дение": 10012,
      "ряз": 10013,
      "чик": 10014,
      "луйста,": 10015,
      " целом": 10016,
      "ate": 10017,
      "жён": 10018,
      "это": 10019,
      "нику": 10020,
      "нец": 10021,
      "мов,": 10022,
      "сах": 10023,
      "ep": 10024,
      " ночь": 10025,
      " Их": 10026,
      " ам": 10027,
      " (20": 10028,
      " Именно": 10029,
      " инфек": 10030,
      " жидко": 10031,
      " госпо": 10032,
      "парта": 10033,
      " Интер": 10034,
      " on": 10035,
      " копи": 10036,
      " аэро": 10037,
      " начало": 10038,
      " называется": 10039,
      " раскры": 10040,
      " сопровожда": 10041,
      " Вам": 10042,
      " оба": 10043,
      " Роб": 10044,
      "гу,": 10045,
      " принадлежа": 10046,
      " монасты": 10047,
      "т-": 10048,
      " времена": 10049,
      " мыс": 10050,
      " карто": 10051,
      " определи": 10052,
      " автома": 10053,
      "лять": 10054,
      "26": 10055,
      "нце": 10056,
      "лай": 10057,
      " ще": 10058,
      " «По": 10059,
      "МИ": 10060,
      " момента": 10061,
      " экспер": 10062,
      " III": 10063,
      " торгов": 10064,
      "ственный": 10065,
      "рост": 10066,
      "3)": 10067,
      " Чем": 10068,
      "\n\nПо": 10069,
      " 2005": 10070,
      " защиты": 10071,
      " поводу": 10072,
      " П.": 10073,
      "imes": 10074,
      " напомина": 10075,
      " кол": 10076,
      "интере": 10077,
      " произошло": 10078,
      " др.": 10079,
      " смыс": 10080,
      " возраста": 10081,
      "чений": 10082,
      "ними": 10083,
      "кл": 10084,
      " кров": 10085,
      "вай": 10086,
      " какое": 10087,
      "телю": 10088,
      "том.": 10089,
      "род.": 10090,
      "indow": 10091,
      " данный": 10092,
      " избира": 10093,
      "есто": 10094,
      "нией": 10095,
      "пом": 10096,
      "стей,": 10097,
      " необходимости": 10098,
      "последствии": 10099,
      " Ново": 10100,
      "кле": 10101,
      "А.": 10102,
      "ел": 10103,
      " пропа": 10104,
      "\"\n": 10105,
      " в.": 10106,
      "ity": 10107,
      "ры.": 10108,
      " сан": 10109,
      "29": 10110,
      " зри": 10111,
      " иденти": 10112,
      "мей": 10113,
      " все,": 10114,
      " серде": 10115,
      " широко": 10116,
      "бви": 10117,
      " Фа": 10118,
      "-19": 10119,
      "кали": 10120,
      " зер": 10121,
      " давайте": 10122,
      " Каж": 10123,
      "фей": 10124,
      "»)": 10125,
      " прояв": 10126,
      " моей": 10127,
      " опро": 10128,
      " системе": 10129,
      " задача": 10130,
      " оригина": 10131,
      "тение": 10132,
      "-В": 10133,
      "ческому": 10134,
      "лча": 10135,
      " начать": 10136,
      " Среди": 10137,
      " крепо": 10138,
      " председа": 10139,
      "tp://": 10140,
      " устройства": 10141,
      " получила": 10142,
      " королев": 10143,
      " текст": 10144,
      "чит": 10145,
      " конечно,": 10146,
      " воздуш": 10147,
      " такая": 10148,
      " лично": 10149,
      " станов": 10150,
      " процеду": 10151,
      "-о": 10152,
      "дные": 10153,
      "ни.": 10154,
      " позволи": 10155,
      "ет.": 10156,
      "сии": 10157,
      " онлайн": 10158,
      "35": 10159,
      " никаких": 10160,
      " Ху": 10161,
      " субъек": 10162,
      " нему": 10163,
      " жизни.": 10164,
      " квар": 10165,
      " Ира": 10166,
      "кру": 10167,
      "44": 10168,
      " меж": 10169,
      " заме": 10170,
      "сист": 10171,
      " выделя": 10172,
      " st": 10173,
      " Националь": 10174,
      " операции": 10175,
      " проекта": 10176,
      " остается": 10177,
      " ситуации": 10178,
      " пришлось": 10179,
      " is": 10180,
      " Ман": 10181,
      " направлении": 10182,
      " желе": 10183,
      " Совета": 10184,
      " поведения": 10185,
      "ствовали": 10186,
      " центре": 10187,
      " победи": 10188,
      "кции": 10189,
      " \"К": 10190,
      " запро": 10191,
      " транспорт": 10192,
      " агре": 10193,
      " столь": 10194,
      " кризи": 10195,
      " лей": 10196,
      " дети": 10197,
      " поведение": 10198,
      "дор": 10199,
      "щён": 10200,
      "никам": 10201,
      " группе": 10202,
      " клуб": 10203,
      " беспла": 10204,
      " прио": 10205,
      " выбира": 10206,
      " 80": 10207,
      " методы": 10208,
      " выво": 10209,
      " качества": 10210,
      " дево": 10211,
      " коммента": 10212,
      " Кали": 10213,
      " атмос": 10214,
      " радо": 10215,
      " прин": 10216,
      " Гра": 10217,
      "честве": 10218,
      "бин": 10219,
      " Там": 10220,
      " настолько": 10221,
      " прием": 10222,
      "ром.": 10223,
      " месяцев": 10224,
      " живу": 10225,
      " рост": 10226,
      " шан": 10227,
      " историю": 10228,
      " приме": 10229,
      " 2004": 10230,
      " Г.": 10231,
      " Рус": 10232,
      " конкур": 10233,
      " Так,": 10234,
      "жения,": 10235,
      " 1941": 10236,
      " резер": 10237,
      " второго": 10238,
      "ила": 10239,
      " равна": 10240,
      "вано": 10241,
      " сын": 10242,
      "толи": 10243,
      "нении": 10244,
      " сердце": 10245,
      " выпуска": 10246,
      "ходы": 10247,
      " ближай": 10248,
      " Фор": 10249,
      " диза": 10250,
      " сообща": 10251,
      "ятся": 10252,
      " 500": 10253,
      " состояния": 10254,
      "етесь": 10255,
      "шил": 10256,
      ".\nКа": 10257,
      " рису": 10258,
      " потому,": 10259,
      "тона": 10260,
      " каким": 10261,
      " Поскольку": 10262,
      "жность": 10263,
      "уголь": 10264,
      "нике": 10265,
      " \"О": 10266,
      "вит": 10267,
      "-та": 10268,
      " Гор": 10269,
      " правитель": 10270,
      "емое": 10271,
      " приготов": 10272,
      " область": 10273,
      " неизвест": 10274,
      "пись": 10275,
      "ту.": 10276,
      " информация": 10277,
      " серии": 10278,
      "зин": 10279,
      "ково": 10280,
      "ц.": 10281,
      " 3.": 10282,
      " титу": 10283,
      " Однако,": 10284,
      " временем": 10285,
      ".\n\nМ": 10286,
      "ступление": 10287,
      " бак": 10288,
      " например": 10289,
      " преодо": 10290,
      "\nИгроки": 10291,
      "бил": 10292,
      "90": 10293,
      " видеть": 10294,
      " альтерна": 10295,
      "гности": 10296,
      " охра": 10297,
      "часть": 10298,
      " конкурен": 10299,
      " справед": 10300,
      "-Б": 10301,
      "етер": 10302,
      " кора": 10303,
      " страна": 10304,
      "плу": 10305,
      " e": 10306,
      " вариант": 10307,
      " сердца": 10308,
      "ноп": 10309,
      "рот": 10310,
      " свер": 10311,
      ".\n\n5.": 10312,
      "бес": 10313,
      " жел": 10314,
      ".ru": 10315,
      " будто": 10316,
      " Пор": 10317,
      " преобразо": 10318,
      " идеаль": 10319,
      "тики": 10320,
      " искусственного": 10321,
      "нулся": 10322,
      " самые": 10323,
      " назначен": 10324,
      "жите": 10325,
      " Глав": 10326,
      " ада": 10327,
      "поль": 10328,
      " произведения": 10329,
      "рованный": 10330,
      " бур": 10331,
      "жено": 10332,
      " президента": 10333,
      "дный": 10334,
      " Джа": 10335,
      " Второй": 10336,
      " бор": 10337,
      " слов": 10338,
      "бок": 10339,
      " острова": 10340,
      "36": 10341,
      " основные": 10342,
      "шан": 10343,
      " гвар": 10344,
      " театра": 10345,
      " изуча": 10346,
      " воск": 10347,
      " организ": 10348,
      " добавля": 10349,
      "шается": 10350,
      " свидетель": 10351,
      "мьер": 10352,
      " попыта": 10353,
      "шением": 10354,
      "гах": 10355,
      " сохрани": 10356,
      "ч.": 10357,
      " пом": 10358,
      "\nЧ": 10359,
      " силь": 10360,
      " \"Б": 10361,
      "митри": 10362,
      " (или": 10363,
      " теоре": 10364,
      "интересо": 10365,
      "нения,": 10366,
      "мани": 10367,
      " большей": 10368,
      " ауди": 10369,
      " используются": 10370,
      "джет": 10371,
      " вскоре": 10372,
      " поверхности": 10373,
      "ници": 10374,
      " он,": 10375,
      "гети": 10376,
      "тического": 10377,
      "are": 10378,
      " определить": 10379,
      " концентра": 10380,
      " аналоги": 10381,
      "ly": 10382,
      "лась,": 10383,
      " Афри": 10384,
      " повтор": 10385,
      " \"П": 10386,
      " служи": 10387,
      " гро": 10388,
      "ордина": 10389,
      " горя": 10390,
      " соответствует": 10391,
      "сай": 10392,
      " свойства": 10393,
      " называют": 10394,
      " сборной": 10395,
      " связано": 10396,
      "ib": 10397,
      "ковые": 10398,
      "нений": 10399,
      " кажется,": 10400,
      "бя,": 10401,
      "ники,": 10402,
      " перегово": 10403,
      " предприя": 10404,
      " семьи": 10405,
      " Л.": 10406,
      " след": 10407,
      " борьбы": 10408,
      " последний": 10409,
      "егодня": 10410,
      " мнению": 10411,
      " команда": 10412,
      " метод": 10413,
      " Ст": 10414,
      " Вмест": 10415,
      "мато": 10416,
      " ору": 10417,
      " моду": 10418,
      " (В": 10419,
      " 45": 10420,
      "рово": 10421,
      " аспек": 10422,
      " сопротив": 10423,
      " руб": 10424,
      " н.": 10425,
      "ive": 10426,
      " веб-": 10427,
      " принимать": 10428,
      " мел": 10429,
      " крупней": 10430,
      " Ком": 10431,
      " Международ": 10432,
      " насколько": 10433,
      "сторо": 10434,
      " жителей": 10435,
      " потреби": 10436,
      "зма,": 10437,
      "фу": 10438,
      " опу": 10439,
      " странах": 10440,
      " далее": 10441,
      "шку": 10442,
      " интен": 10443,
      " отношений": 10444,
      " общи": 10445,
      "\nВы": 10446,
      " ограничен": 10447,
      "РА": 10448,
      "риста": 10449,
      " Великой": 10450,
      " сказал,": 10451,
      " действу": 10452,
      " брон": 10453,
      " уто": 10454,
      " решил": 10455,
      "мы.": 10456,
      " основной": 10457,
      " роста": 10458,
      "СС": 10459,
      "-е": 10460,
      "ери": 10461,
      " Мэ": 10462,
      " соблю": 10463,
      " Фо": 10464,
      "27": 10465,
      "рат": 10466,
      " 186": 10467,
      "тивное": 10468,
      " люди,": 10469,
      " подраз": 10470,
      "ехал": 10471,
      " использованием": 10472,
      ".\n4.": 10473,
      " отды": 10474,
      " кто-то": 10475,
      " подчи": 10476,
      " образование": 10477,
[...]
