{
  "version": "1.0",
  "truncation": null,
  "padding": null,
  "added_tokens": [
    {
      "id": 0,
      "content": "[UNK]",
      "single_word": false,
      "lstrip": false,
      "rstrip": false,
      "normalized": false,
      "special": true
    },
    {
      "id": 1,
      "content": "[PAD]",
      "single_word": false,
      "lstrip": false,
      "rstrip": false,
      "normalized": false,
      "special": true
    },
    {
      "id": 2,
      "content": "[CLS]",
      "single_word": false,
      "lstrip": false,
      "rstrip": false,
      "normalized": false,
      "special": true
    },
    {
      "id": 3,
      "content": "[SEP]",
      "single_word": false,
      "lstrip": false,
      "rstrip": false,
      "normalized": false,
      "special": true
    }
  ],
  "normalizer": {
    "type": "NFC"
  },
  "pre_tokenizer": {
    "type": "Sequence",
    "pretokenizers": [
      {
        "type": "Split",
        "pattern": {
          "String": "\n"
        },
        "behavior": "Isolated",
        "invert": false
      },
      {
        "type": "Metaspace",
        "replacement": " ",
        "prepend_scheme": "always",
        "split": true
      }
    ]
  },
  "post_processor": null,
  "decoder": null,
  "model": {
    "type": "WordPiece",
    "unk_token": "[UNK]",
    "continuing_subword_prefix": "##",
    "max_input_chars_per_word": 100,
    "vocab": {
      "[UNK]": 0,
      "[PAD]": 1,
      "[CLS]": 2,
      "[SEP]": 3,
      "\t": 4,
      "\n": 5,
      " ": 6,
      "!": 7,
      "\"": 8,
      "#": 9,
      "$": 10,
      "%": 11,
      "&": 12,
      "'": 13,
      "(": 14,
      ")": 15,
      "*": 16,
      "+": 17,
      ",": 18,
      "-": 19,
      ".": 20,
      "/": 21,
      "0": 22,
      "1": 23,
      "2": 24,
      "3": 25,
      "4": 26,
      "5": 27,
      "6": 28,
      "7": 29,
      "8": 30,
      "9": 31,
      ":": 32,
      ";": 33,
      "<": 34,
      "=": 35,
      ">": 36,
      "?": 37,
      "@": 38,
      "A": 39,
      "B": 40,
      "C": 41,
      "D": 42,
      "E": 43,
      "F": 44,
      "G": 45,
      "H": 46,
      "I": 47,
      "J": 48,
      "K": 49,
      "L": 50,
      "M": 51,
      "N": 52,
      "O": 53,
      "P": 54,
      "Q": 55,
      "R": 56,
      "S": 57,
      "T": 58,
      "U": 59,
      "V": 60,
      "W": 61,
      "X": 62,
      "Y": 63,
      "Z": 64,
      "[": 65,
      "\\": 66,
      "]": 67,
      "^": 68,
      "_": 69,
      "`": 70,
      "a": 71,
      "b": 72,
      "c": 73,
      "d": 74,
      "e": 75,
      "f": 76,
      "g": 77,
      "h": 78,
      "i": 79,
      "j": 80,
      "k": 81,
      "l": 82,
      "m": 83,
      "n": 84,
      "o": 85,
      "p": 86,
      "q": 87,
      "r": 88,
      "s": 89,
      "t": 90,
      "u": 91,
      "v": 92,
      "w": 93,
      "x": 94,
      "y": 95,
      "z": 96,
      "{": 97,
      "|": 98,
      "}": 99,
      "~": 100,
      "": 101,
      "": 102,
      "": 103,
      " ": 104,
      "¡": 105,
      "¢": 106,
      "£": 107,
      "¤": 108,
      "¥": 109,
      "¦": 110,
      "§": 111,
      "¨": 112,
      "©": 113,
      "ª": 114,
      "«": 115,
      "¬": 116,
      "­": 117,
      "®": 118,
      "¯": 119,
      "°": 120,
      "±": 121,
      "²": 122,
      "³": 123,
      "´": 124,
      "µ": 125,
      "¶": 126,
      "·": 127,
      "¹": 128,
      "º": 129,
      "»": 130,
      "¼": 131,
      "½": 132,
      "¾": 133,
      "¿": 134,
      "Æ": 135,
      "Ð": 136,
      "×": 137,
      "Ø": 138,
      "Þ": 139,
      "ß": 140,
      "æ": 141,
      "ð": 142,
      "÷": 143,
      "ø": 144,
      "þ": 145,
      "Đ": 146,
      "đ": 147,
      "Ħ": 148,
      "ħ": 149,
      "ı": 150,
      "Ŀ": 151,
      "ŀ": 152,
      "Ł": 153,
      "ł": 154,
      "ŋ": 155,
      "Œ": 156,
      "œ": 157,
      "Ŧ": 158,
      "ſ": 159,
      "Ƅ": 160,
      "ƅ": 161,
      "Ɗ": 162,
      "Ǝ": 163,
      "Ə": 164,
      "ƒ": 165,
      "Ɣ": 166,
      "Ɩ": 167,
      "ƙ": 168,
      "ƛ": 169,
      "Ƭ": 170,
      "Ʒ": 171,
      "Ƹ": 172,
      "ƿ": 173,
      "ǀ": 174,
      "ǁ": 175,
      "ǂ": 176,
      "ǝ": 177,
      "ȝ": 178,
      "ȣ": 179,
      "Ȼ": 180,
      "ɂ": 181,
      "ɐ": 182,
      "ɑ": 183,
      "ɒ": 184,
      "ɔ": 185,
      "ɕ": 186,
      "ɗ": 187,
      "ə": 188,
      "ɛ": 189,
      "ɜ": 190,
      "ɡ": 191,
      "ɣ": 192,
      "ɦ": 193,
      "ɧ": 194,
      "ɨ": 195,
      "ɪ": 196,
      "ɫ": 197,
      "ɬ": 198,
      "ɯ": 199,
      "ɲ": 200,
      "ɵ": 201,
      "ɹ": 202,
      "ɻ": 203,
      "ɾ": 204,
      "ʁ": 205,
      "ʃ": 206,
      "ʉ": 207,
      "ʊ": 208,
      "ʌ": 209,
      "ʎ": 210,
      "ʏ": 211,
      "ʒ": 212,
      "ʔ": 213,
      "ʕ": 214,
      "ʝ": 215,
      "ʟ": 216,
      "ʰ": 217,
      "ʱ": 218,
      "ʲ": 219,
      "ʷ": 220,
      "ʹ": 221,
      "ʺ": 222,
      "ʻ": 223,
      "ʽ": 224,
      "ʾ": 225,
      "ʿ": 226,
      "ˀ": 227,
      "˄": 228,
      "˅": 229,
      "ˆ": 230,
      "ˇ": 231,
      "ˈ": 232,
      "ˌ": 233,
      "ː": 234,
      "˚": 235,
      "˛": 236,
      "˜": 237,
      "˝": 238,
      "ˠ": 239,
      "˥": 240,
      "˦": 241,
      "˧": 242,
      "˨": 243,
      "˩": 244,
      "ˮ": 245,
      "˹": 246,
      "˺": 247,
      "΄": 248,
      "Α": 249,
      "Β": 250,
      "Γ": 251,
      "Δ": 252,
      "Ε": 253,
      "Ζ": 254,
      "Η": 255,
      "Θ": 256,
      "Ι": 257,
      "Κ": 258,
      "Λ": 259,
      "Μ": 260,
      "Ν": 261,
      "Ξ": 262,
      "Ο": 263,
      "Π": 264,
      "Ρ": 265,
      "Σ": 266,
      "Τ": 267,
      "Υ": 268,
      "Φ": 269,
      "Χ": 270,
      "Ψ": 271,
      "Ω": 272,
      "α": 273,
      "β": 274,
      "γ": 275,
      "δ": 276,
      "ε": 277,
      "ζ": 278,
      "η": 279,
      "θ": 280,
      "ι": 281,
      "κ": 282,
      "λ": 283,
      "μ": 284,
      "ν": 285,
      "ξ": 286,
      "ο": 287,
      "π": 288,
      "ρ": 289,
      "ς": 290,
      "σ": 291,
      "τ": 292,
      "υ": 293,
      "φ": 294,
      "χ": 295,
      "ψ": 296,
      "ω": 297,
      "ϑ": 298,
      "ϕ": 299,
      "Ϝ": 300,
      "Ϣ": 301,
      "Ϫ": 302,
      "ϲ": 303,
      "ϳ": 304,
      "ϵ": 305,
      "Ϲ": 306,
      "ϻ": 307,
      "Ђ": 308,
      "Є": 309,
      "Ѕ": 310,
      "І": 311,
      "Ј": 312,
      "Ћ": 313,
      "А": 314,
      "Б": 315,
      "В": 316,
      "Г": 317,
      "Д": 318,
      "Е": 319,
      "Ж": 320,
      "З": 321,
      "И": 322,
      "К": 323,
      "Л": 324,
      "М": 325,
      "Н": 326,
      "О": 327,
      "П": 328,
      "Р": 329,
      "С": 330,
      "Т": 331,
      "У": 332,
      "Ф": 333,
      "Х": 334,
      "Ц": 335,
      "Ч": 336,
      "Ш": 337,
      "Щ": 338,
      "Ы": 339,
      "Ь": 340,
      "Э": 341,
      "Ю": 342,
      "Я": 343,
      "а": 344,
      "б": 345,
      "в": 346,
      "г": 347,
      "д": 348,
      "е": 349,
      "ж": 350,
      "з": 351,
      "и": 352,
      "к": 353,
      "л": 354,
      "м": 355,
      "н": 356,
      "о": 357,
      "п": 358,
      "р": 359,
      "с": 360,
      "т": 361,
      "у": 362,
      "ф": 363,
      "х": 364,
      "ц": 365,
      "ч": 366,
      "ш": 367,
      "щ": 368,
      "ъ": 369,
      "ы": 370,
      "ь": 371,
      "э": 372,
      "ю": 373,
      "я": 374,
      "ђ": 375,
      "є": 376,
      "ѕ": 377,
      "і": 378,
      "ј": 379,
      "љ": 380,
      "њ": 381,
      "ћ": 382,
      "џ": 383,
      "ѡ": 384,
      "ѣ": 385,
      "ѵ": 386,
      "Ґ": 387,
      "ґ": 388,
      "ғ": 389,
      "Қ": 390,
      "қ": 391,
      "ҝ": 392,
      "Ү": 393,
      "ү": 394,
      "ҷ": 395,
      "һ": 396,
      "Ӏ": 397,
      "ӏ": 398,
      "ө": 399,
      "Ԁ": 400,
      "ԁ": 401,
      "ԛ": 402,
      "Ԝ": 403,
      "ԝ": 404,
      "Ա": 405,
      "Բ": 406,
      "Գ": 407,
      "Դ": 408,
      "Զ": 409,
      "Ի": 410,
      "Խ": 411,
      "Կ": 412,
      "Հ": 413,
      "Յ": 414,
      "Ն": 415,
      "Ո": 416,
      "Պ": 417,
      "Ջ": 418,
      "Ս": 419,
      "Տ": 420,
      "Ր": 421,
      "ա": 422,
      "բ": 423,
      "գ": 424,
      "դ": 425,
      "ե": 426,
      "ը": 427,
      "թ": 428,
      "ի": 429,
      "լ": 430,
      "խ": 431,
      "ծ": 432,
      "կ": 433,
      "հ": 434,
      "ղ": 435,
      "մ": 436,
      "յ": 437,
      "ն": 438,
      "շ": 439,
      "ո": 440,
      "չ": 441,
      "պ": 442,
      "ռ": 443,
      "ս": 444,
      "վ": 445,
      "տ": 446,
      "ր": 447,
      "ց": 448,
      "ւ": 449,
      "ք": 450,
      "օ": 451,
      "׃": 452,
      "א": 453,
      "ב": 454,
      "ג": 455,
      "ד": 456,
      "ה": 457,
      "ו": 458,
      "ז": 459,
      "ח": 460,
      "ט": 461,
      "י": 462,
      "ך": 463,
      "כ": 464,
      "ל": 465,
      "ם": 466,
      "מ": 467,
      "ן": 468,
      "נ": 469,
      "ס": 470,
      "ע": 471,
      "ף": 472,
      "פ": 473,
      "ץ": 474,
      "צ": 475,
      "ק": 476,
      "ר": 477,
      "ש": 478,
      "ת": 479,
      "װ": 480,
      "׳": 481,
      "،": 482,
      "؛": 483,
      "؟": 484,
      "ء": 485,
      "ا": 486,
      "ب": 487,
      "ة": 488,
      "ت": 489,
      "ث": 490,
      "ج": 491,
      "ح": 492,
      "خ": 493,
      "د": 494,
      "ذ": 495,
      "ر": 496,
      "ز": 497,
      "س": 498,
      "ش": 499,
      "ص": 500,
      "ض": 501,
      "ط": 502,
      "ظ": 503,
      "ع": 504,
      "غ": 505,
      "ـ": 506,
      "ف": 507,
      "ق": 508,
      "ك": 509,
      "ل": 510,
      "م": 511,
      "ن": 512,
      "ه": 513,
      "و": 514,
      "ى": 515,
      "ي": 516,
      "٫": 517,
      "٭": 518,
      "ٱ": 519,
      "ٹ": 520,
      "پ": 521,
      "چ": 522,
      "ڈ": 523,
      "ڑ": 524,
      "ژ": 525,
      "ڠ": 526,
      "ک": 527,
      "ګ": 528,
      "گ": 529,
      "ں": 530,
      "ھ": 531,
      "ہ": 532,
      "ۆ": 533,
      "ی": 534,
      "ے": 535,
      "۔": 536,
      "۝": 537,
      "۰": 538,
      "۱": 539,
      "۲": 540,
      "۵": 541,
      "۸": 542,
      "۹": 543,
      "ۼ": 544,
      "ܐ": 545,
      "ܒ": 546,
      "ܕ": 547,
      "ܘ": 548,
      "ܙ": 549,
      "ܝ": 550,
      "ܟ": 551,
      "ܠ": 552,
      "ܡ": 553,
      "ܢ": 554,
      "ܣ": 555,
      "ܥ": 556,
      "ܦ": 557,
      "ܪ": 558,
      "ܬ": 559,
      "ߋ": 560,
      "ः": 561,
      "अ": 562,
      "आ": 563,
      "इ": 564,
      "ई": 565,
      "उ": 566,
      "ए": 567,
      "ऑ": 568,
      "ओ": 569,
      "औ": 570,
      "क": 571,
      "ख": 572,
      "ग": 573,
      "घ": 574,
      "ङ": 575,
      "च": 576,
      "छ": 577,
      "ज": 578,
      "झ": 579,
      "ञ": 580,
      "ट": 581,
      "ठ": 582,
      "ड": 583,
      "ढ": 584,
      "ण": 585,
      "त": 586,
      "थ": 587,
      "द": 588,
      "ध": 589,
      "न": 590,
      "प": 591,
      "फ": 592,
      "ब": 593,
      "भ": 594,
      "म": 595,
      "य": 596,
      "र": 597,
      "ल": 598,
      "ळ": 599,
      "व": 600,
      "श": 601,
      "ष": 602,
      "स": 603,
      "ह": 604,
      "ा": 605,
      "ि": 606,
      "ी": 607,
      "ॉ": 608,
      "ॊ": 609,
      "ो": 610,
      "ौ": 611,
      "।": 612,
      "१": 613,
      "२": 614,
      "३": 615,
      "५": 616,
      "ং": 617,
      "অ": 618,
      "আ": 619,
      "ই": 620,
      "এ": 621,
      "ও": 622,
      "ক": 623,
      "খ": 624,
      "গ": 625,
      "চ": 626,
      "ছ": 627,
      "জ": 628,
      "ট": 629,
      "ঠ": 630,
      "ড": 631,
      "ণ": 632,
      "ত": 633,
      "থ": 634,
      "দ": 635,
      "ধ": 636,
      "ন": 637,
      "প": 638,
      "ফ": 639,
      "ব": 640,
      "ভ": 641,
      "ম": 642,
      "য": 643,
      "র": 644,
      "ল": 645,
      "শ": 646,
      "ষ": 647,
      "স": 648,
      "হ": 649,
      "া": 650,
      "ি": 651,
      "ী": 652,
      "ে": 653,
      "ৈ": 654,
      "ো": 655,
      "ৰ": 656,
      "৳": 657,
      "ਅ": 658,
      "ਆ": 659,
      "ਉ": 660,
      "ਏ": 661,
      "ਕ": 662,
      "ਖ": 663,
      "ਗ": 664,
      "ਜ": 665,
      "ਟ": 666,
      "ਣ": 667,
      "ਤ": 668,
      "ਥ": 669,
      "ਦ": 670,
      "ਨ": 671,
      "ਪ": 672,
      "ਬ": 673,
      "ਮ": 674,
      "ਰ": 675,
      "ਵ": 676,
      "ਸ": 677,
      "ਹ": 678,
      "ਾ": 679,
      "ਿ": 680,
      "ੀ": 681,
      "ઘ": 682,
      "ડ": 683,
      "દ": 684,
      "પ": 685,
      "ર": 686,
      "ા": 687,
      "ી": 688,
      "ଂ": 689,
      "ଇ": 690,
      "ଜ": 691,
      "ର": 692,
      "ା": 693,
      "ୀ": 694,
      "୦": 695,
      "୧": 696,
      "୨": 697,
      "୩": 698,
      "இ": 699,
      "உ": 700,
      "ஒ": 701,
      "க": 702,
      "ங": 703,
      "ச": 704,
      "ட": 705,
      "ண": 706,
      "த": 707,
      "ந": 708,
      "ன": 709,
      "ப": 710,
      "ம": 711,
      "ய": 712,
      "ர": 713,
      "ற": 714,
      "ல": 715,
      "ள": 716,
      "ழ": 717,
      "வ": 718,
      "ா": 719,
      "ி": 720,
      "ு": 721,
      "ூ": 722,
      "ே": 723,
      "ை": 724,
      "ொ": 725,
      "ோ": 726,
      "ం": 727,
      "అ": 728,
      "ఆ": 729,
      "ఉ": 730,
      "ఎ": 731,
      "క": 732,
      "గ": 733,
      "జ": 734,
      "ట": 735,
      "డ": 736,
      "త": 737,
      "ద": 738,
      "న": 739,
      "ప": 740,
      "భ": 741,
      "మ": 742,
      "ర": 743,
      "ల": 744,
      "వ": 745,
      "ష": 746,
      "స": 747,
      "ు": 748,
      "ಂ": 749,
      "ಆ": 750,
      "ಉ": 751,
      "ಒ": 752,
      "ಕ": 753,
      "ಖ": 754,
      "ಗ": 755,
      "ಜ": 756,
      "ಞ": 757,
      "ಟ": 758,
      "ಠ": 759,
      "ಡ": 760,
      "ತ": 761,
      "ದ": 762,
      "ಧ": 763,
      "ನ": 764,
      "ಪ": 765,
      "ಫ": 766,
      "ಬ": 767,
      "ಭ": 768,
      "ಮ": 769,
      "ಯ": 770,
      "ರ": 771,
      "ಳ": 772,
      "ವ": 773,
      "ಷ": 774,
      "ಸ": 775,
      "ಾ": 776,
      "ು": 777,
      "ೃ": 778,
      "ೕ": 779,
      "ೖ": 780,
      "ആ": 781,
      "ക": 782,
      "ഗ": 783,
      "ങ": 784,
      "ച": 785,
      "ജ": 786,
      "ഞ": 787,
      "ട": 788,
      "ഡ": 789,
      "ണ": 790,
      "ത": 791,
      "ദ": 792,
      "ന": 793,
      "മ": 794,
      "യ": 795,
      "ര": 796,
      "റ": 797,
      "ല": 798,
      "ള": 799,
      "സ": 800,
      "ഹ": 801,
      "ാ": 802,
      "ി": 803,
      "െ": 804,
      "േ": 805,
      "ൽ": 806,
      "ං": 807,
      "අ": 808,
      "ඇ": 809,
      "උ": 810,
      "එ": 811,
      "ක": 812,
      "ග": 813,
      "ඝ": 814,
      "ඟ": 815,
      "ච": 816,
      "ජ": 817,
      "ට": 818,
      "ඩ": 819,
      "ණ": 820,
      "ත": 821,
      "ථ": 822,
      "ද": 823,
      "ධ": 824,
      "න": 825,
      "ඳ": 826,
      "ප": 827,
      "බ": 828,
      "භ": 829,
      "ම": 830,
      "ඹ": 831,
      "ය": 832,
      "ර": 833,
      "ල": 834,
      "ව": 835,
      "ශ": 836,
      "ෂ": 837,
      "ස": 838,
      "හ": 839,
      "ළ": 840,
      "ා": 841,
      "ැ": 842,
      "ෑ": 843,
      "ෙ": 844,
      "ො": 845,
      "ෞ": 846,
      "ก": 847,
      "ข": 848,
      "ค": 849,
      "ง": 850,
      "จ": 851,
      "ฉ": 852,
      "ช": 853,
      "ซ": 854,
      "ญ": 855,
      "ฐ": 856,
      "ฒ": 857,
      "ณ": 858,
      "ด": 859,
      "ต": 860,
      "ถ": 861,
      "ท": 862,
      "ธ": 863,
      "น": 864,
      "บ": 865,
      "ป": 866,
      "ผ": 867,
      "พ": 868,
      "ฟ": 869,
      "ภ": 870,
      "ม": 871,
      "ย": 872,
      "ร": 873,
      "ฤ": 874,
      "ล": 875,
      "ว": 876,
      "ศ": 877,
      "ษ": 878,
      "ส": 879,
      "ห": 880,
      "อ": 881,
      "ะ": 882,
      "า": 883,
      "ำ": 884,
      "฿": 885,
      "เ": 886,
      "แ": 887,
      "โ": 888,
      "ใ": 889,
      "ไ": 890,
      "ๆ": 891,
      "๑": 892,
      "๒": 893,
      "๔": 894,
      "๕": 895,
      "๖": 896,
      "๘": 897,
      "་": 898,
      "ཉ": 899,
      "က": 900,
      "ခ": 901,
      "င": 902,
      "စ": 903,
      "ဇ": 904,
      "ည": 905,
      "တ": 906,
      "ထ": 907,
      "န": 908,
      "ပ": 909,
      "မ": 910,
      "ရ": 911,
      "ဝ": 912,
      "သ": 913,
      "အ": 914,
      "ါ": 915,
      "ာ": 916,
      "ေ": 917,
      "း": 918,
      "ျ": 919,
      "ြ": 920,
      "၀": 921,
      "၁": 922,
      "၂": 923,
      "၄": 924,
      "Ⴝ": 925,
      "ა": 926,
      "ბ": 927,
      "დ": 928,
      "ე": 929,
      "ვ": 930,
      "ზ": 931,
      "თ": 932,
      "ი": 933,
      "კ": 934,
      "ლ": 935,
      "მ": 936,
      "ნ": 937,
      "ო": 938,
      "პ": 939,
      "რ": 940,
      "ს": 941,
      "ტ": 942,
      "უ": 943,
      "ქ": 944,
      "ღ": 945,
      "შ": 946,
      "წ": 947,
      "ხ": 948,
      "ᅀ": 949,
      "ᆪ": 950,
      "ሁ": 951,
      "ሆ": 952,
      "ሉ": 953,
      "ል": 954,
      "ሎ": 955,
      "ሚ": 956,
      "ማ": 957,
      "ሜ": 958,
      "ም": 959,
      "ሩ": 960,
      "ር": 961,
      "ሰ": 962,
      "ሳ": 963,
      "ስ": 964,
      "ሸ": 965,
      "ቋ": 966,
      "በ": 967,
      "ቡ": 968,
      "ብ": 969,
      "ኑ": 970,
      "ና": 971,
      "ን": 972,
      "ኛ": 973,
      "አ": 974,
      "ኤ": 975,
      "ክ": 976,
      "ወ": 977,
      "ያ": 978,
      "ደ": 979,
      "ገ": 980,
      "ግ": 981,
      "ጎ": 982,
      "ጤ": 983,
      "ፓ": 984,
      "Ꭰ": 985,
      "Ꭲ": 986,
      "Ꭺ": 987,
      "Ꮃ": 988,
      "Ꮇ": 989,
      "Ꮋ": 990,
      "Ꮤ": 991,
      "Ꮪ": 992,
      "Ꮮ": 993,
      "Ꮯ": 994,
      "ᐈ": 995,
      "ᐏ": 996,
      "ᐠ": 997,
      "ᐢ": 998,
      "ᐹ": 999,
      "ᑎ": 1000,
      "ᒥ": 1001,
      "ᒪ": 1002,
      "ᓯ": 1003,
      "ᖇ": 1004,
      "᛬": 1005,
      "᜵": 1006,
      "᜶": 1007,
      "ᝃ": 1008,
      "ក": 1009,
      "ខ": 1010,
      "គ": 1011,
      "ង": 1012,
      "ច": 1013,
      "ជ": 1014,
      "ញ": 1015,
      "ឌ": 1016,
      "ណ": 1017,
      "ត": 1018,
      "ថ": 1019,
      "ទ": 1020,
      "ន": 1021,
      "ប": 1022,
      "ព": 1023,
      "ភ": 1024,
      "ម": 1025,
      "យ": 1026,
      "រ": 1027,
      "ល": 1028,
      "វ": 1029,
      "ឝ": 1030,
      "ស": 1031,
      "ឡ": 1032,
      "ឯ": 1033,
      "ា": 1034,
      "េ": 1035,
      "ែ": 1036,
      "ៃ": 1037,
      "៛": 1038,
      "ᠠ": 1039,
      "ᠨ": 1040,
      "ᠪ": 1041,
      "ᠮ": 1042,
      "ᠰ": 1043,
      "ᠵ": 1044,
      "ᡠ": 1045,
      "ᡥ": 1046,
      "ᡳ": 1047,
      "ᡶ": 1048,
      "ᢠ": 1049,
      "ᥙ": 1050,
      "ᥱ": 1051,
      "᧐": 1052,
      "ᮏ": 1053,
      "ᮝ": 1054,
      "ᴀ": 1055,
      "ᴇ": 1056,
      "ᴏ": 1057,
      "ᴜ": 1058,
      "ᴠ": 1059,
      "ᴡ": 1060,
      "ᴮ": 1061,
      "ᴿ": 1062,
      "ᵗ": 1063,
      "ẞ": 1064,
      "᾽": 1065,
      " ": 1066,
      " ": 1067,
      " ": 1068,
      " ": 1069,
      " ": 1070,
      " ": 1071,
      " ": 1072,
      "​": 1073,
      "‌": 1074,
      "‍": 1075,
      "‎": 1076,
      "‏": 1077,
      "‐": 1078,
      "‑": 1079,
      "‒": 1080,
      "–": 1081,
      "—": 1082,
      "―": 1083,
      "‖": 1084,
      "‗": 1085,
      "†": 1086,
      "‡": 1087,
      "•": 1088,
      "‣": 1089,
      "․": 1090,
      "…": 1091,
      "‧": 1092,
      "‪": 1093,
      "‬": 1094,
      "‭": 1095,
      " ": 1096,
      "‰": 1097,
      "′": 1098,
      "″": 1099,
      "‴": 1100,
      "‹": 1101,
      "›": 1102,
      "※": 1103,
      "‼": 1104,
      "‽": 1105,
      "‾": 1106,
      "⁂": 1107,
      "⁄": 1108,
      "⁎": 1109,
      "⁠": 1110,
      "⁢": 1111,
      "⁣": 1112,
      "⁦": 1113,
      "⁩": 1114,
      "⁰": 1115,
      "⁳": 1116,
      "⁴": 1117,
      "⁵": 1118,
      "⁶": 1119,
      "⁷": 1120,
      "⁹": 1121,
      "ⁿ": 1122,
      "₁": 1123,
      "₂": 1124,
      "₃": 1125,
      "₄": 1126,
      "ₙ": 1127,
      "₡": 1128,
      "₤": 1129,
      "₦": 1130,
      "₨": 1131,
      "₩": 1132,
      "€": 1133,
      "₱": 1134,
      "₴": 1135,
      "₵": 1136,
      "₹": 1137,
      "₽": 1138,
      "⃣": 1139,
      "℃": 1140,
      "℅": 1141,
      "℉": 1142,
      "ℏ": 1143,
      "ℓ": 1144,
      "№": 1145,
      "℗": 1146,
      "ℜ": 1147,
      "ℝ": 1148,
      "℠": 1149,
      "™": 1150,
      "℮": 1151,
      "⅓": 1152,
      "⅔": 1153,
      "⅕": 1154,
      "⅛": 1155,
      "⅜": 1156,
      "⅝": 1157,
      "⅞": 1158,
      "Ⅰ": 1159,
      "Ⅱ": 1160,
      "Ⅲ": 1161,
      "Ⅽ": 1162,
      "Ⅾ": 1163,
      "Ⅿ": 1164,
      "ⅼ": 1165,
      "ⅽ": 1166,
      "ⅾ": 1167,
      "ↂ": 1168,
      "←": 1169,
      "↑": 1170,
      "→": 1171,
      "↓": 1172,
      "↔": 1173,
      "↘": 1174,
      "↟": 1175,
      "↤": 1176,
      "↦": 1177,
      "↪": 1178,
      "↯": 1179,
      "↵": 1180,
      "↹": 1181,
      "⇄": 1182,
      "⇒": 1183,
      "⇓": 1184,
      "⇨": 1185,
      "⇪": 1186,
      "∀": 1187,
      "∂": 1188,
      "∅": 1189,
      "∆": 1190,
      "∇": 1191,
      "∈": 1192,
      "∑": 1193,
      "−": 1194,
      "∕": 1195,
      "∗": 1196,
      "∘": 1197,
      "∙": 1198,
      "√": 1199,
      "∞": 1200,
      "∠": 1201,
      "∥": 1202,
      "∧": 1203,
      "∨": 1204,
      "∩": 1205,
      "∪": 1206,
      "∫": 1207,
      "∴": 1208,
      "∼": 1209,
      "≃": 1210,
      "≅": 1211,
      "≈": 1212,
      "≡": 1213,
      "≤": 1214,
      "≥": 1215,
      "≦": 1216,
      "≧": 1217,
      "≪": 1218,
      "≫": 1219,
      "≶": 1220,
      "⊂": 1221,
      "⊃": 1222,
      "⊆": 1223,
      "⊕": 1224,
      "⊙": 1225,
      "⊥": 1226,
      "⋅": 1227,
      "⋆": 1228,
      "⋮": 1229,
      "⌅": 1230,
      "⌘": 1231,
      "⌚": 1232,
      "⌠": 1233,
      "⌡": 1234,
      "⌦": 1235,
      "⎋": 1236,
      "⎕": 1237,
      "⏎": 1238,
      "⏐": 1239,
      "⏤": 1240,
      "⏩": 1241,
      "①": 1242,
      "②": 1243,
      "③": 1244,
      "④": 1245,
      "⑤": 1246,
      "⑥": 1247,
      "⑦": 1248,
      "⑧": 1249,
      "⑨": 1250,
      "⑩": 1251,
      "Ⓡ": 1252,
      "ⓒ": 1253,
      "─": 1254,
      "│": 1255,
      "┐": 1256,
      "├": 1257,
      "┬": 1258,
      "╖": 1259,
      "█": 1260,
      "▓": 1261,
      "■": 1262,
      "□": 1263,
      "▣": 1264,
      "▪": 1265,
      "▫": 1266,
      "▱": 1267,
      "▲": 1268,
      "△": 1269,
      "▶": 1270,
      "▷": 1271,
      "▸": 1272,
      "►": 1273,
      "▻": 1274,
      "▼": 1275,
      "▽": 1276,
      "◁": 1277,
      "◄": 1278,
      "◆": 1279,
      "◇": 1280,
      "◊": 1281,
      "○": 1282,
      "●": 1283,
      "◡": 1284,
      "◦": 1285,
      "◼": 1286,
      "☀": 1287,
      "☁": 1288,
      "☃": 1289,
      "☄": 1290,
      "★": 1291,
      "☆": 1292,
      "☉": 1293,
      "☐": 1294,
      "☑": 1295,
      "☒": 1296,
      "☓": 1297,
      "☛": 1298,
      "☜": 1299,
      "☝": 1300,
      "☠": 1301,
      "☰": 1302,
      "☺": 1303,
      "☿": 1304,
      "♀": 1305,
      "♂": 1306,
      "♈": 1307,
      "♉": 1308,
      "♊": 1309,
      "♋": 1310,
      "♍": 1311,
      "♏": 1312,
      "♑": 1313,
      "♒": 1314,
      "♓": 1315,
      "♔": 1316,
      "♠": 1317,
      "♡": 1318,
      "♢": 1319,
      "♣": 1320,
      "♥": 1321,
      "♦": 1322,
      "♪": 1323,
      "♫": 1324,
      "♭": 1325,
      "♮": 1326,
      "♯": 1327,
      "♻": 1328,
      "⚊": 1329,
      "⚋": 1330,
      "⚌": 1331,
      "⚍": 1332,
      "⚎": 1333,
      "⚏": 1334,
      "⚕": 1335,
      "⚖": 1336,
      "⚘": 1337,
      "⚛": 1338,
      "⚠": 1339,
      "⚡": 1340,
      "⚫": 1341,
      "⚬": 1342,
      "⚽": 1343,
      "⚾": 1344,
      "✅": 1345,
      "✈": 1346,
      "✉": 1347,
      "✌": 1348,
      "✍": 1349,
      "✓": 1350,
      "✔": 1351,
      "✗": 1352,
      "✘": 1353,
      "✚": 1354,
      "✞": 1355,
      "✠": 1356,
      "✤": 1357,
      "✨": 1358,
      "✪": 1359,
      "✭": 1360,
      "✹": 1361,
      "✻": 1362,
      "✽": 1363,
      "✿": 1364,
      "❌": 1365,
      "❏": 1366,
      "❑": 1367,
      "❖": 1368,
      "❗": 1369,
      "❝": 1370,
      "❣": 1371,
      "❤": 1372,
      "❨": 1373,
      "❩": 1374,
      "❱": 1375,
      "❲": 1376,
      "❳": 1377,
      "❶": 1378,
      "➜": 1379,
      "➞": 1380,
      "➡": 1381,
      "➣": 1382,
      "➤": 1383,
      "➨": 1384,
      "➮": 1385,
      "➲": 1386,
      "➶": 1387,
      "➹": 1388,
      "➽": 1389,
      "⟨": 1390,
      "⟩": 1391,
      "⟵": 1392,
      "⠀": 1393,
      "⡷": 1394,
      "⦁": 1395,
      "⦿": 1396,
      "⧠": 1397,
      "⨉": 1398,
      "⩾": 1399,
      "⬅": 1400,
      "⬇": 1401,
      "⬛": 1402,
      "⭐": 1403,
      "⭕": 1404,
      "ⲉ": 1405,
      "ⲏ": 1406,
      "Ⲛ": 1407,
      "ⲛ": 1408,
      "ⲟ": 1409,
      "ⲣ": 1410,
      "ⲥ": 1411,
      "ⲧ": 1412,
      "Ⲩ": 1413,
      "ⴰ": 1414,
      "ⴱ": 1415,
      "ⴴ": 1416,
      "ⴼ": 1417,
      "ⵇ": 1418,
      "ⵉ": 1419,
      "ⵍ": 1420,
      "ⵎ": 1421,
      "ⵏ": 1422,
      "ⵔ": 1423,
      "ⵙ": 1424,
      "ⵛ": 1425,
      "ⵜ": 1426,
      "⸺": 1427,
      "⹁": 1428,
      "、": 1429,
      "。": 1430,
      "々": 1431,
      "〈": 1432,
      "《": 1433,
      "》": 1434,
      "「": 1435,
      "」": 1436,
      "『": 1437,
      "』": 1438,
      "【": 1439,
      "】": 1440,
      "〒": 1441,
      "〔": 1442,
      "〕": 1443,
      "〖": 1444,
      "〗": 1445,
      "〜": 1446,
      "〰": 1447,
      "あ": 1448,
      "い": 1449,
      "う": 1450,
      "え": 1451,
      "お": 1452,
      "か": 1453,
      "き": 1454,
      "く": 1455,
      "け": 1456,
      "こ": 1457,
      "さ": 1458,
      "し": 1459,
      "す": 1460,
      "せ": 1461,
      "そ": 1462,
      "た": 1463,
      "ち": 1464,
      "っ": 1465,
      "つ": 1466,
      "て": 1467,
      "と": 1468,
      "な": 1469,
      "に": 1470,
      "ぬ": 1471,
      "ね": 1472,
      "の": 1473,
      "は": 1474,
      "ひ": 1475,
      "ふ": 1476,
      "へ": 1477,
      "ほ": 1478,
      "ま": 1479,
      "み": 1480,
      "む": 1481,
      "め": 1482,
      "も": 1483,
      "ゃ": 1484,
      "や": 1485,
      "ゅ": 1486,
      "ゆ": 1487,
      "ょ": 1488,
      "よ": 1489,
      "ら": 1490,
      "り": 1491,
      "る": 1492,
      "れ": 1493,
      "ろ": 1494,
      "わ": 1495,
      "を": 1496,
      "ん": 1497,
      "゛": 1498,
      "゜": 1499,
      "ゝ": 1500,
      "ァ": 1501,
      "ア": 1502,
      "ィ": 1503,
      "イ": 1504,
      "ゥ": 1505,
      "ウ": 1506,
      "ェ": 1507,
      "エ": 1508,
      "ォ": 1509,
      "オ": 1510,
      "カ": 1511,
      "キ": 1512,
      "ク": 1513,
      "ケ": 1514,
      "コ": 1515,
      "サ": 1516,
      "シ": 1517,
      "ス": 1518,
      "セ": 1519,
      "ソ": 1520,
      "タ": 1521,
      "チ": 1522,
      "ッ": 1523,
      "ツ": 1524,
      "テ": 1525,
      "ト": 1526,
      "ナ": 1527,
      "ニ": 1528,
      "ヌ": 1529,
      "ネ": 1530,
      "ノ": 1531,
      "ハ": 1532,
      "ヒ": 1533,
      "フ": 1534,
      "ヘ": 1535,
      "ホ": 1536,
      "マ": 1537,
      "ミ": 1538,
      "ム": 1539,
      "メ": 1540,
      "モ": 1541,
      "ャ": 1542,
      "ヤ": 1543,
      "ュ": 1544,
      "ユ": 1545,
      "ョ": 1546,
      "ヨ": 1547,
      "ラ": 1548,
      "リ": 1549,
      "ル": 1550,
      "レ": 1551,
      "ロ": 1552,
      "ワ": 1553,
      "ン": 1554,
      "ヶ": 1555,
      "・": 1556,
      "ー": 1557,
      "ㅋ": 1558,
      "㈜": 1559,
      "㎡": 1560,
      "㎢": 1561,
      "㑒": 1562,
      "㞡": 1563,
      "㟫": 1564,
      "㺸": 1565,
      "䋢": 1566,
      "一": 1567,
      "丁": 1568,
      "七": 1569,
      "万": 1570,
      "丈": 1571,
      "三": 1572,
      "上": 1573,
      "下": 1574,
      "不": 1575,
      "与": 1576,
      "丑": 1577,
      "专": 1578,
      "且": 1579,
      "世": 1580,
      "丘": 1581,
      "业": 1582,
      "东": 1583,
      "丞": 1584,
      "丟": 1585,
      "両": 1586,
      "两": 1587,
      "並": 1588,
      "个": 1589,
      "中": 1590,
      "丰": 1591,
      "串": 1592,
      "临": 1593,
      "丸": 1594,
      "丹": 1595,
      "为": 1596,
      "主": 1597,
      "丽": 1598,
      "久": 1599,
      "么": 1600,
      "义": 1601,
      "之": 1602,
      "乌": 1603,
      "乏": 1604,
      "乐": 1605,
      "乗": 1606,
      "乘": 1607,
      "乙": 1608,
      "九": 1609,
      "乞": 1610,
      "也": 1611,
      "习": 1612,
      "乡": 1613,
      "书": 1614,
      "乩": 1615,
      "买": 1616,
      "乳": 1617,
      "乾": 1618,
      "亂": 1619,
      "了": 1620,
      "予": 1621,
      "争": 1622,
      "事": 1623,
      "二": 1624,
      "于": 1625,
      "云": 1626,
      "五": 1627,
      "井": 1628,
      "亘": 1629,
      "亚": 1630,
      "些": 1631,
      "亞": 1632,
      "亡": 1633,
      "交": 1634,
      "亥": 1635,
      "产": 1636,
      "亩": 1637,
      "享": 1638,
      "京": 1639,
      "亭": 1640,
      "亮": 1641,
      "亲": 1642,
      "人": 1643,
      "什": 1644,
      "仁": 1645,
      "仄": 1646,
      "仅": 1647,
      "仇": 1648,
      "今": 1649,
      "介": 1650,
      "仍": 1651,
      "从": 1652,
      "仓": 1653,
      "仔": 1654,
      "仕": 1655,
      "他": 1656,
      "付": 1657,
      "仙": 1658,
      "代": 1659,
      "令": 1660,
      "以": 1661,
      "仪": 1662,
      "们": 1663,
      "仮": 1664,
      "仲": 1665,
      "件": 1666,
      "价": 1667,
      "任": 1668,
      "份": 1669,
      "企": 1670,
      "伊": 1671,
      "伍": 1672,
      "伏": 1673,
      "伐": 1674,
      "休": 1675,
      "伒": 1676,
      "众": 1677,
      "优": 1678,
      "伙": 1679,
      "会": 1680,
      "伝": 1681,
      "伟": 1682,
      "传": 1683,
      "伯": 1684,
      "伴": 1685,
      "似": 1686,
      "但": 1687,
      "位": 1688,
      "低": 1689,
      "住": 1690,
      "佐": 1691,
      "佑": 1692,
      "体": 1693,
      "何": 1694,
      "余": 1695,
      "佛": 1696,
      "作": 1697,
      "你": 1698,
      "佩": 1699,
      "佳": 1700,
      "使": 1701,
      "來": 1702,
      "例": 1703,
      "侍": 1704,
      "供": 1705,
      "依": 1706,
      "侯": 1707,
      "侶": 1708,
      "便": 1709,
      "係": 1710,
      "促": 1711,
      "俊": 1712,
      "俗": 1713,
      "保": 1714,
      "俞": 1715,
      "俠": 1716,
      "信": 1717,
      "俣": 1718,
      "修": 1719,
      "俱": 1720,
      "俺": 1721,
      "倉": 1722,
      "個": 1723,
      "倍": 1724,
      "們": 1725,
      "倒": 1726,
      "候": 1727,
      "借": 1728,
      "倡": 1729,
      "値": 1730,
      "倩": 1731,
      "倪": 1732,
      "倫": 1733,
      "值": 1734,
      "倾": 1735,
      "假": 1736,
      "偉": 1737,
      "偌": 1738,
      "偏": 1739,
      "偕": 1740,
      "做": 1741,
      "健": 1742,
      "側": 1743,
      "偵": 1744,
      "偶": 1745,
      "偷": 1746,
      "偿": 1747,
      "傍": 1748,
      "備": 1749,
      "储": 1750,
      "催": 1751,
      "傳": 1752,
      "傷": 1753,
      "傻": 1754,
      "傾": 1755,
      "僅": 1756,
      "働": 1757,
      "像": 1758,
      "僑": 1759,
      "僕": 1760,
      "價": 1761,
      "儀": 1762,
      "儉": 1763,
      "儒": 1764,
      "儘": 1765,
      "償": 1766,
      "優": 1767,
      "儿": 1768,
      "允": 1769,
      "元": 1770,
      "充": 1771,
      "兆": 1772,
      "先": 1773,
      "光": 1774,
      "克": 1775,
      "免": 1776,
      "児": 1777,
      "兒": 1778,
      "兔": 1779,
      "兗": 1780,
      "兜": 1781,
      "入": 1782,
      "內": 1783,
      "全": 1784,
      "兩": 1785,
      "八": 1786,
      "公": 1787,
      "六": 1788,
      "兰": 1789,
      "共": 1790,
      "关": 1791,
      "兴": 1792,
      "兵": 1793,
      "其": 1794,
      "具": 1795,
      "典": 1796,
      "兹": 1797,
      "养": 1798,
      "兽": 1799,
      "内": 1800,
      "円": 1801,
      "冊": 1802,
      "再": 1803,
      "冒": 1804,
      "写": 1805,
      "冠": 1806,
      "冤": 1807,
      "冥": 1808,
      "冬": 1809,
      "冰": 1810,
      "冲": 1811,
      "决": 1812,
      "冴": 1813,
      "冷": 1814,
      "净": 1815,
      "凈": 1816,
      "凉": 1817,
      "凌": 1818,
      "减": 1819,
      "凝": 1820,
      "几": 1821,
      "凡": 1822,
      "凤": 1823,
      "処": 1824,
      "凯": 1825,
      "凱": 1826,
      "凸": 1827,
      "凹": 1828,
      "出": 1829,
      "函": 1830,
      "刀": 1831,
      "刂": 1832,
      "分": 1833,
      "切": 1834,
      "刊": 1835,
      "划": 1836,
      "列": 1837,
      "刘": 1838,
      "则": 1839,
      "刚": 1840,
      "创": 1841,
      "初": 1842,
      "删": 1843,
      "判": 1844,
      "別": 1845,
      "利": 1846,
      "别": 1847,
      "到": 1848,
      "制": 1849,
      "刷": 1850,
      "券": 1851,
      "刺": 1852,
      "刻": 1853,
      "剂": 1854,
      "則": 1855,
      "削": 1856,
      "前": 1857,
      "剑": 1858,
      "剛": 1859,
      "剣": 1860,
      "剧": 1861,
      "剩": 1862,
      "剰": 1863,
      "割": 1864,
      "創": 1865,
      "劇": 1866,
      "劉": 1867,
      "力": 1868,
      "办": 1869,
      "功": 1870,
      "加": 1871,
      "务": 1872,
      "动": 1873,
      "助": 1874,
      "劫": 1875,
      "劳": 1876,
      "労": 1877,
      "効": 1878,
      "劼": 1879,
      "势": 1880,
      "勃": 1881,
      "勇": 1882,
      "勉": 1883,
      "勒": 1884,
      "動": 1885,
      "務": 1886,
      "勝": 1887,
      "勞": 1888,
      "勢": 1889,
      "勤": 1890,
      "勻": 1891,
      "勾": 1892,
      "包": 1893,
      "化": 1894,
      "北": 1895,
      "匙": 1896,
      "匯": 1897,
      "区": 1898,
      "医": 1899,
      "區": 1900,
      "十": 1901,
      "千": 1902,
      "升": 1903,
      "午": 1904,
      "半": 1905,
      "华": 1906,
      "协": 1907,
      "協": 1908,
      "单": 1909,
      "南": 1910,
      "単": 1911,
      "博": 1912,
      "占": 1913,
      "卡": 1914,
      "卤": 1915,
      "卧": 1916,
      "卫": 1917,
      "印": 1918,
      "即": 1919,
      "却": 1920,
      "卵": 1921,
      "卷": 1922,
      "卻": 1923,
      "卿": 1924,
      "厂": 1925,
      "厄": 1926,
      "厅": 1927,
      "历": 1928,
      "厈": 1929,
      "压": 1930,
      "厚": 1931,
      "原": 1932,
      "厳": 1933,
      "去": 1934,
      "参": 1935,
      "參": 1936,
      "又": 1937,
      "叉": 1938,
      "及": 1939,
      "友": 1940,
      "双": 1941,
      "反": 1942,
      "収": 1943,
      "发": 1944,
      "叔": 1945,
      "取": 1946,
      "受": 1947,
      "变": 1948,
      "叙": 1949,
      "叢": 1950,
      "口": 1951,
      "古": 1952,
      "句": 1953,
      "另": 1954,
      "叩": 1955,
      "只": 1956,
      "叫": 1957,
      "召": 1958,
      "叭": 1959,
      "可": 1960,
      "台": 1961,
      "史": 1962,
      "右": 1963,
      "叶": 1964,
      "号": 1965,
      "司": 1966,
      "吃": 1967,
      "各": 1968,
      "合": 1969,
      "吉": 1970,
      "吊": 1971,
      "吋": 1972,
      "同": 1973,
      "名": 1974,
      "后": 1975,
      "吐": 1976,
      "向": 1977,
      "吕": 1978,
      "吗": 1979,
      "君": 1980,
      "吞": 1981,
      "否": 1982,
      "吧": 1983,
      "含": 1984,
      "启": 1985,
      "吳": 1986,
      "吴": 1987,
      "吸": 1988,
      "吻": 1989,
      "吾": 1990,
      "呂": 1991,
      "呈": 1992,
      "呉": 1993,
      "告": 1994,
      "员": 1995,
      "呢": 1996,
      "周": 1997,
      "呪": 1998,
      "味": 1999,
      "呼": 2000,
      "命": 2001,
      "和": 2002,
      "咕": 2003,
      "咚": 2004,
      "咪": 2005,
      "咯": 2006,
      "咳": 2007,
      "品": 2008,
      "哈": 2009,
      "响": 2010,
      "哎": 2011,
      "員": 2012,
      "哥": 2013,
      "哪": 2014,
      "哭": 2015,
      "哲": 2016,
      "唐": 2017,
      "售": 2018,
      "唯": 2019,
      "唱": 2020,
      "商": 2021,
      "問": 2022,
      "啟": 2023,
      "啤": 2024,
      "善": 2025,
      "喇": 2026,
      "喜": 2027,
      "喪": 2028,
      "喬": 2029,
      "單": 2030,
      "営": 2031,
      "喻": 2032,
      "嗎": 2033,
      "嗣": 2034,
      "嗯": 2035,
      "嘅": 2036,
      "嘉": 2037,
      "嘗": 2038,
      "嘩": 2039,
      "嘲": 2040,
      "嘶": 2041,
      "嘿": 2042,
      "噁": 2043,
      "器": 2044,
      "嚴": 2045,
      "囉": 2046,
      "囚": 2047,
      "四": 2048,
      "回": 2049,
      "因": 2050,
      "团": 2051,
      "団": 2052,
      "园": 2053,
      "困": 2054,
      "囲": 2055,
      "図": 2056,
      "围": 2057,
      "固": 2058,
      "国": 2059,
      "图": 2060,
      "圆": 2061,
      "圈": 2062,
      "國": 2063,
      "圏": 2064,
      "園": 2065,
      "圓": 2066,
      "圖": 2067,
      "團": 2068,
      "圜": 2069,
      "土": 2070,
      "圣": 2071,
      "圧": 2072,
      "在": 2073,
      "地": 2074,
      "圳": 2075,
      "场": 2076,
      "址": 2077,
      "坂": 2078,
      "均": 2079,
      "坊": 2080,
      "坏": 2081,
      "坐": 2082,
      "坑": 2083,
      "块": 2084,
      "坚": 2085,
      "坛": 2086,
      "坡": 2087,
      "坤": 2088,
      "坨": 2089,
      "坪": 2090,
      "型": 2091,
      "垒": 2092,
      "垣": 2093,
      "城": 2094,
      "埕": 2095,
      "域": 2096,
      "埴": 2097,
      "培": 2098,
      "基": 2099,
      "埼": 2100,
      "堂": 2101,
      "堅": 2102,
      "堡": 2103,
      "報": 2104,
      "場": 2105,
      "塀": 2106,
      "塊": 2107,
      "塘": 2108,
      "塚": 2109,
      "塞": 2110,
      "塩": 2111,
      "填": 2112,
      "塵": 2113,
      "境": 2114,
      "墅": 2115,
      "墊": 2116,
      "墓": 2117,
      "増": 2118,
      "增": 2119,
      "墨": 2120,
      "壁": 2121,
      "壇": 2122,
      "壊": 2123,
      "壌": 2124,
      "壓": 2125,
      "壘": 2126,
      "壞": 2127,
      "壩": 2128,
      "士": 2129,
      "壯": 2130,
      "声": 2131,
      "売": 2132,
      "壳": 2133,
      "壽": 2134,
      "处": 2135,
      "备": 2136,
      "変": 2137,
      "复": 2138,
      "夏": 2139,
      "夔": 2140,
      "夕": 2141,
      "外": 2142,
      "多": 2143,
      "夜": 2144,
      "够": 2145,
      "夢": 2146,
      "大": 2147,
      "天": 2148,
      "太": 2149,
      "夫": 2150,
      "央": 2151,
      "失": 2152,
      "头": 2153,
      "夷": 2154,
      "夹": 2155,
      "夾": 2156,
      "奇": 2157,
      "奈": 2158,
      "奉": 2159,
      "奎": 2160,
      "奕": 2161,
      "奖": 2162,
      "套": 2163,
      "奠": 2164,
      "奥": 2165,
      "奧": 2166,
      "女": 2167,
      "奴": 2168,
      "奶": 2169,
      "她": 2170,
      "好": 2171,
      "如": 2172,
      "妄": 2173,
      "妆": 2174,
      "妊": 2175,
      "妖": 2176,
      "妙": 2177,
      "妮": 2178,
      "妻": 2179,
      "姆": 2180,
      "姉": 2181,
      "始": 2182,
      "姐": 2183,
      "姑": 2184,
      "姓": 2185,
      "委": 2186,
      "姚": 2187,
      "姜": 2188,
      "姝": 2189,
      "姫": 2190,
      "姿": 2191,
      "威": 2192,
      "娄": 2193,
      "娘": 2194,
      "娟": 2195,
      "娠": 2196,
      "娥": 2197,
      "娱": 2198,
      "婁": 2199,
      "婦": 2200,
      "婧": 2201,
      "媛": 2202,
      "嫁": 2203,
      "嫌": 2204,
      "嬢": 2205,
      "子": 2206,
      "孔": 2207,
      "孕": 2208,
      "字": 2209,
      "存": 2210,
      "孙": 2211,
      "孚": 2212,
      "孝": 2213,
      "孟": 2214,
      "季": 2215,
      "学": 2216,
      "孩": 2217,
      "孫": 2218,
      "學": 2219,
      "宀": 2220,
      "它": 2221,
      "宅": 2222,
      "宇": 2223,
      "守": 2224,
      "安": 2225,
      "宋": 2226,
      "完": 2227,
      "宏": 2228,
      "宓": 2229,
      "宕": 2230,
      "宗": 2231,
      "官": 2232,
      "宙": 2233,
      "定": 2234,
      "宛": 2235,
      "宝": 2236,
      "实": 2237,
      "実": 2238,
      "宠": 2239,
      "客": 2240,
      "宣": 2241,
      "室": 2242,
      "宫": 2243,
      "宮": 2244,
      "害": 2245,
      "家": 2246,
      "宸": 2247,
      "容": 2248,
      "宿": 2249,
      "寄": 2250,
      "寅": 2251,
      "密": 2252,
      "富": 2253,
      "寝": 2254,
      "察": 2255,
      "實": 2256,
      "寧": 2257,
      "審": 2258,
      "寫": 2259,
      "寬": 2260,
      "寵": 2261,
      "寶": 2262,
      "寸": 2263,
      "对": 2264,
      "寺": 2265,
      "导": 2266,
      "対": 2267,
      "寿": 2268,
      "封": 2269,
      "射": 2270,
      "将": 2271,
      "將": 2272,
      "專": 2273,
      "尉": 2274,
      "尊": 2275,
      "尋": 2276,
      "對": 2277,
      "導": 2278,
      "小": 2279,
      "少": 2280,
      "尔": 2281,
      "尖": 2282,
      "尚": 2283,
      "尝": 2284,
      "尤": 2285,
      "就": 2286,
      "尸": 2287,
      "尹": 2288,
      "尺": 2289,
      "尼": 2290,
      "尽": 2291,
      "尾": 2292,
      "尿": 2293,
      "局": 2294,
      "层": 2295,
      "居": 2296,
      "屆": 2297,
      "屈": 2298,
      "届": 2299,
      "屋": 2300,
      "屎": 2301,
      "屏": 2302,
      "展": 2303,
      "属": 2304,
      "層": 2305,
      "履": 2306,
      "屬": 2307,
      "屯": 2308,
      "山": 2309,
      "岁": 2310,
      "岐": 2311,
      "岛": 2312,
      "岡": 2313,
      "岩": 2314,
      "岱": 2315,
      "岳": 2316,
      "岸": 2317,
      "峇": 2318,
      "峠": 2319,
      "峯": 2320,
      "峰": 2321,
      "島": 2322,
      "峽": 2323,
      "崎": 2324,
      "崔": 2325,
      "崩": 2326,
      "嵐": 2327,
      "嶺": 2328,
      "巖": 2329,
      "巘": 2330,
      "川": 2331,
      "州": 2332,
      "巡": 2333,
      "工": 2334,
      "左": 2335,
      "巧": 2336,
      "巨": 2337,
      "巩": 2338,
      "巫": 2339,
      "差": 2340,
      "己": 2341,
      "已": 2342,
      "巴": 2343,
      "巷": 2344,
      "市": 2345,
      "布": 2346,
      "帆": 2347,
      "师": 2348,
      "希": 2349,
      "帖": 2350,
      "帝": 2351,
      "带": 2352,
      "師": 2353,
      "席": 2354,
      "帶": 2355,
      "常": 2356,
      "帽": 2357,
      "幅": 2358,
      "幌": 2359,
      "幕": 2360,
      "幡": 2361,
      "幣": 2362,
      "幫": 2363,
      "干": 2364,
      "平": 2365,
      "年": 2366,
      "并": 2367,
      "幸": 2368,
      "幻": 2369,
      "幼": 2370,
      "幾": 2371,
      "广": 2372,
      "広": 2373,
      "庄": 2374,
      "庆": 2375,
      "庇": 2376,
      "序": 2377,
      "库": 2378,
      "应": 2379,
      "店": 2380,
      "庚": 2381,
      "府": 2382,
      "度": 2383,
      "座": 2384,
      "庫": 2385,
      "庭": 2386,
      "康": 2387,
      "廈": 2388,
      "廉": 2389,
      "廖": 2390,
      "廟": 2391,
      "廠": 2392,
      "廢": 2393,
      "廣": 2394,
      "廬": 2395,
      "延": 2396,
      "建": 2397,
      "廻": 2398,
      "开": 2399,
      "异": 2400,
      "弊": 2401,
      "式": 2402,
      "弔": 2403,
      "引": 2404,
      "弗": 2405,
      "弘": 2406,
      "弟": 2407,
      "张": 2408,
      "張": 2409,
      "強": 2410,
      "强": 2411,
      "弼": 2412,
      "弾": 2413,
      "彈": 2414,
      "当": 2415,
      "录": 2416,
      "形": 2417,
      "彤": 2418,
      "彦": 2419,
      "彩": 2420,
      "彬": 2421,
      "彭": 2422,
      "彰": 2423,
      "影": 2424,
      "役": 2425,
      "彼": 2426,
      "往": 2427,
      "征": 2428,
      "径": 2429,
      "待": 2430,
      "很": 2431,
      "律": 2432,
      "後": 2433,
      "徐": 2434,
      "徒": 2435,
      "従": 2436,
      "得": 2437,
      "從": 2438,
      "御": 2439,
      "復": 2440,
      "微": 2441,
      "徳": 2442,
      "徴": 2443,
      "徵": 2444,
      "德": 2445,
      "徹": 2446,
      "徽": 2447,
      "心": 2448,
      "必": 2449,
      "忆": 2450,
      "忍": 2451,
      "志": 2452,
      "忘": 2453,
      "忙": 2454,
      "応": 2455,
      "忠": 2456,
      "快": 2457,
      "念": 2458,
      "态": 2459,
      "怎": 2460,
      "怒": 2461,
      "思": 2462,
      "急": 2463,
      "性": 2464,
      "怪": 2465,
      "总": 2466,
      "恆": 2467,
      "恒": 2468,
      "恕": 2469,
      "恤": 2470,
      "恨": 2471,
      "恪": 2472,
      "恫": 2473,
      "恭": 2474,
      "息": 2475,
      "恵": 2476,
      "悟": 2477,
      "患": 2478,
      "您": 2479,
      "悪": 2480,
      "悬": 2481,
      "悳": 2482,
      "情": 2483,
      "惊": 2484,
      "惑": 2485,
      "惠": 2486,
      "惡": 2487,
      "惣": 2488,
      "惯": 2489,
      "想": 2490,
      "惹": 2491,
      "愁": 2492,
      "愉": 2493,
      "意": 2494,
      "愚": 2495,
      "愛": 2496,
      "感": 2497,
      "慈": 2498,
      "慊": 2499,
      "態": 2500,
      "慌": 2501,
      "慎": 2502,
      "慕": 2503,
      "慧": 2504,
      "慮": 2505,
      "慶": 2506,
      "憤": 2507,
      "憲": 2508,
      "憶": 2509,
      "懂": 2510,
      "應": 2511,
      "懷": 2512,
      "懸": 2513,
      "懿": 2514,
      "戀": 2515,
      "戎": 2516,
      "戏": 2517,
      "成": 2518,
      "我": 2519,
      "戒": 2520,
      "或": 2521,
      "战": 2522,
      "戚": 2523,
      "戦": 2524,
      "戰": 2525,
      "戲": 2526,
      "戴": 2527,
      "户": 2528,
      "戸": 2529,
      "房": 2530,
      "所": 2531,
      "扇": 2532,
      "扉": 2533,
      "手": 2534,
      "才": 2535,
      "打": 2536,
      "托": 2537,
      "扬": 2538,
      "扮": 2539,
      "扰": 2540,
      "扱": 2541,
      "扶": 2542,
      "批": 2543,
      "找": 2544,
      "技": 2545,
      "抄": 2546,
      "把": 2547,
      "抎": 2548,
      "抓": 2549,
      "投": 2550,
      "抗": 2551,
      "折": 2552,
      "抜": 2553,
      "択": 2554,
      "抣": 2555,
      "护": 2556,
      "报": 2557,
      "抦": 2558,
      "抯": 2559,
      "抰": 2560,
      "抱": 2561,
      "抳": 2562,
      "抵": 2563,
      "押": 2564,
      "抽": 2565,
      "担": 2566,
      "拉": 2567,
      "拋": 2568,
      "拍": 2569,
      "拔": 2570,
      "招": 2571,
      "拡": 2572,
      "拥": 2573,
      "括": 2574,
      "拯": 2575,
      "拳": 2576,
      "拿": 2577,
      "持": 2578,
      "挂": 2579,
      "指": 2580,
      "按": 2581,
      "挑": 2582,
      "挟": 2583,
      "挪": 2584,
      "挫": 2585,
      "振": 2586,
      "挿": 2587,
      "捍": 2588,
      "捎": 2589,
      "捕": 2590,
      "损": 2591,
      "换": 2592,
      "捨": 2593,
      "据": 2594,
      "授": 2595,
      "掉": 2596,
      "掌": 2597,
      "排": 2598,
      "掙": 2599,
      "掛": 2600,
      "採": 2601,
      "探": 2602,
      "接": 2603,
      "控": 2604,
      "推": 2605,
      "掲": 2606,
      "掳": 2607,
      "揂": 2608,
      "揅": 2609,
      "揋": 2610,
      "揌": 2611,
      "描": 2612,
      "提": 2613,
      "揑": 2614,
      "插": 2615,
      "揕": 2616,
      "揗": 2617,
      "揙": 2618,
      "揚": 2619,
      "換": 2620,
      "揜": 2621,
      "握": 2622,
      "揥": 2623,
      "揮": 2624,
      "援": 2625,
      "揵": 2626,
      "揻": 2627,
      "揼": 2628,
      "損": 2629,
      "搭": 2630,
      "搾": 2631,
      "摂": 2632,
      "摄": 2633,
      "摘": 2634,
      "摩": 2635,
      "摯": 2636,
      "摺": 2637,
      "撃": 2638,
      "撈": 2639,
      "撒": 2640,
      "撤": 2641,
      "撫": 2642,
      "播": 2643,
      "撮": 2644,
      "撰": 2645,
      "撼": 2646,
      "擇": 2647,
      "操": 2648,
      "據": 2649,
      "擬": 2650,
      "擺": 2651,
      "攀": 2652,
      "攄": 2653,
      "攝": 2654,
      "支": 2655,
      "收": 2656,
      "改": 2657,
      "放": 2658,
      "政": 2659,
      "故": 2660,
      "效": 2661,
      "敏": 2662,
      "救": 2663,
      "敕": 2664,
      "敗": 2665,
      "教": 2666,
      "散": 2667,
      "敦": 2668,
      "敬": 2669,
      "数": 2670,
      "整": 2671,
      "敵": 2672,
      "敷": 2673,
      "數": 2674,
      "文": 2675,
      "斌": 2676,
      "斎": 2677,
      "斑": 2678,
      "斗": 2679,
      "料": 2680,
      "斜": 2681,
      "断": 2682,
      "斯": 2683,
      "新": 2684,
      "方": 2685,
      "於": 2686,
      "施": 2687,
      "旁": 2688,
      "旅": 2689,
      "旋": 2690,
      "族": 2691,
      "无": 2692,
      "既": 2693,
      "日": 2694,
      "旧": 2695,
      "早": 2696,
      "旬": 2697,
      "旭": 2698,
      "时": 2699,
      "旺": 2700,
      "昂": 2701,
      "昉": 2702,
      "昊": 2703,
      "昌": 2704,
      "明": 2705,
      "易": 2706,
      "昔": 2707,
      "昕": 2708,
      "星": 2709,
      "映": 2710,
      "春": 2711,
      "昭": 2712,
      "是": 2713,
      "昱": 2714,
      "昼": 2715,
      "显": 2716,
      "時": 2717,
      "晃": 2718,
      "晉": 2719,
      "晌": 2720,
      "晓": 2721,
      "晚": 2722,
      "晨": 2723,
      "普": 2724,
      "景": 2725,
      "晴": 2726,
      "晶": 2727,
      "智": 2728,
      "暂": 2729,
      "暖": 2730,
      "暗": 2731,
      "曁": 2732,
      "曇": 2733,
      "曉": 2734,
      "曜": 2735,
      "曝": 2736,
      "曰": 2737,
      "曲": 2738,
      "更": 2739,
      "曷": 2740,
      "書": 2741,
      "曹": 2742,
      "曼": 2743,
      "曾": 2744,
      "替": 2745,
      "最": 2746,
      "會": 2747,
      "月": 2748,
      "有": 2749,
      "朋": 2750,
      "服": 2751,
      "朗": 2752,
      "朙": 2753,
      "望": 2754,
      "朝": 2755,
      "期": 2756,
      "木": 2757,
      "朩": 2758,
      "未": 2759,
      "末": 2760,
      "本": 2761,
      "札": 2762,
      "术": 2763,
      "朱": 2764,
      "朴": 2765,
      "机": 2766,
      "权": 2767,
      "杉": 2768,
      "李": 2769,
      "杏": 2770,
      "材": 2771,
      "村": 2772,
      "杜": 2773,
      "束": 2774,
      "条": 2775,
      "来": 2776,
      "杨": 2777,
      "杯": 2778,
      "杰": 2779,
      "東": 2780,
      "杷": 2781,
      "松": 2782,
      "板": 2783,
      "极": 2784,
      "构": 2785,
      "枇": 2786,
      "析": 2787,
      "枕": 2788,
      "林": 2789,
      "果": 2790,
      "枝": 2791,
      "架": 2792,
      "枹": 2793,
      "柄": 2794,
      "柏": 2795,
      "染": 2796,
      "柔": 2797,
      "查": 2798,
      "柱": 2799,
      "柳": 2800,
      "柴": 2801,
      "査": 2802,
      "标": 2803,
      "栋": 2804,
      "树": 2805,
      "栖": 2806,
      "栗": 2807,
      "校": 2808,
      "株": 2809,
      "样": 2810,
      "核": 2811,
      "根": 2812,
      "格": 2813,
      "栽": 2814,
      "桂": 2815,
      "桃": 2816,
      "框": 2817,
      "案": 2818,
      "桌": 2819,
      "桐": 2820,
      "桑": 2821,
      "桔": 2822,
      "桜": 2823,
      "档": 2824,
      "桥": 2825,
      "桧": 2826,
      "桶": 2827,
      "梁": 2828,
      "梅": 2829,
      "梓": 2830,
      "條": 2831,
      "梦": 2832,
      "梧": 2833,
      "梨": 2834,
      "梯": 2835,
      "械": 2836,
      "梶": 2837,
      "检": 2838,
      "棄": 2839,
      "棋": 2840,
      "棍": 2841,
      "棒": 2842,
      "棧": 2843,
      "森": 2844,
      "棱": 2845,
      "植": 2846,
      "椒": 2847,
      "検": 2848,
      "椰": 2849,
      "椿": 2850,
      "楊": 2851,
      "楫": 2852,
      "業": 2853,
      "楮": 2854,
      "極": 2855,
      "楼": 2856,
      "楽": 2857,
      "概": 2858,
      "榎": 2859,
      "榜": 2860,
      "榧": 2861,
      "榴": 2862,
      "構": 2863,
      "様": 2864,
      "槟": 2865,
      "槽": 2866,
      "槿": 2867,
      "樂": 2868,
      "樓": 2869,
      "標": 2870,
      "模": 2871,
      "樣": 2872,
      "権": 2873,
      "横": 2874,
      "樸": 2875,
      "樹": 2876,
      "樽": 2877,
      "橋": 2878,
      "橙": 2879,
      "機": 2880,
      "橫": 2881,
      "檒": 2882,
      "檔": 2883,
      "檙": 2884,
      "檚": 2885,
      "檛": 2886,
      "檜": 2887,
      "檝": 2888,
      "權": 2889,
      "欠": 2890,
      "次": 2891,
      "欢": 2892,
      "欧": 2893,
      "欲": 2894,
      "款": 2895,
      "歇": 2896,
      "歌": 2897,
      "歐": 2898,
      "歡": 2899,
      "止": 2900,
      "正": 2901,
      "此": 2902,
      "步": 2903,
      "武": 2904,
      "歩": 2905,
      "歪": 2906,
      "歯": 2907,
      "歴": 2908,
      "歷": 2909,
      "歸": 2910,
      "歹": 2911,
      "死": 2912,
      "殄": 2913,
      "殊": 2914,
      "残": 2915,
      "殘": 2916,
      "殴": 2917,
      "段": 2918,
      "殷": 2919,
      "殺": 2920,
      "殼": 2921,
      "母": 2922,
      "毎": 2923,
      "每": 2924,
      "毓": 2925,
      "比": 2926,
      "毛": 2927,
      "氏": 2928,
      "民": 2929,
      "气": 2930,
      "気": 2931,
      "氣": 2932,
      "氧": 2933,
      "氯": 2934,
      "水": 2935,
      "永": 2936,
      "求": 2937,
      "汇": 2938,
      "汉": 2939,
      "汐": 2940,
      "汗": 2941,
      "汝": 2942,
      "江": 2943,
      "池": 2944,
      "污": 2945,
      "汤": 2946,
      "汲": 2947,
      "汴": 2948,
      "決": 2949,
      "汽": 2950,
      "沃": 2951,
      "沈": 2952,
      "沉": 2953,
      "沒": 2954,
      "沖": 2955,
      "沙": 2956,
      "沛": 2957,
      "沟": 2958,
      "没": 2959,
      "沢": 2960,
      "沮": 2961,
      "河": 2962,
      "油": 2963,
      "治": 2964,
      "沿": 2965,
      "況": 2966,
      "泉": 2967,
      "法": 2968,
      "泡": 2969,
      "波": 2970,
      "泣": 2971,
      "注": 2972,
      "泪": 2973,
      "泰": 2974,
      "泳": 2975,
      "泽": 2976,
      "洋": 2977,
      "洗": 2978,
      "洛": 2979,
      "洞": 2980,
      "津": 2981,
      "洲": 2982,
      "洵": 2983,
      "活": 2984,
      "洼": 2985,
      "派": 2986,
      "流": 2987,
      "浄": 2988,
      "浅": 2989,
      "测": 2990,
      "济": 2991,
      "浜": 2992,
      "浦": 2993,
      "浩": 2994,
      "浪": 2995,
      "浮": 2996,
      "浴": 2997,
      "海": 2998,
      "涂": 2999,
      "消": 3000,
      "涌": 3001,
      "涛": 3002,
      "润": 3003,
      "液": 3004,
      "涵": 3005,
      "涼": 3006,
      "淇": 3007,
      "淚": 3008,
      "淡": 3009,
      "淮": 3010,
      "深": 3011,
      "淳": 3012,
      "淵": 3013,
      "混": 3014,
      "淸": 3015,
      "淺": 3016,
      "添": 3017,
      "渀": 3018,
      "清": 3019,
      "渇": 3020,
      "渓": 3021,
      "渔": 3022,
      "渕": 3023,
      "減": 3024,
      "渠": 3025,
      "渡": 3026,
      "渤": 3027,
      "渦": 3028,
      "温": 3029,
      "測": 3030,
      "港": 3031,
      "游": 3032,
      "湖": 3033,
      "湛": 3034,
      "湟": 3035,
      "湧": 3036,
      "湯": 3037,
      "湾": 3038,
      "満": 3039,
      "源": 3040,
      "準": 3041,
      "溝": 3042,
      "溥": 3043,
      "溪": 3044,
      "溫": 3045,
      "滄": 3046,
      "滅": 3047,
      "滑": 3048,
      "滔": 3049,
      "滙": 3050,
      "滝": 3051,
      "满": 3052,
      "滿": 3053,
      "漁": 3054,
      "漂": 3055,
      "漏": 3056,
      "演": 3057,
      "漢": 3058,
      "漩": 3059,
      "漫": 3060,
      "漬": 3061,
      "漳": 3062,
      "潔": 3063,
      "潘": 3064,
      "潦": 3065,
      "潭": 3066,
      "潮": 3067,
      "澍": 3068,
      "澎": 3069,
      "澜": 3070,
      "澡": 3071,
      "澤": 3072,
      "澳": 3073,
      "激": 3074,
      "濁": 3075,
      "濃": 3076,
      "濕": 3077,
      "濟": 3078,
      "濤": 3079,
      "濵": 3080,
      "濾": 3081,
      "瀝": 3082,
      "瀬": 3083,
      "灝": 3084,
      "灣": 3085,
      "火": 3086,
      "灬": 3087,
      "灯": 3088,
      "灰": 3089,
      "灵": 3090,
      "灿": 3091,
      "炊": 3092,
      "炎": 3093,
      "炒": 3094,
      "炜": 3095,
      "炮": 3096,
      "点": 3097,
      "為": 3098,
      "烏": 3099,
      "烛": 3100,
      "烜": 3101,
      "烧": 3102,
      "無": 3103,
      "焦": 3104,
      "焰": 3105,
      "然": 3106,
      "焼": 3107,
      "煌": 3108,
      "煎": 3109,
      "煒": 3110,
      "照": 3111,
      "煩": 3112,
      "煮": 3113,
      "熊": 3114,
      "熟": 3115,
      "熾": 3116,
      "燒": 3117,
      "燔": 3118,
      "營": 3119,
      "燮": 3120,
      "爆": 3121,
      "爪": 3122,
      "爱": 3123,
      "父": 3124,
      "爷": 3125,
      "爸": 3126,
      "爺": 3127,
      "爻": 3128,
      "爾": 3129,
      "片": 3130,
      "版": 3131,
      "牌": 3132,
      "牙": 3133,
      "牛": 3134,
      "牟": 3135,
      "牡": 3136,
      "牢": 3137,
      "牧": 3138,
      "物": 3139,
      "牯": 3140,
      "特": 3141,
      "犁": 3142,
      "犬": 3143,
      "犯": 3144,
      "状": 3145,
      "狀": 3146,
      "狂": 3147,
      "狐": 3148,
      "狗": 3149,
      "狙": 3150,
      "狩": 3151,
      "独": 3152,
      "狭": 3153,
      "狸": 3154,
      "狼": 3155,
      "猎": 3156,
      "猜": 3157,
      "猪": 3158,
      "猫": 3159,
      "献": 3160,
      "猶": 3161,
      "猿": 3162,
      "獄": 3163,
      "獨": 3164,
      "獲": 3165,
      "獸": 3166,
      "獻": 3167,
      "玄": 3168,
      "率": 3169,
      "玉": 3170,
      "王": 3171,
      "玦": 3172,
      "玩": 3173,
      "环": 3174,
      "现": 3175,
      "玲": 3176,
      "珂": 3177,
      "珍": 3178,
      "珏": 3179,
      "珞": 3180,
      "班": 3181,
      "珺": 3182,
      "現": 3183,
      "球": 3184,
      "理": 3185,
      "琍": 3186,
      "琛": 3187,
      "琪": 3188,
      "琬": 3189,
      "琳": 3190,
      "琴": 3191,
      "琵": 3192,
      "琶": 3193,
      "瑒": 3194,
      "瑗": 3195,
      "瑛": 3196,
      "瑜": 3197,
      "瑞": 3198,
      "瑲": 3199,
      "瑶": 3200,
      "璆": 3201,
      "璞": 3202,
      "璟": 3203,
      "璧": 3204,
      "環": 3205,
      "璽": 3206,
      "璿": 3207,
      "瓊": 3208,
      "瓘": 3209,
      "瓚": 3210,
      "瓛": 3211,
      "瓜": 3212,
      "瓶": 3213,
      "甍": 3214,
      "甘": 3215,
      "甚": 3216,
      "甜": 3217,
      "生": 3218,
      "産": 3219,
      "用": 3220,
      "甩": 3221,
      "甫": 3222,
      "田": 3223,
      "由": 3224,
      "甲": 3225,
      "申": 3226,
      "电": 3227,
      "男": 3228,
      "甸": 3229,
      "町": 3230,
      "画": 3231,
      "畅": 3232,
      "界": 3233,
      "畑": 3234,
      "留": 3235,
      "畠": 3236,
      "略": 3237,
      "番": 3238,
      "畫": 3239,
      "異": 3240,
      "畳": 3241,
      "當": 3242,
      "畿": 3243,
      "疆": 3244,
      "疏": 3245,
      "疫": 3246,
      "疳": 3247,
      "疾": 3248,
      "病": 3249,
      "症": 3250,
      "痔": 3251,
      "痰": 3252,
      "療": 3253,
      "癇": 3254,
      "癒": 3255,
      "癰": 3256,
      "発": 3257,
      "登": 3258,
      "發": 3259,
      "白": 3260,
      "百": 3261,
      "的": 3262,
      "皇": 3263,
      "皖": 3264,
      "皮": 3265,
      "盃": 3266,
      "盆": 3267,
      "盈": 3268,
      "益": 3269,
      "盐": 3270,
      "监": 3271,
      "盒": 3272,
      "盖": 3273,
      "盗": 3274,
      "盘": 3275,
      "盛": 3276,
      "盟": 3277,
      "監": 3278,
      "盤": 3279,
      "目": 3280,
      "盲": 3281,
      "直": 3282,
      "相": 3283,
      "省": 3284,
      "眉": 3285,
      "看": 3286,
      "県": 3287,
      "眞": 3288,
      "真": 3289,
      "眼": 3290,
      "眾": 3291,
      "着": 3292,
      "睛": 3293,
      "督": 3294,
      "瞬": 3295,
      "瞳": 3296,
      "矢": 3297,
      "知": 3298,
      "短": 3299,
      "石": 3300,
      "矽": 3301,
      "码": 3302,
      "砂": 3303,
      "研": 3304,
      "破": 3305,
      "础": 3306,
      "硫": 3307,
      "硬": 3308,
      "确": 3309,
      "碗": 3310,
      "碧": 3311,
      "碩": 3312,
      "碱": 3313,
      "確": 3314,
      "碼": 3315,
      "磁": 3316,
      "磐": 3317,
      "礙": 3318,
      "礫": 3319,
      "示": 3320,
      "礼": 3321,
      "社": 3322,
      "祇": 3323,
      "祈": 3324,
      "祎": 3325,
      "祖": 3326,
      "神": 3327,
      "祥": 3328,
      "祭": 3329,
      "祿": 3330,
      "禁": 3331,
      "禅": 3332,
      "禎": 3333,
      "福": 3334,
      "禡": 3335,
      "禮": 3336,
      "离": 3337,
      "禿": 3338,
      "秀": 3339,
      "私": 3340,
      "秉": 3341,
      "秋": 3342,
      "种": 3343,
      "科": 3344,
      "秒": 3345,
      "秘": 3346,
      "租": 3347,
      "秦": 3348,
      "积": 3349,
      "称": 3350,
      "移": 3351,
      "稀": 3352,
      "程": 3353,
      "種": 3354,
      "稲": 3355,
      "稳": 3356,
      "稼": 3357,
      "稽": 3358,
      "稿": 3359,
      "穆": 3360,
      "積": 3361,
      "究": 3362,
      "穹": 3363,
      "空": 3364,
      "突": 3365,
      "窗": 3366,
      "窪": 3367,
      "窮": 3368,
      "立": 3369,
      "站": 3370,
      "章": 3371,
      "童": 3372,
      "竭": 3373,
      "端": 3374,
      "競": 3375,
      "竹": 3376,
      "笑": 3377,
      "笔": 3378,
      "笠": 3379,
      "符": 3380,
      "第": 3381,
      "笹": 3382,
      "筆": 3383,
      "等": 3384,
      "筋": 3385,
      "筑": 3386,
      "答": 3387,
      "策": 3388,
      "简": 3389,
      "箇": 3390,
      "箏": 3391,
      "箕": 3392,
      "算": 3393,
      "管": 3394,
      "箭": 3395,
      "箱": 3396,
      "節": 3397,
      "範": 3398,
      "篇": 3399,
      "篠": 3400,
      "篤": 3401,
      "簡": 3402,
      "籃": 3403,
      "籍": 3404,
      "米": 3405,
      "类": 3406,
      "粉": 3407,
      "粗": 3408,
      "粟": 3409,
      "粥": 3410,
      "精": 3411,
      "粿": 3412,
      "糕": 3413,
      "糖": 3414,
      "糙": 3415,
      "糜": 3416,
      "糟": 3417,
      "系": 3418,
      "紀": 3419,
      "約": 3420,
      "紅": 3421,
      "納": 3422,
      "純": 3423,
      "紙": 3424,
      "級": 3425,
      "素": 3426,
      "索": 3427,
      "紫": 3428,
      "細": 3429,
      "紹": 3430,
      "終": 3431,
      "組": 3432,
      "経": 3433,
      "結": 3434,
      "絞": 3435,
      "給": 3436,
      "統": 3437,
      "絲": 3438,
      "絳": 3439,
      "絵": 3440,
      "絶": 3441,
      "經": 3442,
      "継": 3443,
      "続": 3444,
      "綠": 3445,
      "維": 3446,
      "綱": 3447,
      "網": 3448,
      "綸": 3449,
      "綿": 3450,
      "緊": 3451,
      "緋": 3452,
      "緑": 3453,
      "緒": 3454,
      "線": 3455,
      "緣": 3456,
      "編": 3457,
      "緩": 3458,
      "練": 3459,
      "縁": 3460,
      "縄": 3461,
      "縛": 3462,
      "縣": 3463,
      "縦": 3464,
      "總": 3465,
      "績": 3466,
      "繁": 3467,
      "織": 3468,
      "繡": 3469,
      "繩": 3470,
      "繼": 3471,
      "纂": 3472,
      "續": 3473,
      "红": 3474,
      "约": 3475,
      "级": 3476,
      "纪": 3477,
      "纳": 3478,
      "纸": 3479,
      "纽": 3480,
      "线": 3481,
      "组": 3482,
      "细": 3483,
      "织": 3484,
      "终": 3485,
      "绍": 3486,
      "经": 3487,
      "结": 3488,
      "绘": 3489,
      "给": 3490,
      "络": 3491,
      "绝": 3492,
      "统": 3493,
      "继": 3494,
      "续": 3495,
      "维": 3496,
      "绵": 3497,
      "综": 3498,
      "缔": 3499,
      "缠": 3500,
      "缶": 3501,
      "网": 3502,
      "罕": 3503,
      "罪": 3504,
      "置": 3505,
      "羅": 3506,
      "羆": 3507,
      "羊": 3508,
      "羋": 3509,
      "羌": 3510,
      "美": 3511,
      "羖": 3512,
      "羝": 3513,
      "羞": 3514,
      "群": 3515,
      "義": 3516,
      "羹": 3517,
      "羽": 3518,
      "翁": 3519,
      "翅": 3520,
      "習": 3521,
      "翔": 3522,
      "翟": 3523,
      "翠": 3524,
      "翰": 3525,
      "翻": 3526,
      "翼": 3527,
      "老": 3528,
      "考": 3529,
      "者": 3530,
      "而": 3531,
      "耐": 3532,
      "耕": 3533,
      "耳": 3534,
      "耶": 3535,
      "聃": 3536,
      "职": 3537,
      "联": 3538,
      "聖": 3539,
      "聘": 3540,
      "聚": 3541,
      "聞": 3542,
      "聯": 3543,
      "聲": 3544,
      "職": 3545,
      "肅": 3546,
      "肇": 3547,
      "肉": 3548,
      "肚": 3549,
      "肠": 3550,
      "肩": 3551,
      "肯": 3552,
      "育": 3553,
      "肺": 3554,
      "胃": 3555,
      "背": 3556,
      "胜": 3557,
      "胞": 3558,
      "胡": 3559,
      "胤": 3560,
      "能": 3561,
      "脂": 3562,
      "脇": 3563,
      "脈": 3564,
      "脑": 3565,
      "脚": 3566,
      "脫": 3567,
      "脱": 3568,
      "腐": 3569,
      "腔": 3570,
      "腦": 3571,
      "腰": 3572,
      "腾": 3573,
      "膚": 3574,
      "膜": 3575,
      "膠": 3576,
      "臣": 3577,
      "臧": 3578,
      "臨": 3579,
      "自": 3580,
      "臭": 3581,
      "至": 3582,
      "致": 3583,
      "臺": 3584,
      "臻": 3585,
      "與": 3586,
      "興": 3587,
      "舊": 3588,
      "舍": 3589,
      "舒": 3590,
      "舗": 3591,
      "舜": 3592,
      "舞": 3593,
      "舟": 3594,
      "航": 3595,
      "般": 3596,
      "船": 3597,
      "艇": 3598,
      "艦": 3599,
      "良": 3600,
      "色": 3601,
      "艳": 3602,
      "艹": 3603,
      "艺": 3604,
      "艾": 3605,
      "节": 3606,
      "芋": 3607,
      "芝": 3608,
      "芦": 3609,
      "芬": 3610,
      "芯": 3611,
      "花": 3612,
      "芳": 3613,
      "芸": 3614,
      "芹": 3615,
      "芽": 3616,
      "苎": 3617,
      "苏": 3618,
      "苑": 3619,
      "苗": 3620,
      "若": 3621,
      "英": 3622,
      "苻": 3623,
      "茂": 3624,
      "范": 3625,
      "茅": 3626,
      "茗": 3627,
      "茨": 3628,
      "茶": 3629,
      "茸": 3630,
      "茹": 3631,
      "荀": 3632,
      "荃": 3633,
      "草": 3634,
      "荊": 3635,
      "荐": 3636,
      "荒": 3637,
      "荘": 3638,
      "荣": 3639,
      "莊": 3640,
      "莪": 3641,
      "莫": 3642,
      "莱": 3643,
      "获": 3644,
      "菅": 3645,
      "菇": 3646,
      "菜": 3647,
      "菠": 3648,
      "華": 3649,
      "菸": 3650,
      "萃": 3651,
      "萄": 3652,
      "萍": 3653,
      "萝": 3654,
      "营": 3655,
      "萨": 3656,
      "萬": 3657,
      "萱": 3658,
      "落": 3659,
      "葆": 3660,
      "葉": 3661,
      "葛": 3662,
      "葡": 3663,
      "董": 3664,
      "蒂": 3665,
      "蒋": 3666,
      "蒔": 3667,
      "蒙": 3668,
      "蒸": 3669,
      "蒼": 3670,
      "蓉": 3671,
      "蓋": 3672,
      "蓬": 3673,
      "蔡": 3674,
      "蔵": 3675,
      "蕪": 3676,
      "蕭": 3677,
      "蕾": 3678,
      "薄": 3679,
      "薇": 3680,
      "薔": 3681,
      "薛": 3682,
      "薦": 3683,
      "薨": 3684,
      "薬": 3685,
      "藉": 3686,
      "藍": 3687,
      "藏": 3688,
      "藝": 3689,
      "藤": 3690,
      "藩": 3691,
      "蘇": 3692,
      "蘋": 3693,
      "蘭": 3694,
      "蘿": 3695,
      "虎": 3696,
      "虑": 3697,
      "虔": 3698,
      "處": 3699,
      "虚": 3700,
      "虛": 3701,
      "號": 3702,
      "虫": 3703,
      "虹": 3704,
      "虽": 3705,
      "蚵": 3706,
      "蛋": 3707,
      "蛛": 3708,
      "蜘": 3709,
      "蜜": 3710,
      "蝙": 3711,
      "蝠": 3712,
      "蝦": 3713,
      "蝴": 3714,
      "蝶": 3715,
      "融": 3716,
      "蟹": 3717,
      "蟻": 3718,
      "蠡": 3719,
      "蠣": 3720,
      "血": 3721,
      "衆": 3722,
      "行": 3723,
      "術": 3724,
      "街": 3725,
      "衛": 3726,
      "衞": 3727,
      "衡": 3728,
      "衣": 3729,
      "表": 3730,
      "衩": 3731,
      "袁": 3732,
      "袋": 3733,
      "袖": 3734,
      "被": 3735,
      "袯": 3736,
      "裁": 3737,
      "裂": 3738,
      "装": 3739,
      "裕": 3740,
      "裙": 3741,
      "補": 3742,
      "裝": 3743,
      "裵": 3744,
      "製": 3745,
      "複": 3746,
      "褪": 3747,
      "襄": 3748,
      "襪": 3749,
      "襲": 3750,
      "西": 3751,
      "要": 3752,
      "覆": 3753,
      "見": 3754,
      "規": 3755,
      "視": 3756,
      "覗": 3757,
      "覚": 3758,
      "覧": 3759,
      "親": 3760,
      "観": 3761,
      "覺": 3762,
      "觀": 3763,
      "见": 3764,
      "观": 3765,
      "规": 3766,
      "览": 3767,
      "觉": 3768,
      "角": 3769,
      "解": 3770,
      "触": 3771,
      "觸": 3772,
      "言": 3773,
      "計": 3774,
      "訊": 3775,
      "討": 3776,
      "訓": 3777,
      "託": 3778,
      "記": 3779,
      "訪": 3780,
      "設": 3781,
      "許": 3782,
      "訳": 3783,
      "訴": 3784,
      "註": 3785,
      "証": 3786,
      "評": 3787,
      "詞": 3788,
      "試": 3789,
      "詩": 3790,
      "詰": 3791,
      "話": 3792,
      "詳": 3793,
      "詹": 3794,
      "誌": 3795,
      "認": 3796,
      "誕": 3797,
      "誘": 3798,
      "語": 3799,
      "誠": 3800,
      "誤": 3801,
      "說": 3802,
      "説": 3803,
      "読": 3804,
      "誰": 3805,
      "課": 3806,
      "調": 3807,
      "談": 3808,
      "請": 3809,
      "論": 3810,
      "諧": 3811,
      "諾": 3812,
      "謀": 3813,
      "謚": 3814,
      "講": 3815,
      "謝": 3816,
      "證": 3817,
      "譓": 3818,
      "識": 3819,
      "譙": 3820,
      "譚": 3821,
      "譜": 3822,
      "譯": 3823,
      "議": 3824,
      "譲": 3825,
      "護": 3826,
      "讀": 3827,
      "變": 3828,
      "讌": 3829,
      "计": 3830,
      "订": 3831,
      "认": 3832,
      "讨": 3833,
      "让": 3834,
      "议": 3835,
      "讯": 3836,
      "记": 3837,
      "讲": 3838,
      "许": 3839,
      "论": 3840,
      "设": 3841,
      "访": 3842,
      "证": 3843,
      "评": 3844,
      "识": 3845,
      "词": 3846,
      "译": 3847,
      "试": 3848,
      "诗": 3849,
      "话": 3850,
      "诠": 3851,
      "该": 3852,
      "详": 3853,
      "语": 3854,
      "误": 3855,
      "说": 3856,
      "请": 3857,
      "诺": 3858,
      "读": 3859,
      "谁": 3860,
      "调": 3861,
      "谅": 3862,
      "谈": 3863,
      "谓": 3864,
      "谜": 3865,
      "谢": 3866,
      "谦": 3867,
      "谷": 3868,
      "豆": 3869,
      "豈": 3870,
      "豊": 3871,
      "豎": 3872,
      "象": 3873,
      "豫": 3874,
      "豬": 3875,
      "豹": 3876,
      "貌": 3877,
      "負": 3878,
      "財": 3879,
      "貨": 3880,
      "販": 3881,
      "貫": 3882,
      "貴": 3883,
      "買": 3884,
      "費": 3885,
      "貿": 3886,
      "賀": 3887,
      "資": 3888,
      "賈": 3889,
      "賜": 3890,
      "賢": 3891,
      "賣": 3892,
      "質": 3893,
      "賭": 3894,
      "賴": 3895,
      "賽": 3896,
      "贝": 3897,
      "财": 3898,
      "责": 3899,
      "货": 3900,
      "质": 3901,
      "贯": 3902,
      "贴": 3903,
      "贵": 3904,
      "费": 3905,
      "资": 3906,
      "赌": 3907,
      "赏": 3908,
      "赛": 3909,
      "赤": 3910,
      "走": 3911,
      "赵": 3912,
      "起": 3913,
      "超": 3914,
      "越": 3915,
      "趋": 3916,
      "趙": 3917,
      "趣": 3918,
      "足": 3919,
      "趴": 3920,
      "趾": 3921,
      "跋": 3922,
      "跑": 3923,
      "距": 3924,
      "跟": 3925,
      "跨": 3926,
      "路": 3927,
      "跳": 3928,
      "蹟": 3929,
      "躍": 3930,
      "身": 3931,
      "車": 3932,
      "軍": 3933,
      "軒": 3934,
      "転": 3935,
      "軸": 3936,
      "軻": 3937,
      "軽": 3938,
      "較": 3939,
      "載": 3940,
      "輔": 3941,
      "輕": 3942,
      "輝": 3943,
      "輪": 3944,
      "輸": 3945,
      "轉": 3946,
      "车": 3947,
      "转": 3948,
      "轮": 3949,
      "软": 3950,
      "载": 3951,
      "较": 3952,
      "辈": 3953,
      "辉": 3954,
      "输": 3955,
      "辛": 3956,
      "辣": 3957,
      "辨": 3958,
      "辯": 3959,
      "辰": 3960,
      "農": 3961,
      "边": 3962,
      "辺": 3963,
      "込": 3964,
      "达": 3965,
      "过": 3966,
      "迎": 3967,
      "运": 3968,
      "近": 3969,
      "返": 3970,
      "还": 3971,
      "这": 3972,
      "进": 3973,
      "远": 3974,
      "连": 3975,
      "迪": 3976,
      "迫": 3977,
      "述": 3978,
      "迷": 3979,
      "迹": 3980,
      "追": 3981,
      "退": 3982,
      "送": 3983,
      "适": 3984,
      "逆": 3985,
      "选": 3986,
      "逊": 3987,
      "透": 3988,
      "逐": 3989,
      "途": 3990,
      "逗": 3991,
      "這": 3992,
      "通": 3993,
      "速": 3994,
      "造": 3995,
      "連": 3996,
      "週": 3997,
      "進": 3998,
      "逼": 3999,
      "遇": 4000,
      "遊": 4001,
      "運": 4002,
      "遍": 4003,
      "過": 4004,
      "遏": 4005,
      "道": 4006,
      "達": 4007,
      "違": 4008,
      "遞": 4009,
      "遠": 4010,
      "遣": 4011,
      "適": 4012,
      "遷": 4013,
      "選": 4014,
      "遺": 4015,
      "避": 4016,
      "還": 4017,
      "邊": 4018,
      "邑": 4019,
      "那": 4020,
      "邪": 4021,
      "邮": 4022,
      "郊": 4023,
      "郎": 4024,
      "郑": 4025,
      "郡": 4026,
      "部": 4027,
      "郭": 4028,
      "郷": 4029,
      "都": 4030,
      "鄀": 4031,
      "鄉": 4032,
      "鄒": 4033,
      "鄭": 4034,
      "酋": 4035,
      "配": 4036,
      "酒": 4037,
      "酔": 4038,
      "酥": 4039,
      "酶": 4040,
      "酸": 4041,
      "醇": 4042,
      "醋": 4043,
      "醫": 4044,
      "醬": 4045,
      "采": 4046,
      "释": 4047,
      "釋": 4048,
      "里": 4049,
      "重": 4050,
      "野": 4051,
      "量": 4052,
      "金": 4053,
      "針": 4054,
      "鈍": 4055,
      "鈞": 4056,
      "鈥": 4057,
      "鈴": 4058,
      "鉛": 4059,
      "鉴": 4060,
      "銀": 4061,
      "銅": 4062,
      "銑": 4063,
      "銘": 4064,
      "銷": 4065,
      "鋁": 4066,
      "鋒": 4067,
      "鋼": 4068,
      "錢": 4069,
      "錦": 4070,
      "錫": 4071,
      "錯": 4072,
      "録": 4073,
      "鍊": 4074,
      "鍋": 4075,
      "鍵": 4076,
      "鍾": 4077,
      "鎌": 4078,
      "鎮": 4079,
      "鎳": 4080,
      "鏡": 4081,
      "鏤": 4082,
      "鐃": 4083,
      "鐘": 4084,
      "鐱": 4085,
      "鐵": 4086,
      "鑐": 4087,
      "鑑": 4088,
      "鑿": 4089,
      "钓": 4090,
      "钟": 4091,
      "钧": 4092,
      "钰": 4093,
      "铁": 4094,
      "链": 4095,
      "销": 4096,
      "锅": 4097,
      "锋": 4098,
      "错": 4099,
      "锛": 4100,
      "锦": 4101,
      "键": 4102,
      "镇": 4103,
      "長": 4104,
      "长": 4105,
      "門": 4106,
      "閉": 4107,
      "開": 4108,
      "閏": 4109,
      "間": 4110,
      "関": 4111,
      "閣": 4112,
      "閤": 4113,
      "閩": 4114,
      "閲": 4115,
      "闍": 4116,
      "闘": 4117,
      "關": 4118,
      "门": 4119,
      "闭": 4120,
      "问": 4121,
      "间": 4122,
      "闸": 4123,
      "闻": 4124,
      "闽": 4125,
      "阁": 4126,
      "阙": 4127,
      "队": 4128,
      "阪": 4129,
      "阮": 4130,
      "防": 4131,
      "阳": 4132,
      "阴": 4133,
      "阵": 4134,
      "阿": 4135,
      "陀": 4136,
      "附": 4137,
      "际": 4138,
      "陆": 4139,
      "陈": 4140,
      "陌": 4141,
      "降": 4142,
      "限": 4143,
      "院": 4144,
      "陣": 4145,
      "除": 4146,
      "陪": 4147,
      "陰": 4148,
      "陳": 4149,
      "陵": 4150,
      "陶": 4151,
      "陸": 4152,
      "陽": 4153,
      "隅": 4154,
      "隆": 4155,
      "隊": 4156,
      "随": 4157,
      "隔": 4158,
      "隙": 4159,
      "際": 4160,
      "障": 4161,
      "隣": 4162,
      "隻": 4163,
      "难": 4164,
      "雀": 4165,
      "雁": 4166,
      "雄": 4167,
      "雅": 4168,
      "集": 4169,
      "雍": 4170,
      "雑": 4171,
      "雖": 4172,
      "雙": 4173,
      "雜": 4174,
      "雞": 4175,
      "離": 4176,
      "難": 4177,
      "雨": 4178,
      "雪": 4179,
      "雯": 4180,
      "雲": 4181,
      "零": 4182,
      "雷": 4183,
      "電": 4184,
      "需": 4185,
      "霄": 4186,
      "霆": 4187,
      "震": 4188,
      "霈": 4189,
      "霊": 4190,
      "霍": 4191,
      "霧": 4192,
      "露": 4193,
      "霸": 4194,
      "靈": 4195,
      "青": 4196,
      "静": 4197,
      "靜": 4198,
      "非": 4199,
      "靠": 4200,
      "面": 4201,
      "革": 4202,
      "鞋": 4203,
      "韓": 4204,
      "韩": 4205,
      "音": 4206,
      "韻": 4207,
      "響": 4208,
      "頂": 4209,
      "項": 4210,
      "順": 4211,
      "須": 4212,
      "預": 4213,
      "頓": 4214,
      "領": 4215,
      "頞": 4216,
      "頭": 4217,
      "頻": 4218,
      "題": 4219,
      "顏": 4220,
      "顔": 4221,
      "願": 4222,
      "類": 4223,
      "顯": 4224,
      "页": 4225,
      "项": 4226,
      "顺": 4227,
      "顾": 4228,
      "顿": 4229,
      "预": 4230,
      "领": 4231,
      "颖": 4232,
      "题": 4233,
      "颜": 4234,
      "额": 4235,
      "風": 4236,
      "风": 4237,
      "飞": 4238,
      "食": 4239,
      "飯": 4240,
      "飲": 4241,
      "飾": 4242,
      "餅": 4243,
      "養": 4244,
      "餐": 4245,
      "餘": 4246,
      "館": 4247,
      "饮": 4248,
      "饼": 4249,
      "馆": 4250,
      "馍": 4251,
      "馒": 4252,
      "首": 4253,
      "香": 4254,
      "馨": 4255,
      "馬": 4256,
      "馱": 4257,
      "馳": 4258,
      "駅": 4259,
      "駆": 4260,
      "騎": 4261,
      "騒": 4262,
      "験": 4263,
      "驗": 4264,
      "驚": 4265,
      "马": 4266,
      "驱": 4267,
      "驶": 4268,
      "驾": 4269,
      "验": 4270,
      "骑": 4271,
      "骥": 4272,
      "骨": 4273,
      "骷": 4274,
      "髅": 4275,
      "體": 4276,
      "高": 4277,
      "髮": 4278,
      "鬥": 4279,
      "鬧": 4280,
      "鬼": 4281,
      "魅": 4282,
      "魏": 4283,
      "魔": 4284,
      "魚": 4285,
      "魯": 4286,
      "鮮": 4287,
      "鯖": 4288,
      "鯨": 4289,
      "鰻": 4290,
      "鱗": 4291,
      "鱼": 4292,
      "鳥": 4293,
      "鳩": 4294,
      "鳳": 4295,
      "鳴": 4296,
      "鴨": 4297,
      "鴻": 4298,
      "鵡": 4299,
      "鵬": 4300,
      "鵰": 4301,
      "鶴": 4302,
      "鷹": 4303,
      "鸚": 4304,
      "鸟": 4305,
      "鸡": 4306,
      "鸿": 4307,
      "鹂": 4308,
      "鹅": 4309,
      "鹏": 4310,
      "鹽": 4311,
      "鹿": 4312,
      "麒": 4313,
      "麗": 4314,
      "麟": 4315,
      "麤": 4316,
      "麩": 4317,
      "麵": 4318,
      "麺": 4319,
      "麼": 4320,
      "黃": 4321,
      "黄": 4322,
      "黎": 4323,
      "黑": 4324,
      "黒": 4325,
      "默": 4326,
      "點": 4327,
      "黨": 4328,
      "鼐": 4329,
      "鼓": 4330,
      "齊": 4331,
      "齢": 4332,
      "龍": 4333,
      "龔": 4334,
      "龙": 4335,
      "龜": 4336,
      "Ꜯ": 4337,
      "ꜯ": 4338,
      "Ꝇ": 4339,
      "ꝇ": 4340,
      "ꞌ": 4341,
      "가": 4342,
      "각": 4343,
      "간": 4344,
      "감": 4345,
      "갓": 4346,
      "강": 4347,
      "같": 4348,
      "개": 4349,
      "거": 4350,
      "건": 4351,
      "걸": 4352,
      "검": 4353,
      "것": 4354,
      "게": 4355,
      "겨": 4356,
      "격": 4357,
      "견": 4358,
      "결": 4359,
      "겼": 4360,
      "경": 4361,
      "계": 4362,
      "고": 4363,
      "곡": 4364,
      "공": 4365,
      "과": 4366,
      "곽": 4367,
      "관": 4368,
      "광": 4369,
      "교": 4370,
      "구": 4371,
      "국": 4372,
      "군": 4373,
      "굴": 4374,
      "궁": 4375,
      "귀": 4376,
      "규": 4377,
      "균": 4378,
      "근": 4379,
      "글": 4380,
      "금": 4381,
      "기": 4382,
      "김": 4383,
      "까": 4384,
      "껸": 4385,
      "꼬": 4386,
      "꾸": 4387,
      "꿈": 4388,
      "뀐": 4389,
      "끼": 4390,
      "나": 4391,
      "난": 4392,
      "날": 4393,
      "내": 4394,
      "너": 4395,
      "넷": 4396,
      "년": 4397,
      "노": 4398,
      "녹": 4399,
      "논": 4400,
      "눈": 4401,
      "는": 4402,
      "니": 4403,
      "다": 4404,
      "단": 4405,
      "담": 4406,
      "답": 4407,
      "당": 4408,
      "대": 4409,
      "댑": 4410,
      "더": 4411,
      "덕": 4412,
      "덤": 4413,
      "데": 4414,
      "델": 4415,
      "도": 4416,
      "돌": 4417,
      "동": 4418,
      "돼": 4419,
      "되": 4420,
      "된": 4421,
      "두": 4422,
      "드": 4423,
      "디": 4424,
      "딩": 4425,
      "때": 4426,
      "떨": 4427,
      "또": 4428,
      "라": 4429,
      "락": 4430,
      "란": 4431,
      "람": 4432,
      "랍": 4433,
      "랑": 4434,
      "래": 4435,
      "랜": 4436,
      "러": 4437,
      "럼": 4438,
      "레": 4439,
      "로": 4440,
      "루": 4441,
      "률": 4442,
      "륭": 4443,
      "를": 4444,
      "릉": 4445,
      "리": 4446,
      "릭": 4447,
      "마": 4448,
      "만": 4449,
      "맞": 4450,
      "매": 4451,
      "맨": 4452,
      "먹": 4453,
      "먼": 4454,
      "메": 4455,
      "멤": 4456,
      "며": 4457,
      "면": 4458,
      "모": 4459,
      "목": 4460,
      "몰": 4461,
      "무": 4462,
      "문": 4463,
      "물": 4464,
      "미": 4465,
      "민": 4466,
      "바": 4467,
      "박": 4468,
      "반": 4469,
      "발": 4470,
      "밟": 4471,
      "방": 4472,
      "배": 4473,
      "백": 4474,
      "뱀": 4475,
      "버": 4476,
      "벌": 4477,
      "법": 4478,
      "병": 4479,
      "보": 4480,
      "복": 4481,
      "부": 4482,
      "북": 4483,
      "분": 4484,
      "브": 4485,
      "블": 4486,
      "비": 4487,
      "쁜": 4488,
      "사": 4489,
      "산": 4490,
      "상": 4491,
      "생": 4492,
      "섀": 4493,
      "서": 4494,
      "석": 4495,
      "선": 4496,
      "설": 4497,
      "섬": 4498,
      "섯": 4499,
      "성": 4500,
      "세": 4501,
      "셔": 4502,
      "션": 4503,
      "소": 4504,
      "솔": 4505,
      "송": 4506,
      "수": 4507,
      "순": 4508,
      "술": 4509,
      "스": 4510,
      "슬": 4511,
      "슴": 4512,
      "습": 4513,
      "승": 4514,
      "시": 4515,
      "신": 4516,
      "실": 4517,
      "심": 4518,
      "십": 4519,
      "싸": 4520,
      "아": 4521,
      "악": 4522,
      "안": 4523,
      "않": 4524,
      "암": 4525,
      "애": 4526,
      "앤": 4527,
      "야": 4528,
      "약": 4529,
      "양": 4530,
      "어": 4531,
      "억": 4532,
      "언": 4533,
      "없": 4534,
      "었": 4535,
      "에": 4536,
      "엔": 4537,
      "여": 4538,
      "연": 4539,
      "엽": 4540,
      "영": 4541,
      "예": 4542,
      "오": 4543,
      "온": 4544,
      "올": 4545,
      "와": 4546,
      "왜": 4547,
      "요": 4548,
      "용": 4549,
      "우": 4550,
      "욱": 4551,
      "운": 4552,
      "울": 4553,
      "움": 4554,
      "웅": 4555,
      "원": 4556,
      "위": 4557,
      "유": 4558,
      "윤": 4559,
      "융": 4560,
      "은": 4561,
      "을": 4562,
      "음": 4563,
      "응": 4564,
      "의": 4565,
      "이": 4566,
      "인": 4567,
      "일": 4568,
      "임": 4569,
      "입": 4570,
      "있": 4571,
      "잉": 4572,
      "자": 4573,
      "작": 4574,
      "잔": 4575,
      "장": 4576,
      "재": 4577,
      "쟁": 4578,
      "전": 4579,
      "점": 4580,
      "정": 4581,
      "제": 4582,
      "조": 4583,
      "존": 4584,
      "좀": 4585,
      "종": 4586,
      "좋": 4587,
      "주": 4588,
      "중": 4589,
      "즌": 4590,
      "증": 4591,
      "지": 4592,
      "진": 4593,
      "질": 4594,
      "집": 4595,
      "찌": 4596,
      "찜": 4597,
      "차": 4598,
      "창": 4599,
      "처": 4600,
      "천": 4601,
      "철": 4602,
      "첩": 4603,
      "청": 4604,
      "총": 4605,
      "최": 4606,
      "추": 4607,
      "춘": 4608,
      "충": 4609,
      "츠": 4610,
      "치": 4611,
      "칠": 4612,
      "카": 4613,
      "캐": 4614,
      "캔": 4615,
      "컬": 4616,
      "코": 4617,
      "콘": 4618,
      "쿠": 4619,
      "쿨": 4620,
      "크": 4621,
      "큰": 4622,
      "키": 4623,
      "타": 4624,
      "탄": 4625,
      "탈": 4626,
      "태": 4627,
      "택": 4628,
      "터": 4629,
      "털": 4630,
      "테": 4631,
      "토": 4632,
      "통": 4633,
      "투": 4634,
      "튀": 4635,
      "트": 4636,
      "틴": 4637,
      "틸": 4638,
      "팅": 4639,
      "파": 4640,
      "판": 4641,
      "패": 4642,
      "팽": 4643,
      "펌": 4644,
      "편": 4645,
      "평": 4646,
      "포": 4647,
      "폰": 4648,
      "표": 4649,
      "푸": 4650,
      "품": 4651,
      "프": 4652,
      "플": 4653,
      "피": 4654,
      "필": 4655,
      "하": 4656,
      "학": 4657,
      "한": 4658,
      "할": 4659,
      "함": 4660,
      "합": 4661,
      "항": 4662,
      "해": 4663,
      "행": 4664,
      "향": 4665,
      "헤": 4666,
      "현": 4667,
      "혈": 4668,
      "형": 4669,
      "혜": 4670,
      "호": 4671,
      "화": 4672,
      "환": 4673,
      "활": 4674,
      "회": 4675,
      "희": 4676,
      "": 4677,
      "": 4678,
      "": 4679,
      "": 4680,
      "": 4681,
      "": 4682,
      "": 4683,
      "": 4684,
      "": 4685,
      "": 4686,
      "": 4687,
      "": 4688,
      "": 4689,
      "": 4690,
      "": 4691,
      "": 4692,
      "": 4693,
      "": 4694,
      "": 4695,
      "": 4696,
      "": 4697,
      "": 4698,
      "": 4699,
      "": 4700,
      "": 4701,
      "": 4702,
      "": 4703,
      "": 4704,
      "": 4705,
      "": 4706,
      "": 4707,
      "": 4708,
      "": 4709,
      "": 4710,
      "": 4711,
      "": 4712,
      "": 4713,
      "": 4714,
      "": 4715,
      "": 4716,
      "": 4717,
      "": 4718,
      "": 4719,
      "": 4720,
      "": 4721,
      "": 4722,
      "": 4723,
      "": 4724,
      "": 4725,
      "": 4726,
      "": 4727,
      "": 4728,
      "": 4729,
      "": 4730,
      "": 4731,
      "": 4732,
      "": 4733,
      "": 4734,
      "": 4735,
      "": 4736,
      "": 4737,
      "": 4738,
      "": 4739,
      "": 4740,
      "": 4741,
      "": 4742,
      "": 4743,
      "": 4744,
      "": 4745,
      "": 4746,
      "": 4747,
      "": 4748,
      "": 4749,
      "": 4750,
      "ﮔ": 4751,
      "ﰀ": 4752,
      "ﰁ": 4753,
      "ﰂ": 4754,
      "ﰃ": 4755,
      "ﰄ": 4756,
      "ﰅ": 4757,
      "ﰆ": 4758,
      "ﰈ": 4759,
      "ﰉ": 4760,
      "ﰊ": 4761,
      "ﰌ": 4762,
      "ﰍ": 4763,
      "ﰎ": 4764,
      "ﰑ": 4765,
      "ﰒ": 4766,
      "ﰓ": 4767,
      "ﰔ": 4768,
      "ﰖ": 4769,
      "ﰛ": 4770,
      "ﰜ": 4771,
      "ﰡ": 4772,
      "﷓": 4773,
      "ﷺ": 4774,
      "︰": 4775,
      "ﺎ": 4776,
      "ﺗ": 4777,
      "ﺘ": 4778,
      "ﺯ": 4779,
      "ﺴ": 4780,
      "ﺸ": 4781,
      "ﻠ": 4782,
      "ﻤ": 4783,
      "ﻦ": 4784,
      "ﻮ": 4785,
      "�": 4786,
      "𐊓": 4787,
      "𐌰": 4788,
      "𐌱": 4789,
      "𐌲": 4790,
      "𐌳": 4791,
      "𐌴": 4792,
      "𐌵": 4793,
      "𐌷": 4794,
      "𐌸": 4795,
      "𐌹": 4796,
      "𐌺": 4797,
      "𐌻": 4798,
      "𐌼": 4799,
      "𐌽": 4800,
      "𐌾": 4801,
      "𐌿": 4802,
      "𐍂": 4803,
      "𐍃": 4804,
      "𐍄": 4805,
      "𐍅": 4806,
      "𐍆": 4807,
      "𐍉": 4808,
      "𐍐": 4809,
      "𐍒": 4810,
      "𐍔": 4811,
      "𐍕": 4812,
      "𐍜": 4813,
      "𐍟": 4814,
      "𐍠": 4815,
      "𐍣": 4816,
      "𐍨": 4817,
      "𐍩": 4818,
      "𐍮": 4819,
      "𐤊": 4820,
      "𐤍": 4821,
      "𐤏": 4822,
      "𒄴": 4823,
      "𒆠": 4824,
      "𒆳": 4825,
      "𒈾": 4826,
      "𝐀": 4827,
      "𝐂": 4828,
      "𝐄": 4829,
      "𝐅": 4830,
      "𝐈": 4831,
      "𝐋": 4832,
      "𝐐": 4833,
      "𝐒": 4834,
      "𝐓": 4835,
      "𝐔": 4836,
      "𝐚": 4837,
      "𝐠": 4838,
      "𝐡": 4839,
      "𝐢": 4840,
      "𝐣": 4841,
      "𝐥": 4842,
      "𝐧": 4843,
      "𝐩": 4844,
      "𝐬": 4845,
      "𝐭": 4846,
      "𝐮": 4847,
      "𝐸": 4848,
      "𝐼": 4849,
      "𝑉": 4850,
      "𝑓": 4851,
      "𝑥": 4852,
      "𝙉": 4853,
      "𝙖": 4854,
      "𝙞": 4855,
      "𝙤": 4856,
      "𝙩": 4857,
      "𝙬": 4858,
      "𝛼": 4859,
      "🄁": 4860,
      "🄊": 4861,
      "🄰": 4862,
      "🄸": 4863,
      "🄻": 4864,
      "🄾": 4865,
      "🅁": 4866,
      "🅂": 4867,
      "🅃": 4868,
      "🤌": 4869,
      "🤔": 4870,
      "🤗": 4871,
      "🤘": 4872,
      "🤛": 4873,
      "🤣": 4874,
      "🤦": 4875,
      "🤩": 4876,
      "🤯": 4877,
      "🤲": 4878,
      "🤷": 4879,
      "🥒": 4880,
      "🥕": 4881,
      "🥙": 4882,
      "🥥": 4883,
      "🥰": 4884,
      "🦄": 4885,
      "🦇": 4886,
      "🦊": 4887,
      "🦖": 4888,
      "🧁": 4889,
      "🧡": 4890,
      "𠂊": 4891,
      "𠫑": 4892,
      "𤣯": 4893,
      "𤣳": 4894,
      "󠁢": 4895,
      "󠁣": 4896,
      "󠁧": 4897,
      "󠁳": 4898,
      "󠁴": 4899,
      "󠁿": 4900,
      "􏰊": 4901,
      "##s": 4902,
      "##t": 4903,
      "##r": 4904,
      "##a": 4905,
      "##e": 4906,
      "##g": 4907,
      "##i": 4908,
      "##c": 4909,
      "##l": 4910,
      "##,": 4911,
      "##m": 4912,
      "##\"": 4913,
      "##h": 4914,
      "##n": 4915,
      "##d": 4916,
      "##.": 4917,
      "##9": 4918,
      "##B": 4919,
      "##o": 4920,
      "##u": 4921,
      "##-": 4922,
      "##v": 4923,
      "##8": 4924,
      "##W": 4925,
      "##S": 4926,
      "##M": 4927,
      "##A": 4928,
      "##R": 4929,
      "##C": 4930,
      "##L": 4931,
      "##2": 4932,
      "##P": 4933,
      "##k": 4934,
      "##b": 4935,
      "##y": 4936,
      "##4": 4937,
      "##3": 4938,
      "##0": 4939,
      "##1": 4940,
      "##/": 4941,
      "##)": 4942,
      "##T": 4943,
      "##6": 4944,
      "##f": 4945,
      "##p": 4946,
      "##$": 4947,
      "##I": 4948,
      "##;": 4949,
      "##w": 4950,
      "##?": 4951,
      "##7": 4952,
      "##E": 4953,
      "##V": 4954,
      "##Q": 4955,
      "##D": 4956,
      "##K": 4957,
      "##(": 4958,
      "##z": 4959,
      "##–": 4960,
      "##N": 4961,
      "##F": 4962,
      "##x": 4963,
      "##O": 4964,
      "##H": 4965,
      "##G": 4966,
      "##!": 4967,
      "##5": 4968,
      "##'": 4969,
      "##J": 4970,
      "##]": 4971,
      "##М": 4972,
      "##о": 4973,
      "##и": 4974,
      "##U": 4975,
      "##с": 4976,
      "##а": 4977,
      "##е": 4978,
      "##ø": 4979,
      "##q": 4980,
      "##:": 4981,
      "##j": 4982,
      "##【": 4983,
      "##】": 4984,
      "##Z": 4985,
      "##自": 4986,
      "##閉": 4987,
      "##症": 4988,
      "##ス": 4989,
      "##ヘ": 4990,
      "##ク": 4991,
      "##ト": 4992,
      "##ラ": 4993,
      "##ム": 4994,
      "##障": 4995,
      "##害": 4996,
      "##に": 4997,
      "##お": 4998,
      "##け": 4999,
      "##る": 5000,
      "##ヒ": 5001,
      "##タ": 5002,
      "##ミ": 5003,
      "##ン": 5004,
      "##の": 5005,
      "##状": 5006,
      "##態": 5007,
      "##と": 5008,
      "##、": 5009,
      "##児": 5010,
      "##補": 5011,
      "##給": 5012,
      "##有": 5013,
      "##効": 5014,
      "##性": 5015,
      "##—": 5016,
      "##�": 5017,
      "###": 5018,
      "##Y": 5019,
      "##X": 5020,
      "##一": 5021,
      "##点": 5022,
      "##い": 5023,
      "##て": 5024,
      "##動": 5025,
      "##焦": 5026,
      "##調": 5027,
      "##節": 5028,
      "##を": 5029,
      "##行": 5030,
      "##っ": 5031,
      "##た": 5032,
      "##り": 5033,
      "##ま": 5034,
      "##後": 5035,
      "##述": 5036,
      "##す": 5037,
      "##様": 5038,
      "##露": 5039,
      "##光": 5040,
      "##正": 5041,
      "##こ": 5042,
      "##か": 5043,
      "##き": 5044,
      "##。": 5045,
      "##抰": 5046,
      "##ѕ": 5047,
      "##і": 5048,
      "##>": 5049,
      "##%": 5050,
      "##ホ": 5051,
      "##ハ": 5052,
      "##ー": 5053,
      "##フ": 5054,
      "##ツ": 5055,
      "##…": 5056,
      "## ": 5057,
      "##_": 5058,
      "##`": 5059,
      "##€": 5060,
      "## ": 5061,
      "##·": 5062,
      "##&": 5063,
      "##@": 5064,
      "##З": 5065,
      "##д": 5066,
      "##ч": 5067,
      "##\t": 5068,
      "##*": 5069,
      "##›": 5070,
      "##+": 5071,
      "##£": 5072,
      "##{": 5073,
      "##|": 5074,
      "##=": 5075,
      "##[": 5076,
      "##°": 5077,
      "##‑": 5078,
      "##❶": 5079,
      "##™": 5080,
      "##μ": 5081,
      "##у": 5082,
      "##₹": 5083,
      "##г": 5084,
      "##р": 5085,
      "##ж": 5086,
      "##з": 5087,
      "##н": 5088,
      "##​": 5089,
      "##О": 5090,
      "##′": 5091,
      "##א": 5092,
      "##צ": 5093,
      "##¡": 5094,
      "##±": 5095,
      "##ß": 5096,
      "##м": 5097,
      "##я": 5098,
      "##~": 5099,
      "##­": 5100,
      "##´": 5101,
      "##®": 5102,
      "##": 5103,
      "##•": 5104,
      "##අ": 5105,
      "##ශ": 5106,
      "##ො": 5107,
      "##ක": 5108,
      "## ": 5109,
      "##三": 5110,
      "##宅": 5111,
      "##т": 5112,
      "##ь": 5113,
      "##►": 5114,
      "##方": 5115,
      "##法": 5116,
      "##つ": 5117,
      "##は": 5118,
      "##ප": 5119,
      "##ැ": 5120,
      "##න": 5121,
      "##−": 5122,
      "##≈": 5123,
      "##δ": 5124,
      "##φ": 5125,
      "## ": 5126,
      "## ": 5127,
      "##袖": 5128,
      "##珍": 5129,
      "##天": 5130,
      "##堂": 5131,
      "##生": 5132,
      "##活": 5133,
      "##頻": 5134,
      "##道": 5135,
      "##ʻ": 5136,
      "##": 5137,
      "##Є": 5138,
      "##в": 5139,
      "##п": 5140,
      "##🦄": 5141,
      "##ʾ": 5142,
      "##‎": 5143,
      "##转": 5144,
      "##到": 5145,
      "##<": 5146,
      "##ο": 5147,
      "##ι": 5148,
      "##劉": 5149,
      "##斌": 5150,
      "##ا": 5151,
      "##ل": 5152,
      "##م": 5153,
      "##و": 5154,
      "##ض": 5155,
      "##ع": 5156,
      "##^": 5157,
      "##»": 5158,
      "##आ": 5159,
      "##ग": 5160,
      "##ल": 5161,
      "##心": 5162,
      "##燒": 5163,
      "##食": 5164,
      "##₤": 5165,
      "##―": 5166,
      "##\\": 5167,
      "##≥": 5168,
      "##→": 5169,
      "##架": 5170,
      "##α": 5171,
      "##Х": 5172,
      "##є": 5173,
      "##к": 5174,
      "##ю": 5175,
      "##″": 5176,
      "##错": 5177,
      "##误": 5178,
      "##提": 5179,
      "##示": 5180,
      "##緊": 5181,
      "##急": 5182,
      "##金": 5183,
      "##必": 5184,
      "##要": 5185,
      "##な": 5186,
      "##場": 5187,
      "##合": 5188,
      "##消": 5189,
      "##費": 5190,
      "##者": 5191,
      "##融": 5192,
      "##キ": 5193,
      "##ャ": 5194,
      "##ッ": 5195,
      "##シ": 5196,
      "##§": 5197,
      "##σ": 5198,
      "##ج": 5199,
      "##ي": 5200,
      "##ة": 5201,
      "##β": 5202,
      "##ش": 5203,
      "##ف": 5204,
      "##ق": 5205,
      "##귀": 5206,
      "##에": 5207,
      "##エ": 5208,
      "##神": 5209,
      "##†": 5210,
      "##結": 5211,
      "##像": 5212,
      "##レ": 5213,
      "##・": 5214,
      "##リ": 5215,
      "##内": 5216,
      "##路": 5217,
      "##介": 5218,
      "##し": 5219,
      "##対": 5220,
      "##物": 5221,
      "##予": 5222,
      "##定": 5223,
      "##面": 5224,
      "##配": 5225,
      "##さ": 5226,
      "##れ": 5227,
      "##板": 5228,
      "##受": 5229,
      "##器": 5230,
      "##共": 5231,
      "##役": 5232,
      "##関": 5233,
      "##係": 5234,
      "##付": 5235,
      "##Æ": 5236,
      "##注": 5237,
      "##ด": 5238,
      "##ł": 5239,
      "##源": 5240,
      "##氏": 5241,
      "##¥": 5242,
      "##전": 5243,
      "##화": 5244,
      "##작": 5245,
      "##은": 5246,
      "##丰": 5247,
      "##衣": 5248,
      "##足": 5249,
      "##К": 5250,
      "##л": 5251,
      "##ы": 5252,
      "##А": 5253,
      "##Л": 5254,
      "##Н": 5255,
      "##æ": 5256,
      "## ": 5257,
      "##ɔ": 5258,
      "##ʁ": 5259,
      "##ˈ": 5260,
      "##ı": 5261,
      "##º": 5262,
      "##හ": 5263,
      "##ඳ": 5264,
      "##ම": 5265,
      "##И": 5266,
      "##С": 5267,
      "##日": 5268,
      "##常": 5269,
      "##的": 5270,
      "##曝": 5271,
      "##健": 5272,
      "##康": 5273,
      "##益": 5274,
      "##¶": 5275,
      "##ن": 5276,
      "##ස": 5277,
      "##ල": 5278,
      "##ව": 5279,
      "##ා": 5280,
      "##ש": 5281,
      "##י": 5282,
      "##נ": 5283,
      "##ו": 5284,
      "##ص": 5285,
      "##ـ": 5286,
      "##ح": 5287,
      "##ب": 5288,
      "##「": 5289,
      "##挫": 5290,
      "##折": 5291,
      "##」": 5292,
      "##昭": 5293,
      "##和": 5294,
      "##史": 5295,
      "##❤": 5296,
      "##与": 5297,
      "##需": 5298,
      "##供": 5299,
      "##电": 5300,
      "##该": 5301,
      "##子": 5302,
      "##组": 5303,
      "##件": 5304,
      "##之": 5305,
      "##间": 5306,
      "##并": 5307,
      "##通": 5308,
      "##过": 5309,
      "##网": 5310,
      "##络": 5311,
      "##连": 5312,
      "##接": 5313,
      "##端": 5314,
      "##口": 5315,
      "##因": 5316,
      "##特": 5317,
      "##以": 5318,
      "##控": 5319,
      "##制": 5320,
      "##功": 5321,
      "##能": 5322,
      "##Г": 5323,
      "##б": 5324,
      "##農": 5325,
      "##薬": 5326,
      "##散": 5327,
      "##布": 5328,
      "##³": 5329,
      "##⁄": 5330,
      "##ʹ": 5331,
      "##✓": 5332,
      "##邪": 5333,
      "##馬": 5334,
      "##台": 5335,
      "##国": 5336,
      "##秘": 5337,
      "##密": 5338,
      "##二": 5339,
      "##幕": 5340,
      "##半": 5341,
      "##殺": 5342,
      "##人": 5343,
      "##ј": 5344,
      "##Е": 5345,
      "##Ф": 5346,
      "##Р": 5347,
      "##住": 5348,
      "##中": 5349,
      "##打": 5350,
      "##開": 5351,
      "##孔": 5352,
      "##胤": 5353,
      "##秀": 5354,
      "##×": 5355,
      "##牡": 5356,
      "##蠣": 5357,
      "##🥙": 5358,
      "##ə": 5359,
      "##‒": 5360,
      "##γ": 5361,
      "##ប": 5362,
      "##រ": 5363,
      "##ឡ": 5364,
      "##ង": 5365,
      "##ច": 5366,
      "##េ": 5367,
      "##ញ": 5368,
      "##ថ": 5369,
      "##ន": 5370,
      "##ា": 5371,
      "##ក": 5372,
      "##ជ": 5373,
      "##ត": 5374,
      "##វ": 5375,
      "##ស": 5376,
      "##យ": 5377,
      "##ខ": 5378,
      "##ភ": 5379,
      "##ល": 5380,
      "##𐍒": 5381,
      "##𐍣": 5382,
      "##𐍕": 5383,
      "##𐍩": 5384,
      "##𐍜": 5385,
      "##呂": 5386,
      "##延": 5387,
      "##अ": 5388,
      "##स": 5389,
      "##त": 5390,
      "##西": 5391,
      "##本": 5392,
      "##郷": 5393,
      "##触": 5394,
      "##⃣": 5395,
      "##ר": 5396,
      "##岁": 5397,
      "##了": 5398,
      "##我": 5399,
      "##祖": 5400,
      "##父": 5401,
      "##是": 5402,
      "##½": 5403,
      "##鰻": 5404,
      "##ל": 5405,
      "##ד": 5406,
      "##청": 5407,
      "##어": 5408,
      "##람": 5409,
      "##미": 5410,
      "##디": 5411,
      "##ت": 5412,
      "##ی": 5413,
      "##ر": 5414,
      "##گ": 5415,
      "##龍": 5416,
      "##海": 5417,
      "##ம": 5418,
      "##ா": 5419,
      "##ல": 5420,
      "##ை": 5421,
      "##ʿ": 5422,
      "##อ": 5423,
      "##ะ": 5424,
      "##ไ": 5425,
      "##ห": 5426,
      "##ล": 5427,
      "##เ": 5428,
      "##ก": 5429,
      "##ย": 5430,
      "##ร": 5431,
      "##λ": 5432,
      "##《": 5433,
      "##臺": 5434,
      "##灣": 5435,
      "##哲": 5436,
      "##學": 5437,
      "##週": 5438,
      "##年": 5439,
      "##術": 5440,
      "##研": 5441,
      "##討": 5442,
      "##會": 5443,
      "##》": 5444,
      "##南": 5445,
      "##港": 5446,
      "##央": 5447,
      "##究": 5448,
      "##院": 5449,
      "##歐": 5450,
      "##美": 5451,
      "##所": 5452,
      "##月": 5453,
      "## ": 5454,
      "##ط": 5455,
      "##˚": 5456,
      "##¿": 5457,
      "##尊": 5458,
      "##长": 5459,
      "##尽": 5460,
      "##孝": 5461,
      "##名": 5462,
      "##将": 5463,
      "##曹": 5464,
      "##休": 5465,
      "##墓": 5466,
      "##出": 5467,
      "##土": 5468,
      "##㞡": 5469,
      "##س": 5470,
      "##د": 5471,
      "##Ρ": 5472,
      "##ω": 5473,
      "##ν": 5474,
      "##œ": 5475,
      "##せ": 5476,
      "##Υ": 5477,
      "##π": 5478,
      "##κ": 5479,
      "##υ": 5480,
      "##ε": 5481,
      "##В": 5482,
      "##え": 5483,
      "##đ": 5484,
      "##填": 5485,
      "##写": 5486,
      "##商": 5487,
      "##家": 5488,
      "##订": 5489,
      "##单": 5490,
      "##号": 5491,
      "##如": 5492,
      "##上": 5493,
      "##为": 5494,
      "##插": 5495,
      "##外": 5496,
      "##部": 5497,
      "##线": 5498,
      "##至": 5499,
      "##Σ": 5500,
      "##ρ": 5501,
      "##þ": 5502,
      "##豊": 5503,
      "##田": 5504,
      "##ф": 5505,
      "##↵": 5506,
      "##浅": 5507,
      "##草": 5508,
      "##ඩ": 5509,
      "##ى": 5510,
      "##然": 5511,
      "##而": 5512,
      "##显": 5513,
      "##即": 5514,
      "##使": 5515,
      "##设": 5516,
      "##备": 5517,
      "##处": 5518,
      "##于": 5519,
      "##关": 5520,
      "##机": 5521,
      "##态": 5522,
      "##但": 5523,
      "##只": 5524,
      "##座": 5525,
      "##则": 5526,
      "##仍": 5527,
      "##会": 5528,
      "##流": 5529,
      "##微": 5530,
      "##小": 5531,
      "##此": 5532,
      "##来": 5533,
      "##多": 5534,
      "##造": 5535,
      "##成": 5536,
      "##力": 5537,
      "##浪": 5538,
      "##费": 5539,
      "##Ɩ": 5540,
      "##מ": 5541,
      "##№": 5542,
      "##Þ": 5543,
      "##十": 5544,
      "##色": 5545,
      "##國": 5546,
      "##Д": 5547,
      "##ק": 5548,
      "##臭": 5549,
      "##豆": 5550,
      "##腐": 5551,
      "##█": 5552,
      "##η": 5553,
      "##ς": 5554,
      "##र": 5555,
      "##℉": 5556,
      "##¬": 5557,
      "##ð": 5558,
      "##鴻": 5559,
      "##精": 5560,
      "##北": 5561,
      "##塘": 5562,
      "##∼": 5563,
      "##井": 5564,
      "##ケ": 5565,
      "##谷": 5566,
      "##Т": 5567,
      "##Ч": 5568,
      "##}": 5569,
      "##‐": 5570,
      "##ת": 5571,
      "##ן": 5572,
      "##頭": 5573,
      "##汴": 5574,
      "##派": 5575,
      "##Đ": 5576,
      "##१": 5577,
      "##५": 5578,
      "##«": 5579,
      "##ර": 5580,
      "##ෑ": 5581,
      "##★": 5582,
      "##Α": 5583,
      "##图": 5584,
      "##书": 5585,
      "##馆": 5586,
      "##圖": 5587,
      "##書": 5588,
      "##館": 5589,
      "##咪": 5590,
      "##眼": 5591,
      "##ه": 5592,
      "##舒": 5593,
      "##州": 5594,
      "##Ψ": 5595,
      "##松": 5596,
      "##別": 5597,
      "##莊": 5598,
      "##ב": 5599,
      "##Я": 5600,
      "##へ": 5601,
      "##属": 5602,
      "##棋": 5603,
      "##士": 5604,
      "##戸": 5605,
      "##新": 5606,
      "##聞": 5607,
      "##版": 5608,
      "##セ": 5609,
      "##张": 5610,
      "##腾": 5611,
      "##龙": 5612,
      "##凤": 5613,
      "##烛": 5614,
      "##Б": 5615,
      "##": 5616,
      "##Ω": 5617,
      "##九": 5618,
      "##儿": 5619,
      "##ʔ": 5620,
      "##寺": 5621,
      "##尾": 5622,
      "##学": 5623,
      "##校": 5624,
      "##ⲟ": 5625,
      "##ん": 5626,
      "##感": 5627,
      "##文": 5628,
      "##発": 5629,
      "##ⅾ": 5630,
      "##ƿ": 5631,
      "##曜": 5632,
      "##陳": 5633,
      "##永": 5634,
      "##仁": 5635,
      "##領": 5636,
      "##軍": 5637,
      "##將": 5638,
      "##ア": 5639,
      "##あ": 5640,
      "##め": 5641,
      "##忠": 5642,
      "##誠": 5643,
      "##電": 5644,
      "##化": 5645,
      "##拋": 5646,
      "##處": 5647,
      "##理": 5648,
      "##可": 5649,
      "##效": 5650,
      "##試": 5651,
      "##片": 5652,
      "##鏡": 5653,
      "##品": 5654,
      "##質": 5655,
      "##且": 5656,
      "##去": 5657,
      "##除": 5658,
      "##表": 5659,
      "##油": 5660,
      "##污": 5661,
      "##氧": 5662,
      "##與": 5663,
      "##在": 5664,
      "##等": 5665,
      "##同": 5666,
      "##時": 5667,
      "##形": 5668,
      "##層": 5669,
      "##薄": 5670,
      "##鋁": 5671,
      "##進": 5672,
      "##影": 5673,
      "##響": 5674,
      "##陽": 5675,
      "##極": 5676,
      "##其": 5677,
      "##最": 5678,
      "##佳": 5679,
      "##參": 5680,
      "##數": 5681,
      "##為": 5682,
      "##壓": 5683,
      "##間": 5684,
      "##前": 5685,
      "##原": 5686,
      "##始": 5687,
      "##粗": 5688,
      "##糙": 5689,
      "##度": 5690,
      "##ख": 5691,
      "##ा": 5692,
      "##ट": 5693,
      "##خ": 5694,
      "##☆": 5695,
      "##τ": 5696,
      "##©": 5697,
      "##श": 5698,
      "##ि": 5699,
      "##क": 5700,
      "##ी": 5701,
      "##च": 5702,
      "##य": 5703,
      "##郡": 5704,
      "##√": 5705,
      "##♡": 5706,
      "##𝙬": 5707,
      "##𝙖": 5708,
      "##𝙞": 5709,
      "##𝙩": 5710,
      "##Π": 5711,
      "##‪": 5712,
      "##‬": 5713,
      "##≃": 5714,
      "##●": 5715,
      "##พ": 5716,
      "##น": 5717,
      "##า": 5718,
      "##ภ": 5719,
      "##華": 5720,
      "##民": 5721,
      "##高": 5722,
      "##융": 5723,
      "##릉": 5724,
      "##检": 5725,
      "##测": 5726,
      "##主": 5727,
      "##开": 5728,
      "##元": 5729,
      "##借": 5730,
      "##由": 5731,
      "##对": 5732,
      "##得": 5733,
      "##⌠": 5734,
      "##⌡": 5735,
      "##ԁ": 5736,
      "##µ": 5737,
      "##²": 5738,
      "##御": 5739,
      "##奉": 5740,
      "##衆": 5741,
      "##梁": 5742,
      "##洛": 5743,
      "##施": 5744,
      "##視": 5745,
      "##線": 5746,
      "##位": 5747,
      "##置": 5748,
      "##連": 5749,
      "##続": 5750,
      "##求": 5751,
      "##ら": 5752,
      "##象": 5753,
      "##第": 5754,
      "##図": 5755,
      "##限": 5756,
      "##も": 5757,
      "##ち": 5758,
      "##ろ": 5759,
      "##¢": 5760,
      "##清": 5761,
      "##ш": 5762,
      "##铁": 5763,
      "##区": 5764,
      "##Ι": 5765,
      "##Ν": 5766,
      "##Τ": 5767,
      "##码": 5768,
      "##头": 5769,
      "##不": 5770,
      "##知": 5771,
      "##什": 5772,
      "##么": 5773,
      "##还": 5774,
      "##管": 5775,
      "##用": 5776,
      "##Э": 5777,
      "##‡": 5778,
      "##‭": 5779,
      "##慶": 5780,
      "##次": 5781,
      "##郎": 5782,
      "##ա": 5783,
      "##ք": 5784,
      "##ղ": 5785,
      "##교": 5786,
      "##통": 5787,
      "##카": 5788,
      "##드": 5789,
      "##ה": 5790,
      "##ם": 5791,
      "##ħ": 5792,
      "##樓": 5793,
      "##馱": 5794,
      "##記": 5795,
      "##局": 5796,
      "##測": 5797,
      "##側": 5798,
      "##よ": 5799,
      "##広": 5800,
      "##範": 5801,
      "##囲": 5802,
      "##域": 5803,
      "##起": 5804,
      "##八": 5805,
      "##里": 5806,
      "##工": 5807,
      "##业": 5808,
      "##园": 5809,
      "##毛": 5810,
      "##利": 5811,
      "##凸": 5812,
      "##凹": 5813,
      "##ظ": 5814,
      "##¼": 5815,
      "##≤": 5816,
      "##カ": 5817,
      "##ウ": 5818,
      "##覗": 5819,
      "##く": 5820,
      "##距": 5821,
      "##野": 5822,
      "##マ": 5823,
      "##見": 5824,
      "##例": 5825,
      "##観": 5826,
      "##察": 5827,
      "##ц": 5828,
      "##У": 5829,
      "##ల": 5830,
      "##క": 5831,
      "##ష": 5832,
      "##🄁": 5833,
      "##ⅼ": 5834,
      "##検": 5835,
      "##ほ": 5836,
      "##イ": 5837,
      "##ヤ": 5838,
      "##優": 5839,
      "##先": 5840,
      "##絞": 5841,
      "##ロ": 5842,
      "##撮": 5843,
      "##モ": 5844,
      "##変": 5845,
      "##操": 5846,
      "##作": 5847,
      "##段": 5848,
      "##押": 5849,
      "##込": 5850,
      "##み": 5851,
      "##認": 5852,
      "##応": 5853,
      "##う": 5854,
      "##啤": 5855,
      "##梨": 5856,
      "##蘋": 5857,
      "##果": 5858,
      "##橙": 5859,
      "##э": 5860,
      "##仔": 5861,
      "##鼓": 5862,
      "##너": 5863,
      "##나": 5864,
      "##袯": 5865,
      "##英": 5866,
      "##語": 5867,
      "##ϲ": 5868,
      "##⌦": 5869,
      "##Ԁ": 5870,
      "##Ꭺ": 5871,
      "##ᴀ": 5872,
      "##℃": 5873,
      "##θ": 5874,
      "##鈥": 5875,
      "##檝": 5876,
      "##五": 5877,
      "##千": 5878,
      "##字": 5879,
      "##抎": 5880,
      "##ɗ": 5881,
      "##ψ": 5882,
      "##狼": 5883,
      "##ː": 5884,
      "##ɡ": 5885,
      "##¨": 5886,
      "##П": 5887,
      "##‰": 5888,
      "##⇒": 5889,
      "##ג": 5890,
      "##ץ": 5891,
      "##福": 5892,
      "##そ": 5893,
      "##大": 5894,
      "##問": 5895,
      "##題": 5896,
      "##画": 5897,
      "##重": 5898,
      "##機": 5899,
      "##構": 5900,
      "##被": 5901,
      "##体": 5902,
      "##כ": 5903,
      "##ע": 5904,
      "##奕": 5905,
      "##璽": 5906,
      "##刘": 5907,
      "##沟": 5908,
      "##": 5909,
      "##│": 5910,
      "##ो": 5911,
      "##": 5912,
      "##ਮ": 5913,
      "##ਾ": 5914,
      "##ਨ": 5915,
      "##ਿ": 5916,
      "##ਉ": 5917,
      "##明": 5918,
      "##白": 5919,
      "##濁": 5920,
      "##音": 5921,
      "##舜": 5922,
      "##臣": 5923,
      "##Δ": 5924,
      "##입": 5925,
      "##니": 5926,
      "##다": 5927,
      "##志": 5928,
      "##堅": 5929,
      "##創": 5930,
      "##業": 5931,
      "##迎": 5932,
      "##染": 5933,
      "##織": 5934,
      "##産": 5935,
      "##社": 5936,
      "##丸": 5937,
      "##萬": 5938,
      "##兵": 5939,
      "##庫": 5940,
      "##脇": 5941,
      "##市": 5942,
      "##誕": 5943,
      "##テ": 5944,
      "##や": 5945,
      "##ァ": 5946,
      "##ョ": 5947,
      "##ル": 5948,
      "##楽": 5949,
      "##信": 5950,
      "##щ": 5951,
      "##х": 5952,
      "##↯": 5953,
      "##六": 5954,
      "##義": 5955,
      "##園": 5956,
      "##ब": 5957,
      "##模": 5958,
      "##块": 5959,
      "##收": 5960,
      "##命": 5961,
      "##令": 5962,
      "##传": 5963,
      "##送": 5964,
      "##沈": 5965,
      "##后": 5966,
      "##再": 5967,
      "##依": 5968,
      "##据": 5969,
      "##容": 5970,
      "##导": 5971,
      "##断": 5972,
      "##ϕ": 5973,
      "##∘": 5974,
      "##冲": 5975,
      "##ज": 5976,
      "##한": 5977,
      "##대": 5978,
      "##수": 5979,
      "##➨": 5980,
      "##♫": 5981,
      "##確": 5982,
      "##黒": 5983,
      "##目": 5984,
      "##径": 5985,
      "##瞳": 5986,
      "##違": 5987,
      "##界": 5988,
      "##直": 5989,
      "##ס": 5990,
      "##藤": 5991,
      "##木": 5992,
      "##க": 5993,
      "##ட": 5994,
      "##ள": 5995,
      "##ே": 5996,
      "##辛": 5997,
      "##亥": 5998,
      "##革": 5999,
      "##分": 6000,
      "##立": 6001,
      "##言": 6002,
      "##虛": 6003,
      "##擬": 6004,
      "##環": 6005,
      "##境": 6006,
      "##並": 6007,
      "##灯": 6008,
      "##具": 6009,
      "##女": 6010,
      "##味": 6011,
      "##₡": 6012,
      "##↔": 6013,
      "##王": 6014,
      "##廣": 6015,
      "##ξ": 6016,
      "##฿": 6017,
      "##ʃ": 6018,
      "##敷": 6019,
      "##島": 6020,
      "##型": 6021,
      "##戰": 6022,
      "##艦": 6023,
      "##ඇ": 6024,
      "##ඟ": 6025,
      "##ට": 6026,
      "##※": 6027,
      "##χ": 6028,
      "##∇": 6029,
      "##ԝ": 6030,
      "##楊": 6031,
      "##盛": 6032,
      "##昼": 6033,
      "##死": 6034,
      "##角": 6035,
      "##▼": 6036,
      "##": 6037,
      "##Բ": 6038,
      "##ե": 6039,
      "##կ": 6040,
      "##һ": 6041,
      "##Ꮋ": 6042,
      "##태": 6043,
      "##껸": 6044,
      "##⁎": 6045,
      "##ෂ": 6046,
      "##‾": 6047,
      "##‍": 6048,
      "##¦": 6049,
      "##न": 6050,
      "##水": 6051,
      "##虎": 6052,
      "##爺": 6053,
      "##廟": 6054,
      "##‹": 6055,
      "##沒": 6056,
      "##干": 6057,
      "##獻": 6058,
      "##酸": 6059,
      "##辣": 6060,
      "##汤": 6061,
      "##ↂ": 6062,
      "##鐃": 6063,
      "##緒": 6064,
      "##申": 6065,
      "##ネ": 6066,
      "##向": 6067,
      "##安": 6068,
      "##鯖": 6069,
      "##畫": 6070,
      "##♦": 6071,
      "##○": 6072,
      "##Ł": 6073,
      "##": 6074,
      "##장": 6075,
      "##덕": 6076,
      "##천": 6077,
      "##揼": 6078,
      "##ɛ": 6079,
      "##۝": 6080,
      "##∗": 6081,
      "##池": 6082,
      "##秦": 6083,
      "##武": 6084,
      "##˜": 6085,
      "##Ø": 6086,
      "##抯": 6087,
      "##◦": 6088,
      "##橋": 6089,
      "##絶": 6090,
      "##趙": 6091,
      "##薇": 6092,
      "##潭": 6093,
      "##香": 6094,
      "##コ": 6095,
      "##均": 6096,
      "##平": 6097,
      "##兗": 6098,
      "##ﮔ": 6099,
      "##莫": 6100,
      "##羖": 6101,
      "##羝": 6102,
      "##敬": 6103,
      "##아": 6104,
      "##스": 6105,
      "##ء": 6106,
      "##ণ": 6107,
      "##ক": 6108,
      "##ল": 6109,
      "##Ш": 6110,
      "##ナ": 6111,
      "##¹": 6112,
      "##揵": 6113,
      "##无": 6114,
      "##就": 6115,
      "##发": 6116,
      "##给": 6117,
      "##终": 6118,
      "##當": 6119,
      "##錢": 6120,
      "##ध": 6121,
      "##ส": 6122,
      "##บ": 6123,
      "##ค": 6124,
      "##ม": 6125,
      "##杰": 6126,
      "##鹏": 6127,
      "##倫": 6128,
      "##下": 6129,
      "##": 6130,
      "##途": 6131,
      "##横": 6132,
      "##移": 6133,
      "##良": 6134,
      "##素": 6135,
      "##列": 6136,
      "##単": 6137,
      "##純": 6138,
      "##ʊ": 6139,
      "##意": 6140,
      "##値": 6141,
      "##彦": 6142,
      "##": 6143,
      "##ⁿ": 6144,
      "##馍": 6145,
      "##山": 6146,
      "##辺": 6147,
      "##疏": 6148,
      "##义": 6149,
      "##ひ": 6150,
      "##Ц": 6151,
      "##ニ": 6152,
      "##ィ": 6153,
      "##ܦ": 6154,
      "##ܪ": 6155,
      "##ܟ": 6156,
      "##ܣ": 6157,
      "##ܝ": 6158,
      "##ɪ": 6159,
      "##ŋ": 6160,
      "##⋅": 6161,
      "##ѵ": 6162,
      "##좋": 6163,
      "##하": 6164,
      "##는": 6165,
      "##ǂ": 6166,
      "##ߋ": 6167,
      "##바": 6168,
      "##위": 6169,
      "##Ⅱ": 6170,
      "##誘": 6171,
      "##惑": 6172,
      "##☓": 6173,
      "##创": 6174,
      "##库": 6175,
      "##ک": 6176,
      "##百": 6177,
      "##蜜": 6178,
      "##Ƹ": 6179,
      "##Ж": 6180,
      "##Ʒ": 6181,
      "##湟": 6182,
      "##种": 6183,
      "##ս": 6184,
      "##菜": 6185,
      "##ॊ": 6186,
      "##訊": 6187,
      "##息": 6188,
      "##啟": 6189,
      "##🤣": 6190,
      "##": 6191,
      "##마": 6192,
      "##무": 6193,
      "##발": 6194,
      "##해": 6195,
      "##를": 6196,
      "##দ": 6197,
      "##І": 6198,
      "##ง": 6199,
      "##ζ": 6200,
      "##⁠": 6201,
      "##丁": 6202,
      "##व": 6203,
      "##द": 6204,
      "##篇": 6205,
      "##ද": 6206,
      "##ය": 6207,
      "##過": 6208,
      "##手": 6209,
      "##氣": 6210,
      "##ผ": 6211,
      "##ต": 6212,
      "##君": 6213,
      "##津": 6214,
      "##⇓": 6215,
      "##♥": 6216,
      "##ך": 6217,
      "##ข": 6218,
      "##ป": 6219,
      "##回": 6220,
      "##避": 6221,
      "##更": 6222,
      "##凉": 6223,
      "##杯": 6224,
      "##פ": 6225,
      "##Ь": 6226,
      "##𐍃": 6227,
      "##𐌺": 6228,
      "##𐌿": 6229,
      "##𐌻": 6230,
      "##𐌰": 6231,
      "##𐌼": 6232,
      "##何": 6233,
      "##润": 6234,
      "##东": 6235,
      "##ʎ": 6236,
      "##म": 6237,
      "##ළ": 6238,
      "##Ꮯ": 6239,
      "##捎": 6240,
      "##都": 6241,
      "##府": 6242,
      "##県": 6243,
      "##論": 6244,
      "##叢": 6245,
      "##⟵": 6246,
      "##席": 6247,
      "##鸿": 6248,
      "##儒": 6249,
      "##叉": 6250,
      "##烧": 6251,
      "##右": 6252,
      "##营": 6253,
      "##Ƅ": 6254,
      "##芹": 6255,
      "##Ε": 6256,
      "##Ы": 6257,
      "##𐌽": 6258,
      "##𐍄": 6259,
      "##𐌴": 6260,
      "##ח": 6261,
      "##〰": 6262,
      "##仮": 6263,
      "##哥": 6264,
      "##ك": 6265,
      "##ਜ": 6266,
      "##ੀ": 6267,
      "##ਵ": 6268,
      "##ਣ": 6269,
      "##": 6270,
      "##ह": 6271,
      "##₦": 6272,
      "##˅": 6273,
      "##倪": 6274,
      "##ъ": 6275,
      "##坤": 6276,
      "##チ": 6277,
      "##⟨": 6278,
      "##⟩": 6279,
      "##江": 6280,
      "##寶": 6281,
      "##船": 6282,
      "##廠": 6283,
      "##入": 6284,
      "##Γ": 6285,
      "##ท": 6286,
      "##ฟ": 6287,
      "##ซ": 6288,
      "##技": 6289,
      "##情": 6290,
      "##報": 6291,
      "##♂": 6292,
      "##昔": 6293,
      "##思": 6294,
      "##进": 6295,
      "##ٱ": 6296,
      "##失": 6297,
      "##格": 6298,
      "##救": 6299,
      "##濟": 6300,
      "##善": 6301,
      "##ѡ": 6302,
      "##پ": 6303,
      "##河": 6304,
      "##実": 6305,
      "##無": 6306,
      "##詞": 6307,
      "##": 6308,
      "##東": 6309,
      "##℮": 6310,
      "##𐤊": 6311,
      "##𐤍": 6312,
      "##𐤏": 6313,
      "##ᴡ": 6314,
      "##伐": 6315,
      "##サ": 6316,
      "##オ": 6317,
      "##比": 6318,
      "##較": 6319,
      "##投": 6320,
      "##妊": 6321,
      "##婦": 6322,
      "##早": 6323,
      "##期": 6324,
      "##低": 6325,
      "##事": 6326,
      "##解": 6327,
      "##析": 6328,
      "##↪": 6329,
      "##欢": 6330,
      "##加": 6331,
      "##₽": 6332,
      "##峇": 6333,
      "##돌": 6334,
      "##।": 6335,
      "##ⅽ": 6336,
      "##ہ": 6337,
      "##檚": 6338,
      "##葛": 6339,
      "##ſ": 6340,
      "##個": 6341,
      "##樂": 6342,
      "##基": 6343,
      "##础": 6344,
      "##사": 6345,
      "##랑": 6346,
      "##封": 6347,
      "##奇": 6348,
      "##𐌹": 6349,
      "##ګ": 6350,
      "##査": 6351,
      "##城": 6352,
      "##胡": 6353,
      "##代": 6354,
      "##∧": 6355,
      "##庄": 6356,
      "##房": 6357,
      "##₂": 6358,
      "##ワ": 6359,
      "##ぬ": 6360,
      "##ŀ": 6361,
      "##載": 6362,
      "##謀": 6363,
      "##坚": 6364,
      "##若": 6365,
      "##ェ": 6366,
      "##◆": 6367,
      "##˹": 6368,
      "##治": 6369,
      "##亡": 6370,
      "##笔": 6371,
      "##记": 6372,
      "##衛": 6373,
      "##辰": 6374,
      "##ẞ": 6375,
      "##滝": 6376,
      "##ತ": 6377,
      "##ು": 6378,
      "##ಳ": 6379,
      "##ப": 6380,
      "##த": 6381,
      "##ச": 6382,
      "##四": 6383,
      "##季": 6384,
      "##森": 6385,
      "##↑": 6386,
      "##祥": 6387,
      "##關": 6388,
      "##屯": 6389,
      "##𤣯": 6390,
      "##誌": 6391,
      "##淡": 6392,
      "##鱼": 6393,
      "##ᅀ": 6394,
      "##စ": 6395,
      "##တ": 6396,
      "##ထ": 6397,
      "##ြ": 6398,
      "##ေ": 6399,
      "##မ": 6400,
      "##ာ": 6401,
      "##က": 6402,
      "##သ": 6403,
      "##း": 6404,
      "##ျ": 6405,
      "##င": 6406,
      "##根": 6407,
      "##权": 6408,
      "##征": 6409,
      "##Β": 6410,
      "##卡": 6411,
      "##њ": 6412,
      "##Ꮤ": 6413,
      "##鍾": 6414,
      "##離": 6415,
      "##Ŧ": 6416,
      "##𐍅": 6417,
      "##𐌸": 6418,
      "##仓": 6419,
      "##绍": 6420,
      "##系": 6421,
      "##统": 6422,
      "##装": 6423,
      "##植": 6424,
      "##软": 6425,
      "##花": 6426,
      "##賭": 6427,
      "##湯": 6428,
      "##匙": 6429,
      "##㎡": 6430,
      "##渡": 6431,
      "##輝": 6432,
      "##इ": 6433,
      "##प": 6434,
      "##虑": 6435,
      "##语": 6436,
      "##℠": 6437,
      "##𐌷": 6438,
      "##Φ": 6439,
      "##车": 6440,
      "##服": 6441,
      "##务": 6442,
      "##⋮": 6443,
      "##थ": 6444,
      "##˧": 6445,
      "##≶": 6446,
      "##滿": 6447,
      "##玉": 6448,
      "##裝": 6449,
      "##晚": 6450,
      "##ʷ": 6451,
      "##♣": 6452,
      "##แ": 6453,
      "##시": 6454,
      "##도": 6455,
      "##주": 6456,
      "##기": 6457,
      "##": 6458,
      "##ћ": 6459,
      "##ƒ": 6460,
      "##ධ": 6461,
      "##ථ": 6462,
      "##∞": 6463,
      "##অ": 6464,
      "##ধ": 6465,
      "##ি": 6466,
      "##প": 6467,
      "##ত": 6468,
      "##র": 6469,
      "##গ": 6470,
      "##জ": 6471,
      "##া": 6472,
      "##ন": 6473,
      "##ী": 6474,
      "##紅": 6475,
      "##檜": 6476,
      "##红": 6477,
      "##桧": 6478,
      "##ወ": 6479,
      "##ሎ": 6480,
      "##嵐": 6481,
      "##雪": 6482,
      "##禅": 6483,
      "##份": 6484,
      "##独": 6485,
      "##栋": 6486,
      "##别": 6487,
      "##墅": 6488,
      "##چ": 6489,
      "##黃": 6490,
      "##鎮": 6491,
      "##Χ": 6492,
      "##∨": 6493,
      "##麤": 6494,
      "##✽": 6495,
      "##🦖": 6496,
      "##의": 6497,
      "##❣": 6498,
      "##⬛": 6499,
      "##榎": 6500,
      "##ノ": 6501,
      "##ث": 6502,
      "##와": 6503,
      "##인": 6504,
      "##扉": 6505,
      "##헤": 6506,
      "##⇨": 6507,
      "##잉": 6508,
      "##터": 6509,
      "##넷": 6510,
      "##嘅": 6511,
      "##여": 6512,
      "##서": 6513,
      "##來": 6514,
      "##觀": 6515,
      "##發": 6516,
      "##": 6517,
      "##壊": 6518,
      "##わ": 6519,
      "##ђ": 6520,
      "##钟": 6521,
      "##▸": 6522,
      "##ɬ": 6523,
      "##鹿": 6524,
      "##少": 6525,
      "##毎": 6526,
      "##量": 6527,
      "##ˠ": 6528,
      "##袋": 6529,
      "##宇": 6530,
      "##喜": 6531,
      "##➜": 6532,
      "##Ս": 6533,
      "##լ": 6534,
      "##բ": 6535,
      "##ի": 6536,
      "##苎": 6537,
      "##萝": 6538,
      "##標": 6539,
      "##準": 6540,
      "##各": 6541,
      "##屈": 6542,
      "##率": 6543,
      "##晉": 6544,
      "##当": 6545,
      "##丞": 6546,
      "##相": 6547,
      "##请": 6548,
      "##时": 6549,
      "##参": 6550,
      "##见": 6551,
      "##及": 6552,
      "##实": 6553,
      "##较": 6554,
      "##框": 6555,
      "##ช": 6556,
      "##柏": 6557,
      "##林": 6558,
      "##編": 6559,
      "##『": 6560,
      "##録": 6561,
      "##』": 6562,
      "##非": 6563,
      "##賣": 6564,
      "##刷": 6565,
      "##地": 6566,
      "##應": 6567,
      "##或": 6568,
      "##每": 6569,
      "##找": 6570,
      "##宿": 6571,
      "##〒": 6572,
      "##غ": 6573,
      "##蜘": 6574,
      "##蛛": 6575,
      "##風": 6576,
      "##鈴": 6577,
      "##篠": 6578,
      "##舗": 6579,
      "##登": 6580,
      "##당": 6581,
      "##÷": 6582,
      "##ሰ": 6583,
      "##ሜ": 6584,
      "##ን": 6585,
      "##𝑉": 6586,
      "##马": 6587,
      "##太": 6588,
      "##乾": 6589,
      "##峰": 6590,
      "##吊": 6591,
      "##鴨": 6592,
      "##居": 6593,
      "##酒": 6594,
      "##泉": 6595,
      "##卫": 6596,
      "##星": 6597,
      "##射": 6598,
      "##배": 6599,
      "##재": 6600,
      "##정": 6601,
      "##Μ": 6602,
      "##🦇": 6603,
      "##ԛ": 6604,
      "##騎": 6605,
      "##尉": 6606,
      "##孫": 6607,
      "##颜": 6608,
      "##晴": 6609,
      "##¾": 6610,
      "##₱": 6611,
      "##ǀ": 6612,
      "##Ⓡ": 6613,
      "##개": 6614,
      "##비": 6615,
      "##ᴏ": 6616,
      "##镇": 6617,
      "##舟": 6618,
      "##∆": 6619,
      "##阿": 6620,
      "##富": 6621,
      "##汗": 6622,
      "##寿": 6623,
      "##司": 6624,
      "##ゆ": 6625,
      "##ט": 6626,
      "##吉": 6627,
      "##仙": 6628,
      "##宮": 6629,
      "##ɕ": 6630,
      "##🤌": 6631,
      "##ण": 6632,
      "##浮": 6633,
      "##ौ": 6634,
      "##放": 6635,
      "##↘": 6636,
      "## ": 6637,
      "##展": 6638,
      "##Η": 6639,
      "##ɑ": 6640,
      "##滄": 6641,
      "##ƅ": 6642,
      "##割": 6643,
      "##狙": 6644,
      "##全": 6645,
      "##真": 6646,
      "##須": 6647,
      "##ھ": 6648,
      "##ں": 6649,
      "##屋": 6650,
      "##寸": 6651,
      "##姫": 6652,
      "##Ꮇ": 6653,
      "##ʏ": 6654,
      "##旋": 6655,
      "##轉": 6656,
      "##筆": 6657,
      "##嗎": 6658,
      "##岡": 6659,
      "##蘭": 6660,
      "##䋢": 6661,
      "##Κ": 6662,
      "##樸": 6663,
      "##麗": 6664,
      "##娥": 6665,
      "##渔": 6666,
      "##實": 6667,
      "##驗": 6668,
      "##採": 6669,
      "##膜": 6670,
      "##厚": 6671,
      "##儀": 6672,
      "##式": 6673,
      "##計": 6674,
      "##澤": 6675,
      "##秋": 6676,
      "##葉": 6677,
      "##隆": 6678,
      "##娄": 6679,
      "##∙": 6680,
      "##鬼": 6681,
      "##坊": 6682,
      "##桶": 6683,
      "##希": 6684,
      "##望": 6685,
      "##丘": 6686,
      "##伝": 6687,
      "##印": 6688,
      "##童": 6689,
      "##球": 6690,
      "##軸": 6691,
      "##転": 6692,
      "##換": 6693,
      "##戦": 6694,
      "##ز": 6695,
      "##இ": 6696,
      "##ங": 6697,
      "##捍": 6698,
      "##愛": 6699,
      "##稳": 6700,
      "##闻": 6701,
      "##联": 6702,
      "##播": 6703,
      "##近": 6704,
      "##傍": 6705,
      "##倍": 6706,
      "##好": 6707,
      "##錦": 6708,
      "##残": 6709,
      "##備": 6710,
      "##メ": 6711,
      "##種": 6712,
      "##々": 6713,
      "##適": 6714,
      "##": 6715,
      "##ග": 6716,
      "##ෙ": 6717,
      "##ふ": 6718,
      "##徴": 6719,
      "##任": 6720,
      "##舊": 6721,
      "##壞": 6722,
      "##碼": 6723,
      "##鋼": 6724,
      "##琴": 6725,
      "##ទ": 6726,
      "##ព": 6727,
      "##គ": 6728,
      "##云": 6729,
      "##吞": 6730,
      "##乞": 6731,
      "##伏": 6732,
      "##婁": 6733,
      "##─": 6734,
      "##Ⴝ": 6735,
      "##ז": 6736,
      "##◼": 6737,
      "##ڈ": 6738,
      "##古": 6739,
      "##抜": 6740,
      "##銀": 6741,
      "##塩": 6742,
      "##般": 6743,
      "##旧": 6744,
      "##纂": 6745,
      "##魔": 6746,
      "##歌": 6747,
      "##⁢": 6748,
      "##赤": 6749,
      "##照": 6750,
      "##設": 6751,
      "##ɒ": 6752,
      "##存": 6753,
      "##档": 6754,
      "##辉": 6755,
      "##학": 6756,
      "##문": 6757,
      "##원": 6758,
      "##❩": 6759,
      "##ゅ": 6760,
      "##ソ": 6761,
      "##企": 6762,
      "##車": 6763,
      "##،": 6764,
      "##他": 6765,
      "##방": 6766,
      "##송": 6767,
      "##ែ": 6768,
      "##ៃ": 6769,
      "##黨": 6770,
      "##際": 6771,
      "##気": 6772,
      "##修": 6773,
      "##裕": 6774,
      "##আ": 6775,
      "##ব": 6776,
      "##শ": 6777,
      "##메": 6778,
      "##라": 6779,
      "##建": 6780,
      "##▷": 6781,
      "##ʽ": 6782,
      "##Œ": 6783,
      "##𝐅": 6784,
      "##𝐚": 6785,
      "##𝐣": 6786,
      "##𝐢": 6787,
      "##𝐭": 6788,
      "##𝐬": 6789,
      "##杏": 6790,
      "##吳": 6791,
      "##昊": 6792,
      "##宸": 6793,
      "##ದ": 6794,
      "##ರ": 6795,
      "##ಾ": 6796,
      "##偉": 6797,
      "##万": 6798,
      "##譯": 6799,
      "##雲": 6800,
      "##ɨ": 6801,
      "##⠀": 6802,
      "##▶": 6803,
      "##ে": 6804,
      "##అ": 6805,
      "##ద": 6806,
      "##ర": 6807,
      "##ం": 6808,
      "##గ": 6809,
      "##茨": 6810,
      "##③": 6811,
      "##貴": 6812,
      "##ਬ": 6813,
      "##ਰ": 6814,
      "##ਤ": 6815,
      "##権": 6816,
      "##納": 6817,
      "##川": 6818,
      "##በ": 6819,
      "##ጤ": 6820,
      "##ና": 6821,
      "##ϵ": 6822,
      "##壁": 6823,
      "##纸": 6824,
      "##ொ": 6825,
      "##ு": 6826,
      "##超": 6827,
      "##祭": 6828,
      "##曲": 6829,
      "##৳": 6830,
      "##ந": 6831,
      "##ர": 6832,
      "##牢": 6833,
      "##ٹ": 6834,
      "##溥": 6835,
      "##麒": 6836,
      "##株": 6837,
      "##瀬": 6838,
      "##ˀ": 6839,
      "##ய": 6840,
      "##⇪": 6841,
      "##𐍂": 6842,
      "##世": 6843,
      "##曰": 6844,
      "##肇": 6845,
      "##長": 6846,
      "##술": 6847,
      "##☺": 6848,
      "##论": 6849,
      "##坛": 6850,
      "##⇄": 6851,
      "##句": 6852,
      "##问": 6853,
      "##题": 6854,
      "##话": 6855,
      "##说": 6856,
      "##你": 6857,
      "##吗": 6858,
      "##雨": 6859,
      "##惠": 6860,
      "##鵰": 6861,
      "##俠": 6862,
      "##侶": 6863,
      "##ﷺ": 6864,
      "##杜": 6865,
      "##甫": 6866,
      "##细": 6867,
      "##胞": 6868,
      "##程": 6869,
      "##序": 6870,
      "##蛋": 6871,
      "##克": 6872,
      "##抗": 6873,
      "##ʰ": 6874,
      "##₁": 6875,
      "##←": 6876,
      "##ड": 6877,
      "##宋": 6878,
      "##보": 6879,
      "##충": 6880,
      "##邑": 6881,
      "##円": 6882,
      "##घ": 6883,
      "##ɾ": 6884,
      "##想": 6885,
      "##削": 6886,
      "##潮": 6887,
      "##男": 6888,
      "##𐍆": 6889,
      "##晶": 6890,
      "##決": 6891,
      "##網": 6892,
      "##黄": 6893,
      "##斑": 6894,
      "##偏": 6895,
      "##養": 6896,
      "##寵": 6897,
      "##∂": 6898,
      "##保": 6899,
      "##": 6900,
      "##∥": 6901,
      "##縣": 6902,
      "##歴": 6903,
      "##博": 6904,
      "##藏": 6905,
      "##選": 6906,
      "##集": 6907,
      "##׃": 6908,
      "##考": 6909,
      "##深": 6910,
      "##圳": 6911,
      "##科": 6912,
      "##揻": 6913,
      "##♪": 6914,
      "##Ħ": 6915,
      "##택": 6916,
      "##견": 6917,
      "##落": 6918,
      "##闘": 6919,
      "##ศ": 6920,
      "##จ": 6921,
      "##ऑ": 6922,
      "##फ": 6923,
      "##恭": 6924,
      "##ⵜ": 6925,
      "##ⵛ": 6926,
      "##ⴰ": 6927,
      "##ⵎ": 6928,
      "##權": 6929,
      "##育": 6930,
      "##⚌": 6931,
      "##壽": 6932,
      "##彭": 6933,
      "##♠": 6934,
      "##門": 6935,
      "##᧐": 6936,
      "##⅞": 6937,
      "##函": 6938,
      "##取": 6939,
      "##顯": 6940,
      "##狀": 6941,
      "##說": 6942,
      "##爱": 6943,
      "##박": 6944,
      "##철": 6945,
      "##〗": 6946,
      "##咕": 6947,
      "##咚": 6948,
      "##団": 6949,
      "##们": 6950,
      "##店": 6951,
      "##↓": 6952,
      "##摘": 6953,
      "##树": 6954,
      "##德": 6955,
      "##际": 6956,
      "##⅓": 6957,
      "##許": 6958,
      "##俊": 6959,
      "##雅": 6960,
      "##強": 6961,
      "##異": 6962,
      "##薛": 6963,
      "##喬": 6964,
      "##운": 6965,
      "##로": 6966,
      "##剰": 6967,
      "##概": 6968,
      "##자": 6969,
      "##🤩": 6970,
      "##仪": 6971,
      "##礼": 6972,
      "##據": 6973,
      "##ई": 6974,
      "##ഡ": 6975,
      "##ര": 6976,
      "##ി": 6977,
      "##ങ": 6978,
      "##ക": 6979,
      "##ˌ": 6980,
      "##远": 6981,
      "##料": 6982,
      "##阪": 6983,
      "##ユ": 6984,
      "##類": 6985,
      "##看": 6986,
      "##产": 6987,
      "##吧": 6988,
      "##謝": 6989,
      "##霆": 6990,
      "##鋒": 6991,
      "##પ": 6992,
      "##ા": 6993,
      "##દ": 6994,
      "##ર": 6995,
      "##ડ": 6996,
      "##ી": 6997,
      "##ઘ": 6998,
      "##ˆ": 6999,
      "##¤": 7000,
      "##療": 7001,
      "##癒": 7002,
      "##犬": 7003,
      "##室": 7004,
      "##畳": 7005,
      "##飯": 7006,
      "##叶": 7007,
      "##誤": 7008,
      "##歪": 7009,
      "##‏": 7010,
      "##이": 7011,
      "##생": 7012,
      "##否": 7013,
      "##🤦": 7014,
      "##Ð": 7015,
      "##ց": 7016,
      "##夏": 7017,
      "##按": 7018,
      "##键": 7019,
      "##切": 7020,
      "##换": 7021,
      "##拔": 7022,
      "##样": 7023,
      "##忘": 7024,
      "##掉": 7025,
      "##虚": 7026,
      "##办": 7027,
      "##公": 7028,
      "##厅": 7029,
      "##ደ": 7030,
      "##ቡ": 7031,
      "##ብ": 7032,
      "##村": 7033,
      "##翼": 7034,
      "##双": 7035,
      "##飞": 7036,
      "##ಕ": 7037,
      "##ನ": 7038,
      "##ಡ": 7039,
      "##蘇": 7040,
      "##兒": 7041,
      "##液": 7042,
      "##氯": 7043,
      "##乙": 7044,
      "##醇": 7045,
      "##混": 7046,
      "##藉": 7047,
      "##改": 7048,
      "##變": 7049,
      "##探": 7050,
      "##對": 7051,
      "##❌": 7052,
      "##☀": 7053,
      "##族": 7054,
      "##റ": 7055,
      "##ാ": 7056,
      "##ഗ": 7057,
      "##ำ": 7058,
      "##裁": 7059,
      "##争": 7060,
      "##張": 7061,
      "##判": 7062,
      "##証": 7063,
      "##⏩": 7064,
      "##糟": 7065,
      "##町": 7066,
      "##₴": 7067,
      "##歩": 7068,
      "##む": 7069,
      "##孟": 7070,
      "##茹": 7071,
      "##羽": 7072,
      "##凌": 7073,
      "##霄": 7074,
      "##ए": 7075,
      "##ว": 7076,
      "##ª": 7077,
      "##够": 7078,
      "##唯": 7079,
      "##✨": 7080,
      "##⭐": 7081,
      "##Ꜯ": 7082,
      "##؟": 7083,
      "##雄": 7084,
      "##泪": 7085,
      "##乗": 7086,
      "##案": 7087,
      "##ヶ": 7088,
      "##उ": 7089,
      "##₩": 7090,
      "##淚": 7091,
      "##點": 7092,
      "##≅": 7093,
      "##壌": 7094,
      "##": 7095,
      "##旅": 7096,
      "##章": 7097,
      "##演": 7098,
      "##疳": 7099,
      "##积": 7100,
      "##〖": 7101,
      "##誰": 7102,
      "##Խ": 7103,
      "##չ": 7104,
      "##գ": 7105,
      "##ո": 7106,
      "##読": 7107,
      "##오": 7108,
      "##버": 7109,
      "##코": 7110,
      "##트": 7111,
      "##윤": 7112,
      "##희": 7113,
      "##𐍟": 7114,
      "##𐍔": 7115,
      "##𐍠": 7116,
      "##𐍨": 7117,
      "##処": 7118,
      "##条": 7119,
      "##又": 7120,
      "##両": 7121,
      "##旭": 7122,
      "##": 7123,
      "##♭": 7124,
      "##Θ": 7125,
      "##⏐": 7126,
      "##揜": 7127,
      "##赛": 7128,
      "##焼": 7129,
      "##浜": 7130,
      "##朝": 7131,
      "##鮮": 7132,
      "##初": 7133,
      "##級": 7134,
      "##廖": 7135,
      "##鷹": 7136,
      "##ᥙ": 7137,
      "##伊": 7138,
      "##✅": 7139,
      "##₃": 7140,
      "##祿": 7141,
      "##描": 7142,
      "##飲": 7143,
      "##湖": 7144,
      "##睛": 7145,
      "##黎": 7146,
      "##皖": 7147,
      "##⁣": 7148,
      "##檛": 7149,
      "##ถ": 7150,
      "##芸": 7151,
      "##օ": 7152,
      "##針": 7153,
      "##兩": 7154,
      "##仇": 7155,
      "##隙": 7156,
      "##吴": 7157,
      "##遷": 7158,
      "##⋆": 7159,
      "##ி": 7160,
      "##匯": 7161,
      "##駅": 7162,
      "##畿": 7163,
      "##七": 7164,
      "##奴": 7165,
      "##組": 7166,
      "##客": 7167,
      "##柱": 7168,
      "##着": 7169,
      "##似": 7170,
      "##ญ": 7171,
      "##โ": 7172,
      "##址": 7173,
      "##老": 7174,
      "##爷": 7175,
      "##环": 7176,
      "##ℓ": 7177,
      "##鍋": 7178,
      "##周": 7179,
      "##劼": 7180,
      "##媛": 7181,
      "##굴": 7182,
      "##奖": 7183,
      "##经": 7184,
      "##典": 7185,
      "##动": 7186,
      "##漫": 7187,
      "##站": 7188,
      "##幸": 7189,
      "##ಪ": 7190,
      "##ಂ": 7191,
      "##波": 7192,
      "##𐌵": 7193,
      "##현": 7194,
      "##": 7195,
      "##范": 7196,
      "##冰": 7197,
      "##指": 7198,
      "##✪": 7199,
      "##柳": 7200,
      "##师": 7201,
      "##য": 7202,
      "##더": 7203,
      "##營": 7204,
      "##甍": 7205,
      "##분": 7206,
      "##리": 7207,
      "##된": 7208,
      "##今": 7209,
      "##李": 7210,
      "##符": 7211,
      "##冠": 7212,
      "##Ο": 7213,
      "##獸": 7214,
      "##玦": 7215,
      "##Ꝇ": 7216,
      "##熊": 7217,
      "##狗": 7218,
      "##⌘": 7219,
      "##整": 7220,
      "##景": 7221,
      "##✠": 7222,
      "##⚛": 7223,
      "##": 7224,
      "##專": 7225,
      "##訪": 7226,
      "##験": 7227,
      "##ュ": 7228,
      "##傾": 7229,
      "##斜": 7230,
      "##留": 7231,
      "##顔": 7232,
      "##易": 7233,
      "##困": 7234,
      "##難": 7235,
      "##鳥": 7236,
      "##區": 7237,
      "##认": 7238,
      "##它": 7239,
      "##场": 7240,
      "##畅": 7241,
      "##销": 7242,
      "##朗": 7243,
      "##数": 7244,
      "##貿": 7245,
      "##収": 7246,
      "##支": 7247,
      "##持": 7248,
      "##柄": 7249,
      "##溝": 7250,
      "##뱀": 7251,
      "##파": 7252,
      "##љ": 7253,
      "##Ϲ": 7254,
      "##𝑥": 7255,
      "##输": 7256,
      "##刊": 7257,
      "##守": 7258,
      "##鄭": 7259,
      "##신": 7260,
      "##민": 7261,
      "##ﰔ": 7262,
      "##ﰊ": 7263,
      "##ﰃ": 7264,
      "##ﰛ": 7265,
      "##ﰈ": 7266,
      "##ﰁ": 7267,
      "##ﰉ": 7268,
      "##ﰌ": 7269,
      "##ﰜ": 7270,
      "##ﰍ": 7271,
      "##ﰅ": 7272,
      "##ﰆ": 7273,
      "##ﰑ": 7274,
      "##ﰀ": 7275,
      "##ﰒ": 7276,
      "##紀": 7277,
      "##ҷ": 7278,
      "##幫": 7279,
      "##窮": 7280,
      "##潦": 7281,
      "##倒": 7282,
      "##迫": 7283,
      "##於": 7284,
      "##現": 7285,
      "##奈": 7286,
      "##快": 7287,
      "##餐": 7288,
      "##員": 7289,
      "##冒": 7290,
      "##充": 7291,
      "##牌": 7292,
      "##鬧": 7293,
      "##劇": 7294,
      "##Ⲩ": 7295,
      "##左": 7296,
      "##최": 7297,
      "##석": 7298,
      "##Տ": 7299,
      "##官": 7300,
      "##责": 7301,
      "##追": 7302,
      "##刻": 7303,
      "##悬": 7304,
      "##挂": 7305,
      "##达": 7306,
      "##摩": 7307,
      "##斯": 7308,
      "##剑": 7309,
      "##ଇ": 7310,
      "##ଂ": 7311,
      "##ର": 7312,
      "##ା": 7313,
      "##ଜ": 7314,
      "##ୀ": 7315,
      "##火": 7316,
      "##宣": 7317,
      "##济": 7318,
      "##升": 7319,
      "##皮": 7320,
      "##蒸": 7321,
      "##透": 7322,
      "##醋": 7323,
      "##鎳": 7324,
      "##則": 7325,
      "##值": 7326,
      "##綠": 7327,
      "##降": 7328,
      "##完": 7329,
      "##暗": 7330,
      "##▫": 7331,
      "##🥰": 7332,
      "##Ζ": 7333,
      "##ඹ": 7334,
      "##˺": 7335,
      "##私": 7336,
      "##ʺ": 7337,
      "##届": 7338,
      "##赏": 7339,
      "##唱": 7340,
      "##桜": 7341,
      "##娘": 7342,
      "##惹": 7343,
      "##ᒪ": 7344,
      "##ᴮ": 7345,
      "##ᴿ": 7346,
      "##⡷": 7347,
      "##牯": 7348,
      "##湧": 7349,
      "##⁳": 7350,
      "##瑲": 7351,
      "##楮": 7352,
      "##朩": 7353,
      "##摯": 7354,
      "##渀": 7355,
      "##煌": 7356,
      "##阮": 7357,
      "##彬": 7358,
      "##孚": 7359,
      "##濃": 7360,
      "##材": 7361,
      "##負": 7362,
      "##羹": 7363,
      "##譲": 7364,
      "##몰": 7365,
      "##딩": 7366,
      "##刺": 7367,
      "##토": 7368,
      "##솔": 7369,
      "##루": 7370,
      "##션": 7371,
      "##제": 7372,
      "##姚": 7373,
      "##弼": 7374,
      "##소": 7375,
      "##호": 7376,
      "##선": 7377,
      "##음": 7378,
      "##과": 7379,
      "##亂": 7380,
      "##鹽": 7381,
      "##教": 7382,
      "##𠂊": 7383,
      "##晨": 7384,
      "##ү": 7385,
      "##倉": 7386,
      "##억": 7387,
      "##균": 7388,
      "##მ": 7389,
      "##წ": 7390,
      "##ვ": 7391,
      "##ა": 7392,
      "##ნ": 7393,
      "##ე": 7394,
      "##從": 7395,
      "##訓": 7396,
      "##練": 7397,
      "##𐍮": 7398,
      "##𐍐": 7399,
      "##歹": 7400,
      "##勢": 7401,
      "##일": 7402,
      "##ਅ": 7403,
      "##ਹ": 7404,
      "##ਕ": 7405,
      "##≡": 7406,
      "##缶": 7407,
      "##지": 7408,
      "##털": 7409,
      "##부": 7410,
      "##산": 7411,
      "##洵": 7412,
      "##允": 7413,
      "##兹": 7414,
      "##भ": 7415,
      "##ः": 7416,
      "##协": 7417,
      "##议": 7418,
      "##亲": 7419,
      "##母": 7420,
      "##維": 7421,
      "##略": 7422,
      "##束": 7423,
      "##悪": 7424,
      "##ಸ": 7425,
      "##ೃ": 7426,
      "##ף": 7427,
      "##沢": 7428,
      "##宛": 7429,
      "##愚": 7430,
      "##閏": 7431,
      "##畑": 7432,
      "##ሁ": 7433,
      "##ሉ": 7434,
      "##𝙉": 7435,
      "##𝙤": 7436,
      "##吕": 7437,
      "##坨": 7438,
      "##㎢": 7439,
      "##甲": 7440,
      "##藩": 7441,
      "##국": 7442,
      "##複": 7443,
      "##軽": 7444,
      "##號": 7445,
      "##労": 7446,
      "##働": 7447,
      "##省": 7448,
      "##政": 7449,
      "##策": 7450,
      "##歯": 7451,
      "##課": 7452,
      "##疾": 7453,
      "##患": 7454,
      "##告": 7455,
      "##腔": 7456,
      "##協": 7457,
      "##京": 7458,
      "##✤": 7459,
      "##宫": 7460,
      "##鸡": 7461,
      "##♍": 7462,
      "##賴": 7463,
      "##瑞": 7464,
      "##带": 7465,
      "##¯": 7466,
      "##尸": 7467,
      "##莪": 7468,
      "##跳": 7469,
      "##蝴": 7470,
      "##蝶": 7471,
      "##雖": 7472,
      "##體": 7473,
      "##這": 7474,
      "##麼": 7475,
      "##趣": 7476,
      "##驚": 7477,
      "##們": 7478,
      "##排": 7479,
      "##▲": 7480,
      "##ょ": 7481,
      "##狐": 7482,
      "##牟": 7483,
      "##屆": 7484,
      "##択": 7485,
      "##搭": 7486,
      "##寄": 7487,
      "##哪": 7488,
      "##✻": 7489,
      "##呉": 7490,
      "##Ђ": 7491,
      "##徒": 7492,
      "##⦁": 7493,
      "##請": 7494,
      "##項": 7495,
      "##თ": 7496,
      "##ბ": 7497,
      "##ი": 7498,
      "##ლ": 7499,
      "##ს": 7500,
      "##₵": 7501,
      "##尋": 7502,
      "##揑": 7503,
      "##ʒ": 7504,
      "##皇": 7505,
      "##俣": 7506,
      "##震": 7507,
      "##ግ": 7508,
      "##ሩ": 7509,
      "##ም": 7510,
      "##": 7511,
      "##審": 7512,
      "##悳": 7513,
      "##ಜ": 7514,
      "##ಞ": 7515,
      "##മ": 7516,
      "##奥": 7517,
      "##娱": 7518,
      "##乐": 7519,
      "##虽": 7520,
      "##谢": 7521,
      "##贵": 7522,
      "##很": 7523,
      "##抱": 7524,
      "##慊": 7525,
      "##减": 7526,
      "##价": 7527,
      "##辯": 7528,
      "##笠": 7529,
      "##藍": 7530,
      "##璞": 7531,
      "##დ": 7532,
      "##რ": 7533,
      "##ო": 7534,
      "##კ": 7535,
      "##興": 7536,
      "##串": 7537,
      "##包": 7538,
      "##含": 7539,
      "##ጎ": 7540,
      "##ር": 7541,
      "##越": 7542,
      "##☰": 7543,
      "##巨": 7544,
      "##達": 7545,
      "##๒": 7546,
      "##๕": 7547,
      "##๖": 7548,
      "##๑": 7549,
      "##∀": 7550,
      "##❱": 7551,
      "##Հ": 7552,
      "##ւ": 7553,
      "##շ": 7554,
      "##ր": 7555,
      "##թ": 7556,
      "##յ": 7557,
      "##ն": 7558,
      "##交": 7559,
      "##滙": 7560,
      "##涵": 7561,
      "##遠": 7562,
      "##ₙ": 7563,
      "##პ": 7564,
      "##ტ": 7565,
      "##ხ": 7566,
      "##შ": 7567,
      "##목": 7568,
      "##근": 7569,
      "##綿": 7570,
      "##亘": 7571,
      "##俞": 7572,
      "##寅": 7573,
      "##백": 7574,
      "##資": 7575,
      "##ਸ": 7576,
      "##𐌳": 7577,
      "##𐌲": 7578,
      "##塀": 7579,
      "##韓": 7580,
      "##尚": 7581,
      "##豎": 7582,
      "##款": 7583,
      "##單": 7584,
      "##肩": 7585,
      "##背": 7586,
      "##腦": 7587,
      "##揌": 7588,
      "##ℝ": 7589,
      "##箭": 7590,
      "##漏": 7591,
      "##振": 7592,
      "##楼": 7593,
      "##응": 7594,
      "##답": 7595,
      "##魚": 7596,
      "##恪": 7597,
      "##个": 7598,
      "##突": 7599,
      "##銘": 7600,
      "##趾": 7601,
      "##退": 7602,
      "##職": 7603,
      "##난": 7604,
      "##잔": 7605,
      "##雞": 7606,
      "##۲": 7607,
      "##۰": 7608,
      "##۱": 7609,
      "##۸": 7610,
      "##枝": 7611,
      "##咯": 7612,
      "##∑": 7613,
      "##檔": 7614,
      "##坡": 7615,
      "##逗": 7616,
      "##導": 7617,
      "##遊": 7618,
      "##亞": 7619,
      "##推": 7620,
      "##薦": 7621,
      "##訴": 7622,
      "##歷": 7623,
      "##耐": 7624,
      "##溫": 7625,
      "##柔": 7626,
      "##些": 7627,
      "##還": 7628,
      "##也": 7629,
      "##穹": 7630,
      "##杉": 7631,
      "##滅": 7632,
      "##熟": 7633,
      "##ʲ": 7634,
      "##石": 7635,
      "##𝐼": 7636,
      "##ზ": 7637,
      "##უ": 7638,
      "##岩": 7639,
      "##骨": 7640,
      "##拳": 7641,
      "##夫": 7642,
      "##祇": 7643,
      "##師": 7644,
      "##街": 7645,
      "##김": 7646,
      "##필": 7647,
      "##卻": 7648,
      "##遇": 7649,
      "##溪": 7650,
      "##边": 7651,
      "##空": 7652,
      "##风": 7653,
      "##变": 7654,
      "##漢": 7655,
      "##ใ": 7656,
      "##丈": 7657,
      "##話": 7658,
      "##绘": 7659,
      "##徳": 7660,
      "##✍": 7661,
      "##❲": 7662,
      "##Ξ": 7663,
      "##枹": 7664,
      "##罕": 7665,
      "##習": 7666,
      "##伯": 7667,
      "##群": 7668,
      "##炎": 7669,
      "##未": 7670,
      "##许": 7671,
      "##载": 7672,
      "##几": 7673,
      "##恒": 7674,
      "##青": 7675,
      "##♑": 7676,
      "##繁": 7677,
      "##骥": 7678,
      "##故": 7679,
      "##乡": 7680,
      "##總": 7681,
      "##모": 7682,
      "##델": 7683,
      "##": 7684,
      "##": 7685,
      "##愁": 7686,
      "##බ": 7687,
      "##": 7688,
      "##": 7689,
      "##⚍": 7690,
      "##□": 7691,
      "##亩": 7692,
      "##反": 7693,
      "##挿": 7694,
      "##⁰": 7695,
      "##賽": 7696,
      "##兜": 7697,
      "##汉": 7698,
      "##调": 7699,
      "##试": 7700,
      "##ʕ": 7701,
      "##夷": 7702,
      "##년": 7703,
      "##盗": 7704,
      "##短": 7705,
      "##冊": 7706,
      "##吃": 7707,
      "##广": 7708,
      "##佛": 7709,
      "##순": 7710,
      "##维": 7711,
      "##嘉": 7712,
      "##안": 7713,
      "##엽": 7714,
      "##妙": 7715,
      "##አ": 7716,
      "##ማ": 7717,
      "##ኑ": 7718,
      "##ኤ": 7719,
      "##ል": 7720,
      "##陰": 7721,
      "##順": 7722,
      "##勝": 7723,
      "##步": 7724,
      "##启": 7725,
      "##闭": 7726,
      "##親": 7727,
      "##觸": 7728,
      "##錯": 7729,
      "##那": 7730,
      "##ᡳ": 7731,
      "##槽": 7732,
      "##內": 7733,
      "##硫": 7734,
      "##速": 7735,
      "##勻": 7736,
      "##兔": 7737,
      "##奶": 7738,
      "##糖": 7739,
      "##․": 7740,
      "##ಧ": 7741,
      "##ಯ": 7742,
      "##ವ": 7743,
      "##帝": 7744,
      "##Λ": 7745,
      "##梅": 7746,
      "##闸": 7747,
      "##岐": 7748,
      "##羅": 7749,
      "##陶": 7750,
      "##聖": 7751,
      "##助": 7752,
      "##監": 7753,
      "##寫": 7754,
      "##眞": 7755,
      "##念": 7756,
      "##詳": 7757,
      "##포": 7758,
      "##함": 7759,
      "##从": 7760,
      "##攝": 7761,
      "##勤": 7762,
      "##勉": 7763,
      "##夜": 7764,
      "##爆": 7765,
      "##♓": 7766,
      "##ன": 7767,
      "##璆": 7768,
      "##敗": 7769,
      "##製": 7770,
      "##差": 7771,
      "##타": 7772,
      "##탄": 7773,
      "##固": 7774,
      "##械": 7775,
      "##引": 7776,
      "##Ӏ": 7777,
      "##": 7778,
      "##侯": 7779,
      "##梦": 7780,
      "##瑶": 7781,
      "##牛": 7782,
      "##假": 7783,
      "##应": 7784,
      "##歇": 7785,
      "##久": 7786,
      "##抳": 7787,
      "##ȝ": 7788,
      "##➞": 7789,
      "##猫": 7790,
      "##餅": 7791,
      "##掙": 7792,
      "##春": 7793,
      "##鸟": 7794,
      "##逆": 7795,
      "##蒼": 7796,
      "##까": 7797,
      "##치": 7798,
      "##甘": 7799,
      "##淸": 7800,
      "##拯": 7801,
      "##担": 7802,
      "##麺": 7803,
      "##唐": 7804,
      "##揚": 7805,
      "##鳴": 7806,
      "##扱": 7807,
      "##": 7808,
      "##烏": 7809,
      "##免": 7810,
      "##懷": 7811,
      "##勇": 7812,
      "##ゃ": 7813,
      "##동": 7814,
      "##우": 7815,
      "##앤": 7816,
      "##㈜": 7817,
      "##ธ": 7818,
      "##ณ": 7819,
      "##揮": 7820,
      "##∫": 7821,
      "##질": 7822,
      "##説": 7823,
      "##㺸": 7824,
      "##靠": 7825,
      "##优": 7826,
      "##尹": 7827,
      "##运": 7828,
      "##谁": 7829,
      "##亭": 7830,
      "##ആ": 7831,
      "##ദ": 7832,
      "##ഞ": 7833,
      "##ജ": 7834,
      "##ല": 7835,
      "##ള": 7836,
      "##ఉ": 7837,
      "##ప": 7838,
      "##మ": 7839,
      "##稽": 7840,
      "##核": 7841,
      "##ヨ": 7842,
      "##護": 7843,
      "##吋": 7844,
      "##身": 7845,
      "##ম": 7846,
      "##ট": 7847,
      "##ো": 7848,
      "##営": 7849,
      "##■": 7850,
      "##普": 7851,
      "##⅛": 7852,
      "##箱": 7853,
      "##ᴜ": 7854,
      "##∪": 7855,
      "##๘": 7856,
      "##陸": 7857,
      "##昌": 7858,
      "##조": 7859,
      "##혜": 7860,
      "##진": 7861,
      "##纪": 7862,
      "##占": 7863,
      "##玲": 7864,
      "##┬": 7865,
      "##汲": 7866,
      "##˝": 7867,
      "##☛": 7868,
      "##ಉ": 7869,
      "##ಟ": 7870,
      "##♋": 7871,
      "##猶": 7872,
      "##蕪": 7873,
      "##︰": 7874,
      "##Ѕ": 7875,
      "##仅": 7876,
      "##两": 7877,
      "##映": 7878,
      "##查": 7879,
      "##谦": 7880,
      "##逊": 7881,
      "##崩": 7882,
      "##裂": 7883,
      "##聲": 7884,
      "##嘶": 7885,
      "##竭": 7886,
      "##Գ": 7887,
      "##Ր": 7888,
      "##Ա": 7889,
      "##Դ": 7890,
      "##Ն": 7891,
      "##ॉ": 7892,
      "##幾": 7893,
      "##ﺗ": 7894,
      "##ﻤ": 7895,
      "##ﻮ": 7896,
      "##ﺯ": 7897,
      "##嘿": 7898,
      "##昱": 7899,
      "##翔": 7900,
      "##囚": 7901,
      "##浦": 7902,
      "##縦": 7903,
      "##ϳ": 7904,
      "##약": 7905,
      "##간": 7906,
      "##상": 7907,
      "##ෞ": 7908,
      "##ත": 7909,
      "##已": 7910,
      "##獲": 7911,
      "##授": 7912,
      "##භ": 7913,
      "##㑒": 7914,
      "##실": 7915,
      "##야": 7916,
      "##饼": 7917,
      "##括": 7918,
      "##壳": 7919,
      "##覆": 7920,
      "##掲": 7921,
      "##夹": 7922,
      "##ණ": 7923,
      "##崎": 7924,
      "##汽": 7925,
      "##⌅": 7926,
      "##⊂": 7927,
      "##⊃": 7928,
      "##៛": 7929,
      "##註": 7930,
      "##盃": 7931,
      "##키": 7932,
      "##忆": 7933,
      "##租": 7934,
      "##曉": 7935,
      "##": 7936,
      "##蹟": 7937,
      "##茶": 7938,
      "##ङ": 7939,
      "##慈": 7940,
      "##塞": 7941,
      "##幡": 7942,
      "##▻": 7943,
      "##⚠": 7944,
      "##涂": 7945,
      "##倩": 7946,
      "##雯": 7947,
      "##⅕": 7948,
      "##": 7949,
      "##斎": 7950,
      "##蔡": 7951,
      "##毓": 7952,
      "##昂": 7953,
      "##您": 7954,
      "##乘": 7955,
      "##坐": 7956,
      "##抓": 7957,
      "##往": 7958,
      "##ভ": 7959,
      "##ಆ": 7960,
      "##馒": 7961,
      "##ے": 7962,
      "##Ꮮ": 7963,
      "##甸": 7964,
      "##餘": 7965,
      "##♊": 7966,
      "##沿": 7967,
      "##테": 7968,
      "##블": 7969,
      "##✿": 7970,
      "##腰": 7971,
      "##缠": 7972,
      "##贯": 7973,
      "##ꝇ": 7974,
      "##Ⲛ": 7975,
      "##᾽": 7976,
      "##资": 7977,
      "##洲": 7978,
      "##继": 7979,
      "##評": 7980,
      "##欲": 7981,
      "##패": 7982,
      "##ဝ": 7983,
      "##➣": 7984,
      "##뀐": 7985,
      "##ɂ": 7986,
      "##❏": 7987,
      "##户": 7988,
      "##滑": 7989,
      "##웅": 7990,
      "##ܬ": 7991,
      "##ܡ": 7992,
      "##ܘ": 7993,
      "##ܙ": 7994,
      "##혈": 7995,
      "##투": 7996,
      "##ℏ": 7997,
      "##智": 7998,
      "##碧": 7999,
      "##附": 8000,
      "##屬": 8001,
      "##履": 8002,
      "##剂": 8003,
      "##盒": 8004,
      "##酶": 8005,
      "##疫": 8006,
      "##吸": 8007,
      "##验": 8008,
      "##阁": 8009,
      "##ɦ": 8010,
      "##𠫑": 8011,
      "##羌": 8012,
      "##鐘": 8013,
      "##ๆ": 8014,
      "##􏰊": 8015,
      "##ठ": 8016,
      "##絳": 8017,
      "##嘲": 8018,
      "##笑": 8019,
      "##預": 8020,
      "##運": 8021,
      "##鍵": 8022,
      "##細": 8023,
      "##懸": 8024,
      "##压": 8025,
      "##খ": 8026,
      "##ʉ": 8027,
      "##鄒": 8028,
      "##‌": 8029,
      "##卵": 8030,
      "##凈": 8031,
      "##피": 8032,
      "##极": 8033,
      "##漬": 8034,
      "##殷": 8035,
      "##穆": 8036,
      "##ष": 8037,
      "##乳": 8038,
      "##ᠠ": 8039,
      "##ᠮ": 8040,
      "##ᠪ": 8041,
      "##虹": 8042,
      "##彩": 8043,
      "##濕": 8044,
      "##讨": 8045,
      "##录": 8046,
      "##采": 8047,
      "##访": 8048,
      "##翻": 8049,
      "##译": 8050,
      "##决": 8051,
      "##声": 8052,
      "##标": 8053,
      "##董": 8054,
      "##湛": 8055,
      "##٭": 8056,
      "##ᥱ": 8057,
      "##๔": 8058,
      "##ۼ": 8059,
      "##觉": 8060,
      "##己": 8061,
      "##丑": 8062,
      "##雷": 8063,
      "##泽": 8064,
      "##苏": 8065,
      "##暖": 8066,
      "##勞": 8067,
      "##陣": 8068,
      "##激": 8069,
      "##呼": 8070,
      "##률": 8071,
      "##減": 8072,
      "##廢": 8073,
      "##價": 8074,
      "##秒": 8075,
      "##⚊": 8076,
      "##⚋": 8077,
      "##粟": 8078,
      "##∕": 8079,
      "##余": 8080,
      "##韩": 8081,
      "##⦿": 8082,
      "##缔": 8083,
      "##结": 8084,
      "##战": 8085,
      "##伙": 8086,
      "##伴": 8087,
      "##澜": 8088,
      "##ғ": 8089,
      "##⚫": 8090,
      "##ᡶ": 8091,
      "##ᡠ": 8092,
      "##ᠵ": 8093,
      "##ᠨ": 8094,
      "##詰": 8095,
      "##歸": 8096,
      "##汇": 8097,
      "##庭": 8098,
      "##苑": 8099,
      "##燔": 8100,
      "##揗": 8101,
      "##棒": 8102,
      "##圆": 8103,
      "##满": 8104,
      "##稿": 8105,
      "##復": 8106,
      "##杨": 8107,
      "##迪": 8108,
      "##跟": 8109,
      "##怪": 8110,
      "##宗": 8111,
      "##财": 8112,
      "##⁴": 8113,
      "##𐍉": 8114,
      "##강": 8115,
      "##욱": 8116,
      "##纳": 8117,
      "##銅": 8118,
      "##鐱": 8119,
      "##輪": 8120,
      "##約": 8121,
      "##炮": 8122,
      "##叫": 8123,
      "##姐": 8124,
      "##蒂": 8125,
      "##蓬": 8126,
      "##佐": 8127,
      "##猪": 8128,
      "##狩": 8129,
      "##琍": 8130,
      "##𝐒": 8131,
      "##𝐥": 8132,
      "##濾": 8133,
      "##ಖ": 8134,
      "##ಭ": 8135,
      "##获": 8136,
      "##": 8137,
      "##槟": 8138,
      "##炒": 8139,
      "##粿": 8140,
      "##蝦": 8141,
      "##友": 8142,
      "##荐": 8143,
      "##紹": 8144,
      "##ܠ": 8145,
      "##ܐ": 8146,
      "##坂": 8147,
      "##嬢": 8148,
      "##⅝": 8149,
      "##統": 8150,
      "##剩": 8151,
      "##續": 8152,
      "##隊": 8153,
      "##ษ": 8154,
      "##鈞": 8155,
      "##濤": 8156,
      "##Ƭ": 8157,
      "##츠": 8158,
      "##중": 8159,
      "##계": 8160,
      "##হ": 8161,
      "##ৰ": 8162,
      "##渤": 8163,
      "##稼": 8164,
      "##托": 8165,
      "##围": 8166,
      "##ҝ": 8167,
      "##ذ": 8168,
      "##澳": 8169,
      "##门": 8170,
      "##凯": 8171,
      "##游": 8172,
      "##戏": 8173,
      "##筋": 8174,
      "##渇": 8175,
      "##├": 8176,
      "##┐": 8177,
      "##従": 8178,
      "##償": 8179,
      "##扬": 8180,
      "##覚": 8181,
      "##悟": 8182,
      "##規": 8183,
      "##輔": 8184,
      "##洞": 8185,
      "##员": 8186,
      "##预": 8187,
      "##选": 8188,
      "##售": 8189,
      "##节": 8190,
      "##邮": 8191,
      "##现": 8192,
      "##术": 8193,
      "##页": 8194,
      "##赌": 8195,
      "##३": 8196,
      "##簡": 8197,
      "##便": 8198,
      "##損": 8199,
      "##⁂": 8200,
      "##‗": 8201,
      "##댑": 8202,
      "##‖": 8203,
      "##থ": 8204,
      "##ই": 8205,
      "##এ": 8206,
      "##চ": 8207,
      "##қ": 8208,
      "##있": 8209,
      "##茅": 8210,
      "##襪": 8211,
      "##추": 8212,
      "##肚": 8213,
      "##ϑ": 8214,
      "##격": 8215,
      "##浴": 8216,
      "##ɣ": 8217,
      "##랜": 8218,
      "##덤": 8219,
      "##ө": 8220,
      "##肉": 8221,
      "##鶴": 8222,
      "##峯": 8223,
      "##譚": 8224,
      "##郊": 8225,
      "##芯": 8226,
      "##霈": 8227,
      "##󠁧": 8228,
      "##󠁢": 8229,
      "##󠁳": 8230,
      "##󠁣": 8231,
      "##󠁴": 8232,
      "##󠁿": 8233,
      "##◊": 8234,
      "##売": 8235,
      "##⊙": 8236,
      "##航": 8237,
      "##遏": 8238,
      "##敏": 8239,
      "##孕": 8240,
      "##膚": 8241,
      "##翠": 8242,
      "##ɻ": 8243,
      "##ཉ": 8244,
      "##་": 8245,
      "##브": 8246,
      "##恆": 8247,
      "##顺": 8248,
      "##ೖ": 8249,
      "##芝": 8250,
      "##岛": 8251,
      "##ը": 8252,
      "##僕": 8253,
      "##专": 8254,
      "##焰": 8255,
      "##װ": 8256,
      "##물": 8257,
      "##경": 8258,
      "##가": 8259,
      "##萨": 8260,
      "##骑": 8261,
      "##蕭": 8262,
      "##巖": 8263,
      "##襄": 8264,
      "##律": 8265,
      "##黑": 8266,
      "##爾": 8267,
      "##‣": 8268,
      "##跋": 8269,
      "##姆": 8270,
      "##識": 8271,
      "##淵": 8272,
      "##종": 8273,
      "##静": 8274,
      "##冥": 8275,
      "##洗": 8276,
      "##浄": 8277,
      "##淳": 8278,
      "##巫": 8279,
      "##鬥": 8280,
      "##藝": 8281,
      "##魯": 8282,
      "##夢": 8283,
      "##米": 8284,
      "##拉": 8285,
      "##她": 8286,
      "##甚": 8287,
      "##堡": 8288,
      "##戀": 8289,
      "##惡": 8290,
      "##諾": 8291,
      "##漩": 8292,
      "##渦": 8293,
      "##劫": 8294,
      "##走": 8295,
      "##慌": 8296,
      "##逐": 8297,
      "##偷": 8298,
      "##礙": 8299,
      "##證": 8300,
      "##ோ": 8301,
      "##ꞌ": 8302,
      "##🄊": 8303,
      "##讌": 8304,
      "##ɲ": 8305,
      "##용": 8306,
      "##வ": 8307,
      "##˛": 8308,
      "##麩": 8309,
      "##🥕": 8310,
      "##顾": 8311,
      "##燮": 8312,
      "##ற": 8313,
      "##凡": 8314,
      "##": 8315,
      "##脚": 8316,
      "##⭕": 8317,
      "##惣": 8318,
      "##⁵": 8319,
      "##胜": 8320,
      "##洋": 8321,
      "##委": 8322,
      "##鎌": 8323,
      "##窪": 8324,
      "##④": 8325,
      "##寝": 8326,
      "##˨": 8327,
      "##˩": 8328,
      "##塚": 8329,
      "##额": 8330,
      "##既": 8331,
      "##算": 8332,
      "##炊": 8333,
      "##Ј": 8334,
      "##ⴼ": 8335,
      "##ⵔ": 8336,
      "##ⵇ": 8337,
      "##珞": 8338,
      "##諧": 8339,
      "##譜": 8340,
      "##醫": 8341,
      "##✹": 8342,
      "##⚘": 8343,
      "##寬": 8344,
      "##恕": 8345,
      "##එ": 8346,
      "##盘": 8347,
      "##锦": 8348,
      "##輸": 8349,
      "##⚏": 8350,
      "##续": 8351,
      "##词": 8352,
      "##替": 8353,
      "##确": 8354,
      "##答": 8355,
      "##표": 8356,
      "##ґ": 8357,
      "##ਗ": 8358,
      "##ਦ": 8359,
      "##ਆ": 8360,
      "##ట": 8361,
      "##স": 8362,
      "##逼": 8363,
      "##怒": 8364,
      "##项": 8365,
      "##ढ": 8366,
      "##队": 8367,
      "##섀": 8368,
      "##✚": 8369,
      "##培": 8370,
      "##관": 8371,
      "##箇": 8372,
      "##荘": 8373,
      "##Ꮪ": 8374,
      "##懂": 8375,
      "##२": 8376,
      "##爻": 8377,
      "##掌": 8378,
      "##☉": 8379,
      "##崔": 8380,
      "##弘": 8381,
      "##금": 8382,
      "##군": 8383,
      "##첩": 8384,
      "##剛": 8385,
      "##帖": 8386,
      "##酔": 8387,
      "##経": 8388,
      "##綸": 8389,
      "##찌": 8390,
      "##叔": 8391,
      "##庇": 8392,
      "##ɫ": 8393,
      "##荒": 8394,
      "##质": 8395,
      "##却": 8396,
      "##哎": 8397,
      "##兴": 8398,
      "##棍": 8399,
      "##欧": 8400,
      "##欠": 8401,
      "##乏": 8402,
      "##病": 8403,
      "##": 8404,
      "##致": 8405,
      "##Ю": 8406,
      "##蟹": 8407,
      "##粉": 8408,
      "##糕": 8409,
      "##赵": 8410,
      "##尔": 8411,
      "##宓": 8412,
      "##℗": 8413,
      "##习": 8414,
      "##屏": 8415,
      "##고": 8416,
      "##반": 8417,
      "##돼": 8418,
      "##継": 8419,
      "##谅": 8420,
      "##扰": 8421,
      "##영": 8422,
      "##这": 8423,
      "##另": 8424,
      "##增": 8425,
      "##Ⅲ": 8426,
      "##鳩": 8427,
      "##珏": 8428,
      "##奎": 8429,
      "##駆": 8430,
      "##ሚ": 8431,
      "##ያ": 8432,
      "##ስ": 8433,
      "##떨": 8434,
      "##게": 8435,
      "##姜": 8436,
      "##圓": 8437,
      "##覺": 8438,
      "##經": 8439,
      "##⚡": 8440,
      "##姉": 8441,
      "##槿": 8442,
      "##嫁": 8443,
      "##妆": 8444,
      "##ᐹ": 8445,
      "##ᐏ": 8446,
      "##ᐢ": 8447,
      "##ᑎ": 8448,
      "##ᐠ": 8449,
      "##న": 8450,
      "##🤲": 8451,
      "##մ": 8452,
      "##վ": 8453,
      "##②": 8454,
      "##扇": 8455,
      "##菅": 8456,
      "##終": 8457,
      "##套": 8458,
      "##鉴": 8459,
      "##倡": 8460,
      "##防": 8461,
      "##止": 8462,
      "##朱": 8463,
      "##℅": 8464,
      "##": 8465,
      "##揥": 8466,
      "##ు": 8467,
      "##త": 8468,
      "##ሳ": 8469,
      "##ሆ": 8470,
      "##ኛ": 8471,
      "##ቋ": 8472,
      "##蠡": 8473,
      "##단": 8474,
      "##𝐸": 8475,
      "##荃": 8476,
      "##ⵍ": 8477,
      "##ⴴ": 8478,
      "##ⵉ": 8479,
      "##ⴱ": 8480,
      "##综": 8481,
      "##∩": 8482,
      "##护": 8483,
      "##ூ": 8484,
      "##雙": 8485,
      "##雀": 8486,
      "##筑": 8487,
      "##沖": 8488,
      "##縄": 8489,
      "##抵": 8490,
      "##嶺": 8491,
      "##頂": 8492,
      "##۹": 8493,
      "##⚎": 8494,
      "##講": 8495,
      "##ඝ": 8496,
      "##奠": 8497,
      "##尤": 8498,
      "##▽": 8499,
      "##집": 8500,
      "##": 8501,
      "##": 8502,
      "##": 8503,
      "##陪": 8504,
      "##賜": 8505,
      "##栗": 8506,
      "##涼": 8507,
      "##ണ": 8508,
      "##ട": 8509,
      "##貌": 8510,
      "##忍": 8511,
      "##偕": 8512,
      "##ಷ": 8513,
      "##禡": 8514,
      "##絲": 8515,
      "##哈": 8516,
      "##桑": 8517,
      "##气": 8518,
      "##殘": 8519,
      "##添": 8520,
      "##財": 8521,
      "##栽": 8522,
      "##温": 8523,
      "##斗": 8524,
      "##迷": 8525,
      "##袁": 8526,
      "##桔": 8527,
      "##": 8528,
      "##曁": 8529,
      "##Ⅿ": 8530,
      "##巧": 8531,
      "##锛": 8532,
      "##滔": 8533,
      "##揙": 8534,
      "##幅": 8535,
      "##♏": 8536,
      "##ណ": 8537,
      "##ឌ": 8538,
      "##ឯ": 8539,
      "##佑": 8540,
      "##உ": 8541,
      "##래": 8542,
      "##찜": 8543,
      "##綱": 8544,
      "##": 8545,
      "##ፓ": 8546,
      "##ክ": 8547,
      "##壘": 8548,
      "##夔": 8549,
      "##妄": 8550,
      "##傻": 8551,
      "##雍": 8552,
      "##烜": 8553,
      "##⬇": 8554,
      "##▓": 8555,
      "##聘": 8556,
      "##ಬ": 8557,
      "##ೕ": 8558,
      "##ȣ": 8559,
      "##舞": 8560,
      "##净": 8561,
      "##戴": 8562,
      "##圣": 8563,
      "##✞": 8564,
      "##徹": 8565,
      "##催": 8566,
      "##齢": 8567,
      "##彼": 8568,
      "##鈍": 8569,
      "##狭": 8570,
      "##": 8571,
      "##賈": 8572,
      "##⹁": 8573,
      "##북": 8574,
      "##벌": 8575,
      "##면": 8576,
      "##桂": 8577,
      "##羋": 8578,
      "##猿": 8579,
      "##犯": 8580,
      "##罪": 8581,
      "##캐": 8582,
      "##팅": 8583,
      "##합": 8584,
      "##碗": 8585,
      "##粥": 8586,
      "##玩": 8587,
      "##戲": 8588,
      "##紫": 8589,
      "##禁": 8590,
      "##緣": 8591,
      "##霸": 8592,
      "##∠": 8593,
      "##♯": 8594,
      "##⎕": 8595,
      "##買": 8596,
      "##況": 8597,
      "##擇": 8598,
      "##榧": 8599,
      "##酥": 8600,
      "##": 8601,
      "##∅": 8602,
      "##曾": 8603,
      "##卿": 8604,
      "##": 8605,
      "##": 8606,
      "##廻": 8607,
      "##騒": 8608,
      "##噁": 8609,
      "##⁦": 8610,
      "##⁩": 8611,
      "##团": 8612,
      "##僑": 8613,
      "##ฉ": 8614,
      "##행": 8615,
      "##복": 8616,
      "##衡": 8617,
      "##점": 8618,
      "##亮": 8619,
      "##惊": 8620,
      "##❖": 8621,
      "##ဇ": 8622,
      "##Ԝ": 8623,
      "##심": 8624,
      "##ᖇ": 8625,
      "##敵": 8626,
      "##Ґ": 8627,
      "##ओ": 8628,
      "##𐊓": 8629,
      "##두": 8630,
      "##판": 8631,
      "##매": 8632,
      "##獨": 8633,
      "##梧": 8634,
      "##𐌱": 8635,
      "##𐌾": 8636,
      "##巘": 8637,
      "##挟": 8638,
      "##阙": 8639,
      "##伍": 8640,
      "##릭": 8641,
      "##岳": 8642,
      "##澍": 8643,
      "##绝": 8644,
      "##癰": 8645,
      "##薨": 8646,
      "##謚": 8647,
      "##壯": 8648,
      "##宝": 8649,
      "##揋": 8650,
      "##麟": 8651,
      "##ƛ": 8652,
      "##ড": 8653,
      "##靜": 8654,
      "##➶": 8655,
      "##娠": 8656,
      "##癇": 8657,
      "##උ": 8658,
      "##팽": 8659,
      "##섯": 8660,
      "##ळ": 8661,
      "##⑤": 8662,
      "##၁": 8663,
      "##၀": 8664,
      "##၄": 8665,
      "##沃": 8666,
      "##陵": 8667,
      "##疆": 8668,
      "##盤": 8669,
      "##魏": 8670,
      "##殴": 8671,
      "##碩": 8672,
      "##㟫": 8673,
      "##閤": 8674,
      "##喪": 8675,
      "##禮": 8676,
      "##圈": 8677,
      "##妮": 8678,
      "##晌": 8679,
      "##血": 8680,
      "##脫": 8681,
      "##殼": 8682,
      "##≧": 8683,
      "##△": 8684,
      "##≦": 8685,
      "##": 8686,
      "##ヌ": 8687,
      "##忙": 8688,
      "##향": 8689,
      "##隣": 8690,
      "##鉛": 8691,
      "##把": 8692,
      "##賢": 8693,
      "##禿": 8694,
      "##髮": 8695,
      "##俱": 8696,
      "##₄": 8697,
      "##글": 8698,
      "##瓶": 8699,
      "##貨": 8700,
      "##幣": 8701,
      "##✔": 8702,
      "##监": 8703,
      "##۔": 8704,
      "##환": 8705,
      "##虫": 8706,
      "##↹": 8707,
      "##才": 8708,
      "##浩": 8709,
      "##": 8710,
      "##兆": 8711,
      "##유": 8712,
      "##감": 8713,
      "##✉": 8714,
      "##首": 8715,
      "##ゝ": 8716,
      "##Ɗ": 8717,
      "##瀝": 8718,
      "##레": 8719,
      "##撤": 8720,
      "##纽": 8721,
      "##约": 8722,
      "##阳": 8723,
      "##报": 8724,
      "##翰": 8725,
      "##撰": 8726,
      "##评": 8727,
      "##暂": 8728,
      "##候": 8729,
      "##异": 8730,
      "##呈": 8731,
      "##观": 8732,
      "##众": 8733,
      "##响": 8734,
      "##诠": 8735,
      "##释": 8736,
      "##谈": 8737,
      "##让": 8738,
      "##寧": 8739,
      "##増": 8740,
      "##痰": 8741,
      "##咳": 8742,
      "##ന": 8743,
      "##േ": 8744,
      "##യ": 8745,
      "##ത": 8746,
      "##務": 8747,
      "##馨": 8748,
      "##级": 8749,
      "##𤣳": 8750,
      "##‼": 8751,
      "##◡": 8752,
      "##链": 8753,
      "##称": 8754,
      "##规": 8755,
      "##Ⅽ": 8756,
      "##ǁ": 8757,
      "##蓉": 8758,
      "##🤗": 8759,
      "##공": 8760,
      "##항": 8761,
      "##芽": 8762,
      "##抣": 8763,
      "##": 8764,
      "##♒": 8765,
      "##聯": 8766,
      "##临": 8767,
      "##驱": 8768,
      "##适": 8769,
      "##ပ": 8770,
      "##န": 8771,
      "##ရ": 8772,
      "##脈": 8773,
      "##ܕ": 8774,
      "##嚴": 8775,
      "##霧": 8776,
      "##": 8777,
      "##ᴠ": 8778,
      "##宏": 8779,
      "## ": 8780,
      "##": 8781,
      "##①": 8782,
      "##❨": 8783,
      "##贝": 8784,
      "##ᐈ": 8785,
      "##ⵏ": 8786,
      "##❗": 8787,
      "##광": 8788,
      "##艇": 8789,
      "##펌": 8790,
      "##프": 8791,
      "##仲": 8792,
      "##庚": 8793,
      "##戎": 8794,
      "##〔": 8795,
      "##〕": 8796,
      "##墊": 8797,
      "##枕": 8798,
      "##偶": 8799,
      "##縁": 8800,
      "##漂": 8801,
      "##挑": 8802,
      "##甩": 8803,
      "##旁": 8804,
      "##∴": 8805,
      "##譙": 8806,
      "##겼": 8807,
      "##큰": 8808,
      "##Щ": 8809,
      "##磁": 8810,
      "##琳": 8811,
      "##沉": 8812,
      "##雁": 8813,
      "##⏤": 8814,
      "##享": 8815,
      "##揅": 8816,
      "##抦": 8817,
      "##틸": 8818,
      "##議": 8819,
      "##窗": 8820,
      "##樣": 8821,
      "##勾": 8822,
      "##剣": 8823,
      "##蝙": 8824,
      "##蝠": 8825,
      "##菠": 8826,
      "##蘿": 8827,
      "##沙": 8828,
      "##醬": 8829,
      "##🤷": 8830,
      "##召": 8831,
      "##豫": 8832,
      "##恨": 8833,
      "##泡": 8834,
      "##할": 8835,
      "##ꜯ": 8836,
      "##茸": 8837,
      "##偌": 8838,
      "##诗": 8839,
      "##芦": 8840,
      "##榜": 8841,
      "##肯": 8842,
      "##祈": 8843,
      "##🤘": 8844,
      "##羞": 8845,
      "##ফ": 8846,
      "##抄": 8847,
      "##ɯ": 8848,
      "##笹": 8849,
      "##않": 8850,
      "##을": 8851,
      "##煒": 8852,
      "##ং": 8853,
      "##Ꮃ": 8854,
      "##Ⅰ": 8855,
      "##昉": 8856,
      "##零": 8857,
      "##随": 8858,
      "##ォ": 8859,
      "##끼": 8860,
      "##軻": 8861,
      "##彈": 8862,
      "##蕾": 8863,
      "##鏤": 8864,
      "##衩": 8865,
      "##抽": 8866,
      "##繩": 8867,
      "##裙": 8868,
      "##喇": 8869,
      "##叭": 8870,
      "##恤": 8871,
      "##壩": 8872,
      "##荊": 8873,
      "##丟": 8874,
      "##复": 8875,
      "##硬": 8876,
      "##损": 8877,
      "##坏": 8878,
      "##偿": 8879,
      "##": 8880,
      "##✭": 8881,
      "##祎": 8882,
      "##亚": 8883,
      "##绵": 8884,
      "##层": 8885,
      "##貫": 8886,
      "##瓘": 8887,
      "##⊥": 8888,
      "##": 8889,
      "##灬": 8890,
      "##걸": 8891,
      "##翟": 8892,
      "##丹": 8893,
      "##ఎ": 8894,
      "##స": 8895,
      "##棧": 8896,
      "##嫌": 8897,
      "##礫": 8898,
      "##愉": 8899,
      "##데": 8900,
      "##番": 8901,
      "##డ": 8902,
      "##馳": 8903,
      "##☒": 8904,
      "##盆": 8905,
      "##ಗ": 8906,
      "##详": 8907,
      "##椒": 8908,
      "##盐": 8909,
      "##慕": 8910,
      "##孩": 8911,
      "##✗": 8912,
      "##Қ": 8913,
      "##哭": 8914,
      "##没": 8915,
      "##脑": 8916,
      "##讀": 8917,
      "##雜": 8918,
      "##‧": 8919,
      "##荀": 8920,
      "##辨": 8921,
      "##ජ": 8922,
      "##": 8923,
      "##⅔": 8924,
      "##絵": 8925,
      "##": 8926,
      "##厂": 8927,
      "##医": 8928,
      "##鯨": 8929,
      "##耳": 8930,
      "##飾": 8931,
      "##ʱ": 8932,
      "##績": 8933,
      "##◁": 8934,
      "##握": 8935,
      "##🧡": 8936,
      "##伟": 8937,
      "##☁": 8938,
      "##거": 8939,
      "##칠": 8940,
      "##拥": 8941,
      "##计": 8942,
      "##芬": 8943,
      "##兰": 8944,
      "##挪": 8945,
      "##威": 8946,
      "##班": 8947,
      "##牙": 8948,
      "##拿": 8949,
      "##酋": 8950,
      "##墨": 8951,
      "##尼": 8952,
      "##葡": 8953,
      "##萄": 8954,
      "##湾": 8955,
      "##籍": 8956,
      "##职": 8957,
      "##做": 8958,
      "##讲": 8959,
      "##俗": 8960,
      "##饮": 8961,
      "##熾": 8962,
      "##磐": 8963,
      "##淮": 8964,
      "##删": 8965,
      "##蒋": 8966,
      "##ⲣ": 8967,
      "##⌚": 8968,
      "##Ո": 8969,
      "##琛": 8970,
      "##尖": 8971,
      "##訳": 8972,
      "##樹": 8973,
      "##巷": 8974,
      "##날": 8975,
      "##없": 8976,
      "##闍": 8977,
      "##澎": 8978,
      "##漁": 8979,
      "##✌": 8980,
      "##탈": 8981,
      "##渓": 8982,
      "##阴": 8983,
      "##Ꭰ": 8984,
      "##ಫ": 8985,
      "##恫": 8986,
      "##漳": 8987,
      "##猜": 8988,
      "##∈": 8989,
      "##🥒": 8990,
      "##招": 8991,
      "##瓛": 8992,
      "##孙": 8993,
      "##ӏ": 8994,
      "##🤛": 8995,
      "##ᴇ": 8996,
      "##ʟ": 8997,
      "##扶": 8998,
      "##乩": 8999,
      "##箕": 9000,
      "##⚽": 9001,
      "##鹂": 9002,
      "##佩": 9003,
      "##琪": 9004,
      "##회": 9005,
      "##岸": 9006,
      "##垣": 9007,
      "##豬": 9008,
      "##≫": 9009,
      "##璟": 9010,
      "##瑛": 9011,
      "##琬": 9012,
      "##瓚": 9013,
      "##瑒": 9014,
      "##瑗": 9015,
      "##맨": 9016,
      "##ɐ": 9017,
      "##牧": 9018,
      "##椿": 9019,
      "##顏": 9020,
      "##甜": 9021,
      "##錫": 9022,
      "##평": 9023,
      "##창": 9024,
      "##帆": 9025,
      "##尺": 9026,
      "##午": 9027,
      "##狸": 9028,
      "##ං": 9029,
      "##鵬": 9030,
      "##虔": 9031,
      "##𝐓": 9032,
      "##𝐄": 9033,
      "##𝐐": 9034,
      "##𝐔": 9035,
      "##𝐈": 9036,
      "##𝐋": 9037,
      "##𝐀": 9038,
      "##隅": 9039,
      "##❑": 9040,
      "##晓": 9041,
      "##织": 9042,
      "##拍": 9043,
      "##ﻠ": 9044,
      "##ﺴ": 9045,
      "##ﺘ": 9046,
      "##ﺎ": 9047,
      "##证": 9048,
      "##券": 9049,
      "##趋": 9050,
      "##势": 9051,
      "##柴": 9052,
      "##陈": 9053,
      "##秉": 9054,
      "##钧": 9055,
      "##내": 9056,
      "##羊": 9057,
      "##◇": 9058,
      "##谜": 9059,
      "##⁶": 9060,
      "##⁷": 9061,
      "##檒": 9062,
      "##頞": 9063,
      "##": 9064,
      "##嗣": 9065,
      "##🤔": 9066,
      "##ɧ": 9067,
      "##撈": 9068,
      "##麵": 9069,
      "##ƙ": 9070,
      "##潘": 9071,
      "##洼": 9072,
      "##": 9073,
      "##淺": 9074,
      "##郑": 9075,
      "##˦": 9076,
      "##˥": 9077,
      "##郭": 9078,
      "##설": 9079,
      "##强": 9080,
      "##构": 9081,
      "##婧": 9082,
      "##𝑓": 9083,
      "##託": 9084,
      "##것": 9085,
      "##처": 9086,
      "##럼": 9087,
      "##Յ": 9088,
      "##Ի": 9089,
      "##▣": 9090,
      "##憶": 9091,
      "##难": 9092,
      "##झ": 9093,
      "##ᒥ": 9094,
      "##ᓯ": 9095,
      "##ਪ": 9096,
      "##ਟ": 9097,
      "##애": 9098,
      "##菸": 9099,
      "##破": 9100,
      "##伒": 9101,
      "##ৈ": 9102,
      "##ছ": 9103,
      "##ਏ": 9104,
      "##〈": 9105,
      "##🧁": 9106,
      "##🦊": 9107,
      "##": 9108,
      "##厳": 9109,
      "##遍": 9110,
      "##摺": 9111,
      "##圧": 9112,
      "##캔": 9113,
      "##厈": 9114,
      "##ﰖ": 9115,
      "##ﰄ": 9116,
      "##ﰎ": 9117,
      "##ﰓ": 9118,
      "##ﰡ": 9119,
      "##ﰂ": 9120,
      "##올": 9121,
      "##요": 9122,
      "##각": 9123,
      "##衞": 9124,
      "##Ⅾ": 9125,
      "##ച": 9126,
      "##⅜": 9127,
      "##⚾": 9128,
      "##ਥ": 9129,
      "##璿": 9130,
      "##盟": 9131,
      "##鄉": 9132,
      "##ฤ": 9133,
      "##索": 9134,
      "##법": 9135,
      "##肺": 9136,
      "##肠": 9137,
      "##徐": 9138,
      "##": 9139,
      "##": 9140,
      "##♈": 9141,
      "##ච": 9142,
      "##⑩": 9143,
      "##➹": 9144,
      "##ᆪ": 9145,
      "##세": 9146,
      "##趴": 9147,
      "##总": 9148,
      "##荣": 9149,
      "##轮": 9150,
      "##矢": 9151,
      "##揕": 9152,
      "##ژ": 9153,
      "##儉": 9154,
      "##彰": 9155,
      "##ˇ": 9156,
      "##◄": 9157,
      "##୧": 9158,
      "##୩": 9159,
      "##ね": 9160,
      "##積": 9161,
      "##☝": 9162,
      "##✘": 9163,
      "##韻": 9164,
      "##": 9165,
      "##‽": 9166,
      "##➲": 9167,
      "##憤": 9168,
      "##珺": 9169,
      "##맞": 9170,
      "##": 9171,
      "##曇": 9172,
      "##같": 9173,
      "##瑜": 9174,
      "##만": 9175,
      "##泰": 9176,
      "##؛": 9177,
      "##賀": 9178,
      "##冴": 9179,
      "##稀": 9180,
      "##倾": 9181,
      "##惯": 9182,
      "##汝": 9183,
      "##Ə": 9184,
      "##攄": 9185,
      "##˄": 9186,
      "##垒": 9187,
      "##阵": 9188,
      "##섬": 9189,
      "##储": 9190,
      "##识": 9191,
      "##顿": 9192,
      "##埕": 9193,
      "##≪": 9194,
      "##성": 9195,
      "##형": 9196,
      "##⨉": 9197,
      "##呪": 9198,
      "##縛": 9199,
      "##刚": 9200,
      "##ฐ": 9201,
      "##좀": 9202,
      "##梶": 9203,
      "##銑": 9204,
      "##Կ": 9205,
      "##ծ": 9206,
      "##": 9207,
      "##భ": 9208,
      "##때": 9209,
      "##⬅": 9210,
      "##ѣ": 9211,
      "##ခ": 9212,
      "##ါ": 9213,
      "##ও": 9214,
      "##妖": 9215,
      "##褪": 9216,
      "##⚬": 9217,
      "##仕": 9218,
      "##厄": 9219,
      "##末": 9220,
      "##☑": 9221,
      "##團": 9222,
      "##聚": 9223,
      "##刀": 9224,
      "##嘗": 9225,
      "##尿": 9226,
      "##ʝ": 9227,
      "##桐": 9228,
      "##緑": 9229,
      "##砂": 9230,
      "##遺": 9231,
      "##Ȼ": 9232,
      "##₨": 9233,
      "##ɜ": 9234,
      "##ᢠ": 9235,
      "##殄": 9236,
      "##Ǝ": 9237,
      "##": 9238,
      "##സ": 9239,
      "##裵": 9240,
      "##禎": 9241,
      "##帽": 9242,
      "##♀": 9243,
      "##온": 9244,
      "##ಒ": 9245,
      "##锋": 9246,
      "##☃": 9247,
      "##岱": 9248,
      "##姝": 9249,
      "##դ": 9250,
      "##խ": 9251,
      "##耶": 9252,
      "##撒": 9253,
      "##冷": 9254,
      "##鑑": 9255,
      "##🤯": 9256,
      "##澡": 9257,
      "##姑": 9258,
      "##臧": 9259,
      "##邊": 9260,
      "##怎": 9261,
      "##呢": 9262,
      "##囉": 9263,
      "##尝": 9264,
      "##건": 9265,
      "##幼": 9266,
      "##盈": 9267,
      "##틴": 9268,
      "##札": 9269,
      "##幌": 9270,
      "##庆": 9271,
      "##霍": 9272,
      "##奧": 9273,
      "##": 9274,
      "##겨": 9275,
      "##울": 9276,
      "##灰": 9277,
      "##促": 9278,
      "##舍": 9279,
      "##襲": 9280,
      "##傷": 9281,
      "##臨": 9282,
      "##眾": 9283,
      "##락": 9284,
      "##诺": 9285,
      "##跨": 9286,
      "##撼": 9287,
      "##涌": 9288,
      "##᜶": 9289,
      "##狂": 9290,
      "##嘩": 9291,
      "##揂": 9292,
      "##꼬": 9293,
      "##珂": 9294,
      "##敕": 9295,
      "##勃": 9296,
      "##ฒ": 9297,
      "##旺": 9298,
      "##蟻": 9299,
      "##橫": 9300,
      "##": 9301,
      "##총": 9302,
      "##颖": 9303,
      "##椰": 9304,
      "##卤": 9305,
      "##矽": 9306,
      "##膠": 9307,
      "##脂": 9308,
      "##傳": 9309,
      "##ʌ": 9310,
      "##ɹ": 9311,
      "##🥥": 9312,
      "##弔": 9313,
      "##〜": 9314,
      "##批": 9315,
      "##🅃": 9316,
      "##🄾": 9317,
      "##🅁": 9318,
      "##🄸": 9319,
      "##🄻": 9320,
      "##🄰": 9321,
      "##🅂": 9322,
      "##喻": 9323,
      "##丽": 9324,
      "##萍": 9325,
      "##슬": 9326,
      "##러": 9327,
      "##노": 9328,
      "##艹": 9329,
      "##宕": 9330,
      "##豈": 9331,
      "##먹": 9332,
      "##튀": 9333,
      "##검": 9334,
      "##증": 9335,
      "##桌": 9336,
      "##豹": 9337,
      "##芳": 9338,
      "##鐵": 9339,
      "##梯": 9340,
      "##晃": 9341,
      "##쿨": 9342,
      "##慎": 9343,
      "##銷": 9344,
      "##峽": 9345,
      "##茂": 9346,
      "##\n": 9347,
      "##宀": 9348,
      "##⸺": 9349,
      "##ۆ": 9350,
      "##屎": 9351,
      "##卷": 9352,
      "##枇": 9353,
      "##杷": 9354,
      "##嗯": 9355,
      "##檙": 9356,
      "##ञ": 9357,
      "##ষ": 9358,
      "##养": 9359,
      "##叩": 9360,
      "##肅": 9361,
      "##‴": 9362,
      "##⑨": 9363,
      "##임": 9364,
      "##왜": 9365,
      "##란": 9366,
      "##녹": 9367,
      "##차": 9368,
      "##畠": 9369,
      "##芋": 9370,
      "##Ꭲ": 9371,
      "##弗": 9372,
      "##瓊": 9373,
      "##勒": 9374,
      "##": 9375,
      "##瓜": 9376,
      "##擺": 9377,
      "##猎": 9378,
      "##骷": 9379,
      "##髅": 9380,
      "##朴": 9381,
      "##灿": 9382,
      "##": 9383,
      "##엔": 9384,
      "##먼": 9385,
      "##侍": 9386,
      "##⑥": 9387,
      "##旬": 9388,
      "##廉": 9389,
      "##撫": 9390,
      "##Ŀ": 9391,
      "##閣": 9392,
      "##曼": 9393,
      "##᜵": 9394,
      "##𝛼": 9395,
      "##": 9396,
      "##煮": 9397,
      "##读": 9398,
      "##➽": 9399,
      "##俺": 9400,
      "##հ": 9401,
      "##տ": 9402,
      "##跑": 9403,
      "##吐": 9404,
      "##眉": 9405,
      "##ڑ": 9406,
      "##痔": 9407,
      "##예": 9408,
      "##捕": 9409,
      "##圜": 9410,
      "##": 9411,
      "##辈": 9412,
      "##彤": 9413,
      "##頓": 9414,
      "##ゥ": 9415,
      "##゛": 9416,
      "##୦": 9417,
      "##煩": 9418,
      "##雑": 9419,
      "##买": 9420,
      "##☠": 9421,
      "##담": 9422,
      "##➮": 9423,
      "##⎋": 9424,
      "##巴": 9425,
      "##ఆ": 9426,
      "##♔": 9427,
      "##♮": 9428,
      "##": 9429,
      "##攀": 9430,
      "##琵": 9431,
      "##琶": 9432,
      "##또": 9433,
      "##⧠": 9434,
      "##稲": 9435,
      "##齊": 9436,
      "##歡": 9437,
      "##궁": 9438,
      "##↤": 9439,
      "##翁": 9440,
      "##娟": 9441,
      "##⚖": 9442,
      "##鑿": 9443,
      "##玄": 9444,
      "##ღ": 9445,
      "##𝐮": 9446,
      "##𝐧": 9447,
      "##𝐠": 9448,
      "##𝐡": 9449,
      "##曷": 9450,
      "##詩": 9451,
      "##敦": 9452,
      "##陀": 9453,
      "##棱": 9454,
      "##閩": 9455,
      "##偵": 9456,
      "##扮": 9457,
      "##糜": 9458,
      "##譓": 9459,
      "##姓": 9460,
      "##讯": 9461,
      "##历": 9462,
      "##ⓒ": 9463,
      "##𒆳": 9464,
      "##𒆠": 9465,
      "##𒈾": 9466,
      "##𒄴": 9467,
      "##Ϝ": 9468,
      "##⩾": 9469,
      "##陌": 9470,
      "##廬": 9471,
      "##濵": 9472,
      "##繼": 9473,
      "##徽": 9474,
      "##妻": 9475,
      "##淇": 9476,
      "##迹": 9477,
      "##躍": 9478,
      "##條": 9479,
      "##渕": 9480,
      "##즌": 9481,
      "##樽": 9482,
      "##활": 9483,
      "##၂": 9484,
      "##Ջ": 9485,
      "##콘": 9486,
      "##푸": 9487,
      "##待": 9488,
      "##♻": 9489,
      "##멤": 9490,
      "##십": 9491,
      "##ண": 9492,
      "##": 9493,
      "##凱": 9494,
      "##领": 9495,
      "##논": 9496,
      "##ஒ": 9497,
      "##ழ": 9498,
      "##璧": 9499,
      "##龜": 9500,
      "##⁹": 9501,
      "##": 9502,
      "##품": 9503,
      "##밟": 9504,
      "##쁜": 9505,
      "##願": 9506,
      "##암": 9507,
      "##곡": 9508,
      "##୨": 9509,
      "##艳": 9510,
      "##耕": 9511,
      "##犁": 9512,
      "##徵": 9513,
      "##☜": 9514,
      "##苗": 9515,
      "##壇": 9516,
      "##♉": 9517,
      "##☿": 9518,
      "##楫": 9519,
      "##廈": 9520,
      "##谓": 9521,
      "##类": 9522,
      "##贴": 9523,
      "##ⵙ": 9524,
      "##⏎": 9525,
      "##兽": 9526,
      "##桃": 9527,
      "##٫": 9528,
      "##鍊": 9529,
      "##薔": 9530,
      "##叙": 9531,
      "##繡": 9532,
      "##♢": 9533,
      "##ᝃ": 9534,
      "##鸚": 9535,
      "##鵡": 9536,
      "##閲": 9537,
      "##覧": 9538,
      "##萃": 9539,
      "##沮": 9540,
      "##渠": 9541,
      "##쿠": 9542,
      "##폰": 9543,
      "##菇": 9544,
      "##": 9545,
      "##": 9546,
      "##ქ": 9547,
      "##వ": 9548,
      "##゜": 9549,
      "##埼": 9550,
      "##聃": 9551,
      "##악": 9552,
      "##競": 9553,
      "##泳": 9554,
      "##冬": 9555,
      "##胃": 9556,
      "##闽": 9557,
      "##劳": 9558,
      "##钓": 9559,
      "##紙": 9560,
      "##沛": 9561,
      "##❝": 9562,
      "##离": 9563,
      "##桥": 9564,
      "##慮": 9565,
      "##弊": 9566,
      "##談": 9567,
      "##货": 9568,
      "##慧": 9569,
      "##⊆": 9570,
      "##ℜ": 9571,
      "##": 9572,
      "##ܒ": 9573,
      "##ܥ": 9574,
      "##ܢ": 9575,
      "##盲": 9576,
      "##援": 9577,
      "##榴": 9578,
      "##魅": 9579,
      "##坪": 9580,
      "##크": 9581,
      "##灵": 9582,
      "##鑐": 9583,
      "##ሸ": 9584,
      "##ገ": 9585,
      "##羆": 9586,
      "##埴": 9587,
      "##巩": 9588,
      "##艺": 9589,
      "##╖": 9590,
      "##Ϫ": 9591,
      "##潔": 9592,
      "##결": 9593,
      "##懿": 9594,
      "##掳": 9595,
      "##랍": 9596,
      "##蓋": 9597,
      "##양": 9598,
      "##구": 9599,
      "##အ": 9600,
      "##览": 9601,
      "##జ": 9602,
      "##驾": 9603,
      "##驶": 9604,
      "##販": 9605,
      "##❳": 9606,
      "##竹": 9607,
      "##臻": 9608,
      "##鳳": 9609,
      "##պ": 9610,
      "##ည": 9611,
      "##苻": 9612,
      "##☄": 9613,
      "##갓": 9614,
      "##煎": 9615,
      "##刂": 9616,
      "##艾": 9617,
      "##凝": 9618,
      "##✈": 9619,
      "##џ": 9620,
      "##幻": 9621,
      "##隔": 9622,
      "##圏": 9623,
      "##栖": 9624,
      "##존": 9625,
      "##緋": 9626,
      "##靈": 9627,
      "##輕": 9628,
      "##ᮏ": 9629,
      "##ᮝ": 9630,
      "##华": 9631,
      "##쟁": 9632,
      "##׳": 9633,
      "##弟": 9634,
      "##": 9635,
      "##ǝ": 9636,
      "##鱗": 9637,
      "##翅": 9638,
      "##仄": 9639,
      "##弾": 9640,
      "##献": 9641,
      "##卧": 9642,
      "##ᠰ": 9643,
      "##ᡥ": 9644,
      "##곽": 9645,
      "##箏": 9646,
      "##龔": 9647,
      "##夕": 9648,
      "##륭": 9649,
      "##汐": 9650,
      "##返": 9651,
      "##灝": 9652,
      "##軒": 9653,
      "##ڠ": 9654,
      "##蒙": 9655,
      "##ഹ": 9656,
      "##െ": 9657,
      "##ൽ": 9658,
      "##언": 9659,
      "##朋": 9660,
      "##恵": 9661,
      "##鹅": 9662,
      "##划": 9663,
      "##ಮ": 9664,
      "##碱": 9665,
      "##萱": 9666,
      "##Պ": 9667,
      "##炜": 9668,
      "##钰": 9669,
      "##峠": 9670,
      "##泣": 9671,
      "##ㅋ": 9672,
      "##ᵗ": 9673,
      "##ϻ": 9674,
      "##ռ": 9675,
      "##吾": 9676,
      "##ਖ": 9677,
      "##搾": 9678,
      "##坑": 9679,
      "##컬": 9680,
      "##捨": 9681,
      "##帶": 9682,
      "##殊": 9683,
      "##撃": 9684,
      "##ঠ": 9685,
      "##摂": 9686,
      "##昕": 9687,
      "##": 9688,
      "##⊕": 9689,
      "##莱": 9690,
      "##乌": 9691,
      "##춘": 9692,
      "##눈": 9693,
      "##셔": 9694,
      "##简": 9695,
      "##緩": 9696,
      "##↟": 9697,
      "##☐": 9698,
      "##연": 9699,
      "##⑦": 9700,
      "##宙": 9701,
      "##ម": 9702,
      "##ឝ": 9703,
      "##遣": 9704,
      "##鼐": 9705,
      "##姿": 9706,
      "##蔵": 9707,
      "##ﺸ": 9708,
      "##ﻦ": 9709,
      "##梓": 9710,
      "##塵": 9711,
      "##葆": 9712,
      "##되": 9713,
      "##었": 9714,
      "##습": 9715,
      "##茗": 9716,
      "##篤": 9717,
      "##𝐂": 9718,
      "##𝐩": 9719,
      "##Ϣ": 9720,
      "##ⲉ": 9721,
      "##ⲛ": 9722,
      "##ⲥ": 9723,
      "##ⲏ": 9724,
      "##ⲧ": 9725,
      "##默": 9726,
      "##塊": 9727,
      "##": 9728,
      "##⚕": 9729,
      "##爪": 9730,
      "##詹": 9731,
      "##儘": 9732,
      "##僅": 9733,
      "##釋": 9734,
      "##遞": 9735,
      "##۵": 9736,
      "##瞬": 9737,
      "##拡": 9738,
      "##蚵": 9739,
      "##΄": 9740,
      "##Ћ": 9741,
      "##籃": 9742,
      "##督": 9743,
      "##플": 9744,
      "##锅": 9745,
      "##戚": 9746,
      "##涛": 9747,
      "##औ": 9748,
      "##ɵ": 9749,
      "##➡": 9750,
      "##鞋": 9751,
      "##冤": 9752,
      "##獄": 9753,
      "##戒": 9754,
      "##➤": 9755,
      "##盖": 9756,
      "##鄀": 9757,
      "##편": 9758,
      "##싸": 9759,
      "##움": 9760,
      "##": 9761,
      "##규": 9762,
      "##隻": 9763,
      "##ˮ": 9764,
      "##▪": 9765,
      "##霊": 9766,
      "##Ү": 9767,
      "##脱": 9768,
      "##爸": 9769,
      "##승": 9770,
      "##Զ": 9771,
      "##宠": 9772,
      "##﷓": 9773,
      "##᛬": 9774,
      "##憲": 9775,
      "##Ɣ": 9776,
      "##": 9777,
      "##슴": 9778,
      "##↦": 9779,
      "##摄": 9780,
      "##꿈": 9781,
      "##꾸": 9782,
      "##며": 9783,
      "##⑧": 9784,
      "##剧": 9785,
      "##朙": 9786,
      "##병": 9787,
      "##掛": 9788,
      "##छ": 9789,
      "##巡": 9790,
      "##棄": 9791,
      "##夾": 9792,
      "##陆": 9793,
      "##蒔": 9794,
      "##▱": 9795,
      "##満": 9796,
      "##ಠ": 9797,
      "##吻": 9798,
      " t": 9799,
      " a": 9800,
      "##in": 9801,
      "##he": 9802,
      "##re": 9803,
      "##on": 9804,
      "##er": 9805,
      " the": 9806,
      " s": 9807,
      "##at": 9808,
      " o": 9809,
      "##nd": 9810,
      " w": 9811,
      " c": 9812,
      "##it": 9813,
      "##es": 9814,
      "##or": 9815,
      "##en": 9816,
      "##is": 9817,
      "##ou": 9818,
      " f": 9819,
      " p": 9820,
      "##ing": 9821,
      "##an": 9822,
      " b": 9823,
      "##al": 9824,
      "##ed": 9825,
      " and": 9826,
      " to": 9827,
      " m": 9828,
      " in": 9829,
      "##ar": 9830,
      " of": 9831,
      "##ic": 9832,
      " d": 9833,
      "##ion": 9834,
      "##le": 9835,
      "##as": 9836,
      "##om": 9837,
      " h": 9838,
      " \n": 9839,
      " th": 9840,
      "##ent": 9841,
      "##il": 9842,
      " e": 9843,
      "##ro": 9844,
      " re": 9845,
      "##ve": 9846,
      " l": 9847,
      " T": 9848,
      "##st": 9849,
      "##ct": 9850,
      " y": 9851,
      " I": 9852,
      " n": 9853,
      "##et": 9854,
      " g": 9855,
      " A": 9856,
      " S": 9857,
      "##ly": 9858,
      " you": 9859,
      " is": 9860,
      " for": 9861,
      " be": 9862,
      " C": 9863,
      "##id": 9864,
      "##ot": 9865,
      "##ut": 9866,
      " on": 9867,
      "##ur": 9868,
      "##ol": 9869,
      "##ra": 9870,
      "##us": 9871,
      "##ce": 9872,
      "##ow": 9873,
      "##im": 9874,
      "##ation": 9875,
      "##ch": 9876,
      "##ig": 9877,
      "##ay": 9878,
      "##ver": 9879,
      "##el": 9880,
      "##ith": 9881,
      " st": 9882,
      " that": 9883,
      "##am": 9884,
      "##ir": 9885,
      " with": 9886,
      "##ad": 9887,
      " M": 9888,
      " The": 9889,
      "##ul": 9890,
      "##s.": 9891,
      " P": 9892,
      " it": 9893,
      " B": 9894,
      " pro": 9895,
      " as": 9896,
      " he": 9897,
      "##s,": 9898,
      " al": 9899,
      " an": 9900,
      " W": 9901,
      "##se": 9902,
      "##un": 9903,
      "##ter": 9904,
      "##if": 9905,
      " are": 9906,
      " con": 9907,
      " wh": 9908,
      "##ill": 9909,
      "##ge": 9910,
      " H": 9911,
      " or": 9912,
      "##'s": 9913,
      " com": 9914,
      "##ment": 9915,
      "##ke": 9916,
      " ha": 9917,
      "##ate": 9918,
      " 1": 9919,
      " D": 9920,
      "##ist": 9921,
      "##her": 9922,
      " we": 9923,
      "##ers": 9924,
      "##ab": 9925,
      " F": 9926,
      "##pp": 9927,
      "##od": 9928,
      "##ess": 9929,
      " R": 9930,
      "##ri": 9931,
      "##est": 9932,
      " ex": 9933,
      "##ore": 9934,
      "##ac": 9935,
      "##ant": 9936,
      "##th": 9937,
      " su": 9938,
      "##rom": 9939,
      " de": 9940,
      "##ity": 9941,
      "##op": 9942,
      " at": 9943,
      " (": 9944,
      " was": 9945,
      " L": 9946,
      "##ld": 9947,
      "##qu": 9948,
      " se": 9949,
      " your": 9950,
      " 2": 9951,
      "##igh": 9952,
      " v": 9953,
      "##ive": 9954,
      " ne": 9955,
      " can": 9956,
      "##ure": 9957,
      "##ort": 9958,
      "##ies": 9959,
      " E": 9960,
      "##oc": 9961,
      "##pe": 9962,
      " G": 9963,
      "##ain": 9964,
      "##em": 9965,
      " N": 9966,
      " by": 9967,
      "##um": 9968,
      " from": 9969,
      " have": 9970,
      "##art": 9971,
      "##and": 9972,
      "##ust": 9973,
      " ch": 9974,
      " us": 9975,
      "##os": 9976,
      " r": 9977,
      " O": 9978,
      " sh": 9979,
      "##nt": 9980,
      "##iv": 9981,
      "##all": 9982,
      "##ud": 9983,
      "##ial": 9984,
      "##res": 9985,
      "##ome": 9986,
      " le": 9987,
      " this": 9988,
      " not": 9989,
      "##ard": 9990,
      " u": 9991,
      "##ight": 9992,
      " wor": 9993,
      " pl": 9994,
      "##ect": 9995,
      "##our": 9996,
      "##ide": 9997,
      "##out": 9998,
      " U": 9999,
      " will": 10000,
      "##ost": 10001,
      " \"": 10002,
      "##rou": 10003,
      " ab": 10004,
      "##per": 10005,
      "##ould": 10006,
      "##ere": 10007,
      " J": 10008,
      "##ag": 10009,
      "##ine": 10010,
      "##gh": 10011,
      " en": 10012,
      " Th": 10013,
      "##are": 10014,
      "##ak": 10015,
      " comp": 10016,
      "##age": 10017,
      " ad": 10018,
      "##og": 10019,
      "##ast": 10020,
      "##ie": 10021,
      "##pt": 10022,
      "##ok": 10023,
      "##ff": 10024,
      " all": 10025,
      " In": 10026,
      "##00": 10027,
      "##ell": 10028,
      " im": 10029,
      "##ip": 10030,
      " their": 10031,
      " has": 10032,
      "##ally": 10033,
      " j": 10034,
      "##able": 10035,
      "##ich": 10036,
      "##e.": 10037,
      "##ther": 10038,
      " k": 10039,
      "##du": 10040,
      "##ear": 10041,
      "##iz": 10042,
      " int": 10043,
      "##ated": 10044,
      " go": 10045,
      "##pl": 10046,
      " whe": 10047,
      "##act": 10048,
      "##ire": 10049,
      "##ack": 10050,
      "##cc": 10051,
      " inc": 10052,
      "##ake": 10053,
      " more": 10054,
      "##so": 10055,
      "##ry": 10056,
      "##ong": 10057,
      " do": 10058,
      "##orm": 10059,
      "##ice": 10060,
      "##ind": 10061,
      " cont": 10062,
      " but": 10063,
      "##es,": 10064,
      " te": 10065,
      " cl": 10066,
      "##ign": 10067,
      "##es.": 10068,
      " me": 10069,
      "##ance": 10070,
      " out": 10071,
      "##ia": 10072,
      "##ook": 10073,
      "##ult": 10074,
      "##ber": 10075,
      "##ction": 10076,
      "##ition": 10077,
      " Y": 10078,
      " they": 10079,
      "##ru": 10080,
      " so": 10081,
      "##ous": 10082,
      " res": 10083,
      " up": 10084,
      " K": 10085,
      " which": 10086,
      " St": 10087,
      " un": 10088,
      " work": 10089,
      "##ans": 10090,
      " also": 10091,
      " tim": 10092,
      " It": 10093,
      "##ical": 10094,
      " man": 10095,
      "##very": 10096,
      "##one": 10097,
      "##ite": 10098,
      "##ail": 10099,
      "##ach": 10100,
      "##reat": 10101,
      "##vel": 10102,
      " app": 10103,
      " our": 10104,
      " imp": 10105,
      " fe": 10106,
      " 20": 10107,
      "##ib": 10108,
      "##form": 10109,
      "##ary": 10110,
      " about": 10111,
      " other": 10112,
      " one": 10113,
      "##'t": 10114,
      "##ike": 10115,
      "##ap": 10116,
      " 19": 10117,
      "##ace": 10118,
      " my": 10119,
      " off": 10120,
      "##erv": 10121,
      "##ence": 10122,
      "##av": 10123,
      " who": 10124,
      "##ep": 10125,
      " per": 10126,
      " dis": 10127,
      " his": 10128,
      " This": 10129,
      " V": 10130,
      " tra": 10131,
      " some": 10132,
      " qu": 10133,
      "##ll": 10134,
      "##ount": 10135,
      "##ile": 10136,
      " Ch": 10137,
      " part": 10138,
      "##ase": 10139,
      "##ark": 10140,
      "##ame": 10141,
      " ar": 10142,
      "##end": 10143,
      "##ass": 10144,
      " ev": 10145,
      "##ub": 10146,
      " any": 10147,
      "##ations": 10148,
      "##ue": 10149,
      " sp": 10150,
      "##ck": 10151,
      "##ree": 10152,
      "##ose": 10153,
      "##ord": 10154,
      "##ions": 10155,
      " spe": 10156,
      "##own": 10157,
      "##ish": 10158,
      " them": 10159,
      "##ove": 10160,
      "##ick": 10161,
      " As": 10162,
      " new": 10163,
      " rec": 10164,
      " pre": 10165,
      " prov": 10166,
      "##ress": 10167,
      "##y,": 10168,
      " over": 10169,
      " year": 10170,
      " ro": 10171,
      " 3": 10172,
      " comm": 10173,
      " were": 10174,
      " sc": 10175,
      " like": 10176,
      "##ond": 10177,
      "##ild": 10178,
      "##ater": 10179,
      "##ound": 10180,
      "##lp": 10181,
      " kn": 10182,
      " We": 10183,
      "##lud": 10184,
      " been": 10185,
      " pe": 10186,
      " its": 10187,
      " 201": 10188,
      "##ang": 10189,
      " had": 10190,
      "##y.": 10191,
      " time": 10192,
      " des": 10193,
      " help": 10194,
      " there": 10195,
      " acc": 10196,
      " how": 10197,
      "##ian": 10198,
      " ag": 10199,
      "##ces": 10200,
      " need": 10201,
      "##ing,": 10202,
      "##fere": 10203,
      "##ood": 10204,
      " when": 10205,
      " get": 10206,
      "##ink": 10207,
      "##ens": 10208,
      "##wn": 10209,
      "##ob": 10210,
      "##red": 10211,
      "##int": 10212,
      "##mer": 10213,
      "##tern": 10214,
      " includ": 10215,
      "##ing.": 10216,
      "##vers": 10217,
      " her": 10218,
      "##ov": 10219,
      "##low": 10220,
      " ind": 10221,
      "##ents": 10222,
      "##ific": 10223,
      " sa": 10224,
      "##rough": 10225,
      "##ric": 10226,
      "##nder": 10227,
      "##ough": 10228,
      " if": 10229,
      "##ual": 10230,
      " would": 10231,
      "##ople": 10232,
      "##oy": 10233,
      " col": 10234,
      " into": 10235,
      "##ays": 10236,
      " add": 10237,
      " bec": 10238,
      "##irst": 10239,
      "##ities": 10240,
      " am": 10241,
      "##ne": 10242,
      " -": 10243,
      "##ors": 10244,
      " may": 10245,
      " than": 10246,
      "##te": 10247,
      "##ram": 10248,
      " what": 10249,
      "##ful": 10250,
      "##lic": 10251,
      "##rit": 10252,
      "##ings": 10253,
      " Re": 10254,
      " produ": 10255,
      " He": 10256,
      " serv": 10257,
      " tr": 10258,
      " em": 10259,
      " just": 10260,
      " use": 10261,
      "##use": 10262,
      " people": 10263,
      "##hed": 10264,
      " cons": 10265,
      "##cial": 10266,
      "##fter": 10267,
      "##amp": 10268,
      " make": 10269,
      " co": 10270,
      " bu": 10271,
      "##ed.": 10272,
      "##old": 10273,
      " these": 10274,
      "##ious": 10275,
      "##ory": 10276,
      " tw": 10277,
      " dif": 10278,
      "##ft": 10279,
      " through": 10280,
      "##).": 10281,
      " such": 10282,
      " first": 10283,
      " bet": 10284,
      "##pport": 10285,
      "##round": 10286,
      " most": 10287,
      "##ew": 10288,
      " under": 10289,
      "##ning": 10290,
      " reg": 10291,
      "##ph": 10292,
      " –": 10293,
      " You": 10294,
      " sy": 10295,
      " act": 10296,
      " well": 10297,
      " 4": 10298,
      " exper": 10299,
      " no": 10300,
      "##ons": 10301,
      " rel": 10302,
      " Wh": 10303,
      "##we": 10304,
      "##ced": 10305,
      " bl": 10306,
      " eff": 10307,
      "##lect": 10308,
      " rep": 10309,
      " ra": 10310,
      "##ject": 10311,
      "##ating": 10312,
      "##olog": 10313,
      "##ert": 10314,
      "##ational": 10315,
      " only": 10316,
      "##ade": 10317,
      "##ility": 10318,
      " inv": 10319,
      " ph": 10320,
      " stud": 10321,
      "##ool": 10322,
      " 5": 10323,
      " loc": 10324,
      "##ract": 10325,
      "##ased": 10326,
      "##oth": 10327,
      "##ange": 10328,
      "##les": 10329,
      "##ng": 10330,
      " Un": 10331,
      " att": 10332,
      "##velop": 10333,
      " play": 10334,
      " know": 10335,
      "##erson": 10336,
      "##ting": 10337,
      "##uring": 10338,
      " she": 10339,
      "##ise": 10340,
      "##ates": 10341,
      "##ular": 10342,
      "##hen": 10343,
      "##ank": 10344,
      " many": 10345,
      " look": 10346,
      "##ative": 10347,
      " If": 10348,
      "##xt": 10349,
      "##iew": 10350,
      "##ience": 10351,
      "##iss": 10352,
      "##gan": 10353,
      "##ork": 10354,
      " back": 10355,
      " every": 10356,
      " fl": 10357,
      " pos": 10358,
      "##),": 10359,
      "##ath": 10360,
      "##fore": 10361,
      "##stem": 10362,
      " inform": 10363,
      "##alth": 10364,
      "##hip": 10365,
      "##ments": 10366,
      "##erm": 10367,
      "##row": 10368,
      " two": 10369,
      "##ature": 10370,
      " dec": 10371,
      " could": 10372,
      " way": 10373,
      "##a,": 10374,
      "##ient": 10375,
      "##ward": 10376,
      "##ause": 10377,
      " see": 10378,
      "##n't": 10379,
      " rem": 10380,
      "##pect": 10381,
      " where": 10382,
      "##aw": 10383,
      "##ible": 10384,
      " bus": 10385,
      " sm": 10386,
      "##er,": 10387,
      "##urn": 10388,
      "##get": 10389,
      "##elf": 10390,
      " ke": 10391,
      " inst": 10392,
      "##bs": 10393,
      " high": 10394,
      " ass": 10395,
      "##chn": 10396,
      " differe": 10397,
      "##ont": 10398,
      "##aking": 10399,
      " ac": 10400,
      "##ock": 10401,
      " want": 10402,
      " great": 10403,
      " I'": 10404,
      " develop": 10405,
      "##ident": 10406,
      " lif": 10407,
      " should": 10408,
      " med": 10409,
      " pr": 10410,
      "##cess": 10411,
      " po": 10412,
      " pol": 10413,
      " Se": 10414,
      " cre": 10415,
      "##eth": 10416,
      " sec": 10417,
      "##arch": 10418,
      " fin": 10419,
      "##rib": 10420,
      "##ation.": 10421,
      " after": 10422,
      " 200": 10423,
      "##er.": 10424,
      " art": 10425,
      " own": 10426,
      " set": 10427,
      " Com": 10428,
      " ent": 10429,
      "##ited": 10430,
      "##e,": 10431,
      " Ass": 10432,
      " good": 10433,
      " car": 10434,
      "##ied": 10435,
      " very": 10436,
      "##uch": 10437,
      "##day": 10438,
      " design": 10439,
      "##ener": 10440,
      " compan": 10441,
      " person": 10442,
      "##ily": 10443,
      " day": 10444,
      "##iness": 10445,
      " used": 10446,
      " commun": 10447,
      " ins": 10448,
      " trans": 10449,
      " then": 10450,
      "##ional": 10451,
      "##ys": 10452,
      "##ower": 10453,
      " even": 10454,
      "##iet": 10455,
      " prog": 10456,
      "##on't": 10457,
      " Al": 10458,
      " find": 10459,
      " gu": 10460,
      " For": 10461,
      "##air": 10462,
      "##dition": 10463,
      " requ": 10464,
      "##land": 10465,
      " start": 10466,
      " best": 10467,
      " system": 10468,
      " Pro": 10469,
      "##ality": 10470,
      "##ation,": 10471,
      " mod": 10472,
      " De": 10473,
      "##ict": 10474,
      "##ren": 10475,
      "##chool": 10476,
      "##enc": 10477,
      " sign": 10478,
      " disc": 10479,
      "##itt": 10480,
      " av": 10481,
      "##io": 10482,
      " Us": 10483,
      "##ices": 10484,
      " right": 10485,
      " provid": 10486,
      " long": 10487,
      "##up": 10488,
      " mark": 10489,
      "##ten": 10490,
      " fam": 10491,
      " pres": 10492,
      "##line": 10493,
      "##a.": 10494,
      "##ever": 10495,
      "##ed,": 10496,
      "##ble": 10497,
      " lead": 10498,
      " min": 10499,
      " sur": 10500,
      " support": 10501,
      " 6": 10502,
      " techn": 10503,
      " made": 10504,
      " An": 10505,
      " down": 10506,
      " home": 10507,
      " det": 10508,
      " inter": 10509,
      "##ural": 10510,
      " world": 10511,
      " soc": 10512,
      " mem": 10513,
      " take": 10514,
      " br": 10515,
      "##arn": 10516,
      " different": 10517,
      " product": 10518,
      "##ax": 10519,
      " vis": 10520,
      " form": 10521,
      " How": 10522,
      "##istant": 10523,
      "##und": 10524,
      " now": 10525,
      " che": 10526,
      " being": 10527,
      "##ustom": 10528,
      "##other": 10529,
      "##ivers": 10530,
      "##ution": 10531,
      " health": 10532,
      "##..": 10533,
      "##ash": 10534,
      "##ven": 10535,
      " show": 10536,
      " sim": 10537,
      " Ar": 10538,
      " much": 10539,
      "##ines": 10540,
      " while": 10541,
      "##ix": 10542,
      " mon": 10543,
      " provide": 10544,
      " before": 10545,
      " And": 10546,
      " exp": 10547,
      " read": 10548,
      " sk": 10549,
      "##its": 10550,
      "##als": 10551,
      " ed": 10552,
      " it's": 10553,
      " end": 10554,
      " import": 10555,
      "##arm": 10556,
      " comple": 10557,
      "##way": 10558,
      "##led": 10559,
      "##er:": 10560,
      "##ered": 10561,
      "##ason": 10562,
      " num": 10563,
      "##ek": 10564,
      " adv": 10565,
      " each": 10566,
      "##hes": 10567,
      "##uc": 10568,
      " spec": 10569,
      "##orn": 10570,
      "##ollow": 10571,
      "##ween": 10572,
      " information": 10573,
      " sub": 10574,
      "##az": 10575,
      " again": 10576,
      "##ics": 10577,
      "##ty": 10578,
      " op": 10579,
      " Sh": 10580,
      " those": 10581,
      " New": 10582,
      " think": 10583,
      " business": 10584,
      " because": 10585,
      " str": 10586,
      " said": 10587,
      "##ving": 10588,
      "##'re": 10589,
      " pub": 10590,
      "##roup": 10591,
      "##ly,": 10592,
      "##iqu": 10593,
      "##ene": 10594,
      "##ize": 10595,
      " ext": 10596,
      " program": 10597,
      "##ption": 10598,
      " team": 10599,
      "##ually": 10600,
      " care": 10601,
      " count": 10602,
      "##ts": 10603,
      " cur": 10604,
      " between": 10605,
      " call": 10606,
      " found": 10607,
      "##ull": 10608,
      " Can": 10609,
      "##ug": 10610,
      " aut": 10611,
      "##meric": 10612,
      " var": 10613,
      " '": 10614,
      " gra": 10615,
      "##alk": 10616,
      " There": 10617,
      "##ros": 10618,
      " ret": 10619,
      "##ouse": 10620,
      " dat": 10621,
      " did": 10622,
      " custom": 10623,
      " effect": 10624,
      " Ad": 10625,
      " Assistant": 10626,
      " prof": 10627,
      " Be": 10628,
      "##ather": 10629,
      " here": 10630,
      " hand": 10631,
      " including": 10632,
      " eas": 10633,
      " They": 10634,
      "##ince": 10635,
      " market": 10636,
      " bo": 10637,
      " him": 10638,
      " organ": 10639,
      " User:": 10640,
      " On": 10641,
      " Assistant:": 10642,
      " cle": 10643,
      " Cl": 10644,
      " 7": 10645,
      " &": 10646,
      " around": 10647,
      " ser": 10648,
      " char": 10649,
      " fil": 10650,
      " def": 10651,
      "##oun": 10652,
      "##ized": 10653,
      " Le": 10654,
      " during": 10655,
      " lar": 10656,
      " both": 10657,
      " using": 10658,
      " inf": 10659,
      "##anc": 10660,
      "##ave": 10661,
      "##iel": 10662,
      " does": 10663,
      " follow": 10664,
      "##irect": 10665,
      "##ues": 10666,
      "##ern": 10667,
      " years": 10668,
      " main": 10669,
      " 8": 10670,
      "##ism": 10671,
      " Americ": 10672,
      " mus": 10673,
      " don't": 10674,
      "##ential": 10675,
      " gl": 10676,
      " child": 10677,
      " gener": 10678,
      "##com": 10679,
      "##ah": 10680,
      " book": 10681,
      " $": 10682,
      " sol": 10683,
      "##ple": 10684,
      "##erest": 10685,
      " plan": 10686,
      " val": 10687,
      " feel": 10688,
      " 10": 10689,
      "##riend": 10690,
      "##o,": 10691,
      " place": 10692,
      " cent": 10693,
      " ty": 10694,
      " build": 10695,
      "##pr": 10696,
      " ref": 10697,
      "##ier": 10698,
      "##atch": 10699,
      "##vern": 10700,
      " partic": 10701,
      "##cl": 10702,
      "##gg": 10703,
      " list": 10704,
      " water": 10705,
      " appro": 10706,
      "##erg": 10707,
      " pur": 10708,
      " few": 10709,
      " important": 10710,
      "##eng": 10711,
      " 18": 10712,
      " .": 10713,
      "##der": 10714,
      " post": 10715,
      "##akes": 10716,
      "##ale": 10717,
      "##view": 10718,
      " But": 10719,
      " cour": 10720,
      "##20": 10721,
      "##read": 10722,
      "##ives": 10723,
      "##ivid": 10724,
      " prom": 10725,
      "##ired": 10726,
      "##ever,": 10727,
      " Ex": 10728,
      "##oad": 10729,
      " small": 10730,
      "##ures": 10731,
      " avail": 10732,
      "##ision": 10733,
      "##lease": 10734,
      " result": 10735,
      " still": 10736,
      " del": 10737,
      "##con": 10738,
      " allow": 10739,
      "##ute": 10740,
      " top": 10741,
      "##ished": 10742,
      " fun": 10743,
      " incre": 10744,
      "##stand": 10745,
      " pat": 10746,
      " last": 10747,
      "##feren": 10748,
      " experience": 10749,
      "##iron": 10750,
      "##ved": 10751,
      "##rent": 10752,
      " ide": 10753,
      " pract": 10754,
      " eng": 10755,
      "##19": 10756,
      "##ins": 10757,
      "##ness": 10758,
      " love": 10759,
      " som": 10760,
      "##le,": 10761,
      "##-b": 10762,
      " iss": 10763,
      " project": 10764,
      " really": 10765,
      " Ind": 10766,
      "##ining": 10767,
      "##ital": 10768,
      " social": 10769,
      " pri": 10770,
      " perform": 10771,
      "##1.": 10772,
      " group": 10773,
      "##au": 10774,
      " contin": 10775,
      " rece": 10776,
      " dist": 10777,
      "##ers.": 10778,
      " same": 10779,
      " interest": 10780,
      " resp": 10781,
      " school": 10782,
      "##ment.": 10783,
      "##ral": 10784,
      "##oot": 10785,
      "##-t": 10786,
      " run": 10787,
      " ear": 10788,
      " ob": 10789,
      "##iversity": 10790,
      " though": 10791,
      " sit": 10792,
      "##ways": 10793,
      "##ton": 10794,
      "##o.": 10795,
      " bel": 10796,
      " writ": 10797,
      "##ield": 10798,
      "##ik": 10799,
      "##The": 10800,
      " real": 10801,
      "##ware": 10802,
      " number": 10803,
      "##iving": 10804,
      "##uss": 10805,
      " conf": 10806,
      " free": 10807,
      " Pl": 10808,
      "##oh": 10809,
      " Sc": 10810,
      " rest": 10811,
      "##ross": 10812,
      "##port": 10813,
      "##de": 10814,
      " 9": 10815,
      " She": 10816,
      "##ering": 10817,
      " pop": 10818,
      "##man": 10819,
      " fact": 10820,
      " process": 10821,
      " poss": 10822,
      " open": 10823,
      " impro": 10824,
      "##ages": 10825,
      "##ers,": 10826,
      " available": 10827,
      "##ertain": 10828,
      " point": 10829,
      "##-s": 10830,
      "##ention": 10831,
      " keep": 10832,
      " cho": 10833,
      " Is": 10834,
      "##cept": 10835,
      " Q": 10836,
      "##work": 10837,
      " At": 10838,
      "##ruct": 10839,
      " Man": 10840,
      "##lection": 10841,
      "##reen": 10842,
      " week": 10843,
      "##ically": 10844,
      " three": 10845,
      "##000": 10846,
      " It's": 10847,
      "##ploy": 10848,
      "##2.": 10849,
      " Te": 10850,
      " life": 10851,
      " level": 10852,
      "##ly.": 10853,
      "##aj": 10854,
      " expl": 10855,
      " access": 10856,
      "##ense": 10857,
      "##ology": 10858,
      " redu": 10859,
      " feature": 10860,
      " rese": 10861,
      "##cent": 10862,
      "##ime": 10863,
      " est": 10864,
      " state": 10865,
      " All": 10866,
      "##nect": 10867,
      " prot": 10868,
      " cost": 10869,
      "##ior": 10870,
      "##iver": 10871,
      "##ars": 10872,
      " stand": 10873,
      "##ists": 10874,
      " Col": 10875,
      " grow": 10876,
      "##viron": 10877,
      "##ined": 10878,
      "##self": 10879,
[...]
