{
  "version": "1.0",
  "truncation": null,
  "padding": null,
  "added_tokens": [
    {
      "id": 0,
      "content": "[UNK]",
      "single_word": false,
      "lstrip": false,
      "rstrip": false,
      "normalized": false,
      "special": true
    },
    {
      "id": 1,
      "content": "[PAD]",
      "single_word": false,
      "lstrip": false,
      "rstrip": false,
      "normalized": false,
      "special": true
    },
    {
      "id": 2,
      "content": "[CLS]",
      "single_word": false,
      "lstrip": false,
      "rstrip": false,
      "normalized": false,
      "special": true
    },
    {
      "id": 3,
      "content": "[SEP]",
      "single_word": false,
      "lstrip": false,
      "rstrip": false,
      "normalized": false,
      "special": true
    }
  ],
  "normalizer": null,
  "pre_tokenizer": {
    "type": "ByteLevel",
    "add_prefix_space": false,
    "trim_offsets": true,
    "use_regex": true
  },
  "post_processor": {
    "type": "ByteLevel",
    "add_prefix_space": true,
    "trim_offsets": false,
    "use_regex": true
  },
  "decoder": {
    "type": "ByteLevel",
    "add_prefix_space": true,
    "trim_offsets": true,
    "use_regex": true
  },
  "model": {
    "type": "BPE",
    "dropout": null,
    "unk_token": "[UNK]",
    "continuing_subword_prefix": null,
    "end_of_word_suffix": null,
    "fuse_unk": false,
    "byte_fallback": false,
    "ignore_merges": false,
    "vocab": {
      "[UNK]": 0,
      "[PAD]": 1,
      "[CLS]": 2,
      "[SEP]": 3,
      "!": 4,
      "\"": 5,
      "#": 6,
      "$": 7,
      "%": 8,
      "&": 9,
      "'": 10,
      "(": 11,
      ")": 12,
      "*": 13,
      "+": 14,
      ",": 15,
      "-": 16,
      ".": 17,
      "/": 18,
      "0": 19,
      "1": 20,
      "2": 21,
      "3": 22,
      "4": 23,
      "5": 24,
      "6": 25,
      "7": 26,
      "8": 27,
      "9": 28,
      ":": 29,
      ";": 30,
      "<": 31,
      "=": 32,
      ">": 33,
      "?": 34,
      "@": 35,
      "A": 36,
      "B": 37,
      "C": 38,
      "D": 39,
      "E": 40,
      "F": 41,
      "G": 42,
      "H": 43,
      "I": 44,
      "J": 45,
      "K": 46,
      "L": 47,
      "M": 48,
      "N": 49,
      "O": 50,
      "P": 51,
      "Q": 52,
      "R": 53,
      "S": 54,
      "T": 55,
      "U": 56,
      "V": 57,
      "W": 58,
      "X": 59,
      "Y": 60,
      "Z": 61,
      "[": 62,
      "\\": 63,
      "]": 64,
      "^": 65,
      "_": 66,
      "`": 67,
      "a": 68,
      "b": 69,
      "c": 70,
      "d": 71,
      "e": 72,
      "f": 73,
      "g": 74,
      "h": 75,
      "i": 76,
      "j": 77,
      "k": 78,
      "l": 79,
      "m": 80,
      "n": 81,
      "o": 82,
      "p": 83,
      "q": 84,
      "r": 85,
      "s": 86,
      "t": 87,
      "u": 88,
      "v": 89,
      "w": 90,
      "x": 91,
      "y": 92,
      "z": 93,
      "{": 94,
      "|": 95,
      "}": 96,
      "~": 97,
      "¡": 98,
      "¢": 99,
      "£": 100,
      "¤": 101,
      "¥": 102,
      "¦": 103,
      "§": 104,
      "¨": 105,
      "©": 106,
      "ª": 107,
      "«": 108,
      "¬": 109,
      "®": 110,
      "¯": 111,
      "°": 112,
      "±": 113,
      "²": 114,
      "³": 115,
      "´": 116,
      "µ": 117,
      "¶": 118,
      "·": 119,
      "¸": 120,
      "¹": 121,
      "º": 122,
      "»": 123,
      "¼": 124,
      "½": 125,
      "¾": 126,
      "¿": 127,
      "À": 128,
      "Á": 129,
      "Â": 130,
      "Ã": 131,
      "Ä": 132,
      "Å": 133,
      "Æ": 134,
      "Ç": 135,
      "È": 136,
      "É": 137,
      "Ê": 138,
      "Ë": 139,
      "Ì": 140,
      "Í": 141,
      "Î": 142,
      "Ï": 143,
      "Ð": 144,
      "Ñ": 145,
      "Ò": 146,
      "Ó": 147,
      "Ô": 148,
      "Õ": 149,
      "Ö": 150,
      "×": 151,
      "Ø": 152,
      "Ù": 153,
      "Ú": 154,
      "Û": 155,
      "Ü": 156,
      "Ý": 157,
      "Þ": 158,
      "ß": 159,
      "à": 160,
      "á": 161,
      "â": 162,
      "ã": 163,
      "ä": 164,
      "å": 165,
      "æ": 166,
      "ç": 167,
      "è": 168,
      "é": 169,
      "ê": 170,
      "ë": 171,
      "ì": 172,
      "í": 173,
      "î": 174,
      "ï": 175,
      "ð": 176,
      "ñ": 177,
      "ò": 178,
      "ó": 179,
      "ô": 180,
      "õ": 181,
      "ö": 182,
      "÷": 183,
      "ø": 184,
      "ù": 185,
      "ú": 186,
      "û": 187,
      "ü": 188,
      "ý": 189,
      "þ": 190,
      "ÿ": 191,
      "Ā": 192,
      "ā": 193,
      "Ă": 194,
      "ă": 195,
      "Ą": 196,
      "ą": 197,
      "Ć": 198,
      "ć": 199,
      "Ĉ": 200,
      "ĉ": 201,
      "Ċ": 202,
      "ċ": 203,
      "Č": 204,
      "č": 205,
      "Ď": 206,
      "ď": 207,
      "Đ": 208,
      "đ": 209,
      "Ē": 210,
      "ē": 211,
      "Ĕ": 212,
      "ĕ": 213,
      "Ė": 214,
      "ė": 215,
      "Ę": 216,
      "ę": 217,
      "Ě": 218,
      "ě": 219,
      "Ĝ": 220,
      "ĝ": 221,
      "Ğ": 222,
      "ğ": 223,
      "Ġ": 224,
      "ġ": 225,
      "Ģ": 226,
      "ģ": 227,
      "Ĥ": 228,
      "ĥ": 229,
      "Ħ": 230,
      "ħ": 231,
      "Ĩ": 232,
      "ĩ": 233,
      "Ī": 234,
      "ī": 235,
      "Ĭ": 236,
      "ĭ": 237,
      "Į": 238,
      "į": 239,
      "İ": 240,
      "ı": 241,
      "Ĳ": 242,
      "ĳ": 243,
      "Ĵ": 244,
      "ĵ": 245,
      "Ķ": 246,
      "ķ": 247,
      "ĸ": 248,
      "Ĺ": 249,
      "ĺ": 250,
      "Ļ": 251,
      "ļ": 252,
      "Ľ": 253,
      "ľ": 254,
      "Ŀ": 255,
      "ŀ": 256,
      "Ł": 257,
      "ł": 258,
      "Ń": 259,
      "ĠÐ": 260,
      "Ð¾": 261,
      "Ðµ": 262,
      "Ð°": 263,
      "Ð¸": 264,
      "ÑĤ": 265,
      "Ð½": 266,
      "Ñģ": 267,
      "ÑĢ": 268,
      "Ð¾Ð": 269,
      "Ð»": 270,
      "Ñĥ": 271,
      "Ðº": 272,
      "Ñı": 273,
      "Ñĭ": 274,
      "Ð²": 275,
      "Ð¼": 276,
      "ÑĮ": 277,
      "ĠÐ¿": 278,
      "Ð´": 279,
      "ÑģÑĤ": 280,
      "ĠÐ²": 281,
      "Ñĩ": 282,
      "ÐµÐ½": 283,
      "ĠÑģ": 284,
      "ĠÐ¸": 285,
      "ÑĢÐ°": 286,
      "ĠÐ½": 287,
      "Ð·": 288,
      "Ð¾Ð²": 289,
      "Ñħ": 290,
      "ĠÐ¾": 291,
      "Ð¿": 292,
      "Ð¹": 293,
      "ĠÐº": 294,
      "ÑĢÐµ": 295,
      "Ð±": 296,
      "Ð³": 297,
      "Ð¾Ð»": 298,
      "Ð½Ð¸": 299,
      "Ñİ": 300,
      "ÐµÑĤ": 301,
      "ĠÐ´": 302,
      "Ð»Ð¸": 303,
      "Ð¾Ð¼": 304,
      "ÑĤÐ¾": 305,
      "Ð¾Ð´": 306,
      "Ð½Ñĭ": 307,
      "ÑĢÐ¸": 308,
      "ÑĤÐµ": 309,
      "ĠÐ¼": 310,
      "ÑĪ": 311,
      "ÑĨ": 312,
      "Ð¶": 313,
      "Ð¾Ð³": 314,
      "Ð½Ð¾": 315,
      "ĠÐ½Ð°": 316,
      "ÑģÐº": 317,
      "Ð½Ð°": 318,
      "Ð¾Ð¹": 319,
      "ÐµÐ½Ð¸": 320,
      "ĠÐ±": 321,
      "Ð»ÑĮ": 322,
      "ÐµÑĢ": 323,
      "Ð»Ð°": 324,
      "ÑĤÑĮ": 325,
      "ÑĤÐ°": 326,
      "ĠÑĩ": 327,
      "ĠÑ": 328,
      "Ð²Ð°": 329,
      "Ñī": 330,
      "ÑĢÐ¾": 331,
      "ÑĤÐ¸": 332,
      "ĠÐ³": 333,
      "ĠÐ·": 334,
      "ĠÑĥ": 335,
      "ÑģÑı": 336,
      "ĠÐ½Ðµ": 337,
      "ĠÐ¿Ð¾": 338,
      "ÐµÐ¼": 339,
      "Ð¾Ð³Ð¾": 340,
      "ÐºÐ°": 341,
      "Ð´Ð°": 342,
      "Ð¾Ð±": 343,
      "Ð¼Ð¸": 344,
      "ÑĢÑĥ": 345,
      "ÑĨÐ¸": 346,
      "Ð»Ðµ": 347,
      "Ð¾ÑĢ": 348,
      "Ð¾Ð²Ð°": 349,
      "ĠÑĢÐ°": 350,
      "Ð»Ñı": 351,
      "ÑģÑĤÐ²": 352,
      "ĠÐ·Ð°": 353,
      "ÑģÑĤÐ°": 354,
      "Ð¾Ð½": 355,
      "ĠÑį": 356,
      "ĠÑĤ": 357,
      "ĠÐ°": 358,
      "ÐºÐ¸": 359,
      "Ð¾Ð¶": 360,
      "ÐµÐ¹": 361,
      "Ð¾Ð»ÑĮ": 362,
      "ÑģÑĤÐ¸": 363,
      "ĠÐ»": 364,
      "ĠÐ¾Ð±": 365,
      "ĠÐ¾ÑĤ": 366,
      "ÑĩÐµ": 367,
      "ÑĦ": 368,
      "ĠÐºÐ°": 369,
      "Ð²Ð¸": 370,
      "Ð¾Ðº": 371,
      "âĢ": 372,
      "ĠÐ¿ÑĢÐ¸": 373,
      "ĠÐµ": 374,
      "Ð¾Ñģ": 375,
      "Ġ1": 376,
      "ÑĩÐ¸": 377,
      "Ð³Ð¾": 378,
      "Ð´Ðµ": 379,
      "Ð´Ð¸": 380,
      "ÐµÐ½Ð¸Ñı": 381,
      "ĠÐĴ": 382,
      "Ð¾Ð·": 383,
      "ÑĩÐ°": 384,
      "Ð¼Ð°": 385,
      "ĠÐ±Ñĭ": 386,
      "ÑĢÑĭ": 387,
      "ĠÐ²Ñĭ": 388,
      "ÑģÐºÐ¸": 389,
      "ÑģÐ¸": 390,
      "ĠÐ¡": 391,
      "Ð·Ð°": 392,
      "Ð½Ð¾Ð¹": 393,
      "Ġ(": 394,
      "Ð½ÑĭÑħ": 395,
      "ĠÑĩÑĤÐ¾": 396,
      "ĠÐŁ": 397,
      "ĠÐ¸Ð·": 398,
      "ÑĤÐµÐ»ÑĮ": 399,
      "Ð¾ÑĤ": 400,
      "ĠÐ¿ÑĢÐ¾": 401,
      "Ð½Ðµ": 402,
      "ÑģÐ¿": 403,
      "ÑĥÑİ": 404,
      "ÑĪÐ¸": 405,
      "ÑģÑĤÑĮ": 406,
      "ÑģÑĤÐ¾": 407,
      "ĠÐļ": 408,
      "ÐºÐ¾": 409,
      "Ð¾Ð¿": 410,
      "Ð°Ð½": 411,
      "Ð½ÑĭÐµ": 412,
      "ĠÐºÐ¾": 413,
      "ÐµÐ½Ð¸Ðµ": 414,
      "âĢĶ": 415,
      "ĠÑĦ": 416,
      "ĠÐ¿ÑĢÐµ": 417,
      "Ð½Ð¾Ð³Ð¾": 418,
      "Ð»Ð¾": 419,
      "ĠÑĢÐµ": 420,
      "ÐµÑĢÐµ": 421,
      "ÑģÐµ": 422,
      "ÑīÐ¸": 423,
      "ĠÑĤÐ°": 424,
      "ĠÐ¶": 425,
      "Â«": 426,
      "Â»": 427,
      "ĠÑģÐ²": 428,
      "ĠÑĤÐµ": 429,
      "Ð¼Ðµ": 430,
      "ÑģÑĮ": 431,
      "ĠÐ¿ÑĢ": 432,
      "ĠÐºÐ¾ÑĤÐ¾": 433,
      "ĠÑģÐ¾": 434,
      "Ð½ÑĭÐ¹": 435,
      "ĠÂ«": 436,
      "ĠÐľ": 437,
      "Ð¾Ð´Ð°": 438,
      "ĠÐĿ": 439,
      "ĠÑĢÐ°Ð·": 440,
      "ĠÑı": 441,
      "ÑīÐµ": 442,
      "ÑİÑĤ": 443,
      "Ñĳ": 444,
      "ÐµÑĤÑģÑı": 445,
      "Ġ2": 446,
      "Ð²Ðµ": 447,
      "Ð³Ð°": 448,
      "ĠÐŀ": 449,
      "Ð¶Ðµ": 450,
      "ÑģÐ°": 451,
      "ĠÐ¿Ð¾Ð»": 452,
      "Ð¼ÐµÐ½": 453,
      "ĠÐºÐ°Ðº": 454,
      "Ð´Ñĥ": 455,
      "Ð¿Ð°": 456,
      "ĠÐ¿Ð¾Ð´": 457,
      "ĠÐĲ": 458,
      "Ð¾Ð´Ð¸": 459,
      "ĠÑģÑĤ": 460,
      "ÑĪÐµ": 461,
      "Ð¿Ð¸": 462,
      "ÐºÑĥ": 463,
      "Ð½Ð¸Ñı": 464,
      "ĠÑħ": 465,
      "Ð°ÑĢ": 466,
      "ÐŁ": 467,
      "ĠÐ´Ð»Ñı": 468,
      "Ð½Ñı": 469,
      "Ð¡": 470,
      "ĠÐĶ": 471,
      "ÑĤÑĥ": 472,
      "ÑĤÑĭ": 473,
      "Ð°Ð¼": 474,
      "Ð³Ð¸": 475,
      "Ð»Ñĥ": 476,
      "ÐĴ": 477,
      "ÑĨÐ¸Ð¸": 478,
      "Ð½Ñĥ": 479,
      "Ð½Ð¾Ð²": 480,
      "Ð»ÐµÐ½": 481,
      "ÑĢÐ¾Ð²": 482,
      "ĠÐĳ": 483,
      "ĠÐł": 484,
      "ĠÐĺ": 485,
      "ÐºÐ¾Ð²": 486,
      "Ð½Ð¸Ðµ": 487,
      "ÑĨÐµ": 488,
      "Ð¸Ð·": 489,
      "ÑĤÐ¾Ð¼": 490,
      "ĠÐ¼Ðµ": 491,
      "ĠÐ¢": 492,
      "ÐµÐº": 493,
      "Âł": 494,
      "ĠÑĤÐ°Ðº": 495,
      "Ð½ÑĭÐ¼": 496,
      "ĠÐ¿ÑĢÐµÐ´": 497,
      "ĠÐ¼Ð°": 498,
      "Ġ-": 499,
      "Ð¶Ð¸": 500,
      "ĠÑįÑĤÐ¾": 501,
      "Ð»Ð¾Ð²": 502,
      "Ġ19": 503,
      "Ð¾Ðµ": 504,
      "ĠÐ»Ð¸": 505,
      "ÐĲ": 506,
      "Ð½Ð¾Ð¼": 507,
      "ÑĢÑı": 508,
      "ĠÑģÑĤÐ°": 509,
      "Ð½Ð¾Ðµ": 510,
      "ĠâĢĶ": 511,
      "ÑĢÐ¾Ð²Ð°": 512,
      "ÑģÐ»Ðµ": 513,
      "Ð²Ð»Ñı": 514,
      "Ð½Ð°Ñı": 515,
      "ĠÐ´Ð¾": 516,
      "ĠÐºÐ¾ÑĤÐ¾ÑĢÑĭ": 517,
      "ĠÐ¸Ð½": 518,
      "ĠÑģÐ¸": 519,
      "ĠÐ´Ðµ": 520,
      "Ð¶Ð°": 521,
      "ĠÑĤÐ¾": 522,
      "ÑĩÐµÑģÐºÐ¸": 523,
      "Ð·Ñĭ": 524,
      "ÑģÐºÐ¾Ð¹": 525,
      "Ð½Ð¾ÑģÑĤÐ¸": 526,
      "Ð·Ð¸": 527,
      "ĠÐ¸Ð»Ð¸": 528,
      "ĠÐ¼Ð¾Ð¶": 529,
      "ĠÐºÐ¾Ð½": 530,
      "ĠÐĵ": 531,
      "Ñį": 532,
      "ÑģÑĤÐ²ÐµÐ½": 533,
      "Ð²Ñĭ": 534,
      "Ð½Ð¾ÑģÑĤÑĮ": 535,
      "ĠÐ²ÑģÐµ": 536,
      "ÐµÐ½ÑĤ": 537,
      "Ð°Ðº": 538,
      "ĠÐ¿ÐµÑĢÐµ": 539,
      "Ð»Ñİ": 540,
      "Ð°Ð»ÑĮ": 541,
      "ÑģÐºÐ°": 542,
      "ÑĤÐ¸Ð²": 543,
      "ÑģÑĤÐ²Ð°": 544,
      "ÑģÐºÐ¾Ð³Ð¾": 545,
      "Ð¾Ð»Ðµ": 546,
      "ÑĥÐ´": 547,
      "Ð²ÐµÑĢ": 548,
      "ĠÐµÐ³Ð¾": 549,
      "00": 550,
      "Ð±Ð¾": 551,
      "ÑĤÑĮÑģÑı": 552,
      "Ð·Ð¾Ð²Ð°": 553,
      "ÑĢÐ°Ð²": 554,
      "ĠÑģÐµ": 555,
      "ÑĢÐ°Ð½": 556,
      "Ð¾Ð½Ð°": 557,
      "ĠÐ¾Ñģ": 558,
      "ĠÐ¼Ð¸": 559,
      "ĠÐºÐ¾Ð¼": 560,
      "Ðļ": 561,
      "Ð¾Ð´Ñĥ": 562,
      "ĠÑģÐ¿": 563,
      "Ð¾Ð±Ñĭ": 564,
      "ÑĪÐ°": 565,
      "Ðŀ": 566,
      "Ð±Ð¸": 567,
      "ÐĿ": 568,
      "ĠÐ²Ð¾Ð·": 569,
      "ĠÐ½Ð¸": 570,
      "Ġ\"": 571,
      "ÑģÑĤÐ²Ð¾": 572,
      "ĠÐ¾Ð½": 573,
      "ÐºÐµ": 574,
      "ĠÐ²Ðµ": 575,
      "ÑĦÐ¸": 576,
      "ĠÐŃ": 577,
      "Ð¼Ñĥ": 578,
      "ĠÐ½Ð¾": 579,
      "ĠÑģÐ²Ð¾": 580,
      "Ð¾Ð³Ð¸": 581,
      "ÑĢÐµÐ¼": 582,
      "ĠÐ²Ð¾": 583,
      "Ð¾Ð»Ð¸": 584,
      "ÑģÑģ": 585,
      "ĠÑĩÐ°": 586,
      "ÑĥÑĤ": 587,
      "Ð¾Ð»ÑĮÐºÐ¾": 588,
      "ĠÐ¾Ð¿": 589,
      "ĠÐ´ÑĢÑĥ": 590,
      "ĠÐ²Ð°": 591,
      "ÑģÐ»Ð¸": 592,
      "ÑĢÐ¾Ð¼": 593,
      "ĠÐĽ": 594,
      "ÑħÐ¾Ð´Ð¸": 595,
      "Ð»ÑģÑı": 596,
      "Ð¾Ð³Ð´Ð°": 597,
      "Ð¼ÐµÑĢ": 598,
      "ÐµÐ½ÑĮ": 599,
      "ĠÐ±Ðµ": 600,
      "ĠÐ¸ÑģÐ¿": 601,
      "ĠÐ¶Ðµ": 602,
      "Ðĺ": 603,
      "Ð¾Ð²Ñĭ": 604,
      "ĠÐ³Ð¾Ð´Ð°": 605,
      "Ð½ÑĥÑİ": 606,
      "ÑıÑĤ": 607,
      "Ð·Ñĥ": 608,
      "Ð´Ñĭ": 609,
      "Ð¼Ñĭ": 610,
      "ÑīÐ°": 611,
      "ÑģÑĤÐ²Ð¸": 612,
      "ĠÐ¾Ð´": 613,
      "ÑĨÐ°": 614,
      "Ð²ÐµÑĤ": 615,
      "Ð±Ðµ": 616,
      "ÑĤÐ¾Ð²": 617,
      "Ðł": 618,
      ").": 619,
      "ĠÐ´Ð°": 620,
      "Ð¼Ð¾": 621,
      "ĠÐķ": 622,
      "ĠÐ¼Ð¾Ð¶ÐµÑĤ": 623,
      "ĠÐ²Ð¸": 624,
      "ÑĤÐ¾Ð±Ñĭ": 625,
      "ÑģÑģÐ¸": 626,
      "ĠÐ²ÑĢÐµÐ¼": 627,
      "ĠÐ»Ñİ": 628,
      "ĠÐ·Ð½Ð°": 629,
      "Ð½Ð¸Ð¸": 630,
      "Ð¾Ð»ÑĮÐ·Ð¾Ð²Ð°": 631,
      "ĠÐ´Ð¾Ð»": 632,
      "Ð»ÐµÐ½Ð¸Ñı": 633,
      "ÑģÑĤÐ¾Ñı": 634,
      "Ð»Ñĭ": 635,
      "ĠÑģÑĥ": 636,
      "ĠÐ±Ð¾Ð»ÑĮ": 637,
      "Ð¾ÐºÐ°": 638,
      "ÑģÐºÐ¸Ð¹": 639,
      "ĠÑģÐ°Ð¼": 640,
      "ÑĨÐ¸Ñı": 641,
      "ĠÑĩÐµ": 642,
      "ĠÐ£": 643,
      "ÐĶ": 644,
      "ĠÐ±ÑĭÐ»": 645,
      "ĠÐ¾Ð±ÑĢÐ°": 646,
      "ĠÐ¿ÐµÑĢ": 647,
      "ÐºÐ¾Ð¼": 648,
      "Ðľ": 649,
      "ÑĢÐµÐ´": 650,
      "ĠÐ¿Ð¾ÑģÐ»Ðµ": 651,
      "Ð½Ð¸Ð¼Ð°": 652,
      "ÑģÑĤÑĥ": 653,
      "ĠÐ¤": 654,
      "Ð½ÑĭÐ¼Ð¸": 655,
      "Ð¢": 656,
      "ÑĤÑģÑı": 657,
      "ÐµÐ½Ð¸Ð¸": 658,
      "ĠâĢ": 659,
      "ÑĥÑĢ": 660,
      "ĠÑĩÑĤÐ¾Ð±Ñĭ": 661,
      "Ġ3": 662,
      "ÑİÑīÐ¸": 663,
      "ÐµÑĢÐ°": 664,
      "ÑħÐ¾Ð´": 665,
      "ÑħÐ°": 666,
      "ĠÑĨ": 667,
      "ĠÐ¸Ñħ": 668,
      "ĠÑĪ": 669,
      "ÑĢÐ°Ð²Ð¸": 670,
      "Ð±Ð°": 671,
      "ÑĬ": 672,
      "Ð»Ð¾Ñģ": 673,
      "ÑĥÑĩ": 674,
      "ĠÑĢ": 675,
      "ĠÐĿÐ°": 676,
      "ĠÐ¿Ð¾Ð¼": 677,
      "Ð»Ð¸ÑģÑĮ": 678,
      "),": 679,
      "ÐºÐ¾Ð½": 680,
      "Ð¾Ñĩ": 681,
      "ÑĤÐ¾ÑĢ": 682,
      "Ð³ÑĢÐ°": 683,
      "ĠÐ¼Ñĭ": 684,
      "er": 685,
      "ĠÑģÐ¾Ð²": 686,
      "ĠÐĹ": 687,
      "ÐµÑĤÐ°": 688,
      "ÑİÑĤÑģÑı": 689,
      "ĠÐ´Ð¸": 690,
      "ĠÐ¿Ð°": 691,
      "ĠÐ¼Ð¾Ð³": 692,
      "Ð¾Ð»ÐµÐµ": 693,
      "ĠÑĢÑĥ": 694,
      "Ð¸Ð½": 695,
      "..": 696,
      "Ð»ÐµÐ¼": 697,
      "ĠĠ": 698,
      "ĠÐ³Ð¾Ð´Ñĥ": 699,
      "ÐºÐ°Ð·Ð°": 700,
      "Ð·ÑĭÐ²Ð°": 701,
      "Ð´ÐµÐ½": 702,
      "ĠÑįÑĤ": 703,
      "ĠÑĤÐ°ÐºÐ¶Ðµ": 704,
      "ÐµÐ½Ð¸Ð¹": 705,
      "ÐµÑĤÐµ": 706,
      "Ð´Ð¾Ð²Ð°": 707,
      "Ġ20": 708,
      "Ð»Ð¾Ð¶": 709,
      "ĠÐºÐ¾ÑĤÐ¾ÑĢÑĭÐµ": 710,
      "ĠÐ²ÑĢÐµÐ¼Ñı": 711,
      "in": 712,
      "Ð²Ð¾": 713,
      "ĠÐ±ÑĭÐ»Ð¾": 714,
      "Ð´Ð¸Ð½": 715,
      "ĠÑģÐ»Ñĥ": 716,
      "ĠÐ¥": 717,
      "ÑĥÐ¶": 718,
      "Ð»ÐµÐº": 719,
      "ĠÑģÐ¾Ð±": 720,
      "Ð·Ð½Ð°": 721,
      "ÑĢÐ¸Ð¸": 722,
      "Ð¸Ñģ": 723,
      "Ð»ÐµÐ½Ð¸Ðµ": 724,
      "Ð»Ð¾ÑģÑĮ": 725,
      "Ð¿ÑĢÐ¸": 726,
      "ĠÐ¸Ð¼": 727,
      "ĠÐ¿Ð¸": 728,
      "Ð»ÐµÐ¹": 729,
      "Â».": 730,
      "ĠÐ§": 731,
      "ĠâĢĵ": 732,
      "ÑģÑĭ": 733,
      "ÐµÐ²": 734,
      "ÐµÐ½Ð°": 735,
      "Ð³Ñĥ": 736,
      "ĠÑĦÐ¸": 737,
      "Ð½Ð¸ÐºÐ°": 738,
      "Ð½ÐµÐ¹": 739,
      "ÑĤÐµÐ»ÑĮÐ½Ð¾": 740,
      "ĠÑĩÐµÐ»Ð¾Ð²": 741,
      "ÑģÑĤÐ°Ð²": 742,
      "Ð±Ð¾ÑĤ": 743,
      "ÑĦÐ¾ÑĢ": 744,
      "ĠÐ¾Ð½Ð¸": 745,
      "ĠÐ³Ð¾ÑĢ": 746,
      "ĠÐ¿Ñĥ": 747,
      "Ð»Ð°ÑģÑĮ": 748,
      "Ð¼Ð¾Ð¶": 749,
      "Ð´ÐµÑĢ": 750,
      "ÑĩÐ½Ð¾": 751,
      "ÑģÑĤÐµ": 752,
      "ĠÑıÐ²Ð»Ñı": 753,
      "Ð¹ÑĤÐµ": 754,
      "Ð²Ñĥ": 755,
      "Ð½Ð¸Ðº": 756,
      "ÑģÐºÐ°Ñı": 757,
      "ÑĢÐ°Ðº": 758,
      "ÐµÐ½Ð¸Ñİ": 759,
      "Ð¾Ð³ÑĢÐ°": 760,
      "ÑģÐºÐ¾Ð¼": 761,
      "Ð¿Ñĥ": 762,
      "ĠÑģÑĤÑĢÐ°": 763,
      "on": 764,
      "ÑģÐºÐ¸Ñħ": 765,
      "Ð´Ð¾": 766,
      "ĠÑįÑĤÐ¸": 767,
      "ĠÐ´Ð¾Ð»Ð¶": 768,
      "ÑĤÐµÑĢ": 769,
      "ĠÐ¿Ð¾Ð»Ñĥ": 770,
      "Ðĳ": 771,
      "Ð¾ÑĢÐ¸": 772,
      "Ð¾ÑĢÐ¾": 773,
      "ĠÐ²ÐµÑĢ": 774,
      "Ð¿Ð¾Ð»": 775,
      "Ð±Ñĭ": 776,
      "ĠÑĤÐ¾Ð»ÑĮÐºÐ¾": 777,
      "ĠÑĤÐ¾Ð¼": 778,
      "ĠÐ»Ðµ": 779,
      "an": 780,
      "ĠÐ¿Ð¾Ð²": 781,
      "ÐµÑĤÐ¸": 782,
      "ÑĢÐ¾Ð´": 783,
      "ĠÐ±ÑĭÑĤÑĮ": 784,
      "ÑĢÐ°Ð¶": 785,
      "ÐºÐ»Ñİ": 786,
      "ĠÐ±Ð¾Ð»ÐµÐµ": 787,
      "ÑĢÑĥÐ¿": 788,
      "Ġ4": 789,
      "ĠÑģÐ»Ðµ": 790,
      "Ð¸Ð¼": 791,
      "ĠÐ¾Ðº": 792,
      "ĠÐ¶Ð¸": 793,
      "Ð½Ð¸Ð¹": 794,
      "ĠÐ¿Ð¾Ð·": 795,
      "ÑĮÑİ": 796,
      "Ð²ÑĪÐ¸": 797,
      "ĠÐ±ÑĥÐ´": 798,
      "ÑĢÐ¾Ð¹": 799,
      "ĠÑĤÐ¾Ð³Ð¾": 800,
      "ĠÐ¾ÑĢ": 801,
      "ĠÐ¸Ð¼Ðµ": 802,
      "ÑĢÐµÐ´Ðµ": 803,
      "ĠÐ¯": 804,
      "ĠÐºÑĥ": 805,
      "Â»,": 806,
      "ĠÑĩÐµÐ¼": 807,
      "ÐºÐ¾Ð¹": 808,
      "Ð¾Ð¼Ð¸": 809,
      "ĠÑĢÐ°Ñģ": 810,
      "Ġ5": 811,
      "ĠÐ½Ð°ÑĩÐ°": 812,
      "ĠÐ¿Ðµ": 813,
      "ĠÐºÐ¾Ð³Ð´Ð°": 814,
      "ÐµÐ´": 815,
      "ĠÑģÐ¾Ð·": 816,
      "ĠÐ±ÑĭÐ»Ð¸": 817,
      "Ð´Ð°ÑĢ": 818,
      "Ð²Ð°ÑĤÑĮ": 819,
      "Ð±Ð»Ð¸": 820,
      "Ð¾Ð¿ÑĢÐ¾": 821,
      "Ðĵ": 822,
      "ĠÑĢÐ°Ð±Ð¾": 823,
      "ĠÐ¼Ð¾": 824,
      "Ðķ": 825,
      "ĠÐŃÑĤÐ¾": 826,
      "ÑģÐ¿Ðµ": 827,
      "ĠÐ±Ñĥ": 828,
      "ĠÐ´ÑĢÑĥÐ³Ð¸": 829,
      "Ð°Ð¹": 830,
      "ÑĩÐµÐ½": 831,
      "ĠÑģÑĤÐ¾": 832,
      "ÐµÐ½Ð¸ÐµÐ¼": 833,
      "ĠÐ¿Ð»Ð°": 834,
      "ÑħÐ¸": 835,
      "Ð¾Ð»Ð¾Ð³Ð¸": 836,
      "ĠÐ¿ÑĢÐ¾Ð¸Ð·": 837,
      "Ð½Ð³": 838,
      "19": 839,
      "ĠÐļÐ°": 840,
      "Ð¶Ð´Ñĥ": 841,
      "ÑĤÑĢÐ¸": 842,
      "ĠÐ¿ÑĢÐ¾Ð²": 843,
      "ĠÑģÐ²Ñı": 844,
      "ĠÐ°Ð²": 845,
      "ÐµÐ¼Ñĥ": 846,
      "ÑģÐ¾Ð²": 847,
      "ÑĨÑĭ": 848,
      "ĠÑįÑĤÐ¾Ð¼": 849,
      "ÐµÐ¼Ñĭ": 850,
      "ÑģÑĤÐ°Ð²Ð»Ñı": 851,
      "ĠÐ¼ÐµÐ½": 852,
      "Ġ=": 853,
      "ĠÑĥÐ¿": 854,
      "Ð²Ð¾Ð´": 855,
      "ÐµÐ¹ÑģÑĤÐ²Ð¸": 856,
      "ÑīÐµÑģÑĤÐ²": 857,
      "ĠÐºÐ¾ÑĤÐ¾ÑĢÑĭÐ¹": 858,
      "ĠÑĨÐµ": 859,
      "ĠÑĤÑĢÐµ": 860,
      "ÑĨÐ¸Ð°Ð»ÑĮ": 861,
      "ĠÐµÑģÐ»Ð¸": 862,
      "ÑĥÐ½": 863,
      "ĠÐ°ÑĢ": 864,
      "Ð¶Ð´": 865,
      "Ð¸ÑĤ": 866,
      "ÑģÑĤÑĢÐ°": 867,
      "ĠÐ±ÑĭÐ»Ð°": 868,
      "ÑĨÐ¸Ñİ": 869,
      "ĠÐ¾Ð½Ð°": 870,
      "ĠÐ¾ÑĤÐ½Ð¾": 871,
      "Ð°Ð»": 872,
      "ĠÐ´Ð°Ð½": 873,
      "Ð¿Ðµ": 874,
      "ĠÐ¼Ð½": 875,
      "ĠÐ¾Ð±ÑĬ": 876,
      "en": 877,
      "ĠÑĢÐ°ÑģÐ¿": 878,
      "Ð´ÐµÐ»Ð°": 879,
      "ÑĤÐµÑĢÐ¸": 880,
      "or": 881,
      "Ð½Ð¾Ð²Ð°": 882,
      "ÑĩÐµÐ½Ð¸Ðµ": 883,
      "Ð¿ÐµÑĢ": 884,
      "ÑĤÐ¾ÑĢÑĭ": 885,
      "Ð¾ÑģÐ¾Ð±": 886,
      "ĠÐ¸ÑģÐ¿Ð¾Ð»ÑĮÐ·Ð¾Ð²Ð°": 887,
      "Ġ200": 888,
      "ĠÐ°Ðº": 889,
      "ĠÐ³Ð»Ð°": 890,
      "ĠÐ±ÐµÐ·": 891,
      "ÐĽ": 892,
      "ÐµÐ·": 893,
      "ĠÐ¾ÑģÑĤÐ°": 894,
      "ĠÐ¸ÑģÑĤÐ¾": 895,
      "ĠÐ²Ñģ": 896,
      "Ð»Ð¾Ð¼": 897,
      "ÑĤÐ¸Ñı": 898,
      "ĠS": 899,
      "ÑĢÐ¾Ðº": 900,
      "ÑģÑĥ": 901,
      "ÑĨÐ¸Ð¾Ð½": 902,
      "ÐºÐ¸Ñħ": 903,
      "Ð¼Ð¾ÑĤ": 904,
      "ÐºÐ¸Ðµ": 905,
      "ar": 906,
      "ĠÐµÐµ": 907,
      "ĠÐ¶Ð¸Ð·": 908,
      "ÑģÑĤÑĢÐ¾": 909,
      "ĠÐ¨": 910,
      "ĠÑģÐ¾Ð·Ð´Ð°": 911,
      "Ð¨": 912,
      "es": 913,
      "ĠÑĦÐ¾ÑĢ": 914,
      "Ð¾Ð´Ðµ": 915,
      "ĠÑģÐ²Ð¾Ð¸": 916,
      "Ð£": 917,
      "ĠÐµÑģÑĤÑĮ": 918,
      "ĠÐ¼Ð¾Ð¶Ð½Ð¾": 919,
      "ĠI": 920,
      "ÐºÑĢÑĭ": 921,
      "ĠÐ¸Ñģ": 922,
      "ĠÐ¿ÑĢÐ°Ð²Ð¸": 923,
      "ÑĩÐµÑģÐºÐ¸Ñħ": 924,
      "ÑĤÑĢ": 925,
      "ĠÐºÐ¾ÑĢ": 926,
      "Ð±Ñı": 927,
      "Ġ18": 928,
      "ĠÐ±ÑĥÐ´ÐµÑĤ": 929,
      "ÑĥÑİÑīÐ¸": 930,
      "Ð°Ð»Ð¸": 931,
      "ĠÐ¼Ð¾Ð³ÑĥÑĤ": 932,
      "Ð³Ð°Ð½Ð¸": 933,
      "ĠÐ»ÐµÑĤ": 934,
      "ĠÑıÐ²Ð»ÑıÐµÑĤÑģÑı": 935,
      "ĠÐ¼ÐµÐ¶Ð´Ñĥ": 936,
      "ÑĤÐ¾Ð¼Ñĥ": 937,
      "Ġ201": 938,
      "Ð¾ÑģÑĥ": 939,
      "ĠÐ¿Ð¾ÐºÐ°": 940,
      "ĠÑįÑĤÐ¾Ð³Ð¾": 941,
      "ÑĳÐ½": 942,
      "ĠÐ²Ð¾Ñģ": 943,
      "ÑĢÐµÐ¼ÐµÐ½": 944,
      "ĠÑįÐº": 945,
      "ĠÐ²Ð¾Ð¹": 946,
      "Ð¾Ð½Ðµ": 947,
      "ĠÑĤÐµÐ¼": 948,
      "ÑĤÐµÐ»Ñı": 949,
      "ÑĩÐµÑģÐºÐ¾Ð¹": 950,
      "ÐµÐ½Ð½Ð¾": 951,
      "ĠÐ¿Ð¾Ð¿": 952,
      "ÐºÐ°Ð½": 953,
      "at": 954,
      "Ð¿Ð¾": 955,
      "Ð¾Ð¶Ð¸": 956,
      "ĠA": 957,
      "ÑģÐºÐ¸Ðµ": 958,
      "ĠÐ²Ð¾Ð·Ð¼Ð¾Ð¶": 959,
      "ĠÐ¾Ð¿ÑĢÐµÐ´Ðµ": 960,
      "ĠÐ¾Ð±Ð»Ð°": 961,
      "ĠÑģÐ¸ÑģÑĤ": 962,
      "Ð¾Ð½Ð°Ð»ÑĮ": 963,
      "ÑĩÐ¸ÑĤÐ°": 964,
      "ĠÐŁÐ¾": 965,
      "ÑģÑĤÑĭ": 966,
      "ĠÐ¼Ñĥ": 967,
      "ÑĪÐµÐ½Ð¸Ñı": 968,
      "Ð°Ð·": 969,
      "ÑĢÐ°Ñı": 970,
      "ĠÐ¿Ð¾Ð»Ð¸": 971,
      "ĠÐ¾Ñĩ": 972,
      "ĠÐ½ÐµÑģÐº": 973,
      "Ð¾Ð´Ñĭ": 974,
      "ĠÐ´Ñĥ": 975,
      "ĠC": 976,
      "ĠÐ¾ÑģÐ½Ð¾Ð²": 977,
      "Ġ6": 978,
      "Ð¾Ð³Ð°": 979,
      "ÑģÑĤÐ°Ð½Ð¾Ð²": 980,
      "ÑĪÑĮ": 981,
      "Ð¾ÑģÑģÐ¸": 982,
      "Ġ\\": 983,
      "ĠÑĥÑĩÐ°": 984,
      "ĠÐ¿ÑĢÐ¾ÑĤÐ¸Ð²": 985,
      "Ð²Ð°ÐµÑĤ": 986,
      "ĠÐ¿Ð°ÑĢ": 987,
      "ÑīÐµÐ¹": 988,
      "ÐµÐ½Ñĭ": 989,
      "Ð»ÐµÑĤ": 990,
      "ĠÑģÐ»ÑĥÑĩÐ°": 991,
      "ĠÐ³Ð¾Ð²": 992,
      "Ð¿ÑĢÐµ": 993,
      "ÑĪÐµÐ¹": 994,
      "Ð»Ð¸Ñı": 995,
      "Ð²ÐµÐ´": 996,
      "ÑĢÐ¸Ñı": 997,
      "ÐĹ": 998,
      "ĠÐ¿Ð¾Ñģ": 999,
      "ĠÐ²ÑĭÑģ": 1000,
      "ĠÑĢÐ°Ð±Ð¾ÑĤ": 1001,
      "Ð½ÐµÐµ": 1002,
      "ÑģÑĤÐ°Ð²Ð¸": 1003,
      "ÑĥÑģ": 1004,
      "ĠÐ½Ð°Ð¿": 1005,
      "ÑģÑĤÐ²Ðµ": 1006,
      "Ð´Ð¾Ð²": 1007,
      "al": 1008,
      "Ġt": 1009,
      "ÑģÐºÐ¾Ðµ": 1010,
      "ĠÑĤÐµÑħ": 1011,
      "ÐĿÐ°": 1012,
      "ÑĩÐµÐ½Ð¸Ñı": 1013,
      "ĠÐĹÐ°": 1014,
      "ĠÑĥÐ¶Ðµ": 1015,
      "ÐºÑĢÐ°": 1016,
      "Ð¤": 1017,
      "ĠÑģÐ¿Ð¾ÑģÐ¾Ð±": 1018,
      "Ð¸ÑĤÐ°": 1019,
      "Ð¾Ð¶Ðµ": 1020,
      "ÑģÑĤÑĢÐµ": 1021,
      "ÑĢÐ¾Ð½": 1022,
      "ÑĤÐµÐ»ÐµÐ¹": 1023,
      "ÑĢÐ°Ð·": 1024,
      "ĠÐ¿Ð¾ÑĤ": 1025,
      "ÑģÐ»ÐµÐ´Ð¾Ð²Ð°": 1026,
      "Ð²Ð¾Ð»": 1027,
      "ĠÐĿÐµ": 1028,
      "Ð½Ð¸ÐºÐ¾Ð²": 1029,
      "ÑģÑĤÐ²Ð¾Ð²Ð°": 1030,
      "ĠÐ²Ð·": 1031,
      "Ð±Ñĥ": 1032,
      "Ð»ÑĮÑĤÐ°": 1033,
      "ĠÐ¿ÑĢÐ¾Ð±": 1034,
      "ÑĢÐ¾Ð²Ð°Ð½": 1035,
      "ĠÐ´ÑĢÑĥÐ³": 1036,
      "Ð»Ð°Ð½": 1037,
      "ĠÐ²Ð¾Ð¿ÑĢÐ¾": 1038,
      "Ð³Ð¾Ð²": 1039,
      "ÑĩÐµÑģÐºÐ¸Ðµ": 1040,
      "ÐŃ": 1041,
      "ĠÐ³Ð´Ðµ": 1042,
      "ÑıÑħ": 1043,
      "ĠÐłÐ¾ÑģÑģÐ¸": 1044,
      "ĠÐ¾Ð±ÑĢÐ°Ð·": 1045,
      "Ð¾ÑģÑĥÐ´Ð°ÑĢ": 1046,
      "Ð±Ð¾ÑĢ": 1047,
      "ĠÐºÑĢÐ°": 1048,
      "ÑģÑĤÑĥÐ¿": 1049,
      "he": 1050,
      "ĠÐŁÑĢÐ¸": 1051,
      "ÑĦÐ¾ÑĢÐ¼Ð°": 1052,
      "ĠÐ¾ÑĢÐ³Ð°Ð½Ð¸": 1053,
      "ĠÑģÐ°": 1054,
      "ĠÐŀÐ½": 1055,
      "Ð²ÐµÑģÑĤ": 1056,
      "Ð²Ð°Ñı": 1057,
      "Ð´ÐµÐ¹": 1058,
      "Ð½ÑĮ": 1059,
      "ÑĢÑĥÐ´": 1060,
      "ÐºÐ¸Ð¼": 1061,
      "Ð½Ð¾Ð¼Ñĥ": 1062,
      "Ð§": 1063,
      "ĠÐ³ÑĢÑĥÐ¿": 1064,
      "ĠÐ¿Ð¾Ð»ÑĥÑĩÐ¸": 1065,
      "ĠÐ³Ð¾Ð»": 1066,
      "ĠÑĢÐ°Ð±Ð¾ÑĤÐ°": 1067,
      "ĠÐ´ÐµÐ¹ÑģÑĤÐ²Ð¸": 1068,
      "ĠÐ¾ÑĩÐµÐ½ÑĮ": 1069,
      "ĠÐµÑīÐµ": 1070,
      "Ð½Ð°ÐºÐ¾": 1071,
      "ĠÐĿÐ¾": 1072,
      "ĠÐ±Ð°": 1073,
      "ĠÐ¿ÑĢÐ°Ð²": 1074,
      "ĠÐºÐ°ÑĢ": 1075,
      "ĠÐ¿ÑĢÐ¾Ð´": 1076,
      "ĠÑĢÐ°Ð·Ð²Ð¸": 1077,
      "ĠÐľÐ°": 1078,
      "Ð·Ð²Ð°": 1079,
      "Ð»Ð¸Ñĩ": 1080,
      "ÑģÑĤÐ²Ñĥ": 1081,
      "ĠÐ¸Ð³": 1082,
      "ĠÑĥÑģ": 1083,
      "ÑĩÐµÑģÐºÐ¾Ð³Ð¾": 1084,
      "ĠÑģÐ´ÐµÐ»Ð°": 1085,
      "ĠÐ´ÐµÐ»Ð°": 1086,
      "ÑīÐµÐ³Ð¾": 1087,
      "ÑĢÐ¾Ð¿": 1088,
      "ĠM": 1089,
      "ÑīÐµÐµ": 1090,
      "ĠÑĤÑĭ": 1091,
      "ĠÑģÐµÐ±Ñı": 1092,
      "ĠÐ½ÑĥÐ¶": 1093,
      "Ð²Ð¾Ð¹": 1094,
      "ĠÑĩÐµÐ»Ð¾Ð²Ðµ": 1095,
      "Ð¸Ð»": 1096,
      "ĠÐ¿Ð¾Ðº": 1097,
      "ĠÐ´Ð¾Ð¼": 1098,
      "ĠÐ¾ÑĤÐ²ÐµÑĤ": 1099,
      "ÑıÐ±": 1100,
      "ÑĦÐµ": 1101,
      "ĠÐĴÑĭ": 1102,
      "ÐµÑĤÑĮ": 1103,
      "ÑĤÑĢÐ°": 1104,
      "Ð½Ð¸ÐºÐ¸": 1105,
      "Ð¾Ð»Ð¾": 1106,
      "ĠÑģÑĢÐµÐ´": 1107,
      "Ð¾Ð»Ð¸ÑĩÐµ": 1108,
      "ĠÑģÐºÐ°Ð·Ð°": 1109,
      "ĠÐ±Ð¾Ð»ÑĮÑĪÐµ": 1110,
      "ÐµÑĤÑĭ": 1111,
      "Ð¾ÑģÐ»Ðµ": 1112,
      "ĠÐ¿Ð¾Ñĩ": 1113,
      "ÑĮÑı": 1114,
      "ÑĨÐ¸Ð¹": 1115,
      "Ð·ÑĥÐ»ÑĮÑĤÐ°": 1116,
      "ĠP": 1117,
      "ĠÑĤÐµÑĢ": 1118,
      "Ð»ÑĮÐ½Ð¾": 1119,
      "ĠÑģÐµÑĢ": 1120,
      "ÑĤÐµÐ»Ð¸": 1121,
      "ĠÐ½ÐµÐ¾Ð±": 1122,
      "20": 1123,
      "Ġ7": 1124,
      "ĠÐ¾Ð±Ðµ": 1125,
      "ÑĦÑĦ": 1126,
      "ĠÐ¸ÑģÐº": 1127,
      "ÐºÐ»ÑİÑĩÐ°": 1128,
      "Ð½Ð¾ÑģÑĤÑĮÑİ": 1129,
      "Ð»Ð¸ÑĩÐ¸": 1130,
      "ÑĢÐµÑģ": 1131,
      "ÑĨÑĥ": 1132,
      "ĠÑĩÐµÐ»Ð¾Ð²ÐµÐº": 1133,
      "ĠÐ¸Ð½ÑĤÐµ": 1134,
      "Ð»Ð¾Ð²Ð°": 1135,
      "ĠT": 1136,
      "ĠÐ¼ÐµÐ½Ñı": 1137,
      "le": 1138,
      "ÑĢÐ¾Ð²Ð°ÑĤÑĮ": 1139,
      "ĠÐºÐ¾Ð¼Ð°Ð½": 1140,
      "ĠÐ¿Ð¾ÑģÐ»ÐµÐ´": 1141,
      "ĠÑıÐ·Ñĭ": 1142,
      "ÐµÑĢÐµÐ·": 1143,
      "ÑĪÐµÐ³Ð¾": 1144,
      "ĠÐ´Ð¾Ð±": 1145,
      "Ð²Ð¾ÑĢ": 1146,
      "Ð¿Ð¸ÑģÐ°": 1147,
      "ÐºÐ¾ÑĤÐ¾ÑĢÑĭ": 1148,
      "Ġ8": 1149,
      "ĠÑģÐ»ÐµÐ´": 1150,
      "Ð¼ÐµÑĢÐ¸": 1151,
      "Ð¨ÐĲ": 1152,
      "ĠÐºÐ¾Ð¼Ð¿": 1153,
      "ĠÑģÐº": 1154,
      "ĠÐ¿ÑĢÐ¾ÑĨÐµ": 1155,
      "it": 1156,
      "Ġ10": 1157,
      "Ð½Ð¸Ñİ": 1158,
      "\".": 1159,
      "ÑĪÐµÐ½Ð¸Ðµ": 1160,
      "ĠÑĤÐ¸": 1161,
      "ÑĢÑıÐ´": 1162,
      "st": 1163,
      "ÑĢÑĥÐº": 1164,
      "ĠÐ³Ð¾ÑģÑĥÐ´Ð°ÑĢ": 1165,
      "Ð°Ñģ": 1166,
      "Ð¾Ð³Ð»Ð°": 1167,
      "ĠÑģÐµÐ¼": 1168,
      "Ð¶ÐµÐ½": 1169,
      "ÑĪÐ¸Ñħ": 1170,
      "ĠÑĢÐµÐ·ÑĥÐ»ÑĮÑĤÐ°": 1171,
      "Ð³Ðµ": 1172,
      "ÑĤÐµÐ¼": 1173,
      "ĠÐ½ÐµÑģÐºÐ¾Ð»ÑĮÐºÐ¾": 1174,
      "ÐµÐ½ÑĤÐ°": 1175,
      "Ð½Ð¸ÐµÐ¼": 1176,
      "ĠÐ½ÐµÐ¾Ð±ÑħÐ¾Ð´Ð¸": 1177,
      "ĠÐ±ÑĥÐ´Ñĥ": 1178,
      "ĠÐ²Ð»Ð°": 1179,
      "\",": 1180,
      "ÑıÐ½": 1181,
      "ĠÐ½Ð¾Ð²": 1182,
      "ĠÑģÐ¾Ð¾Ð±": 1183,
      "Ð¾Ð»ÑĮÐ·Ð¾Ð²Ð°ÑĤÐµÐ»ÑĮ": 1184,
      "ĠÐºÐ¾Ð»Ð¸ÑĩÐµ": 1185,
      "ĠÐ¡Ð¨ÐĲ": 1186,
      "ĠÐ¼ÐµÑĤ": 1187,
      "Ð¾Ð´ÐµÑĢ": 1188,
      "ĠÐºÐ¾ÑĤÐ¾ÑĢÐ°Ñı": 1189,
      "ĠÐ³ÑĢÐ°": 1190,
      "ĠÐķÑģÐ»Ð¸": 1191,
      "ĠÑģÐ²Ð¾Ðµ": 1192,
      "ÑıÐ²Ð¸": 1193,
      "Ð¾Ð»ÑĮÐ·Ñĥ": 1194,
      "ÐºÐ°Ð¼Ð¸": 1195,
      "ĠÐ¿ÑĢÐ¾Ð±Ð»ÐµÐ¼": 1196,
      "ÑħÐ¾Ð´Ð¸ÑĤ": 1197,
      "ic": 1198,
      "ĠÐĶÐ¶": 1199,
      "ĠÐ³Ð¾Ð´": 1200,
      "ĠÑģÐ¾ÑģÑĤÐ¾Ñı": 1201,
      "ĠÐ½Ð¸Ñħ": 1202,
      "ĠB": 1203,
      "ĠÐ¿Ð¾Ð¼Ð¾": 1204,
      "ĠÑĢÐ¾": 1205,
      "ĠÐ²ÑģÐµÐ³Ð¾": 1206,
      "ĠÑģÐ¾Ð¾ÑĤ": 1207,
      "ÑĤÐ¾ÑĢÐ°": 1208,
      "ÐµÐ½Ðµ": 1209,
      "Ð¿ÑĢÐ¸Ð¼ÐµÑĢ": 1210,
      "ĠÐ´Ð°Ð¶Ðµ": 1211,
      "Ð¶ÐµÐ½Ð¸Ñı": 1212,
      "ÐºÐ°Ñħ": 1213,
      "ĠÐ³Ð¾Ð²Ð¾ÑĢÐ¸": 1214,
      "Ð½ÐµÑĢ": 1215,
      "--": 1216,
      "Ð²Ð¾Ð´Ð¸": 1217,
      "ÑĪÐµÐ½": 1218,
      "Ð²ÑĢÐ°": 1219,
      "ĠÑĩÑĥ": 1220,
      "ĠÑįÑĤÐ¾Ð¹": 1221,
      "Ð¾Ð³ÑĢÐ°Ð¼": 1222,
      "ĠÐ½Ð°Ð´": 1223,
      "ĠÐ¾Ð´Ð¸Ð½": 1224,
      "Ð·Ð°Ð½": 1225,
      "ÑĢÐµÐ´Ð¸": 1226,
      "re": 1227,
      "ĠÑģÑĤÐ¾ÑĢÐ¾": 1228,
      "Ð¯": 1229,
      "ĠÐºÐ»Ð°": 1230,
      "ÑĩÐµÑģÐºÐ¸Ð¹": 1231,
      "ĠÐ»ÑİÐ±": 1232,
      "ĠÐ¸Ð½ÑĦÐ¾ÑĢÐ¼Ð°": 1233,
      "ÑĨÐ¸Ð¾Ð½Ð°Ð»ÑĮ": 1234,
      "Ð¸ÑĤÑĮ": 1235,
      "ÑģÐºÑĥÑİ": 1236,
      "Ð¶Ð´Ñĭ": 1237,
      "ĠÑĢÐ°Ð¹": 1238,
      "Ġ199": 1239,
      "ĠÐĶÐ°": 1240,
      "ÑģÑģÐ¸ÑģÑĤ": 1241,
      "Ð¾ÑĢÐµ": 1242,
      "ÑĢÐµÐ½": 1243,
      "ĠÐ¿Ð¾Ð»Ð¸ÑĤÐ¸": 1244,
      "Ð¾Ð¶Ð´": 1245,
      "ĠÐ´Ð²Ð¸": 1246,
      "ÑıÐ¼": 1247,
      "ÑģÑĤÑĢÐ°Ð½": 1248,
      "ĠÑĩÐ¸": 1249,
      "ĠÑĩÐµÑĢÐµÐ·": 1250,
      "ĠÐ¦": 1251,
      "ĠÑįÑĤÐ¾ÑĤ": 1252,
      "ĠÑİ": 1253,
      "ĠÑģÐ¿Ðµ": 1254,
      "ÑĨÐµÐ²": 1255,
      "Ð½Ð¸Ð¼": 1256,
      "ĠÐ»ÑĥÑĩ": 1257,
      "ÑģÑģÐ¸ÑģÑĤÐµÐ½ÑĤ": 1258,
      "ÐŁÐ¾Ð»ÑĮÐ·Ð¾Ð²Ð°ÑĤÐµÐ»ÑĮ": 1259,
      "ĠÐ´Ð²Ñĥ": 1260,
      "Ð´Ð°Ð½": 1261,
      "ÑģÑĤÐµÐ¹": 1262,
      "ÐĲÑģÑģÐ¸ÑģÑĤÐµÐ½ÑĤ": 1263,
      "ÑİÑīÐ¸Ñħ": 1264,
      "ĠÐºÐ°ÑĩÐµ": 1265,
      "ĠÐºÐ¾Ð»": 1266,
      "ĠÐ²ÑģÐµÑħ": 1267,
      "ÐµÐ¼Ð°": 1268,
      "Ð·Ð°ÑĨÐ¸Ð¸": 1269,
      "Ð¾Ð²ÑĭÑħ": 1270,
      "ĠÐ¶Ð¸Ð·Ð½Ð¸": 1271,
      "ĠÐ¼Ð½Ð¾Ð³Ð¾": 1272,
      "Ð¾Ð»Ð°": 1273,
      "ĠÐŁÐ°": 1274,
      "Ð¿Ñĭ": 1275,
      "ÑĢÐµÑĤ": 1276,
      "ĠÑĥÐ´Ð°": 1277,
      "Ð»Ð¸Ð½": 1278,
      "ĠÐ¼Ð½Ðµ": 1279,
      "ĠÑĢÐ¸": 1280,
      "ÑĤÐ°Ð½": 1281,
      "ĠÐ´ÐµÐ½ÑĮ": 1282,
      "ĠÑĥÑĢÐ¾Ð²": 1283,
      "Ð±ÑĢÐ°": 1284,
      "ĠÐ¸Ð·Ð²ÐµÑģÑĤ": 1285,
      "...": 1286,
      "ÑĩÑĮ": 1287,
      "ĠÐŀÐ´": 1288,
      "ÑĢÐ¾Ðµ": 1289,
      "Ġ9": 1290,
      "ĠÐľÐ¸": 1291,
      "ĠÐ½ÐµÑĤ": 1292,
      "ĠÐ¸ÑģÑģÐ»ÐµÐ´Ð¾Ð²Ð°": 1293,
      "ĠÐ¿Ð¾Ð±": 1294,
      "Ð»Ð¾Ð²Ð¸": 1295,
      "ÑıÐ²": 1296,
      "Ð»Ð°Ð³": 1297,
      "ĠÐ¿ÐµÑĢÐ²": 1298,
      "ĠÐ¿ÐµÑĢÐ²Ñĭ": 1299,
      "ĊĠĠ": 1300,
      "ĠÐµÐ¼Ñĥ": 1301,
      "ĠÑģÐ¾Ð¾ÑĤÐ²ÐµÑĤ": 1302,
      "ÑģÑĤÐ²Ð¾Ð¼": 1303,
      "ĠÐ²Ð°Ð¶": 1304,
      "Ð²Ð¸Ð´": 1305,
      "ÐµÐ»Ð¸": 1306,
      "Ð¾Ð³ÑĢÐ°ÑĦÐ¸": 1307,
      "ĠÑĥÐ³": 1308,
      "ĠÑģÑĩÐ¸ÑĤÐ°": 1309,
      "ÑĭÑħ": 1310,
      "ĠÑĦÐ¸Ð»ÑĮ": 1311,
      "ÑģÐ¸ÑĤ": 1312,
      "ĠÐ¾ÑģÐ¾Ð±": 1313,
      "Ð²Ñı": 1314,
      "ÑīÐ°Ñı": 1315,
      "Ð´ÐµÐ»ÑĮ": 1316,
      "ĠÑģÐ²Ð¾ÐµÐ¹": 1317,
      "ĠÑĦÑĥÐ½": 1318,
      "ĠR": 1319,
      "ĠÐ²Ð°Ð¼": 1320,
      "ĠÐ¾Ð±ÑĢÐ°Ð·Ð¾Ð¼": 1321,
      "ÑīÐµÐ½Ð¸Ñı": 1322,
      "ÑıÑģ": 1323,
      "ĠÑħÐ¾ÑĢÐ¾": 1324,
      "ÑģÑĤÐ¾Ð²": 1325,
      "ac": 1326,
      "Ð¼ÐµÐ½Ð¸": 1327,
      "Ð¸Ð»ÑĮ": 1328,
      "ĠÑħÐ°": 1329,
      "ÑīÐµÐ½": 1330,
      "ÑĤÐµÑĢÐ°": 1331,
      "ĠD": 1332,
      "ĠÐ´ÐµÑĤ": 1333,
      "ÑĢÐµÐ±": 1334,
      "ÑįÑĤÐ¾Ð¼Ñĥ": 1335,
      "Ð¥": 1336,
      "Ð²Ð°ÐµÑĤÑģÑı": 1337,
      "ou": 1338,
      "ĠÐ¼Ð°ÑĢ": 1339,
      "ÐµÐ´Ð¸": 1340,
      "ĠÐ´Ð²Ð°": 1341,
      "Ð¸Ðº": 1342,
      "ÑģÐ°Ð½": 1343,
      "Ð»Ð»Ð¸": 1344,
      "ĠÐ½Ð°Ñģ": 1345,
      "ĠÑģÑĥÑīÐµÑģÑĤÐ²": 1346,
      "18": 1347,
      "Ð½Ð°Ð»Ð¸": 1348,
      "ĠÐ¾ÑĤÐºÑĢÑĭ": 1349,
      "ÑĤÑĥÑĢ": 1350,
      "ĠÑģÐ¾Ð´ÐµÑĢ": 1351,
      "ĠÑĩÐ°ÑģÑĤÐ¸": 1352,
      "ÐºÐ¾Ð½Ð¾Ð¼Ð¸": 1353,
      "ĠÐ¶ÐµÐ½": 1354,
      "ĠÐ¾Ð±ÑīÐµ": 1355,
      "is": 1356,
      "ĠÑĢÐ°ÑģÑģ": 1357,
      "ÑĭÑĤÐ°": 1358,
      "ĠÐºÐ¾Ð¼Ð¿Ð°": 1359,
      "om": 1360,
      "Ġ15": 1361,
      "ĠÐ¿Ð¾ÑĢ": 1362,
      "ĠÐ²ÑĢÐµÐ¼ÐµÐ½Ð¸": 1363,
      "Ð¸Ð±": 1364,
      "ÐºÐ¾Ðµ": 1365,
      "ĠÐ²Ð¼Ðµ": 1366,
      "ĠÐ½Ð°ÑħÐ¾Ð´Ð¸": 1367,
      "Ð¾Ð¿Ð¾Ð»": 1368,
      "ĠÐ´ÑĢÑĥÐ³Ð¸Ñħ": 1369,
      "ÑİÑīÐ¸Ðµ": 1370,
      "Ð½Ð´": 1371,
      "Ð¼ÐµÑĤ": 1372,
      "ĠÐºÐ¾ÑĤÐ¾ÑĢÑĭÑħ": 1373,
      "Ð¾Ð²ÑĭÐµ": 1374,
      "ĠÑĨÐµÐ½ÑĤ": 1375,
      "ÑĩÐ¸Ð½Ð°": 1376,
      "ĠÐ¿Ð¾Ð´Ð´ÐµÑĢ": 1377,
      "ÑĦÑĦÐµÐº": 1378,
      "ÑģÑģÐ°": 1379,
      "ÑıÑĤÑĮ": 1380,
      "Ð¼ÐµÐ½ÑĤÐ°": 1381,
      "Ð²Ð°Ð½Ð¸Ñı": 1382,
      "ÑĥÑİÑĤ": 1383,
      "ĠÐ½ÐµÐºÐ¾ÑĤÐ¾ÑĢÑĭ": 1384,
      "Ð¾ÑĢÐ°": 1385,
      "ÐºÐ»Ð°": 1386,
      "ÑģÑĤÑĢÐ¾Ð¹": 1387,
      "ĠÐ·Ð°Ð´Ð°": 1388,
      "ÑĩÐ½Ð¾Ð¹": 1389,
      "ĠÐļÐ°Ðº": 1390,
      "ĠÐ»ÑİÐ´ÐµÐ¹": 1391,
      "Ð½ÐµÐ½Ð¸Ñı": 1392,
      "ÑıÐ±ÑĢÑı": 1393,
      "ĠÐĴÐ°": 1394,
      "Ð¾Ð¼Ñĥ": 1395,
      "ĠÑĢÐ°Ð²": 1396,
      "ÑģÐºÐ¸Ð¼": 1397,
      "ĠX": 1398,
      "Ð¶Ð´Ð°": 1399,
      "ÑĨÐµÐ½": 1400,
      "ĠÑģÐ»Ð¾Ð²Ð°": 1401,
      "ĠÑĩÐ°ÑģÑĤÑĮ": 1402,
      "Ð¸Ð»Ð¸": 1403,
      "ĠÐ²Ð½Ðµ": 1404,
      "ĠÑĥÐ½Ð¸": 1405,
      "ÑĢÐ°Ð»ÑĮ": 1406,
      "ĠÐ¢Ð°": 1407,
      "ĠÐºÐ¸": 1408,
      "Ð¾ÑĢÐ¾Ð²": 1409,
      "ĠÐ¼Ð¾Ð»": 1410,
      "ĠÐ¼Ð°ÑĤÐµÑĢÐ¸": 1411,
      "ĠÐľÐ¾": 1412,
      "ÑĢÐ¸Ð¹": 1413,
      "ĠÐ½Ð°Ð·Ð²Ð°": 1414,
      "Ġ194": 1415,
      "Ð²Ð°Ð»Ð¸": 1416,
      "ĠÑģÐ²Ð¾Ð¹": 1417,
      "ĠÐ¿ÑĢÐ¾Ð³ÑĢÐ°Ð¼": 1418,
      "Ġ+": 1419,
      "ĠÐ¾Ð±Ñĭ": 1420,
      "10": 1421,
      "ĠÐłÐ¾ÑģÑģÐ¸Ð¸": 1422,
      "ĠÐ½ÐµÐ¿": 1423,
      "ĠÑģÑĭ": 1424,
      "ÑģÑĤÑĥÐ¿Ð°": 1425,
      "Ð¾ÑĢÑĥ": 1426,
      "ĠÑĢÐ°Ð·Ð»Ð¸Ñĩ": 1427,
      "Ð¹ÑĤÐ¸": 1428,
      "ĠÐ¿ÑĢÐ¾Ð´Ð¾Ð»": 1429,
      "Ð½Ð¸ÑĤÑĮ": 1430,
      "Ð»Ð°Ð²": 1431,
      "ĠÐºÐ½Ð¸": 1432,
      "ĠÐ®": 1433,
      "ĠÐ¿ÑĢÐ¸Ð½Ñı": 1434,
      "Ð½Ð¸Ñħ": 1435,
      "ĠÐ²ÐºÐ»ÑİÑĩÐ°": 1436,
      "ĠÐºÑĢÐ¸": 1437,
      "ĠF": 1438,
      "ÑģÑĤÐµÑĢ": 1439,
      "ÑĤÐ°Ðº": 1440,
      "ĠÐ¿ÑĢÐ¾ÑģÑĤÐ¾": 1441,
      "ÑħÐ¾Ð²": 1442,
      "Ð¾Ð´ÑĥÐº": 1443,
      "ÐºÐ¸Ð¹": 1444,
      "ÑĤÐ¸Ðµ": 1445,
      "ĠÑģÐ²Ð¾Ñİ": 1446,
      "ĠÐºÐ°Ð¶Ð´": 1447,
      "ĠÐ²ÑĭÑģÐ¾Ðº": 1448,
      "ĠÑĤÑĢÐ°": 1449,
      "ĠÑĨÐ¸": 1450,
      "ĠÑĤÑĢÐ¸": 1451,
      "Ð³Ð¾ÑĤÐ¾Ð²": 1452,
      "ĠÐ·Ð½Ð°ÑĩÐ¸": 1453,
      "ĠÐ²ÑĭÐ¿Ð¾Ð»": 1454,
      "Ð¾ÑĤÑı": 1455,
      "ĠÐ¾Ð±ÐµÑģÐ¿Ðµ": 1456,
      "ĠÑĦÐ°Ðº": 1457,
      "Ð³Ð¾Ð´": 1458,
      "ĠÐºÑĤÐ¾": 1459,
      "ĠÐ½ÑĥÐ¶Ð½Ð¾": 1460,
      "ĠÑĤÑĥ": 1461,
      "ĠÑĤÐ¾Ñĩ": 1462,
      "Ð¾ÐºÑĥ": 1463,
      "ĠÐ²Ð¸Ð´Ðµ": 1464,
      "ĠÑĢÑĭ": 1465,
      "ÐµÐ¼Ð¸": 1466,
      "ĠÐ¿ÑĢÐµÐ´Ð»Ð¾Ð¶": 1467,
      "ÑĤÐ²ÐµÑĢ": 1468,
      "ÐµÐ½ÑĤÐ¾Ð²": 1469,
      "Ġ0": 1470,
      "ĠÐ²Ð½Ñĥ": 1471,
      "Ð¾Ð±ÑĢÐ°": 1472,
      "ÑĢÐµÐ¹": 1473,
      "ÑģÐ½Ð¾": 1474,
      "ÑĢÑĥÐ³": 1475,
      "ÑĪÐ¸Ð½": 1476,
      "ĠG": 1477,
      "ÑĢÐ¾Ð±": 1478,
      "Ð¿Ð°Ð´": 1479,
      "ĠÐ½ÐµÐ³Ð¾": 1480,
      "ÑĮÐµ": 1481,
      "ÑĦÐ°": 1482,
      "ĠÑĩÐµÐ»Ð¾Ð²ÐµÐºÐ°": 1483,
      "ĠÑĪÐ°": 1484,
      "ĠÐ¾Ð±Ð»Ð°ÑģÑĤÐ¸": 1485,
      "ion": 1486,
      "ĠÐ½Ð°Ð·ÑĭÐ²Ð°": 1487,
      "ĠÐ·ÐµÐ¼": 1488,
      "Ð´ÐµÑģÑĮ": 1489,
      "ĠÐ¸Ð·Ð¼ÐµÐ½": 1490,
      "ĠÐ³Ð»Ð°Ð²": 1491,
      "ĠÐ²Ð°Ñģ": 1492,
      "Ð¼ÐµÑĢÐ¸ÐºÐ°Ð½": 1493,
      "âĢ¦": 1494,
      "Ð¶ÐµÐ½Ð¸Ðµ": 1495,
      "ĠÐ¿Ð¾Ð¼Ð¾Ñī": 1496,
      "Ð²Ð°ÑİÑĤ": 1497,
      "ÑĤÐ¸Ð¹": 1498,
      "ĠÐ¿ÑĢÐ¾Ð¸Ñģ": 1499,
      "ÑĳÑĤ": 1500,
      "ÑģÐºÐ¾Ð»ÑĮ": 1501,
      "ĠÐĺÐ½": 1502,
      "ÑģÑĤÐ°Ð²Ð»ÑıÐµÑĤ": 1503,
      "Ð¾Ð·Ð½Ð°": 1504,
      ".,": 1505,
      "ÑıÐ¼Ð¸": 1506,
      "ĠÐ¿ÐµÑĢÐµÐ´": 1507,
      "Ð¸Ð·Ð¸": 1508,
      "Ð²ÑĭÐµ": 1509,
      "Ð²ÑĢÐ¾Ð¿": 1510,
      "Ð²Ð°ÑĢ": 1511,
      "ĠÑįÑĦÑĦÐµÐº": 1512,
      "Ð´ÑĮ": 1513,
      "Ġ/": 1514,
      "ĠÑħÐ°ÑĢÐ°Ðº": 1515,
      "Ð±ÐµÑĢ": 1516,
      "ĠÑģÑĤÐ°ÑĤÑĮ": 1517,
      "ĠÐ¢Ð°Ðº": 1518,
      "ĠÑĢÑĥÑģ": 1519,
      "ĠÐ¸Ñİ": 1520,
      "ĠÐ¼Ð½Ð¾Ð³Ð¸": 1521,
      "ĠÐ¿ÐµÑĢÐ¸": 1522,
      "ÑĢÐ¾Ñģ": 1523,
      "ĠÑįÑĤÐ¸Ñħ": 1524,
      "ĠĊ": 1525,
      "Ð¼Ð°Ð½": 1526,
      "ĠÑĥÑģÑĤÐ°Ð½Ð¾Ð²": 1527,
      "Ð¾ÐºÑĢÐ°": 1528,
      "ĠW": 1529,
      "ĠÑģÐºÐ¾": 1530,
      "Ð²Ð°Ð»": 1531,
      "Ð¿ÐµÑĢÑĮ": 1532,
      "ĠÐ±Ð¾Ð»ÑĮÑĪ": 1533,
      "ÑĩÐµÑĤ": 1534,
      "ĠÐĸ": 1535,
      "ĠÐ³Ð¾ÑĢÐ¾Ð´": 1536,
      "ĠÐ¸Ð¼ÐµÐµÑĤ": 1537,
      "ÑĪÐ°Ñı": 1538,
      "ÑĤÑĥÑĢÑĭ": 1539,
      "ÑģÑĤÐ²ÐµÐ½Ð½Ð¾": 1540,
      "ĠÑħÐ¾": 1541,
      "ĠÐ´ÐµÑı": 1542,
      "ĠÐºÐ¾ÑĤÐ¾ÑĢÐ¾Ð¹": 1543,
      "ĠÑģÑĤÐ°Ð»": 1544,
      "ĠN": 1545,
      "et": 1546,
      "Ġ12": 1547,
      "ĠÑģÑĤÐ¸": 1548,
      "ĠÑĦÑĥÐ½Ðº": 1549,
      "ĠÑĪÐ¸": 1550,
      "ÐŁÐ¾": 1551,
      "ĠÐ±Ð¸": 1552,
      "ĠÐ²Ð¾Ð»": 1553,
      "ĠÐ´Ð¾ÑģÑĤÐ¸": 1554,
      "Ġc": 1555,
      "ĠÐ¼ÐµÑģÑĤ": 1556,
      "Ð½Ð¾Ð²Ð¸": 1557,
      "ÑīÐµÐ½Ð¸Ðµ": 1558,
      "ÑĢÐ°ÐºÑĤÐ¸": 1559,
      "ÑĢÑĥÑİ": 1560,
      "ĠÐ¿ÑĢÐ¸Ð·Ð½Ð°": 1561,
      "Ġ17": 1562,
      "Ð°ÑĤ": 1563,
      "ÑīÐ¸Ñħ": 1564,
      "ÑĳÐ¼": 1565,
      "el": 1566,
      "ĠÐ·Ð°ÐºÐ¾Ð½": 1567,
      "ÑĢÐ¾Ð¼Ðµ": 1568,
      "ĠÑĩÑĥÐ²": 1569,
      "ÑĢÐ¾Ð³Ð¾": 1570,
      "ÑģÐºÐ¾Ð»ÑĮÐºÑĥ": 1571,
      "ĠÐºÑĥÐ»ÑĮ": 1572,
      "ĠÐ¾ÑģÐ½Ð¾Ð²Ð°": 1573,
      "ĠÑģÐ¾Ð²ÐµÑĢ": 1574,
      "ro": 1575,
      "ĠL": 1576,
      "ĠÐ¿Ð»Ð¾": 1577,
      "ĠÑģÐ¾Ð²ÐµÑĤ": 1578,
      "as": 1579,
      "ĠÐ´Ð¾Ð»Ð¶Ð½Ñĭ": 1580,
      "Ð½ÐµÐ½": 1581,
      "Ð°Ð³": 1582,
      "ĠÐ¿ÑĢÐ¾Ð´ÑĥÐº": 1583,
      "ĠÐĴÐ¾": 1584,
      "ÑĭÐµ": 1585,
      "ĠÑįÑĤÐ°": 1586,
      "ĠÐ¸Ð³ÑĢÐ°": 1587,
      "ĠÐ¸Ð¼ÐµÐ½": 1588,
      "Ð¾Ð²Ð¸": 1589,
      "Ð½ÐµÐ¼": 1590,
      "ĠÑįÐºÐ¾Ð½Ð¾Ð¼Ð¸": 1591,
      "ÑİÑīÐ¸Ð¹": 1592,
      "ĠÐłÐ°": 1593,
      "ĠÑģÐ²Ð¾Ð¸Ñħ": 1594,
      "ÐºÐ¾Ð²Ð°": 1595,
      "ĠÐ³Ð¸": 1596,
      "ed": 1597,
      "Ð»Ð¸Ð¹": 1598,
      "Ð¿ÐµÑĢÐ°": 1599,
      "ÐµÐ»": 1600,
      "ĠÑģÐ»Ð¾Ð¶": 1601,
      "II": 1602,
      "ĠÑįÐ»ÐµÐº": 1603,
      "ĠÑĪÐº": 1604,
      "ĠÐłÐµ": 1605,
      "Ġs": 1606,
      "ĠÐ¿Ð¾ÐºÐ°Ð·Ð°": 1607,
      "ÑĪÐ¸Ð¼": 1608,
      "am": 1609,
      "ĠÐ·Ð°ÑīÐ¸": 1610,
      "ÑħÑĢÐ°": 1611,
      "ĠÑģÐ¾Ð³Ð»Ð°": 1612,
      "ÑĤÐµÐ»ÑĮÐ½Ð¾ÑģÑĤÐ¸": 1613,
      "ĠÐ¿Ð¾Ð½Ñı": 1614,
      "ĠÐ¸ÑģÐ¿Ð¾Ð»ÑĮÐ·Ñĥ": 1615,
      "ĠÐŀÐ´Ð½Ð°ÐºÐ¾": 1616,
      "ÐºÐ°Ñı": 1617,
      "ĠÑĩÐ¸Ñģ": 1618,
      "Ð²Ð¸ÑģÐ¸": 1619,
      "ÑĩÐ°ÐµÑĤ": 1620,
      "Ð½ÐµÐ³Ð¾": 1621,
      "ĠH": 1622,
      "ĠÑģÐµÐ±Ðµ": 1623,
      "ĠÐ°Ð½": 1624,
      "Ð·Ð¼": 1625,
      "ĠÐ¾Ð±ÑĢÐ°Ð·Ð¾Ð²Ð°": 1626,
      "ÑĥÐ±Ð»Ð¸": 1627,
      "ĠÐºÐ¾Ð»Ð¸ÑĩÐµÑģÑĤÐ²Ð¾": 1628,
      "ĠÑģÐ»ÑĥÑĩÐ°Ðµ": 1629,
      "ÑĪÐ¸Ðµ": 1630,
      "Ð»ÑıÑĢ": 1631,
      "ĠÑĤÐµÐ»Ðµ": 1632,
      "Ð¼Ð¾ÑģÑĤÐ¸": 1633,
      "Ð¡Ðł": 1634,
      "ÑħÐ¾Ð´Ñı": 1635,
      "ĠÐ½ÐµÐ¼": 1636,
      "Ð³Ð´Ð°": 1637,
      "ĠÐµÑĳ": 1638,
      "Ð¾ÑĢÑĤ": 1639,
      "ÐŁÑĢÐ¸": 1640,
      "ÑĤÐ¸Ð¸": 1641,
      "ĠÑĥÑģÐ¿Ðµ": 1642,
      "ÐºÐ°Ð·ÑĭÐ²Ð°": 1643,
      "Ð¾ÑĢÑı": 1644,
      "ĠÐ´Ð²ÑĥÑħ": 1645,
      "ĠÐ²ÑģÑĤÑĢÐµ": 1646,
      "**": 1647,
      "ĠÑĥÑģÐ»Ð¾Ð²Ð¸": 1648,
      "ÑģÑĤÐ²ÐµÐ½Ð½Ð¾Ð¹": 1649,
      "ÑģÑĤÐ¾Ð¹": 1650,
      "ĠE": 1651,
      "Ġ198": 1652,
      "Ġâ": 1653,
      "Ð³Ð»Ñı": 1654,
      "ÑĢÐ¸Ð°Ð½": 1655,
      "ĠÐĺÐ·": 1656,
      "ÑĩÐµÑģÐºÐ°Ñı": 1657,
      "ÑĢÐ¾Ð²Ð°Ð½Ð¸Ñı": 1658,
      "Ð½ÐµÑĤ": 1659,
      "Ġp": 1660,
      "ÑĨÐ¸ÐµÐ¹": 1661,
      "ĠÑģÐ¿Ð¸": 1662,
      "Ð¾Ð¼Ð¸Ð½Ð°": 1663,
      "ĠÑĥÑĩÐ¸": 1664,
      "ÑģÑĥÑĤ": 1665,
      "ĠÐ½Ð°Ð¼": 1666,
      "Ð»ÐµÐ½Ñĭ": 1667,
      "Ð²Ð»Ðµ": 1668,
      "ĠÐĲÑĢ": 1669,
      "ĠÐ²Ð¾Ð¿ÑĢÐ¾Ñģ": 1670,
      "ĠÐ¸Ð´Ðµ": 1671,
      "ĠÐ¼Ð¾Ð¼": 1672,
      "Ð½Ð°Ð´": 1673,
      "ĠÐ»ÐµÐ³": 1674,
      "Ð»Ð¾Ðº": 1675,
      "ĠÐ²Ð»Ð¸Ñı": 1676,
      "ĠÑĢÐ°Ð±Ð¾ÑĤÑĭ": 1677,
      "ÐµÐ»ÑĮ": 1678,
      "ĠÐ¼ÐµÑģÑĤÐ¾": 1679,
      "ÑģÑĤÐ°ÑĤÐ¾": 1680,
      "Ġ16": 1681,
      "ing": 1682,
      "Ð²ÐµÑģÑĤÐ¸": 1683,
      "ÑĪÐ¸Ð¹": 1684,
      "ÑĪÐµÐ»": 1685,
      "ĠÐ¶Ð¸Ð²": 1686,
      "Ð¾Ð³Ð¾Ð²": 1687,
      "il": 1688,
      "ĠÐŀÑĤ": 1689,
      "Ð²ÑĭÑħ": 1690,
      "ĠÐ²Ð¾ÐµÐ½": 1691,
      "Ð¾Ð²ÑĭÐ¹": 1692,
      "ĠÐ´ÐµÑĢÐµ": 1693,
      "ÑĥÐ¼": 1694,
      "ÐºÐ¾Ð³Ð¾": 1695,
      "ĠÐ¿ÑĢÐ°ÐºÑĤÐ¸": 1696,
      "ĠÐ´Ð¾Ð»Ð»Ð°": 1697,
      "ÑħÐ²Ð°": 1698,
      "ÑĤÐ°Ð¼Ð¸": 1699,
      "ÑĤÐµÐ½": 1700,
      "Ð½ÐµÑģ": 1701,
      "ĠÐ¶ÐµÐ½ÑīÐ¸": 1702,
      "12": 1703,
      "ĠÐ°Ð´": 1704,
      "ĠÑģÐ¼": 1705,
      "ÑĩÐ½ÑĭÑħ": 1706,
      "ĠÐ¿ÑĢÐ¸Ð¼ÐµÑĢ": 1707,
      "Ġd": 1708,
      "ÑĤÐ¸Ð½": 1709,
      "Ð¿ÑĢÐ¾": 1710,
      "ÑĢÐ¸ÑĤÐ¾": 1711,
      "ÑĩÐ¸ÑĤÑĮ": 1712,
      "Ð¶Ð°ÑĤÑĮ": 1713,
      "ÑĤÐµÐ»ÑĮÐ½ÑĭÑħ": 1714,
      "Ð°Ð²": 1715,
      "Ð»ÐµÐ½Ð¸Ð¸": 1716,
      "ĠÐ¾Ð³": 1717,
      "ĠÐ²ÑĤÐ¾ÑĢ": 1718,
      "ÑĢÐµÐ²": 1719,
      "ĠÐ²Ð¸Ð´": 1720,
      "ÑģÑĤÐ°Ð½": 1721,
      "ĠÐºÑĢÐµ": 1722,
      "Ð½Ð°Ð¼Ð¸": 1723,
      "ĠÐ±ÑĢÐ°": 1724,
      "ĠÐ¿Ð¾ÑĤÐ¾Ð¼Ñĥ": 1725,
      "Ð»Ð¾Ð½": 1726,
      "Ð½ÑĥÑĤ": 1727,
      "ĠÐ´ÑĢÑĥÐ³Ð¸Ðµ": 1728,
      "ĠÐŁÐ¾ÑģÐ»Ðµ": 1729,
      "ÑĢÑĥÐ¶Ð¸": 1730,
      "ĠÑģÐ¾ÑĤ": 1731,
      "ÑĤÑı": 1732,
      "Ð¾Ð¶Ð°": 1733,
      "ĠÑĩÐ°ÑģÑĤ": 1734,
      "ÐµÑĢÑĤ": 1735,
      "ÑģÑĤÐ²ÐµÐ½Ð½Ð¾Ð³Ð¾": 1736,
      "ĠÑģÐ²Ð¾ÐµÐ³Ð¾": 1737,
      "Ð¸Ñħ": 1738,
      "ÑĳÑĢ": 1739,
      "ÑĤÐµÐ»ÑĮÑģÑĤÐ²Ð°": 1740,
      "ĠÑĩÐ°ÑģÑĤÐ¾": 1741,
      "ĠÐ²Ð½Ð¸Ð¼Ð°": 1742,
      "ĠÐ·Ð°Ð½Ð¸Ð¼Ð°": 1743,
      "ĠÑģÐ¾ÑĨÐ¸Ð°Ð»ÑĮ": 1744,
      "ĠÐ½ÐµÐ¹": 1745,
      "ĠÑĥÑĩ": 1746,
      "ÑĤÐµÐ»ÑĮÐ½ÑĭÐµ": 1747,
      "Ð±Ð¾Ð»ÑĮ": 1748,
      "ĠÑģÐ¾Ð±Ð¾Ð¹": 1749,
      "ĠÐ³ÐµÐ½": 1750,
      "ĠÑĤÐ¾ÑĢ": 1751,
      "ÑīÐ¸Ð¹": 1752,
      "ĠÑģÐ»Ð¾Ð²": 1753,
      "ÑģÐ»Ñĥ": 1754,
      "ĠÐ½Ð°ÑģÐµ": 1755,
      "ÐµÑĢÑĭ": 1756,
      "ÑĤÑĥÐ°": 1757,
      "ĠÐŀÐ±": 1758,
      "ĠÐ»Ð¸ÑĪÑĮ": 1759,
      "Ð½Ñİ": 1760,
      "ĠÑĢÐ°Ð·ÑĢÐ°": 1761,
      "ÐµÐµ": 1762,
      "ÑĭÑĤ": 1763,
      "ĠÐ³Ð°": 1764,
      "ĠÐ±Ð»Ð°Ð³": 1765,
      "ÑĢÑĮ": 1766,
      "Ð³Ð°Ð½": 1767,
      "ĠÐºÐ¾ÑĤÐ¾ÑĢÐ¾Ðµ": 1768,
      "ÑĪÐ¾": 1769,
      "||": 1770,
      "Ð½Ð°Ð»": 1771,
      "ĠÐºÐ»Ð¸": 1772,
      "ĠÐ¡Ð¾": 1773,
      "ĠÐ¼Ð¾Ð¶ÐµÑĤÐµ": 1774,
      "ĠÐ½Ð°Ð¿ÑĢÐ°Ð²": 1775,
      "ĠÐ¾ÐºÑĢÑĥ": 1776,
      "ĠÐļÑĥ": 1777,
      "ĠÐ¸ÑģÑĤÐ¾ÑĢÐ¸": 1778,
      "ÑĩÐµÑģÐºÐ¾Ðµ": 1779,
      "of": 1780,
      "ÑĥÐ´ÑĮ": 1781,
      "Ð»ÑĮÐ½ÑĭÐ¹": 1782,
      "ĠÐ¿Ð¾Ð½Ð¸Ð¼Ð°": 1783,
      "Ġ[": 1784,
      "Ð»Ð¾ÑĤ": 1785,
      "Ð²ÑĪÐ¸Ð¹": 1786,
      "ol": 1787,
      "ĠÐ¡Ð°": 1788,
      "ĠÐ²Ð¾Ð¹Ð½Ñĭ": 1789,
      "Ð¾ÑıÑĤ": 1790,
      "Ð¼Ð¾ÑģÑĤÑĮ": 1791,
      "ĠÐ¿ÑĢÐ¾ÑĨÐµÑģÑģ": 1792,
      "ĠÐ¿ÑĢÐ¾Ð¸Ð·Ð²Ð¾Ð´": 1793,
      "Ð·Ð¼Ð°": 1794,
      "ÑĤÐµÐº": 1795,
      "ĠÑģÐ¸Ð¼": 1796,
      "ĠÑģÐ´ÐµÐ»Ð°ÑĤÑĮ": 1797,
      "ÑĤÐµÐ»ÑĮÐ½Ð¾Ð¹": 1798,
      "Ð²Ð¾Ð·": 1799,
      "ĠÐ·Ð´": 1800,
      "ĠÐ¿ÐµÑĢÐµÐ´Ð°": 1801,
      "ĠÐŀÐ½Ð¸": 1802,
      "ĠÐ³Ð¾ÑĢÐ¾Ð´Ð°": 1803,
      "ĠÐŁÐµÑĢ": 1804,
      "Ð³Ð»Ð°": 1805,
      "ÑĤÑĥÑĢÐ°": 1806,
      "ĠÑĢÐ¾Ð´Ð¸": 1807,
      "ĠÐºÐ¾Ð½ÑĨÐµ": 1808,
      "ĠÐºÐ¾ÑĤÐ¾ÑĢÐ¾Ð¼": 1809,
      "ÐµÐ¿": 1810,
      "ÑĢÐ°Ð²Ð»Ñı": 1811,
      "ÑıÐ²Ð»Ñı": 1812,
      "ĠÐ½Ð°ÑģÑĤÐ¾Ñı": 1813,
      "Ð»ÑĮÐ½Ð¾Ð¹": 1814,
      "ĠÐ¾Ð¿ÐµÑĢÐ°": 1815,
      "ÑĪÐºÐ¸": 1816,
      "ĠÑĤÐ°ÐºÐ¸Ðµ": 1817,
      "ĠÐľÐ¾ÑģÐº": 1818,
      "ÑĩÐ°Ñģ": 1819,
      "ĠÑĨÐ²ÐµÑĤ": 1820,
      "Ġthe": 1821,
      "Ð¾Ð²Ð¾Ð¹": 1822,
      "ĠÐ¾ÑģÑĤ": 1823,
      "ÑĩÑĥ": 1824,
      "ÑģÐ¼Ð¾ÑĤ": 1825,
      "Ġ197": 1826,
      "ĠÑĦÐ°": 1827,
      "ĠÐ²ÑĢÐ°": 1828,
      "ĠÐ¡Ð¸": 1829,
      "ÑģÑĤÑĥÐ¿Ð¸": 1830,
      "ĠÐĽÐ¸": 1831,
      "ĠÐ°Ð¼ÐµÑĢÐ¸ÐºÐ°Ð½": 1832,
      "ĠÑĥÐ²Ðµ": 1833,
      "ĠÐ¸ÑģÐ¿Ð¾Ð»ÑĮÐ·Ð¾Ð²Ð°ÑĤÑĮ": 1834,
      "Ð´Ð¸Ð¸": 1835,
      "ÑģÐºÐ¾": 1836,
      "ĠÑģÐ»ÐµÐ´ÑĥÑİÑīÐ¸": 1837,
      "ĠÐ¿ÑģÐ¸": 1838,
      "ĠÐ¿ÑĢÐ¾ÐµÐº": 1839,
      "ÑīÐµÐ¼": 1840,
      "ĠÐºÐ°ÑĩÐµÑģÑĤÐ²Ðµ": 1841,
      "Ð´ÑĥÐµÑĤ": 1842,
      "ĠÐ´Ð¾Ð»Ð¶ÐµÐ½": 1843,
      "Ð»ÑĥÐ±": 1844,
      "Ð½ÑĥÑĤÑĮ": 1845,
      "Ð¾Ð»Ð¾Ð¶": 1846,
      "Ð½Ð°ÑĢÐ¾Ð´": 1847,
      "ĠÐ»ÑİÐ´Ð¸": 1848,
      "ĠÐ¾ÐºÐ°Ð·Ð°": 1849,
      "ĠÐ¿ÑĢÐ°": 1850,
      "ĠÑģÑĤÐ¾ÑĢÐ¾Ð½Ñĭ": 1851,
      "ĠÐ¸ÑģÐºÑĥÑģ": 1852,
      "ĠÐ¼ÑĥÐ¶": 1853,
      "ÑģÑĤÐ²ÑĥÐµÑĤ": 1854,
      "Ð´ÐµÑĤ": 1855,
      "ĠÐĵÐµÑĢ": 1856,
      "ĠÑģÐºÐ°Ð·Ð°Ð»": 1857,
      "ĠÑĤÐµÑĢÑĢÐ¸ÑĤÐ¾": 1858,
      "ĠÐ²ÑģÐµÐ³Ð´Ð°": 1859,
      "ĠÐ·Ð°Ð±": 1860,
      "ÑīÐ¸Ðµ": 1861,
      "and": 1862,
      "Ð»Ð¸Ð¸": 1863,
      "ÑĤÐ¸ÑĤÑĮ": 1864,
      "ĠÐ·Ð°ÑĤÐµÐ¼": 1865,
      "ĠÑģÐµÐº": 1866,
      "ĠÐ¡Ðµ": 1867,
      "ÑĭÐ¼": 1868,
      "ĠÐ¿Ð°ÑĢÐ°": 1869,
      "ĠÐ±Ð¾ÑĢ": 1870,
      "Ð³Ð¸Ð¸": 1871,
      "Ð¾Ð½Ð¾Ð²": 1872,
      "ĠÐ½Ð°Ñĥ": 1873,
      "Ġf": 1874,
      "Ð½ÐµÐ½Ð¸Ðµ": 1875,
      "ÐĿÐµ": 1876,
      "âĢĵ": 1877,
      "Ð½Ðº": 1878,
      "ĠÐĴÑģÐµ": 1879,
      "Ð¾Ð·Ð¸": 1880,
      "Ð»ÑĮÐ½ÑĭÐµ": 1881,
      "Ð¶Ð´ÑĭÐ¹": 1882,
      "ĠÑĤÑĢÑĥ": 1883,
      "17": 1884,
      "Ġ196": 1885,
      "ĠÑĤÑĢÐ°Ð½": 1886,
      "ĠÐ¾Ð´Ð½Ð¾Ð¹": 1887,
      "000": 1888,
      "ĠÐ±Ð»Ð¸": 1889,
      "ĠÑģÐ¾Ð´ÐµÑĢÐ¶Ð°": 1890,
      "ĠÐ·Ð´ÐµÑģÑĮ": 1891,
      "ÑĩÐµÐ³Ð¾": 1892,
      "ĠÐ´ÑĥÐ¼Ð°": 1893,
      "ĠÐ¼ÑĥÐ·Ñĭ": 1894,
      "ĠV": 1895,
      "ĠÐ¼Ð¸ÑĢÐ°": 1896,
      "15": 1897,
      "ĠÐĲÐ»ÐµÐº": 1898,
      "Ð¶Ñĥ": 1899,
      "Ð¼ÐµÑĤÐ¸": 1900,
      "Ð·Ð¸Ð¸": 1901,
      "ĠÑĢÐ°ÑģÑģÐºÐ°": 1902,
      "ĠÐ´Ð¾Ð²": 1903,
      "ĠÐ¿ÑĢÐ¸Ð¼ÐµÐ½": 1904,
      "ĠÐ¿ÑĢÐ¾ÑĪ": 1905,
      "ĠÐ´Ð¾ÑĢ": 1906,
      "ÐĹÐ°": 1907,
      "Ð½Ð°Ñħ": 1908,
      "Ġ14": 1909,
      "ĠÐ¡Ð¾Ð²": 1910,
      "ĠÐ¿Ð¾Ð·Ð²Ð¾Ð»": 1911,
      "ÑıÑĤÑģÑı": 1912,
      "Ð´ÐµÐ»Ð¸": 1913,
      "ÐµÐ´Ð¸Ð½": 1914,
      "ÑħÐ¾": 1915,
      "ĠÐ¿ÑĢÐµÐ´ÑģÑĤÐ°Ð²Ð¸": 1916,
      "ĠÐ³ÐµÑĢ": 1917,
      "Ð»ÐµÑĢ": 1918,
      "Ð»Ð°Ð³Ð°": 1919,
      "ĠÐ¾Ð¿ÑĢÐµÐ´ÐµÐ»ÐµÐ½": 1920,
      "Ð³ÑĢÐ°Ð½Ð¸": 1921,
      "Ð´ÑĢÐ°": 1922,
      "ÑģÑĤÐ²Ð¸Ðµ": 1923,
      "ĠÐ°ÑĢÐ¼Ð¸": 1924,
      "Ð²Ð°Ð½Ð¸Ðµ": 1925,
      "Ð²ÐµÑĢÑģÐ¸ÑĤ": 1926,
      "ĠÐ¿Ð¾ÑįÑĤÐ¾Ð¼Ñĥ": 1927,
      "ĠÐľÐ°ÑĢ": 1928,
      "ÑģÐ¾Ð¼": 1929,
      "ĠÐ¿Ð¸ÑģÐ°": 1930,
      "ÐµÑĢÑħ": 1931,
      "ĠÑģÑĤÑĢÐ¾": 1932,
      "ĠÑĤÐ°ÐºÐ¸Ñħ": 1933,
      "Ġm": 1934,
      "ĠÑĥÐ¿ÑĢÐ°Ð²": 1935,
      "Ð´ÐµÐ»": 1936,
      "ĠÐ°ÐºÑĤÐ¸Ð²": 1937,
      "ÑīÑĥÑİ": 1938,
      "ÑĤÐµÐ»ÑĮÐ½ÑĭÐ¹": 1939,
      "ĠÐļÐ¾Ð½": 1940,
      "ÑĩÐ½ÑĭÐµ": 1941,
      "ÑģÐ¾": 1942,
      "ĠÑĥÑĩÐ°ÑģÑĤ": 1943,
      "ĠÑĢÑĥÐºÐ¾Ð²": 1944,
      "ÑģÑĤÐ¾ÑıÐ½": 1945,
      "Ð¡Ð¡Ðł": 1946,
      "ĠÐ¾ÑĤÐ½Ð¾ÑģÐ¸": 1947,
      "ĠÐºÐ¾Ð½Ðµ": 1948,
      "ĠÐ¸Ð·Ð¾Ð±": 1949,
      "ĠÐ¿ÑĢÐµÐ´Ð¾": 1950,
      "ĠÑģÑĤÑĢÐµ": 1951,
      "ĠÑĦÐ¸Ð·Ð¸": 1952,
      "Ġw": 1953,
      "ĠÑįÐ½ÐµÑĢ": 1954,
      "ĠÑĤÐ°Ð¼": 1955,
      "ĠÐ°Ð»": 1956,
      "Ġb": 1957,
      "Ð²Ð°ÑĤÑĮÑģÑı": 1958,
      "ĠÐĶÐ»Ñı": 1959,
      "ĠÐºÐ¾ÑĤÐ¾ÑĢÐ¾Ð³Ð¾": 1960,
      "ĠÐ²Ð¼ÐµÑģÑĤÐµ": 1961,
      "ĠÐ¸Ð½ÑĤÐµÑĢ": 1962,
      "ÐµÐ¹ÑĩÐ°Ñģ": 1963,
      "ĠÐ»Ð°": 1964,
      "ĠÐ±ÑĥÐ´ÑĥÑĤ": 1965,
      "ÑĩÐµÑĢ": 1966,
      "ĠÑģÐ¼ÐµÑĢ": 1967,
      "ĠÐ°Ð²ÑĤÐ¾Ð¼": 1968,
      "ÑĩÐ½Ð¾Ð³Ð¾": 1969,
      "ĠÐºÐ¾Ð½ÑĤÑĢ": 1970,
      "ÐºÑĢÐµ": 1971,
      "Ð»ÐµÐ½Ð°": 1972,
      "Ġ,": 1973,
      "Ð¾Ð¿Ð¸": 1974,
      "ĠÑĤÐµÑĩÐµÐ½Ð¸Ðµ": 1975,
      "ĠÐ¡ÑĤÐ°": 1976,
      "ĠÑĥÐ±Ð¸": 1977,
      "ÑĨÐ¸Ð°Ð»Ð¸": 1978,
      "ot": 1979,
      "ÑģÑĤÑĢÐ¸": 1980,
      "ĠÑģÐ¸ÑģÑĤÐµÐ¼Ñĭ": 1981,
      "us": 1982,
      "ĠÑĢÐµÑĪÐ¸": 1983,
      "ÑĳÐ»": 1984,
      "ĠÐ·Ð°Ð½Ñı": 1985,
      "ĠÐ¾ÑĦÐ¸": 1986,
      "Ð½Ð°Ð½": 1987,
      "ÑīÑĳ": 1988,
      "ĠÐ¾ÑĤÐ½Ð¾ÑĪ": 1989,
      "ĠÑĤÑĢÑĥÐ´": 1990,
      "Ġ30": 1991,
      "ĠÐ°Ð»ÑĮ": 1992,
      "Ð½Ð¾Ð»Ð¾Ð³Ð¸": 1993,
      "ĠÐ½Ð°Ð¿ÑĢÐ¸Ð¼ÐµÑĢ": 1994,
      "ĠÐŁÑĢÐ¾": 1995,
      "ÑĩÐ½ÑĭÐ¹": 1996,
      "ĠÐ¾Ð±Ñı": 1997,
      "ÑĤÐµÐ»ÑĮÐ½Ð¾ÑģÑĤÑĮ": 1998,
      "Ġ193": 1999,
      "ÑģÑĤÐ²ÐµÐ½Ð½ÑĭÑħ": 2000,
      "Ġa": 2001,
      "ĠÑĤÐµÐº": 2002,
      "ĠÐ°Ð½Ð³": 2003,
      "Ð±Ð»Ñİ": 2004,
      "Ð»ÑĮÐ½ÑĭÑħ": 2005,
      "ÑĥÑīÐµÑģÑĤÐ²": 2006,
      "ĠÐ¾ÑĩÐµ": 2007,
      "ĠÐ³Ñĥ": 2008,
      "ÑĢÐµÐ½Ð¸Ñı": 2009,
      "ĠÐ¼Ð¾Ð´Ðµ": 2010,
      "Ð¼ÐµÑĩÐ°": 2011,
      "ĠÐ¿Ð¾Ð´Ð°": 2012,
      "ĠÑģÐ¾Ñģ": 2013,
      "ĠÐ½Ð¾ÑĢ": 2014,
      "Ð¶Ð¸ÑĤ": 2015,
      "ĠÐ½Ð°ÑĩÐ¸Ð½Ð°": 2016,
      "Ð°Ð³Ð°": 2017,
      "ĠÐ¿ÑĢÐ¸ÑĩÐ¸": 2018,
      "ÑĤÐ½Ð¾": 2019,
      "ĠÑĪÐµ": 2020,
      "ĠÑģÐ¼Ðµ": 2021,
      "ĠÐ´ÐµÑĢÐµÐ²": 2022,
      "ĠÐ¤ÑĢÐ°Ð½": 2023,
      "ÑģÑĤÐ¸ÑĤÑĥ": 2024,
      "ĠÐ´Ð¾Ð¼Ð°": 2025,
      "ĠÑįÐ»ÐµÐ¼": 2026,
      "Ð²ÑĪÐ¸Ñħ": 2027,
      "ĠÑģÐ¸ÑĤÑĥÐ°": 2028,
      "ÐºÑģÐ¸": 2029,
      "ÑĤÐ¾ÑĢÐ¾Ð¼": 2030,
      "ÑģÑĤÑĢÑĥÐº": 2031,
      "ĠÐ¿Ð¾Ð·Ð²Ð¾Ð»Ñı": 2032,
      "ĠÑģÐ²Ð¾Ð±": 2033,
      "ĠÐ¾ÐºÐ¾Ð»Ð¾": 2034,
      "ĠÐ´Ð°Ð½Ð½ÑĭÑħ": 2035,
      "ĠÐ²ÑĢÐµÐ¼ÐµÐ½": 2036,
      "ĠÐºÑĢÑĥÐ¿": 2037,
      "Ð¼Ð°ÑĤÐ¸": 2038,
      "Ð²Ð°Ð½": 2039,
      "ĠÐ³Ð¾ÑĤ": 2040,
      "ĠÐ¼ÐµÐ½ÑĮ": 2041,
      "ĠÐ¿Ð¾Ð²Ñĭ": 2042,
      "ÑĤÐµÐ»ÐµÐ¼": 2043,
      "ĠÑģÐºÐ¾ÑĢÐ¾": 2044,
      "ÑĮÑĤÐµ": 2045,
      "ĠÐ½Ð¸Ðº": 2046,
      "ĠÐ¼ÐµÐ½ÐµÐµ": 2047,
      "ĠÐ½ÐµÐ·Ð°": 2048,
      "ĠÐ¢Ðµ": 2049,
      "ĠÐ²Ð¾Ð´": 2050,
      "ĠÑĤÑı": 2051,
      "im": 2052,
      "ÐĴÑĭ": 2053,
      "Ġ13": 2054,
      "ĠÐ±ÐµÑģÐ¿": 2055,
      "Ð¾Ð¿Ð°Ñģ": 2056,
      "Ð²Ð¾Ðµ": 2057,
      "ent": 2058,
      "ĠÐĳÐ°": 2059,
      "ĠÑįÑĦÑĦÐµÐºÑĤÐ¸Ð²": 2060,
      "Ð»Ð¸Ðº": 2061,
      "Ð²Ð½Ð¾": 2062,
      "ÐºÐ°Ð¼": 2063,
      "ÑİÑīÐµÐ¹": 2064,
      "ĠÑĢÐ°Ð´Ð¸": 2065,
      "ĠÐ¿Ð¾Ð¼Ð¾ÑīÑĮÑİ": 2066,
      "ĠÑģÐ¾Ð»": 2067,
      "Ð¾Ð·Ñı": 2068,
      "Ð´Ð°ÑĤÑĮ": 2069,
      "ĠÐ¼ÐµÑģÑı": 2070,
      "50": 2071,
      "Ð¾Ð±Ð¸": 2072,
      "ÑĢÑĥÐµÑĤ": 2073,
      "ÑĩÐµÑģÐºÐ¸Ð¼": 2074,
      "16": 2075,
      "ĠÐ²Ð¾Ð·ÑĢÐ°": 2076,
      "ĠÐ¿Ð¾ÑģÐºÐ¾Ð»ÑĮÐºÑĥ": 2077,
      "ĠÐ¾ÑĤÐ¿": 2078,
      "Ð½Ð¸ÑĨÐ°": 2079,
      "ĠÐŀÐ½Ð°": 2080,
      "ĠÐ¼ÐµÐ´Ð¸": 2081,
      "ĠÐ²Ð¾Ð·Ð¼Ð¾Ð¶Ð½Ð¾": 2082,
      "ĠÑģÐ¾Ð²ÑĢÐµÐ¼ÐµÐ½": 2083,
      "Ð´Ð¶": 2084,
      "ĠÐ²Ð°ÑĢÐ¸Ð°Ð½": 2085,
      "ĠÑĪÑĤÐ°": 2086,
      "ĠÐºÑĢÐ¾Ð²": 2087,
      "ĠÐ´Ð»Ð¸": 2088,
      "Ġ.": 2089,
      "Ð¿Ð°Ñģ": 2090,
      "ÑģÐºÐ¾Ð¼Ñĥ": 2091,
      "ĠÐ¿ÑĢÐ¾Ð´Ð°": 2092,
      "ÑĪÐ»Ð¸": 2093,
      "Ð±Ð¾ÑĤÐ°": 2094,
      "Ð»Ð¾Ð¹": 2095,
      "ĠÑıÐ²Ð»ÑıÑİÑĤÑģÑı": 2096,
      "ĠÑģÑĤÐ¾Ð»": 2097,
      "14": 2098,
      "ĠÑħÐ¾ÑĤÑı": 2099,
      "ÐºÐ°Ð·": 2100,
      "ÑĤÐ¸Ð»": 2101,
      "Ð»ÑĥÑĩ": 2102,
      "Ð¿Ð¸ÑĤÐ°": 2103,
      "ĠÐķÐ²ÑĢÐ¾Ð¿": 2104,
      "Ð°ÑĤÐ¸": 2105,
      "ĠÐ´Ð¾Ð»Ð»Ð°ÑĢÐ¾Ð²": 2106,
      "Ð´Ð¸ÑĤÐµ": 2107,
      "Ð¾Ð½Ð¸": 2108,
      "Ð¸Ð±Ð¾Ð»ÐµÐµ": 2109,
      "ĠÐ¾Ð±ÑĬÐµÐº": 2110,
      "ĠÐ¿ÑĢÐ¸Ð½": 2111,
      "ĠÑģÐ»Ð¸": 2112,
      "Ð»Ð°Ð´": 2113,
      "ÑĤÐ¾ÑĢÐ¾Ð²": 2114,
      "Ð¼Ð¸Ð½Ð¸": 2115,
      "ĠÑĤÐ¾ÑĤ": 2116,
      "ĠÑģÐ¾ÑģÑĤÐ°Ð²": 2117,
      "ÑĢÐµÐº": 2118,
      "ĠÐ¿ÑĢÐ¾ÑĦÐµ": 2119,
      "âĢĿ": 2120,
      "ĠÐ´ÑĢÑĥÐ³Ð¾Ð¹": 2121,
      "ÑĭÐ¹": 2122,
      "ÑĤÐ°Ñħ": 2123,
      "ĠÐ¿ÑĢÐµÐ´ÑģÑĤÐ°Ð²": 2124,
      "ĠÐ¿ÑĢÐ¸Ð½Ð¸Ð¼Ð°": 2125,
      "ÑĤÐµÐ»ÑĮÑģÑĤÐ²Ð¾": 2126,
      "Ð»ÑĮÐ½Ð¾Ð³Ð¾": 2127,
      "ÑĩÐµÐ¹": 2128,
      "ĠÑģÐ°Ð¼Ð¾": 2129,
      "ĠÐ´Ð¾Ð¿Ð¾Ð»": 2130,
      "ĠÑĢÐ°ÑģÐ¿ÑĢÐ¾": 2131,
      "ÑĩÐµÐ¼": 2132,
      "ĠÑĥÑĩÐ°ÑģÑĤÐ¸": 2133,
      "ĠÑĢÐµÐ±": 2134,
      "ÑĤÐµÐ»ÑĮÐ½Ð¾Ð³Ð¾": 2135,
      "ÑģÑĤÐ²Ð¾Ð²Ð°ÑĤÑĮ": 2136,
      "Ð¾Ð·Ð°": 2137,
      "ch": 2138,
      "ÑĤÐ¾ÑĢÐ¸": 2139,
      "ÑĤÑĢÐ¾": 2140,
      "ÑĦÐ¸ÐºÐ°": 2141,
      "ĠÐ¡Ð¡Ð¡Ðł": 2142,
      "ĠÐĴÐµÐ»Ð¸": 2143,
      "Ð½Ð¸ÐºÐ¾Ð¼": 2144,
      "ad": 2145,
      "Ð»Ð¸ÑĩÐ°": 2146,
      "ÑħÐ¾Ð´Ð°": 2147,
      "ĠÐľÐµ": 2148,
      "Ð¾Ð¿Ñĥ": 2149,
      "ÑĢÐ¾Ð²Ð°Ð½Ð¸Ðµ": 2150,
      "ĠÑĤÑĢÐµÐ±": 2151,
      "Ð½ÑıÑı": 2152,
      "ÑģÑĤÐ²ÐµÐ½Ð½ÑĭÐ¹": 2153,
      "ÑĩÐ°ÑĤ": 2154,
      "ÑĢÐ°Ð±": 2155,
      "ÑĪÐµÐ¼": 2156,
      "ÑģÐ¾Ð½Ð°": 2157,
      "id": 2158,
      "ĠÐ¸Ð¼ÐµÐ½Ð½Ð¾": 2159,
      "ĠÐ¿Ð¾ÑģÑĤÐ¾ÑıÐ½": 2160,
      "ĠÐ»ÑĥÑĩÑĪÐµ": 2161,
      "ĠÑģÐ²ÑıÐ·Ð¸": 2162,
      "ĠÑĢÐ°ÑģÐ¿Ð¾Ð»Ð¾Ð¶": 2163,
      "ĠÐĿÐ¸": 2164,
      "ĠÐ¸ÑģÑĤÐ¾ÑĢÐ¸Ð¸": 2165,
      "ĠÑģÑĤÐ°Ð½": 2166,
      "ĠÐ¾Ð±Ð½Ð°": 2167,
      "ĠÑĤÐ¾Ð³Ð´Ð°": 2168,
      "ĠÑģÐ½Ð¸": 2169,
      "ĠÑĢÐµÐ³Ð¸": 2170,
      "ĠÐ²ÑĭÑĢÐ°": 2171,
      "ĠÐ¾Ð³ÑĢÐ°Ð½Ð¸": 2172,
      "ĠÑĩÐµÑĢ": 2173,
      "ÑģÑĤÐ²Ð¸Ð¸": 2174,
      "ĠÐ²ÑĭÐ¿Ñĥ": 2175,
      "Ð¿Ð°ÑĢÐ°": 2176,
      "ĠÐ¶Ð¸Ð·Ð½ÑĮ": 2177,
      "ĠÐ¿Ð¾Ð»Ð¾Ð¶": 2178,
      "ÑĦÐµÑĢ": 2179,
      "ĠÐ¾Ð·Ð½Ð°": 2180,
      "Ð±Ð¸ÑĢÐ°": 2181,
      "Ð¾ÑĤÐ¾": 2182,
      "Ð´Ð°ÐµÑĤ": 2183,
      "ĠÐ¾ÑģÐ¾Ð±ÐµÐ½Ð½Ð¾": 2184,
      "ĠÑģÑĤÑĢÐ°Ð½Ñĭ": 2185,
      "ÐļÐ°Ðº": 2186,
      "ĠÐ¿Ð¾Ð»ÑĥÑĩ": 2187,
      "ĠÑĤÑĢ": 2188,
      "ĠÐ´Ð°Ð»ÑĮ": 2189,
      "ĠÐ½Ð°ÑĢÑĥ": 2190,
      "Ð²Ð°Ð¹ÑĤÐµ": 2191,
      "Ð¾ÑģÑĤÐ¸": 2192,
      "ÑĤÑĢÐµÐ½": 2193,
      "Ġof": 2194,
      "ĠÐ½Ð°ÑĢÐ¾Ð´": 2195,
      "Ð³Ð¾Ð´Ð½Ñı": 2196,
      "ÑĢÐ°Ð·Ñĥ": 2197,
      "ĠÑģÑĤÐµÐ¿": 2198,
      "ĠÐ¿ÑĢÐ¾Ð¼": 2199,
      "ĠÑģÐ¾Ð¿": 2200,
      "ĠÐ±ÐµÑĢÐµ": 2201,
      "ÐµÐ½Ð½ÑĭÑħ": 2202,
      "ĠÐ²Ð·Ð°": 2203,
      "ĠÐ¿Ð¾ÑĤÑĢÐµÐ±": 2204,
      "Ð±Ð¾ÑĢÐ°": 2205,
      "ÑĪÑĥ": 2206,
      "ĠÑĤÐ°ÐºÐ¾Ð¹": 2207,
      "Ġ$": 2208,
      "Ð·Ðµ": 2209,
      "ÑĩÐ¸Ñģ": 2210,
      "ĠÑĩÐµÐ¼Ð¿Ð¸": 2211,
      "ĠÐľÑĭ": 2212,
      "ĠÑĩÐµÑĤÑĭ": 2213,
      "Ð±ÑĥÑĢ": 2214,
      "ĠÐµÑīÑĳ": 2215,
      "13": 2216,
      "ÑģÑĤÐ°ÑĤÐ¾ÑĩÐ½Ð¾": 2217,
      "ĠÑĥÑĤÐ²ÐµÑĢ": 2218,
      "ÑīÐµÑģÑĤÐ²Ð°": 2219,
      "ĠÑĩÐµÑĤ": 2220,
      "ĠÐ¸ÑģÐ¿Ð¾Ð»": 2221,
      "ÐµÐ½ÑĤÑĭ": 2222,
      "ĠÐ±Ð¾": 2223,
      "ĠÐĲÐ½": 2224,
      "ĠÑĥÐ¼": 2225,
      "ĠÐ¸Ð½ÑĤÐµÑĢÐµÑģ": 2226,
      "ĠÐ¿Ð¾Ð·Ð¸": 2227,
      "ĠĠĠĠ": 2228,
      "Ð¾Ð¶Ð´ÐµÐ½Ð¸Ñı": 2229,
      "ĠÑĢÐµÐ·ÑĥÐ»ÑĮÑĤÐ°ÑĤÐµ": 2230,
      "Ħĸ": 2231,
      "ÑĤÐµÐ»ÑĮÐ½Ð¾Ðµ": 2232,
      "ÐķÑģÐ»Ð¸": 2233,
      "Ð²ÑĪÐ¸Ðµ": 2234,
      "ÑģÑĤÐ²ÑĥÑİÑīÐ¸": 2235,
      "ĠÐ½Ð°Ð¹ÑĤÐ¸": 2236,
      "ÑĩÐ°ÑĤÑĮ": 2237,
      "Ð½ÐµÐ²": 2238,
      "ĠÑĩÐµÐ³Ð¾": 2239,
      "ĠÑĥÐ½Ð¸Ð²ÐµÑĢÑģÐ¸ÑĤ": 2240,
      "Ð½Ð¸ÑĨÑĭ": 2241,
      "ĠÑģÐ»ÐµÐ´ÑĥÐµÑĤ": 2242,
      "Ð»ÐºÐ¸": 2243,
      "ĠÐ´ÐµÐ¼": 2244,
      "ĠÑħÑĥÐ´": 2245,
      "ĠÐ¶ÐµÐ»Ð°": 2246,
      "ĠÐ¿Ð¾Ð»ÑĮÐ·Ð¾Ð²Ð°": 2247,
      "ĠÑĢÐµÐ·": 2248,
      "ĠÐ½ÐµÐºÐ¾ÑĤÐ¾ÑĢÑĭÐµ": 2249,
      "ÑĤÐµÐ¹": 2250,
      "ÑģÑĤÑĮÑİ": 2251,
      "ĠÐ½Ð°ÑħÐ¾Ð´Ð¸ÑĤÑģÑı": 2252,
      "ĠÐ¾Ð´Ð½Ð¾Ð³Ð¾": 2253,
      "ĠÐ³ÑĢÑĥÐ¿Ð¿Ñĭ": 2254,
      "ĠÑģÐ¾ÑĤÑĢÑĥÐ´": 2255,
      "ÐŃÑĤÐ¾": 2256,
      "ĠÐ²ÑģÑĳ": 2257,
      "Ð»ÐµÐ½Ð¸ÐµÐ¼": 2258,
      "ĠÐ½Ð°Ð±Ð»Ñİ": 2259,
      "ĠÑĢÐµÐ¶Ð¸": 2260,
      "ÐµÑĢÐ¸": 2261,
      "Ð¾ÑĩÑĮ": 2262,
      "ĠÐ¾ÐºÐ¾Ð½": 2263,
      "Ð½Ð°ÑĩÐ°": 2264,
      "ÑĢÐ°Ð¼": 2265,
      "ĠÑįÑĤÑĥ": 2266,
      "ĠÑģÐ¸ÑģÑĤÐµÐ¼": 2267,
      "ÑģÑģÐ¸Ð¹": 2268,
      "ow": 2269,
      "ÑĥÐ¼Ð°": 2270,
      "ĠÐ²ÐµÐºÐ°": 2271,
      "Ð¼Ð°ÑĤÑĢÐ¸": 2272,
      "ĠÐ±ÐµÐ·Ð¾Ð¿Ð°Ñģ": 2273,
      "ĠÐ²Ð¾ÑĤ": 2274,
      "ĠÐ¾Ð´Ð½Ð¾": 2275,
      "ĠÑģÐ¾ÑħÑĢÐ°": 2276,
      "ÑĥÐ¿": 2277,
      "ĠÐ²Ð¾Ð·Ð´Ñĥ": 2278,
      "ÑĢÐ¾ÐºÐ¸": 2279,
      "Ġh": 2280,
      "ĠÑĥÑģÐ¸": 2281,
      "ĠÐ¿ÑĢÐµÐ´Ð¿Ð¾Ð»": 2282,
      "ĠÑģÑĢÐµÐ´Ð¸": 2283,
      "Ð¾Ð»Ñı": 2284,
      "ĠÐļÐ¸": 2285,
      "Ð¼ÐµÐ½ÑĤ": 2286,
      "ĠÐ¿Ð¾ÑģÐµ": 2287,
      "ÐļÐ°": 2288,
      "ĠÐºÐ°Ð¶Ð´ÑĭÐ¹": 2289,
      "Ð¼Ð¾ÑĤÑĢÐµ": 2290,
      "ÑģÐ¾Ð½": 2291,
      "Ð´Ð¾Ð¼": 2292,
      "ĠÐºÑĥÑĢ": 2293,
      "ĠÐ·Ð°Ð¿": 2294,
      "Ð»Ð¸Ð±Ð¾": 2295,
      "ĠÑĥÐ±Ðµ": 2296,
      "ĠÑħÐ¾ÑĢÐ¾ÑĪÐ¾": 2297,
      "ÑģÑģÐµ": 2298,
      "ĠÐ´ÐµÑĤÐµÐ¹": 2299,
      "ĠÐļÐ°ÑĢ": 2300,
      "ig": 2301,
      "ÑĨÐµÐ½ÑĤ": 2302,
      "Ðĸ": 2303,
      "ĠÐ¿ÑĢÐµÐ·Ð¸": 2304,
      "ÑĢÑĥÐ·": 2305,
      "ĠÑĤÑĭÑģÑı": 2306,
      "ĠÑģÐ¾Ð±Ñĭ": 2307,
      "ÐºÐ¸Ð¼Ð¸": 2308,
      "ĠÐļÐ¾Ð³Ð´Ð°": 2309,
      "ÑĢÐ°Ñģ": 2310,
      "ĠÐ²ÑĭÑĪÐµ": 2311,
      "----": 2312,
      "ĠÑĢÑıÐ´": 2313,
      "Ð°Ð»Ð°": 2314,
      "ÑģÐ»Ð°": 2315,
      "ĠâĢľ": 2316,
      "ĠÐ½Ð¸Ð¼": 2317,
      "ÑĤÐ¾Ðº": 2318,
      "Ð½Ð¸ÑĤÐµ": 2319,
      "ĠÐ¸ÑģÑĤÐ¾Ñĩ": 2320,
      "Ð²Ð¾Ð»Ñİ": 2321,
      "ĠÐ°Ð½Ð°Ð»Ð¸": 2322,
      "11": 2323,
      "ÑģÐ¿ÑĥÐ±Ð»Ð¸": 2324,
      "ÑģÑĤÐ¾Ðº": 2325,
      "ĠÐĳÐµ": 2326,
      "ĠÑģÑĤÑĢÑĥÐº": 2327,
      "Ð¾Ð»ÐµÐ·": 2328,
      "ĠÐ³ÑĢÐ°Ð¶": 2329,
      "Ð¾ÑĢÐ¾Ð´": 2330,
      "Ð¼ÐµÐ½ÑĮ": 2331,
      "ĠÐ¿ÑĢÐµÐ´Ð¿ÑĢÐ¸": 2332,
      "ĠÐ¿ÑĢÐ¾Ð´Ð¾Ð»Ð¶Ð°": 2333,
      "ĠÐ½ÐµÐ¾Ð±ÑħÐ¾Ð´Ð¸Ð¼Ð¾": 2334,
      "ĠÐ¿ÑĭÑĤÐ°": 2335,
      "Ġn": 2336,
      "ĠÑĤÐµÑħÐ½Ð¾Ð»Ð¾Ð³Ð¸": 2337,
      "ĠÐ¼Ð¸Ð½Ð¸": 2338,
      "ĠÐ¿Ð¾ÑĩÑĤÐ¸": 2339,
      "ĠÑĢÐµÐ°Ð»ÑĮ": 2340,
      "ĠÑģÐ²ÑıÐ·Ð°Ð½": 2341,
      "ÑĢÐ°Ð¶ÐµÐ½Ð¸Ñı": 2342,
      "Ð½Ð¸ÑĨ": 2343,
      "ÑĤÑĭÐ¹": 2344,
      "ĠÑģÑĥÐ´": 2345,
      "ĠÑįÐºÑģÐ¿": 2346,
      "Ð´Ð°Ð½Ð¸Ñı": 2347,
      "ÑģÑĤÑĢÑĥ": 2348,
      "ĠÐ½ÐµÐ¼Ðµ": 2349,
      "ĠÑĢÐ°Ð·Ð²Ð¸ÑĤÐ¸Ñı": 2350,
      "ĠÑįÑĤÐ¸Ð¼": 2351,
      "un": 2352,
      "Ð·Ð°ÑĨÐ¸Ñı": 2353,
      "Ð¶Ð´Ðµ": 2354,
      "ĠO": 2355,
      "ĠÐŁÐ¾Ð´": 2356,
      "ĠâĦĸ": 2357,
      "ur": 2358,
      "Ð²Ð°ÑİÑĤÑģÑı": 2359,
      "ÑģÐ¾Ðº": 2360,
      "ĠÐ½ÐµÐ±Ð¾Ð»ÑĮ": 2361,
      "Ð¾Ð²Ð°Ñı": 2362,
      "oo": 2363,
      "ĠÑĩÐ»ÐµÐ½": 2364,
      "ÑĢÐ¾ÑĤ": 2365,
      "ĠÐ¾Ð´Ð½Ð°ÐºÐ¾": 2366,
      "ĠÐ½Ð°ÑĥÑĩ": 2367,
      "ÑĪÐµÐµ": 2368,
      "ÑģÑĤÐ²ÐµÐ½Ð½ÑĭÐµ": 2369,
      "Ð²ÑĭÐ¹": 2370,
      "ct": 2371,
      "ĠÐ´Ð²Ðµ": 2372,
      "ĠÑĨÐµÐ½": 2373,
      "Ġ195": 2374,
      "ĠÑģÐ²Ð¾Ð¸Ð¼": 2375,
      "ÑĢÐ¾ÑģÐ¸": 2376,
      "ĠÐ²ÐµÑĢÐ¾ÑıÑĤ": 2377,
      "ĠÐ¿Ð¾Ð¼Ð¾ÑĩÑĮ": 2378,
      "ĠÐ¿ÐµÑĢÐ¸Ð¾Ð´": 2379,
      "ĠÐ¸ÑģÐºÐ»Ñİ": 2380,
      "ĠÐ³ÐµÐ½ÐµÑĢÐ°": 2381,
      "Ð´Ð¸Ð½Ð°": 2382,
      "ĠÐ¾ÑĪÐ¸": 2383,
      "ĠÐ¼Ð¸ÑĢ": 2384,
      "ÐŀÑĤ": 2385,
      "ÑĩÐ°ÑģÑĤ": 2386,
      "ÑģÑĤÐ²Ð¸Ñı": 2387,
      "ĠÑģÑĢÐ°Ð²": 2388,
      "ĠÐ°Ð½ÑĤÐ¸": 2389,
      "Ð¦": 2390,
      "ĠÑĢÐ¾Ð»ÑĮ": 2391,
      "Ð´Ð¸Ð²Ð¸": 2392,
      "ĠÐ½Ð°Ð¿Ð¸ÑģÐ°": 2393,
      "ĠÐ¼Ð¸Ð»Ð»Ð¸": 2394,
      "ĠÐ¾Ð±ÑĭÑĩÐ½Ð¾": 2395,
      "ÑģÐµÑĢ": 2396,
      "ĠÐ½Ð°Ð´Ðµ": 2397,
      "ĠÑĥÐºÐ°Ð·Ð°": 2398,
      "ĠÐ´ÐµÑģÑı": 2399,
      "Ð»ÑĮÐ½Ð¾Ðµ": 2400,
      "ĠÐ¿Ð°Ð¼": 2401,
      "ĠÑģÐµÐ»ÑĮ": 2402,
      "ĠÑĨÐµÑĢ": 2403,
      "ÐµÐ´Ðµ": 2404,
      "ĠÑĢÐ¾Ð´": 2405,
      "ĠU": 2406,
      "ÐµÐ¼ÑĭÑħ": 2407,
      "ĠÐ»Ð¸ÑĨ": 2408,
      "Ġ\\(": 2409,
      "Ð»Ð¸ÑĤÑĮ": 2410,
      "ĠÑĦÑĢÐ°Ð½": 2411,
      "ĠÑģÐ¿ÐµÑĨÐ¸Ð°Ð»ÑĮ": 2412,
      "ĠÐ³Ð¾Ð´Ñĭ": 2413,
      "ĠÐ½Ð°ÑĨÐ¸Ð¾Ð½Ð°Ð»ÑĮ": 2414,
      "ÑĨÐ¾Ð²": 2415,
      "ÑĢÐ¸ÑģÑĤÐ¸": 2416,
      "ĠÐ¼ÐµÑģÑĤÐ°": 2417,
      "ĠÐ¶ÑĥÑĢ": 2418,
      "ÑĤÐ¾Ð½": 2419,
      "ĠÑģÐµÐ¹ÑĩÐ°Ñģ": 2420,
      "ĠÑħÐ¸": 2421,
      "Ð½ÑĥÐ»": 2422,
      "ĠÐ£ÐºÑĢÐ°": 2423,
      "ĠÑģÐ»Ð°": 2424,
      "ĠÐ½ÐµÐ´Ð¾": 2425,
      ");": 2426,
      "Ġ25": 2427,
      "ĠÐŀÑģ": 2428,
      "ÑĢÐ¸Ð½": 2429,
      "ĠÐ·Ð²Ñĥ": 2430,
      "ĠÐºÐ¾Ð¼Ð¿Ð°Ð½Ð¸Ð¸": 2431,
      "ÑĩÐµÑģÐºÑĥÑİ": 2432,
      "Ð¿Ð¾Ð´": 2433,
      "ĠÑĤÐ¾Ð²Ð°": 2434,
      "ÑģÑģÐ¸Ð¸": 2435,
      "Ð¾Ð»ÑĮÐ·": 2436,
      "ĠÐ¿ÑĢÑı": 2437,
      "ÑīÑĥ": 2438,
      "ÐºÐ°Ð±": 2439,
      "ĠÐ¸Ð½ÑĦÐ¾ÑĢÐ¼Ð°ÑĨÐ¸Ð¸": 2440,
      "ĠÐ¿Ð¾Ð´Ð¾Ð±": 2441,
      "ÐºÐ°ÑĢ": 2442,
      "ĠÐ¼Ð¾ÑĢ": 2443,
      "ĠÑıÐ½": 2444,
      "ĠÐ³Ð¾Ð»Ð¾Ð²": 2445,
      "ÐµÐ½Ð¾": 2446,
      "ĠÑģÐ±Ð¾ÑĢ": 2447,
      "ĠÐķÐ³Ð¾": 2448,
      "ĠÐ½Ð°Ð·Ð½Ð°": 2449,
      "ĠÐºÐ°ÐºÐ¾Ð¹": 2450,
      "ÑıÑĤÐ¸": 2451,
      "Ð¸ÑĢÐ°": 2452,
      "ĠÐ¾ÐºÑĤ": 2453,
      "ĠÐºÐ¾ÑĤÐ¾ÑĢÑĥÑİ": 2454,
      "Ð¢Ðµ": 2455,
      "ĠÐ³Ð°Ð·": 2456,
      "ÑĦÐ¸ÑĨÐ¸": 2457,
      "ter": 2458,
      "ĠÐ¼Ð¸ÑĢÐ¾Ð²": 2459,
      "ĠÐ½Ð°Ð¸Ð±Ð¾Ð»ÐµÐµ": 2460,
      "ĠÑģÐºÐ°": 2461,
      "ĠÐ¿ÑĢÐ¾Ð³": 2462,
      "Ð¶ÐµÐ½Ð¸Ð¸": 2463,
      "ĠÐĲÐ²": 2464,
      "Ð²Ð¾Ð±": 2465,
      "ĠÐ»ÑİÐ±Ð¸": 2466,
      "ĠÐ¿ÑĢÐ¾Ð¸Ð·Ð²Ð¾Ð´Ð¸": 2467,
      "ĠÑģÑĤÑĢÐ°Ð½": 2468,
      "ĠÑĢÐ°ÑģÑĤ": 2469,
      "ĠÐ¼Ð¾Ð¼ÐµÐ½ÑĤ": 2470,
      "Ð¶Ð´ÐµÐ½": 2471,
      "ĠÐ¿Ð¾Ð¼Ðµ": 2472,
      "ĠÑģÐµÐ½ÑĤ": 2473,
      "ÑĪÐºÐ°": 2474,
      "ĠÑĢÐ°Ð·Ð»Ð¸ÑĩÐ½ÑĭÑħ": 2475,
      "ĠÐ½Ð¸ÐºÐ°": 2476,
      "ĠÐ¿ÐµÑĢÐ²ÑĭÐ¹": 2477,
      "ĠÐ²Ð½Ð¸Ð¼Ð°Ð½Ð¸Ðµ": 2478,
      "ĠÐ¾ÑĤÐ½Ð¾ÑĪÐµÐ½Ð¸Ñı": 2479,
      "ĠÐ²Ð¾Ð·Ð¼Ð¾Ð¶Ð½Ð¾ÑģÑĤÑĮ": 2480,
      "ĠÐ¿ÑĢÐµÐºÑĢÐ°": 2481,
      "ĠÐ¿ÐµÑģ": 2482,
      "ÑģÐ¿ÐµÐº": 2483,
      "ĠÐ´Ð¾ÑģÑĤÑĥÐ¿": 2484,
      "ĠÑĥÑģÑĤÑĢÐ¾Ð¹": 2485,
      "Ġ11": 2486,
      "ĠÑĥÐ·Ð½Ð°": 2487,
      "ÑĪÐ»Ð°": 2488,
      "Ð¾Ð²Ð°Ð½Ð¸Ñı": 2489,
      "Ġin": 2490,
      "ÑĤÐµÐ»ÑĮÐ½ÑĭÐ¼": 2491,
      "ĠÐ²Ð½ÑĥÑĤÑĢÐµÐ½": 2492,
      "ĠÐ¿Ð¾ÑĤÐ¾Ð¼": 2493,
      "ĠÐĺÑģÐ¿": 2494,
      "ĠÐ²Ð¿": 2495,
      "Ġ192": 2496,
      "Ð´ÐµÐ»Ñı": 2497,
      "ĊĊ": 2498,
      "ĠÐ·Ð°Ð±Ð¾Ð»Ðµ": 2499,
      "ĠÐ°Ð²Ð³Ñĥ": 2500,
      "ĠÐ¾ÑĤÐ´ÐµÐ»ÑĮ": 2501,
      "ĠÐ¼Ð°ÑĤ": 2502,
      "Ð·ÑĭÐ²Ð°ÐµÑĤ": 2503,
      "ĠÐ·Ð´Ð¾ÑĢÐ¾Ð²": 2504,
      "ĠÑģÐ¼Ñĭ": 2505,
      "ĠÐĿÐ¸Ðº": 2506,
      "ĠÐ±Ð¾Ðµ": 2507,
      "Ð¾Ð·ÑıÐ¹": 2508,
      "ĠÐ¿Ð¾ÑģÑĤÑĢÐ¾": 2509,
      "ĠÑģÐ»ÐµÐ´ÑĥÑİ": 2510,
      "ĠÐĽÑİ": 2511,
      "ĠÐ²ÑĤÐ¾ÑĢÐ¾Ð¹": 2512,
      "ĠÐ¿Ð¾Ñħ": 2513,
      "Ð½ÑıÑĤÑĮ": 2514,
      "ÑĥÐµÑĤ": 2515,
      "ĠÑĩÐ¸ÑģÐ»Ðµ": 2516,
      "Ð´ÑĨÐ°": 2517,
      "ĠÑģÐ²ÐµÑĤ": 2518,
      "ĠÐ¿Ð¾Ð¿Ñĥ": 2519,
      "ĠÐ¿Ð¾Ð´Ð´ÐµÑĢÐ¶": 2520,
      "ĠÐ¼Ð°ÑģÑģ": 2521,
      "ĠÐĲÐ»ÐµÐºÑģÐ°Ð½": 2522,
      "ÑįÐ½": 2523,
      "ĠÐ¶Ð¸Ð²Ð¾ÑĤ": 2524,
      "ĠÐ·Ð°Ð¿Ð¸": 2525,
      "ÑĪÐºÐ¾Ð¼": 2526,
      "ĠÐ³Ð¾Ð²Ð¾ÑĢÐ¸ÑĤ": 2527,
      "ĠÐ½Ð°ÑĩÐ°Ð»Ð°": 2528,
      "ÑīÐ°ÐµÑĤ": 2529,
      "ĠÐ´ÐµÐ¹": 2530,
      "ĠÑģÑĤÐ°ÑĢ": 2531,
      "ÑĢÐµÐ·": 2532,
      "ĠÐ±Ð¾ÑĢÑĮ": 2533,
      "ĠÑħÐ¾Ñĩ": 2534,
      "ÑĨÑĥÐ·": 2535,
      "ĠÑĥÐ»ÑĥÑĩ": 2536,
      "Ð²ÐµÐ´ÐµÐ½": 2537,
      "Ð±Ð¾Ð¼": 2538,
      "ÑĤÑĭÑħ": 2539,
      "ĠÑĤÑĢÐ°Ð´Ð¸": 2540,
      "ĠÐ²Ð·Ð°Ð¸Ð¼": 2541,
      "ÑİÑīÐ¸Ð¼": 2542,
      "ĠÐ°Ð³": 2543,
      "Ð¶Ð´ÐµÐ½Ð¸Ñı": 2544,
      "Ð¼Ð¸Ð½Ð¸ÑģÑĤÑĢÐ°": 2545,
      "ĠÐ¿Ð¾ÑıÐ²Ð¸": 2546,
      "ĠÐ´ÐµÐºÐ°Ð±": 2547,
      "ĠÐ½Ð¾Ñģ": 2548,
      "Ð¾Ð»Ð¾Ð²": 2549,
      "Ð¾Ð½Ð´": 2550,
      "ĠÐ°Ð±": 2551,
      "ĠÑĢÐ°Ð¹Ð¾Ð½Ð°": 2552,
      "ĠÐµÐ¹": 2553,
      "ĠÐ±ÑĢÐ¸": 2554,
      "ĠÐ¾Ð´Ð½Ð°": 2555,
      "ĠÐĽÐµ": 2556,
      "):": 2557,
      "ĠÐ½ÐµÑģÐºÐ¾Ð»ÑĮ": 2558,
      "ĠÑĦÐ¸Ð½Ð°Ð½": 2559,
      "Ð¾ÑĤÐµ": 2560,
      "ÐµÐ½Ð½ÑĭÐµ": 2561,
      "ĠÐ¾Ð±ÑĬÑıÑģ": 2562,
      "ĠÐ¿ÑĢÐ¾Ð²Ð¾Ð´Ð¸": 2563,
      "Ð¾Ð²Ð°ÑĤÑĮ": 2564,
      "ÑĤÐ°Ð»ÑĮ": 2565,
      "Ð»ÐµÐ½Ð¸Ñİ": 2566,
      "ÑĤÐ¾Ð¹": 2567,
      "ÐºÐ¾Ð¼ÐµÐ½": 2568,
      "ĠÐ¾Ð¶Ð¸": 2569,
      "ÑģÐºÑĥ": 2570,
      "ĠÑĢÐ°Ð±Ð¾ÑĤÑĥ": 2571,
      "ĠÑĤÐ¾Ð¼Ñĥ": 2572,
      "ÑĢÑİ": 2573,
      "ĠÐ¾ÑģÑĥÑīÐµÑģÑĤÐ²": 2574,
      "ĠÐ¸Ð¼ÐµÑİÑĤ": 2575,
      "ÐµÐ´ÐµÐ½Ð¸Ñı": 2576,
      "ÑĮÐµÑĢ": 2577,
      "ĠÑĤÐ¾Ð¶Ðµ": 2578,
      "Ð²ÐµÐ·": 2579,
      "ĠÐ²ÑģÐµÐ¼": 2580,
      "ĠÑĢÐµÐ³Ñĥ": 2581,
      "ĠÐ¼ÐµÐ¶Ð´ÑĥÐ½Ð°ÑĢÐ¾Ð´": 2582,
      "ĠÐ´Ð¾ÐºÑĥ": 2583,
      "ĠÐ²Ð½ÐµÑĪ": 2584,
      "ĠÐ±Ð°Ð½": 2585,
      "ĠÑĢÐµÐ±ÐµÐ½": 2586,
      "Ð°Ð¼Ð¸": 2587,
      "ĠÐĴÐ¸": 2588,
      "ĠÐ±Ð¾Ð»ÑĮÑĪÐ¸Ð½": 2589,
      "ĠÐµÐ´Ð¸Ð½": 2590,
      "ĠÐ¼Ð¸ÑĢÐµ": 2591,
      "ĠÐ¼Ð¾Ð³Ñĥ": 2592,
      "ĠÐ´ÐµÑĢ": 2593,
      "ĠÑĥÐ»Ð¸": 2594,
      "ÐºÑĢÐµÑĤ": 2595,
      "ĠÑģÑĤÐ°Ð»Ð¸": 2596,
      "Ð´ÐµÐ½Ð¸Ñı": 2597,
      "ir": 2598,
      "Ġ100": 2599,
      "ĠÑģÐµÐ²ÐµÑĢ": 2600,
      "ÑİÑīÐµÐ³Ð¾": 2601,
      "200": 2602,
      "ĠÑĩÐ¸ÑĤÐ°": 2603,
      "Ð»ÑĳÐ½": 2604,
      "ĠÑĤÐ°ÐºÐ¸Ð¼": 2605,
      "ĠÑĨÐµÐ»ÑĮ": 2606,
      "ĠÐ¿ÑĢÐ¾Ð±Ð»ÐµÐ¼Ñĭ": 2607,
      "ĠÐºÐ°ÐºÐ¸Ðµ": 2608,
      "ĠÐ¼Ñı": 2609,
      "Ġ*": 2610,
      "ÑĥÐ´Ð¸": 2611,
      "ĠÑĤÐµÐ¿ÐµÑĢÑĮ": 2612,
      "ÐŁÐ¾ÑģÐ»Ðµ": 2613,
      "um": 2614,
      "ĠÐ·Ð½Ð°ÑĩÐµÐ½Ð¸Ðµ": 2615,
      "ĠÑıÐ½Ð²Ð°": 2616,
      "ĠÐ¼ÐµÑĢÐµ": 2617,
      "Ð»ÐµÐ½Ð½ÑĭÑħ": 2618,
      "ĠÐ¿ÑĢÐ°Ð²Ð°": 2619,
      "ĠÑĦÑĥÑĤ": 2620,
      "ĠÐ½Ð¸ÑĩÐµÐ³Ð¾": 2621,
      "ĠÐ¾Ð½Ð¾": 2622,
      "ĠÐ´Ð¾Ð»Ð¶Ð½Ð¾": 2623,
      "ÑĪÐ°ÑĤÑĮ": 2624,
      "ÑıÑģÑĮ": 2625,
      "ĠÐ²ÐµÑģÑĮ": 2626,
      "ĠÐ¿ÑĥÐ½Ðº": 2627,
      "Ð»ÑĭÑħ": 2628,
      "ÑĪÐ¸ÑĤÑĮ": 2629,
      "Ð¾Ð²ÑĭÐ¼": 2630,
      "ĠÐ¿Ð¾Ð»ÑĥÑĩÐ°": 2631,
      "ĠÑĢÑĭÐ½": 2632,
      "Ð¾Ð»Ñĥ": 2633,
      "ÐµÑĪÑĮ": 2634,
      "ĠÑģÐ¸ÑģÑĤÐµÐ¼Ð°": 2635,
      "ĠÐ¾Ð±ÑıÐ·Ð°": 2636,
      "Ð»ÐµÐ·": 2637,
      "ĠÑģÐ¿Ð¾ÑĢ": 2638,
      "ÐĻ": 2639,
      "ĠÐ°ÑĢÑħÐ¸": 2640,
      "ÐºÐ²Ð¸": 2641,
      "ĠÐ´ÐµÐ»Ðµ": 2642,
      "Ð¾Ð³Ðµ": 2643,
      "ĠÑģÐ»ÑĥÐ¶": 2644,
      "ĠÑģÐµÐ·": 2645,
      "ĠÐ¼Ð¸Ð½ÑĥÑĤ": 2646,
      "ÑĤÐ¸ÑĤÐµ": 2647,
      "iv": 2648,
      "ÑĢÐ¸ÑĤ": 2649,
      "ÑħÑĥ": 2650,
      "Ð»ÐµÐ½Ð¸Ð¹": 2651,
      "Ð»Ð¸Ð¼": 2652,
      "ÑĢÑĭÐ²": 2653,
      "ĠÐ»Ð¸ÑĤÐµÑĢÐ°": 2654,
      "Ġ50": 2655,
      "ĠÐ¼Ð½Ð¾Ð¶Ðµ": 2656,
      "ÑģÐºÐµ": 2657,
      "ÑĤÐ¸ÑĢÐ¾Ð²Ð°": 2658,
      "Ð½Ð°Ð¼": 2659,
      "ĠÑģÐ²ÑıÐ·Ð°": 2660,
      "ÐµÑħÐ°": 2661,
      "ĠÐ¿ÑĢÐµÐ´ÑģÑĤÐ°Ð²Ð»Ñı": 2662,
      "Ð´Ð°Ð½Ð¸Ðµ": 2663,
      "ĠÐµÐ´Ð¸": 2664,
      "ĠÑĢÐ¾ÑģÑģÐ¸Ð¹": 2665,
      "ĠÐ¿ÑĢÐ¸Ð½ÑĨÐ¸": 2666,
      "ÑħÐ¾ÑĤ": 2667,
      "ay": 2668,
      "ĠÐ¡Ñĥ": 2669,
      "ĠÐłÐ¸": 2670,
      "ÐŀÐ±": 2671,
      "ĠÐ·Ð°ÑıÐ²Ð¸": 2672,
      "ĠÐ¼Ð°ÑĪÐ¸": 2673,
      "ĠÐ¿Ð¾Ð¸": 2674,
      "ĠÑģÑĥÐ¼": 2675,
      "ĠÑģÑĤÐ°Ð½Ð¾Ð²Ð¸": 2676,
      "Ð¾Ð»Ñĭ": 2677,
      "ĠÑģÐ¿Ð°": 2678,
      "ÑģÐµÐ¼": 2679,
      "ĠÐŁÐµÑĤ": 2680,
      "ĠÐļÑĢÐ¾Ð¼Ðµ": 2681,
      "ĠÐ°Ð½Ð³Ð»Ð¸Ð¹": 2682,
      "ĠÐ²Ð»Ð°ÑģÑĤÐ¸": 2683,
      "ĠÑĢÐµÐ°Ðº": 2684,
      "ĠÐ¸ÑģÑģÐ»ÐµÐ´Ð¾Ð²Ð°Ð½Ð¸Ñı": 2685,
      "Ð·Ñı": 2686,
      "ĠÐ»Ð¸Ð±Ð¾": 2687,
      "ĠÐ´Ð½ÐµÐ¹": 2688,
      "ĠÐ¿Ð¾ÑĢÑıÐ´": 2689,
      "ĠÐłÑĥ": 2690,
      "ĠÐ´Ð¾ÑģÑĤÐ°ÑĤÐ¾ÑĩÐ½Ð¾": 2691,
      "ĠÑĦÐ¾ÑĢÐ¼Ð°": 2692,
      "Ð»ÐµÐ½Ð½ÑĭÐµ": 2693,
      "ĠÐ²Ð¾Ð·Ð²ÑĢÐ°": 2694,
      "ĠÐ°Ð¿ÑĢÐµ": 2695,
      "Ð¼Ñı": 2696,
      "ĠÐºÐ¾Ð¼Ð¼Ñĥ": 2697,
      "ĠÐ¿Ð¾Ð³": 2698,
      "ĠÐ¿Ð¾Ð»ÑĥÑĩÐ¸Ð»": 2699,
      "ag": 2700,
      "ĠÑĦÐ¸Ð»ÑĮÐ¼": 2701,
      "ĠÐºÐ¾Ð½ÐºÑĢÐµÑĤ": 2702,
      "Ð¾Ð²Ð°Ð½": 2703,
      "ĠÐ¿Ð¾Ð»Ð½Ð¾ÑģÑĤÑĮÑİ": 2704,
      "ĠÐ¿Ð¾Ð´Ð³Ð¾ÑĤÐ¾Ð²": 2705,
      "ÑĤÐ°Ð¼": 2706,
      "ĠÐ²Ð¾Ð´Ñĭ": 2707,
      "Ð¾ÑģÑĤ": 2708,
      "ĠÑģÐ°Ð¼Ð¾Ð¼": 2709,
      "ĠÐ´Ð¾Ð±Ð°": 2710,
      "ĠÐ¾ÑĪÐ¸Ð±": 2711,
      "ĠÑĩÐµÑĤÑĭÑĢÐµ": 2712,
      "ĠÐŁÑĥ": 2713,
      "ÑħÐ¾Ð´ÑıÑĤ": 2714,
      "ĠÑĤÐµÑĢÑĢÐ¸ÑĤÐ¾ÑĢÐ¸Ð¸": 2715,
      "ÑĭÑĪ": 2716,
      "Ð¾Ð±ÑĢÐ°Ð·": 2717,
      "Ð¾ÑĢÐ¾Ð¶": 2718,
      "ĠÐ´Ð¾Ð¿Ð¾Ð»Ð½Ð¸": 2719,
      "ÐµÑĨ": 2720,
      "ĠÐĳÑĥ": 2721,
      "Ð²Ð¾Ð»Ð¸": 2722,
      "ĠÐ¡Ð°Ð½": 2723,
      "ĠÐ½Ð¸Ð·": 2724,
      "ÑĤÐ°ÑĢ": 2725,
      "ĠÐ¿ÑĢÐµÐ´Ð»Ð°Ð³Ð°": 2726,
      "ĠJ": 2727,
      "ĠÐ¾Ð´Ð½Ð¸Ð¼": 2728,
      "ĠÐ´Ð½Ñı": 2729,
      "ĠÐ¼Ð½Ð¾Ð³Ð¸Ñħ": 2730,
      "ĠÐ²Ð¾Ð·Ð½Ð¸Ðº": 2731,
      "ĠÐºÑĢÑĥ": 2732,
      "Ð¼Ð¾Ð¶Ð½Ð¾": 2733,
      "ĠÐ·Ð°Ð³": 2734,
      "ĠÐ±ÑĭÑģÑĤÑĢÐ¾": 2735,
      "Ð³ÐµÐ½": 2736,
      "ÑģÐºÐ¸Ð¼Ð¸": 2737,
      "ĠÐ¿Ð¾Ð»Ð¾Ð¶Ð¸": 2738,
      "ut": 2739,
      "Ð¼Ð¾Ð¹": 2740,
      "ĠÐ§ÑĤÐ¾": 2741,
      "ĠÐ±Ð»Ð°Ð³Ð¾Ð´Ð°": 2742,
      "ÑĩÐ½ÑĭÐ¼": 2743,
      "ĠÐ·Ð°ÐºÐ»Ñİ": 2744,
      "ÑİÐ·": 2745,
      "ĠÑĢÐµÐ°Ð»Ð¸": 2746,
      "Ð±ÑĥÐ´ÑĮ": 2747,
      "ĠÐŁÑĢÐµ": 2748,
      "ÑĢÐ¾Ð·": 2749,
      "ÑĩÐ½Ð°Ñı": 2750,
      "Ð»Ð°Ð´Ð¸": 2751,
      "Ð¹ÑģÐºÐ¾Ð¹": 2752,
      "ÑĢÐ°ÑĨÐ¸Ð¸": 2753,
      "ĠÐ¿ÑĢÐ¾Ð¸ÑģÑħÐ¾Ð´Ð¸ÑĤ": 2754,
      "ĠÐ£ÐºÑĢÐ°Ð¸": 2755,
      "Ð»ÐµÐ½ÑĮ": 2756,
      "ĠÐ³Ð¾Ð»Ð¾Ñģ": 2757,
      "ÑĢÐ°Ð¶ÐµÐ½Ð¸Ðµ": 2758,
      "ÑĢÐ°Ð¼Ð¸": 2759,
      "Ð¾Ð¸": 2760,
      "ĠÐ¾ÑĢÐ³Ð°Ð½Ð¸Ð·Ð°ÑĨÐ¸Ð¸": 2761,
      "ÐºÐ°Ð´": 2762,
      "ĠÐĵÐµÑĢÐ¼Ð°": 2763,
      "Ð·ÑĮ": 2764,
      "ĠÐºÐ»ÐµÑĤ": 2765,
      "ĠÐ¿Ð»Ð¾ÑīÐ°": 2766,
      "ĠÐ½Ð¸ÐºÐ¾Ð³Ð´Ð°": 2767,
      "ĠÐ¾ÑģÐ½Ð¾Ð²Ðµ": 2768,
      "....": 2769,
      "Ð¾Ð»Ð¾Ð³Ð¸Ð¸": 2770,
      "ĠÑĦÐ¾ÑĢÐ¼Ñĥ": 2771,
      "ĠÐłÐ°Ð·": 2772,
      "30": 2773,
      "ĠÐ´ÐµÐ¹ÑģÑĤÐ²Ð¸Ñı": 2774,
      "ĠÐ²ÑģÑı": 2775,
      "em": 2776,
      "ĠÐ´ÐµÐ»Ð°ÑĤÑĮ": 2777,
      "Ð²ÑĪÐµÐ³Ð¾": 2778,
      "ÐµÐ¼ÑĭÐµ": 2779,
      "ĠÐ¾Ð±ÑĥÑĩ": 2780,
      "ĠÐ´ÐµÑıÑĤÐµÐ»ÑĮÐ½Ð¾ÑģÑĤÐ¸": 2781,
      "Ð½Ð°Ð»Ð°": 2782,
      "ĠÐĽÑĥ": 2783,
      "ÑīÐ¸Ð¼": 2784,
      "ĠÑĦÐµÐ²": 2785,
      "ÑĢÑĥÑģ": 2786,
      "ĠÐ´Ð¾Ð»Ð¶Ð½Ð°": 2787,
      "ÑĢÐ¸ÑĤÐµ": 2788,
      "ĠÐĶÐµ": 2789,
      "Ð¾Ð¿Ð°": 2790,
      "ĠÐµÐ²": 2791,
      "Ð²ÑĭÐ¼": 2792,
      "ÑĩÐ¸Ð½": 2793,
      "ĠÑģÑĤÐ°Ð»Ð°": 2794,
      "ĠÐ±Ð¾Ð»ÐµÐ·": 2795,
      "ĠÐ¾ÑĩÐµÑĢÐµÐ´": 2796,
      "ĠÐ½Ð°ÑĢ": 2797,
      "ÑĩÐ¸Ð»": 2798,
      "ĠÑģÐºÐ°Ð·Ð°ÑĤÑĮ": 2799,
      "ĠÑĢÐµÐºÐ¾Ð¼ÐµÐ½": 2800,
      "ĠÑģÐ¾ÑģÑĤÐ°Ð²Ð»ÑıÐµÑĤ": 2801,
      "Ġl": 2802,
      "ĠÑģÐ¾ÑģÑĤÐ°": 2803,
      "Ð´ÑĢ": 2804,
      "ĠK": 2805,
      "ÑģÑĤÐ¾Ð¼": 2806,
      "ĠÐºÐ¼": 2807,
      "ĠÑĥÐ¿ÑĢÐ°Ð²Ð»ÐµÐ½Ð¸Ñı": 2808,
      "ĠÑģÐµÐ³Ð¾Ð´Ð½Ñı": 2809,
      "ĠÐ¼Ð½Ð¾Ð³Ð¸Ðµ": 2810,
      "ĠÑĢÐ°ÑģÐ¿ÑĢÐ¾ÑģÑĤÑĢÐ°Ð½": 2811,
      "Ġ24": 2812,
      "Ð¶ÐµÑĤÑģÑı": 2813,
      "ĠÐ¾Ð¿Ð¸": 2814,
      "ĠÐ¾Ð¿ÑĢÐµÐ´ÐµÐ»Ñı": 2815,
      "Ð¾Ð³ÑĢÐ°ÑĦÐ¸Ñı": 2816,
      "Ð»Ð¾Ð³Ð¾": 2817,
      "ĠÐ¼Ð¾Ð³Ð»Ð¸": 2818,
      "Ð°Ð½Ð°": 2819,
      "ĠÑģÐ»Ð¸ÑĪÐºÐ¾Ð¼": 2820,
      "ÑįÐ¹": 2821,
      "ĠÐ´Ð¾Ðº": 2822,
      "ĠÐºÑĢÐ°Ñģ": 2823,
      "ĠÐ¼ÐµÑħÐ°": 2824,
      "Ð·Ð°Ð´": 2825,
      "Ð¿Ð¾Ð½": 2826,
      "ĠÐ¼ÐµÑĤÐ°": 2827,
      "Ð¾Ð»ÑĮÐ½Ð¾": 2828,
      "ĠÐ¿Ð¾Ð´Ð´ÐµÑĢÐ¶Ð¸": 2829,
      "ĠÐ½Ð°ÑĩÐ°Ð»Ðµ": 2830,
      "Ð³Ð¾Ð´Ð°": 2831,
      "os": 2832,
      "ĠÑĤÐµÐ¼Ð¿ÐµÑĢÐ°": 2833,
      "ÑģÑĤÐ°Ð½Ð°": 2834,
      "__": 2835,
      "ÑħÐµ": 2836,
      "ĠÐ¾ÑĨÐµÐ½": 2837,
      "Ð¾ÑĢÑĭ": 2838,
      "ĠÐ²ÑĭÐ±Ð¾ÑĢ": 2839,
      "ÑĩÐµÑģÐºÐ¾Ð¼": 2840,
      "ÐĶÐ°": 2841,
      "ÑĤÑĭÐµ": 2842,
      "ĠÑĤÑĥÑĢ": 2843,
      "ÑİÑīÐ°Ñı": 2844,
      "ĠÐ³Ðµ": 2845,
      "Ð¶Ð½Ð¾Ð¹": 2846,
      "ĠÐ¿Ð¾Ð²ÐµÑĢÑħ": 2847,
      "ĠÑĢÑĥÐºÐ¾Ð²Ð¾Ð´": 2848,
      "ĠÑĪÐ¸ÑĢÐ¾Ðº": 2849,
      "ÐĺÑģÑĤÐ¾": 2850,
      "ĠÑģÐ¾Ð±ÑģÑĤÐ²ÐµÐ½": 2851,
      "ĠÐ¸Ð·Ð¼ÐµÐ½ÐµÐ½Ð¸Ñı": 2852,
      "ĠÐ¿ÑĢÐ¸ÑĢÐ¾Ð´": 2853,
      "ĠÐĴÐµÑĢ": 2854,
      "Ð½Ð¸Ð±ÑĥÐ´ÑĮ": 2855,
      "22": 2856,
      "ĠÑģÐ¾ÑģÑĤÐ°Ð²Ð»Ñı": 2857,
      "ÑģÐ¼Ð¾ÑĤÑĢÑı": 2858,
      "ĠÑĢÐ°Ð½": 2859,
      "ĠÐ¸ÑģÐ¿Ð¾Ð»ÑĮÐ·": 2860,
      "Ð¾Ð»ÐµÑĤ": 2861,
      "Ð´ÐµÐ½ÑĤ": 2862,
      "ĠÐĶÐ¸": 2863,
      "Ð²Ð¸Ð°": 2864,
      "Ð¼Ð¸Ð½": 2865,
      "ĠÐ¿Ð¾Ð»ÑĥÑĩÐ¸ÑĤÑĮ": 2866,
      "ĠÑĢÐ°Ð·Ð¼Ðµ": 2867,
      "ĠÐ¼Ð¾Ð¶ÐµÐ¼": 2868,
      "Ð²Ð¸Ñĩ": 2869,
      "ĠÐ´Ð°Ð²": 2870,
      "ĠÐ¿Ð¾Ð±Ðµ": 2871,
      "ĠÑĩÐ°ÑģÐ¾Ð²": 2872,
      "ĠÑħÐ¾Ð»": 2873,
      "ĠÑģÑĤÐ¾Ð¸ÑĤ": 2874,
      "ĠÑĢÐµÐ»Ð¸": 2875,
      "ÑĮÐ¸": 2876,
      "ÑģÐºÐ¾Ð²": 2877,
      "ĠÑĤÑĢÐµÐ±Ñĥ": 2878,
      "ÑģÑĤÐ°Ð²Ð¸ÑĤÑĮ": 2879,
      "ĠÐ¾Ð¿Ð¸ÑģÐ°": 2880,
      "ĠÐ¿ÑĥÐ±Ð»Ð¸": 2881,
      "Ð»Ð¸ÑĩÐ¸Ðµ": 2882,
      "ĠÐ²ÑģÐ¿": 2883,
      "Ð»ÑĭÐ¹": 2884,
      "Ġand": 2885,
      "Ð¸Ð¼Ñĥ": 2886,
      "].": 2887,
      "ĠÐ¼ÐµÑģÑĤÐµ": 2888,
      "ÑĪÐ»Ð¾": 2889,
      "ĠÑĢÐµÑĪÐµÐ½Ð¸Ñı": 2890,
      "ÐµÑģÑĤÐ¸": 2891,
      "ĠÐ¼Ð¾Ð½": 2892,
      "Ð²Ð°ÐµÐ¼": 2893,
      "ĠÑĥÐºÑĢÐ°": 2894,
      "ÐĶÐ»Ñı": 2895,
      "ĠÐ³ÑĢÐ°Ð¶Ð´Ð°Ð½": 2896,
      "ĠÐ¾ÑĤÑģÑĥÑĤ": 2897,
      "ex": 2898,
      "ÑĩÐ½Ð¾ÑģÑĤÐ¸": 2899,
      "ĠÑĤÐ°Ð½": 2900,
      "ĠÐ¿Ð¸ÑģÑĮ": 2901,
      "ÑĩÐºÐ¸": 2902,
      "ĠÐ´ÐµÐ¹ÑģÑĤÐ²Ð¸ÑĤÐµÐ»ÑĮÐ½Ð¾": 2903,
      "ĠÑĤÐ°ÐºÐ¾Ðµ": 2904,
      "ÑģÑĤÐ²ÑĥÑİ": 2905,
      "ÑĪÑĥÑİ": 2906,
      "ĠÐ²ÑĭÑģÑĤÑĥÐ¿Ð°": 2907,
      "Ð¾Ð½Ñĭ": 2908,
      "ĠÑĢÐ°Ð·ÑĢÐ°Ð±Ð¾ÑĤ": 2909,
      "ĠÐ¿Ð¸ÑĤÐ°": 2910,
      "ÑģÐ»ÐµÐ´": 2911,
      "ĠÐ¿ÑĢÐ¸Ñģ": 2912,
      "ÑģÑĤÑı": 2913,
      "ĠÑĦÐµÐ²ÑĢÐ°": 2914,
      "ĠÐ·Ð°Ð²Ð¸ÑģÐ¸": 2915,
      "ation": 2916,
      "ĠÐºÑĢÐ°Ð¹": 2917,
      "ÑĩÐ½Ð¾Ð¼": 2918,
      "ĠÐ¾Ð±ÐµÑģÐ¿ÐµÑĩÐ¸": 2919,
      "ĠÐ±Ð»Ð¸Ð·": 2920,
      "ĠÑģÑĢÐµ": 2921,
      "ÑĨÐ¸Ð½": 2922,
      "ĠÑĤÑıÐ¶Ðµ": 2923,
      "ĠÐ½ÐµÐ¼ÐµÑĨ": 2924,
      "ĠÐ¼ÐµÑĤÐ¾Ð´": 2925,
      "ĠÑģÐµÑĢÑĮ": 2926,
      "ĠÐ½Ð¾ÑĢÐ¼Ð°": 2927,
      "ĠÐºÐ°Ð¼": 2928,
      "ĠÐºÐ¾Ñģ": 2929,
      "ĠÐ¸Ð¼ÐµÑĤÑĮ": 2930,
      "ĠÐ·Ð°Ð²ÐµÑĢ": 2931,
      "ĠÐľÐ°Ðº": 2932,
      "Ð»ÑĮÐ½ÑĭÐ¼": 2933,
      "ĠÐ²ÐµÐ»Ð¸": 2934,
      "ĠÐ¿ÑĢÐ¸Ð»Ð¾Ð¶": 2935,
      "ĠÑģÐµÑĢÐµ": 2936,
      "ĠÐ½ÐµÐºÐ¾ÑĤÐ¾ÑĢÑĭÑħ": 2937,
      "ĠÐľÑĥ": 2938,
      "ĠÑĢÐµÑĪÐµÐ½Ð¸Ðµ": 2939,
      "ĠÐ¿Ð¾ÑģÐ»ÐµÐ´Ð¾Ð²Ð°": 2940,
      ".)": 2941,
      "ÑģÑĤÐ²ÑĥÑİÑĤ": 2942,
      "ĠÑī": 2943,
      "Ð¿Ð°ÑĢ": 2944,
      "ÑħÑĢÐ°Ð½": 2945,
      "ĠÐ½ÐµÐ·Ð°Ð²Ð¸ÑģÐ¸": 2946,
      "ĠÐ²Ð·Ð³Ð»Ñı": 2947,
      "ĠÑģÑĢÐµÐ´ÑģÑĤÐ²Ð°": 2948,
      "Ð¾ÐºÐ°Ð·Ð°": 2949,
      "ĠÐĴÐ¾ÑĤ": 2950,
      "ĠÐ³Ð¾ÑģÑĥÐ´Ð°ÑĢÑģÑĤÐ²Ð°": 2951,
      "ĠÐļÐ¾ÑĢ": 2952,
      "ĠÐ²ÐµÑĢÐ½Ñĥ": 2953,
      "ĠÑĢÐ°Ð·ÑĢÐµ": 2954,
      "ÑĪÐ°ÐµÑĤ": 2955,
      "ÑİÑīÐµÐµ": 2956,
      "ĠÑĤÐ¾Ð»": 2957,
      "ĠÐŃÑĤÐ¸": 2958,
      "Ð²ÐµÐ½": 2959,
      "ÑĨÐ°Ð¼Ð¸": 2960,
      "Ð¿Ð¾Ð²": 2961,
      "ĠÐ¸Ð³ÑĢÑĭ": 2962,
      "ĠÑģÐ½Ð¾Ð²Ð°": 2963,
      "ht": 2964,
      "ĠÑĥÐ²ÐµÑĢ": 2965,
      "ĠÐ¡Ð¾Ð²ÐµÑĤ": 2966,
      "ĠÐ°ÑĢÐ¼Ð¸Ð¸": 2967,
      "Ð»ÐµÐ½Ð¾": 2968,
      "ĠÐ¿ÑĢÐ¾Ð¸Ð·Ð²ÐµÐ´": 2969,
      "ĠÑĦÑĢÐ°Ð½ÑĨÑĥÐ·": 2970,
      "ĠÑĢÐ°ÑģÑĪÐ¸": 2971,
      "Ð»Ð»Ð°": 2972,
      "25": 2973,
      "Ð¾Ð±ÑīÐµ": 2974,
      "ĠÐ¿Ð»Ð°Ð½": 2975,
      "Ð´Ð¸Ñı": 2976,
      "ĠÐ¡ÐµÑĢ": 2977,
      "ĠÐ¾ÑĤÑĢÐ°": 2978,
      "ĠÑģÐ¾Ð±ÑĢÐ°": 2979,
      "ĠÑĤÐ¸Ð¿Ð°": 2980,
      "ĠÐ¾Ð±Ð¾ÑĢÐ¾": 2981,
      "ÑĢÐ°Ñħ": 2982,
      "ĠÐ´ÐµÐ»Ð¾": 2983,
      "ÑĩÐµÐ±": 2984,
      "ĠÑħÐ°ÑĢÐ°ÐºÑĤÐµÑĢ": 2985,
      "ÐºÐ¾ÑĢ": 2986,
      "ĠÐ¿Ð¾Ð¼Ð¾Ð³Ð°": 2987,
      "Ð²Ð¸ÑĤÑĮ": 2988,
      "Ð·Ð¾Ð²": 2989,
      "ÐĴÐ¾": 2990,
      "ĠÑģÐ²Ð¾Ð±Ð¾Ð´": 2991,
      "Ð»ÑĮÐ½Ð°Ñı": 2992,
      "ĠÑĥÐ²ÐµÐ»Ð¸ÑĩÐ¸": 2993,
      "ĠÐ³Ð»Ð°Ð·Ð°": 2994,
      "ĠÐ¿ÐµÑĢÐ²Ð¾Ð¹": 2995,
      "ĠÐ´Ð¸Ð°": 2996,
      "ĠÐ½Ð°Ð¿ÑĢÑı": 2997,
      "ĠÐĽÐ°": 2998,
      "ÑĤÑĥÑĢÐµ": 2999,
      "ĠÑĦÐ¾ÑĢÐ¼Ð¸": 3000,
      "ÑĩÐµÑģÐºÐ¸Ð¼Ð¸": 3001,
      "ĠÐĴÐ¾Ð·": 3002,
      "Ð·ÐµÐ¹": 3003,
      "ĠÑģÑĨ": 3004,
      "Ð²Ð»ÐµÐºÐ°": 3005,
      "ÑĩÐ½Ð¾Ðµ": 3006,
      "ĠÐ½Ð°Ð·Ð°Ð´": 3007,
      "ĠÐ²ÐµÑĢÑģÐ¸": 3008,
      "ÐłÐ°": 3009,
      "Ð¾ÑĦ": 3010,
      "ĠÐ°Ð¿": 3011,
      "ĠÐ¿ÑĢÐµÐ¶Ð´Ðµ": 3012,
      "ĠÑħÐ°ÑĢÐ°ÐºÑĤÐµÑĢÐ¸": 3013,
      "ĠÐ¿Ð¾ÑĩÐµÐ¼Ñĥ": 3014,
      "ĠÑĦÐ°Ð¹": 3015,
      "ĠÑģÐ°Ð¼ÑĭÑħ": 3016,
      "ĠÑģÑĤÑĢÐ¾Ð¸": 3017,
      "ĠÐŁÐ¾ÑįÑĤÐ¾Ð¼Ñĥ": 3018,
      "ĠÐ¼ÐµÑĢ": 3019,
      "ĠÐ¿Ð¾ÑĤÐµ": 3020,
      "Ġ|": 3021,
      "ÑģÑĥÑĢ": 3022,
      "Ð²Ð»Ð¸": 3023,
      "Ð¹Ð½": 3024,
      "ĠÐ´Ð°Ð½Ð½ÑĭÐµ": 3025,
      "ĠÑģÐ¼Ð¾Ð³": 3026,
      "Ð½Ð°Ð´Ð»Ðµ": 3027,
      "ĠÑĢÐ¾Ð¼": 3028,
      "ÑĩÐµÑĤÐ°": 3029,
      "ĠÑĤÑĢÐµÑĤÑĮ": 3030,
      "Î¿": 3031,
      "ĠÑĢÐµÑĪ": 3032,
      "ĠÐ½Ð°ÑģÐµÐ»ÐµÐ½Ð¸Ñı": 3033,
      "ĠÑĥÐ·": 3034,
      "ÑĤÐµÐ»ÑıÐ¼Ð¸": 3035,
      "ĠÑģÑĤÐµÐ¿ÐµÐ½Ð¸": 3036,
      "ĠÐ¿ÑĢÐ¾Ð¸Ð·Ð¾": 3037,
      "ĠÑĩÐµÐ¼Ð¿Ð¸Ð¾Ð½Ð°": 3038,
      "ĠÐºÐ¾Ð¼Ð¿ÑĮÑİ": 3039,
      "ĠÐ¾Ð·Ð½Ð°ÑĩÐ°ÐµÑĤ": 3040,
      "Ð´Ð°Ð»": 3041,
      "ĠÐŁÐ¸": 3042,
      "ĠÐ¸ÑĤ": 3043,
      "ĠÑįÑĤÐ¾Ð¼Ñĥ": 3044,
      "ĠÐ½ÐµÐµ": 3045,
      "ÑĩÑĤ": 3046,
      "ÑĢÐ¸ÑĤÐ°": 3047,
      "ĠÐ¿Ð¾ÑĤÐµÐ½": 3048,
      "ĠÐ´Ð²Ð¸Ð³Ð°": 3049,
      "Ð¼ÐµÑģÑĤ": 3050,
      "ĠÑĢÑı": 3051,
      "ÐºÑĤ": 3052,
      "Ð±Ð°ÑĤÑĭ": 3053,
      "ĠÑįÐ»ÐµÐºÑĤ": 3054,
      "Ð²Ð°Ð»Ð°": 3055,
      "ĠÑĢÐ°Ð¹Ð¾Ð½Ðµ": 3056,
      "ĠÐ§Ðµ": 3057,
      "ÐºÑĥÐ»ÑĮ": 3058,
      "ĠÐ¼Ð°Ñı": 3059,
      "ĠÑĥÐ´Ð¾Ð²": 3060,
      "ĠÐ¸Ð¼ÐµÐ½Ð¸": 3061,
      "ĠÑģÐ¼ÐµÑĢÑĤÐ¸": 3062,
      "ĠÑĤÐ²Ð¾ÑĢ": 3063,
      "ul": 3064,
      "ÐºÑĢÐµÐ¿": 3065,
      "Ð¾Ñĥ": 3066,
      "ĠÐ¾ÐºÐ¾Ð½ÑĩÐ°": 3067,
      "Ð¿Ð¾Ñĩ": 3068,
      "ĠÑģÐ¿ÐµÑĨÐ¸Ð°Ð»Ð¸": 3069,
      "ĠÐ¸Ð½ÑĦ": 3070,
      "ĠÐ¿Ð¾Ð¿ÑĥÐ»ÑıÑĢ": 3071,
      "ÑģÑĤÐ¸ÑĤÑĮ": 3072,
      "ĠÐ¼Ð¾Ð·": 3073,
      "ĠÐºÐ»Ñİ": 3074,
      "ĠÐ¾ÑĦÐ¸ÑĨÐ¸Ð°Ð»ÑĮ": 3075,
      "ÐµÐ½Ð½ÑĭÐ¹": 3076,
      "ĠÐºÐ¾Ð½ÑĦ": 3077,
      "ĠÐŁÑĢÐµÐ´": 3078,
      "ĠÐ½Ð°Ð´Ð¾": 3079,
      "ÑİÑģÑĮ": 3080,
      "ĠÐ¿ÑĢÐ¾ÑģÑĤÑĢÐ°Ð½": 3081,
      "Ð»ÑĭÐµ": 3082,
      "Ð·ÐµÐ¼": 3083,
      "ÑĤÐµÑĤ": 3084,
      "ĠÐ²ÐµÑĤ": 3085,
      "ĠÑģÑĢÐ°Ð·Ñĥ": 3086,
      "ĠÐ³ÑĢÑĥ": 3087,
      "ĠÐ¼Ð°Ñģ": 3088,
      "ĠÐ¿ÑĢÐ¸Ð½Ð°Ð´Ð»Ðµ": 3089,
      "ĠÐ²ÑģÑĤÑĢÐµÑĩÐ°": 3090,
      "Ð´Ð²Ð¸": 3091,
      "od": 3092,
      "Ð¸Ñĩ": 3093,
      "ÑĤÐ¾Ð³Ð¾": 3094,
      "Ð´Ð¸ÑĤÑĮ": 3095,
      "Ð¢Ð°": 3096,
      "ĠÑģÑĤÐ¾Ð¸": 3097,
      "ĠÑĤÐ¾ÑĩÐºÐ¸": 3098,
      "ĠÐ¾ÐºÑĤÑıÐ±ÑĢÑı": 3099,
      "ĠÐ³Ð¾": 3100,
      "ĠÐ´ÑĢÐ°": 3101,
      "ĠÐ¼ÑĭÑĪ": 3102,
      "ĠÑĥÑĩÐ°ÑģÑĤÐ¸Ðµ": 3103,
      "ĠÐ¾ÑĢÐ¸": 3104,
      "ĠÑģÑĥÐ±": 3105,
      "ĠÐ·Ð°Ð²Ð¸": 3106,
      "ĠÑģÐµÐ½ÑĤÑıÐ±ÑĢÑı": 3107,
      "ĠÐ¸Ð½ÑģÑĤÑĢÑĥ": 3108,
      "ÐµÑĢÐ¾Ð²": 3109,
      "ĠÐŃÑĤÐ¾ÑĤ": 3110,
      "ĠÑĥÐ¼ÐµÐ½ÑĮ": 3111,
      "Ð»Ð¸Ð²": 3112,
      "ĠÐ¿ÑĢÐ¾ÑĦÐµÑģÑģÐ¸": 3113,
      "ĠÑħÐ¾ÑĤÐµ": 3114,
      "ÑĤÐºÐ¸": 3115,
      "ĠÐ¿Ð¾Ð»ÐµÐ·": 3116,
      "Ð¸Ð³": 3117,
      "ĠÐºÑĢÐ¸ÑĤÐ¸": 3118,
      "Ð²Ð¸Ð´ÐµÑĤÐµ": 3119,
      "Ð»Ð¸Ð½Ð°": 3120,
      "ÑĤÐµÐ»ÑĮÐ½Ð°Ñı": 3121,
      "ÑģÑĤÐ¾Ð¸ÑĤ": 3122,
      "ĠÐļÐ¸ÑĤÐ°": 3123,
      "ÑĩÐ¸ÑĤÑĭ": 3124,
      "ĠÐ¸ÑİÐ»Ñı": 3125,
      "ĠÐ¸ÑİÐ½Ñı": 3126,
      "ĠÑĢÐ°ÑģÑģÐ¼Ð°ÑĤÑĢÐ¸": 3127,
      "ĠÐ½ÐµÑģÐºÐ¾Ð»ÑĮÐºÐ¸Ñħ": 3128,
      "ĠÐļÐ¾Ð¼": 3129,
      "Ð´Ð°Ð»Ð¸": 3130,
      "ĠÑģÐ¸Ð»Ñĭ": 3131,
      "ÑģÑĤÐ¸Ð½": 3132,
      "ĠÐĳÐ¾Ð»ÑĮ": 3133,
      "ĠÐ¼Ð¾Ð½Ð°": 3134,
      "ĠÐĿÐ°Ð¿ÑĢÐ¸Ð¼ÐµÑĢ": 3135,
      "Ð¾ÑĤÑĢÐµÐ±": 3136,
      "ĠÐ¾ÑĤÐ»Ð¸ÑĩÐ°": 3137,
      "Ð¾Ð»Ð¾ÑĤ": 3138,
      "ĠÐ´ÑĢÐµÐ²": 3139,
      "ÑĩÐµÐº": 3140,
      "ĠÐºÐ¾Ð½ÐºÑĥ": 3141,
      "ĠÐ¡ÐµÐ²ÐµÑĢ": 3142,
      "ÐŁÑĢÐ¾": 3143,
      "ĠÑĥÑĢÐ¾Ð²Ð½Ñı": 3144,
      "ĠÐŁÐµÑĢÐµ": 3145,
      "ÐĺÐ·": 3146,
      "ĠÑĥÑĢÐ¾Ð²ÐµÐ½ÑĮ": 3147,
      "ÐŀÐ´": 3148,
      "ĠÑĤÐµÑħÐ½Ð¸": 3149,
      "Ð»ÐµÐµ": 3150,
      "ĠÐ¾Ð¿Ð°Ñģ": 3151,
      "Ð»ÐµÐ½Ð½Ð¾Ð¹": 3152,
      "ÐłÐµ": 3153,
      "Ð´ÐµÑĢÐ¶Ð¸": 3154,
      "ĠÐ´ÑĢÑĥÐ³Ð°": 3155,
      "op": 3156,
      "ĠÐ¾Ð³ÑĢÐ¾Ð¼": 3157,
      "Ð¿Ð»Ð°": 3158,
      "ĠÐ°Ð²Ð³ÑĥÑģÑĤÐ°": 3159,
      "ĠÐ¿Ð¾Ñį": 3160,
      "ĠÐ¿Ð¾Ð·Ð²Ð¾Ð»ÑıÐµÑĤ": 3161,
      "ÑĩÐµÑģÑĤÐ²Ð°": 3162,
      "ĠThe": 3163,
      "ĠÐ±Ð¾Ð³Ð°": 3164,
      "ÑĢÐµÐ¼ÐµÐ½Ð½Ð¾": 3165,
      "ĠÐ²ÐºÐ»ÑİÑĩÐ°Ñı": 3166,
      "ĠÐ²Ð¾Ð·Ð¼Ð¾Ð¶Ð½Ð¾ÑģÑĤÐ¸": 3167,
      "ĠÐ¿ÑĢÐ¸Ð²Ð¾Ð´Ð¸": 3168,
      "ĠÐºÐ°Ð½": 3169,
      "ĠÐĵÐ°": 3170,
      "ĠÐ·ÑĢÐµÐ½Ð¸Ñı": 3171,
      "ÐºÐµÑĤ": 3172,
      "ĠÐ¿ÑĢÐ¸Ð¾Ð±": 3173,
      "ÑĥÑİÑĤÑģÑı": 3174,
      "ÐŁÐµÑĢ": 3175,
      "ĠÐ¿ÑĢÐ¸Ð±Ñĭ": 3176,
      "ĠÑıÐ½Ð²Ð°ÑĢÑı": 3177,
      "ÐµÐ·Ð´": 3178,
      "ĠÐŀÑĢ": 3179,
      "Ð»ÐºÐ°": 3180,
      "ĠÐ¸Ð·Ð¼ÐµÐ½Ð¸": 3181,
      "ĠÑģÐ¾Ð±Ð¸ÑĢÐ°": 3182,
      "ÐµÐ¼ÑĭÐ¹": 3183,
      "ĠÐ¼ÐµÑħÐ°Ð½Ð¸": 3184,
      "ĠÑĢÐµÐ²Ð¾Ð»Ñİ": 3185,
      "ĠÐ½Ð¾Ð²ÑĭÑħ": 3186,
      "th": 3187,
      "ÑĤÐ°ÑĨÐ¸Ð¸": 3188,
      "Ġ40": 3189,
      "ÑĢÐ°Ð·Ð´": 3190,
      "ÐºÐ¾Ð±": 3191,
      "ĠÐ³Ð»ÑĥÐ±": 3192,
      "ĠÐ¼Ð¾Ñī": 3193,
      "ÐºÑĤÐ¸": 3194,
      "Ð½Ð¾ÑģÑĤÐµÐ¹": 3195,
      "ĠÐĳÐµÑĢ": 3196,
      "ĠÑģÐ°Ð¼Ð¸": 3197,
      "ĠÐ²Ð¾Ðº": 3198,
      "ĠÐ½ÐµÑĥ": 3199,
      "ĠÑįÐºÑģÐ¿Ðµ": 3200,
      "ÐĿÐ¾": 3201,
      "Ð¼ÐµÐ½ÑĤÑĭ": 3202,
      "Ð´ÑĥÑĤ": 3203,
      "Ð½Ð¸ÐºÐ°Ð¼Ð¸": 3204,
      "Ð²ÑĪÐ¸ÑģÑĮ": 3205,
      "ia": 3206,
      "ĠÐ¿Ð¾Ð´ÑĤÐ²ÐµÑĢ": 3207,
      "ÑĢÐµÑĤÐ°": 3208,
      "ĠÐ³ÑĢÑĥÐ¿Ð¿Ð°": 3209,
      "ÐºÑģ": 3210,
      "ĠÑĩÐ¸ÑģÐ»Ð¾": 3211,
      "ÐºÐ°Ð´ÐµÐ¼Ð¸": 3212,
      "ĠÐ·Ð°ÑĢÐ°": 3213,
      "ĠÐºÐ¾ÑĤÐ¾ÑĢÑĭÐ¼": 3214,
      "ĠÐ²Ð°ÑĪ": 3215,
      "ĠÐ·Ð°ÑħÐ²Ð°": 3216,
      "ĠÐ¼Ð°ÑĢÑĤÐ°": 3217,
      "ĠÐ¾Ð±ÑīÐµÑģÑĤÐ²Ð°": 3218,
      "ĠÐ¸Ð½ÑĦÐ¾ÑĢÐ¼Ð°ÑĨÐ¸Ñİ": 3219,
      "ĠÐºÐ»Ð°ÑģÑģÐ¸": 3220,
      "ĠÐ¾ÐºÐ°Ð·ÑĭÐ²Ð°": 3221,
      "ĠÐ²ÑģÐµÐ¹": 3222,
      "ru": 3223,
      "ĠÐ³Ð¾ÑĤÐ¾Ð²": 3224,
      "ĠÐ¾Ð±Ð½Ð°ÑĢÑĥÐ¶Ð¸": 3225,
      "Ð¿ÐµÑĢÐ²ÑĭÐµ": 3226,
      "ĠÐĲÐ½Ð³": 3227,
      "ĠÐ¿ÑĥÑĤÐ¸": 3228,
      "ĠÐºÐ¸Ñģ": 3229,
      "Ð»Ð»ÐµÐº": 3230,
      "ĠÐ²Ð¾Ð·Ð½Ð¸ÐºÐ°": 3231,
      "ĠÐ¸Ð½ÑĤÐµÑĢÐµ": 3232,
      "ĠÑħÐ¾Ð·ÑıÐ¹": 3233,
      "ĠÐ½Ð°Ð·Ð²Ð°Ð½Ð¸Ðµ": 3234,
      "Ð²Ð°Ð»Ð¸ÑģÑĮ": 3235,
      "ĠÑĨÐ°ÑĢ": 3236,
      "ĠÐºÐ°Ð¿Ð¸ÑĤÐ°": 3237,
      "rac": 3238,
      "Ð²Ð¾Ð´Ð°": 3239,
      "ra": 3240,
      "ĠÐ¿ÐµÑĢÑģÐ¾Ð½Ð°": 3241,
      "ĠÐ²ÐºÐ»Ñİ": 3242,
      "ĠÑıÐ·ÑĭÐºÐ°": 3243,
      "ĠÐ¸Ð¼Ñı": 3244,
      "ĠÐ¿ÑģÐ¸Ñħ": 3245,
      "ĠÐ²Ð°Ð¶Ð½Ð¾": 3246,
      "ĠÐ´Ð²Ð¸Ð¶ÐµÐ½Ð¸Ñı": 3247,
      "ĠÐ³Ð¾Ð´Ð¾Ð²": 3248,
      "ĠÐ¿ÑĢÐ¸Ð¼ÐµÑĢÐ½Ð¾": 3249,
      "ĠÐ½ÐµÐ¼Ð½Ð¾Ð³Ð¾": 3250,
      "ĠÐ°Ð´Ð¼Ð¸Ð½Ð¸ÑģÑĤÑĢÐ°": 3251,
      "ĠÑĢÐ°Ð·Ð½ÑĭÑħ": 3252,
      "ĠÐ²Ð¾Ð¿ÑĢÐ¾ÑģÑĭ": 3253,
      "ĠÑģÑĤÐ°Ð»Ð¾": 3254,
      "ĠÐĿÐ¾Ð²": 3255,
      "Ð¾Ð¶ÐµÑĤ": 3256,
      "ĠÐºÐ°Ð¶Ð´Ð¾Ð³Ð¾": 3257,
      "Ð¶Ð½Ð¾": 3258,
      "ĠÐ¼Ð°Ð»ÐµÐ½ÑĮ": 3259,
      "Ð´Ð°ÑİÑĤ": 3260,
      "ÑĨÐµÐ½Ð¸": 3261,
      "ÑĤÑĥÐ°Ð»ÑĮ": 3262,
      "ÑĤÐµÐ³Ð¾": 3263,
      "ÑĢÑĥÐµÑĤÑģÑı": 3264,
      "ĠÐ¿Ð¾Ð¼Ð¾ÑīÐ¸": 3265,
      "ĠÐ´Ð¸Ð²Ð¸": 3266,
      "ĠÐ²Ð¾ÑģÑģÑĤÐ°Ð½Ð¾Ð²": 3267,
      "ĠÐ±Ð¾Ð»ÑĮÑĪÐ¾Ð¹": 3268,
      "ÐĺÐ½": 3269,
      "ĠÐ¿ÑĢÐ¾Ð¿": 3270,
      "Ġ22": 3271,
      "Ð³Ð¾Ð»ÑĮ": 3272,
      "ÑĦÐ¾ÑĢÐ¼Ð¸": 3273,
      "ĠÐ³Ð¾ÑĢÐ¾Ð´Ðµ": 3274,
      "ĠIn": 3275,
      "Ð¾ÐºÐ¾Ð¹": 3276,
      "ĠÑĨÐµÐ»Ð¸": 3277,
      "ĠÐ¿ÑĢÐµÐ´Ñĥ": 3278,
      "ÑĤÐ¸Ð²Ð°": 3279,
      "Ð¸Ð´": 3280,
      "ĠÐ´ÑĢÑĥÐ³Ð¸Ð¼Ð¸": 3281,
      "Ð½Ð°ÑĩÐ°Ð»Ð°": 3282,
      "ĠÐ½Ð¾Ð²ÑĭÐµ": 3283,
      "oc": 3284,
      "ÑģÑĤÐ²Ð¾Ð²Ð°Ð»": 3285,
      "ĠÑģÐ°Ð¹": 3286,
      "ĠÑģÑĬ": 3287,
      "ĠÑģÐ¾ÐºÑĢÐ°": 3288,
      "ĠÐ¼ÐµÐ½ÑĮÑĪÐµ": 3289,
      "ĠÐ¿ÑĢÐµÐ¿": 3290,
      "ĠÐ±Ð¸Ð·": 3291,
      "ĠÐ¿ÑĢÐ°Ð²Ð¾": 3292,
      "Ð»Ð°Ð¼Ð¸": 3293,
      "Ð¾Ð³Ñĥ": 3294,
      "ĠÐºÑĢÑĭ": 3295,
      "ĠÑģÑĤÐ°Ð½Ð¾Ð²Ð¸ÑĤÑģÑı": 3296,
      "Ġto": 3297,
      "ĠÐ²Ð·Ñı": 3298,
      "ĠÑĤÑĢÐ°Ð½ÑģÐ¿": 3299,
      "ĠÐ¿Ð¾Ð»Ð¾Ð²Ð¸": 3300,
      "ĠÑģÑĤÑĢÐ°ÑĤÐµ": 3301,
      "ÑģÐ¸ÑĤÑĮ": 3302,
      "Ð´ÐµÐ¹ÑģÑĤÐ²Ð¸": 3303,
      "ĠÐ¿ÑĢÐµÐ´ÑģÑĤÐ°Ð²Ð»ÑıÐµÑĤ": 3304,
      "ĠÐ´ÐµÐºÐ°Ð±ÑĢÑı": 3305,
      "ÑĩÐ°Ð¹": 3306,
      "ĠÐ²Ð½ÑĥÑĤÑĢÐ¸": 3307,
      "ĠÑĢÐµÑģÑĥÑĢ": 3308,
      "Ð¸Ð½Ð°": 3309,
      "ĠÑģÑĤÑĥÐ´": 3310,
      "Ð¼Ð¾ÑĤÑĢÐµÑĤÑĮ": 3311,
      "ĠÐ³Ð¾Ð´Ð°Ñħ": 3312,
      "ĠÐ¾ÑĤÐ¼ÐµÑĤÐ¸": 3313,
      "ĠÑĢÐ°ÑģÐº": 3314,
      "ĠÑįÐ¼Ð¾": 3315,
      "Ð°Ð´": 3316,
      "ÑĢÐµÐµ": 3317,
      "ÑĤÐ½Ð¾Ð¹": 3318,
      "ri": 3319,
      "ĠÐ½ÐµÐ¸Ð·": 3320,
      "ĠÐ·Ð°Ð¿Ð°": 3321,
      "Ð½Ð¸ÑĨÑĥ": 3322,
      "ÑģÑĤÐ²ÐµÐ½Ð½ÑĭÐ¼": 3323,
      "ĠÐ¿Ð¾Ð·Ð²Ð¾Ð»Ð¸": 3324,
      "Ð±ÑĢÐ¸": 3325,
      "ĠÑģÑĩÐµÑĤ": 3326,
      "Ð½Ð¸Ð»": 3327,
      "Ð²Ð°Ð»ÑģÑı": 3328,
      "ĠÑĤÑĢÐµÑħ": 3329,
      "ÑĢÐ¾ÐºÐ°": 3330,
      "ĠÐ½Ð¾ÑıÐ±ÑĢÑı": 3331,
      "ĠÑħÑĢÐ°": 3332,
      "ĠII": 3333,
      "ĠÑģÐ»ÑĥÑĩÐ°Ð¹": 3334,
      "ĠÐ±ÐµÐ·Ð¾Ð¿Ð°ÑģÐ½Ð¾ÑģÑĤÐ¸": 3335,
      "ÑĩÐ¸Ðº": 3336,
      "ĠÐ¸Ð½ÑĤÐµÐ»Ð»ÐµÐº": 3337,
      "Ð½Ð¸ÑĨÐ¸": 3338,
      "ĠÐºÐ¾Ð¼Ð¿Ð»ÐµÐº": 3339,
      "Ð¾Ð»ÐµÐ²": 3340,
      "ÑĢÑĥÑİÑĤ": 3341,
      "ĠÐ¾Ð´Ðµ": 3342,
      "ers": 3343,
      "ĠÐ¿ÑĢÐµÐ´Ð¿Ð¾Ð»Ð°Ð³Ð°": 3344,
      "ĠÐ·Ð°ÐºÑĢÑĭ": 3345,
      "ÑĤÐ¸Ð²Ð½ÑĭÑħ": 3346,
      "ÑĢÐ¸Ñİ": 3347,
      "ĠÐ¸ÑģÐ¿Ð¾Ð»ÑĮÐ·Ð¾Ð²Ð°Ð½Ð¸Ñı": 3348,
      "ĠÑĢÐ°Ð±Ð¾ÑĤÐµ": 3349,
      "Ð´ÐºÐ¾": 3350,
      "ĠÑģÑĥÑīÐµÑģÑĤÐ²ÑĥÐµÑĤ": 3351,
      "ĠÑģÐ¿ÑĢÐ°": 3352,
      "ĠÑıÐ²": 3353,
      "Ð½Ð¾ÑģÑĤ": 3354,
      "Ð¾Ð¹ÑĤÐ¸": 3355,
      "ÑĢÐ´": 3356,
      "ĠÑģÐ¾Ð²ÐµÑĢÑĪ": 3357,
      "23": 3358,
      "ĠÐ¿ÑĢÐµÐ²ÑĢÐ°": 3359,
      "ĠÑĤÐ¾ÑĢÐ³Ð¾Ð²": 3360,
      "ĠÐ°Ð¿ÑĢÐµÐ»Ñı": 3361,
      "Ġy": 3362,
      "ĠÐ³ÑĢÐµ": 3363,
      "Ð´Ñı": 3364,
      "ĠÐ¼Ð»": 3365,
      "ÑĪÑĤÐ°": 3366,
      "Ð´Ð°ÐµÑĤÑģÑı": 3367,
      "ĠÑĥÑģÐ¿ÐµÑĪ": 3368,
      "Ð¾ÐºÐ¾": 3369,
      "ĠÐ¸Ð½ÑģÑĤÐ¸ÑĤÑĥ": 3370,
      "ĠÐµÑģÑĤÐµ": 3371,
      "ĠÑĦÐ¸Ð»ÑĮÐ¼Ð°": 3372,
      "ĠÑģÐºÐ¾Ð»ÑĮÐºÐ¾": 3373,
      "ĠÑĤÑĭÑģÑıÑĩ": 3374,
      "ĠÐºÐ°ÑģÐ°": 3375,
      "ĠÐ¾ÐºÑĢÑĥÐ¶Ð°": 3376,
      "Ġ23": 3377,
      "ĠÐ¿ÑĢÐµÑģÑĤÑĥÐ¿": 3378,
      "ĠÑĢÐ°ÑģÑģÑĤÐ¾Ñı": 3379,
      "ĠÑĥÐ¼ÐµÑĢ": 3380,
      "Ñĸ": 3381,
      "ĠÐ¿Ð°ÑĨÐ¸": 3382,
      "ĠÑĤÐµÐ»Ð°": 3383,
      "ÑĢÐ¸ÑĨÐ°": 3384,
      "Ð½Ð½ÑĭÐµ": 3385,
      "Ð¾ÑģÑĢÐµÐ´": 3386,
      "ĠÑĦÑĢÐ¾Ð½": 3387,
      "Ð´Ð¾Ð±": 3388,
      "ĠÑĨÐµÐ»Ð¾Ð¼": 3389,
      "ÑģÑĤÑĢ": 3390,
      "ĠÑģÐ¾Ð·Ð½Ð°": 3391,
      "Ð·ÐµÑĢ": 3392,
      "ĠÐ¼ÐµÐ´": 3393,
      "Ð»Ð¸Ð¼Ð¿Ð¸": 3394,
      "ĠÐ½Ð°Ð¹": 3395,
      "ĠÐĳÑĭ": 3396,
      "Ð´Ð¸ÑĤ": 3397,
      "Ð¾ÑĨÐ¸": 3398,
      "ÑĢÐ°Ð²Ð¸ÑĤÑĮ": 3399,
      "ce": 3400,
      "ĠÐ´Ñĭ": 3401,
      "ĠÐ¼Ð¸Ðº": 3402,
      "ĠÑĥÐ²Ð¸": 3403,
      "ÐºÐ»": 3404,
      "ĠÐ¼Ð°ÑĤÐµÑĢÐ¸Ð°": 3405,
      "ĠÑĢÐ°Ð±Ð¾ÑĤÐ°ÑĤÑĮ": 3406,
      "ĠÐ´ÐµÐ½Ðµ": 3407,
      "ĠÐ¿ÑĢÐµÐ¸Ð¼Ñĥ": 3408,
      "ÑĤÑĮÑı": 3409,
      "ÐľÐ°": 3410,
      "ĠÐºÐ¸Ð½Ð¾": 3411,
      "Ð±ÑĥÑĢÐ³": 3412,
      "ÑīÐ°ÐµÑĤÑģÑı": 3413,
      "Ð½ÑıÐµÑĤ": 3414,
      "ÑģÐ°Ð¼": 3415,
      "ÑģÐµÐ´Ð°": 3416,
      "ÑĩÐ½ÑĥÑİ": 3417,
      "ĠÐ¿Ð¾Ð³Ð¸": 3418,
      "ew": 3419,
      "ĠÑĢÐ°Ð±Ð¾ÑĩÐ¸": 3420,
      "21": 3421,
      "ĠÐ·Ð°Ð¿Ñĥ": 3422,
      "Ð¸Ð³ÑĢÐ°": 3423,
      "ĠÑĦÐ¾ÑĤ": 3424,
      "Ð»Ð¾Ð±": 3425,
      "Ð¼Ð¾Ð½": 3426,
      "ĠÑĢÐ°Ð¼": 3427,
      "ĠÐĲÐ»ÑĮ": 3428,
      "ĠÐ½ÐµÐ¿ÑĢÐ¸": 3429,
      "ĠÐ¾ÑĢÐ³Ð°Ð½Ð¸Ð·Ð°": 3430,
      "ĠÐ¿ÑĢÐ¸ÑģÑĥÑĤ": 3431,
      "Ġ190": 3432,
      "ĠSt": 3433,
      "ĠÑĩÐµÑĤÐ²ÐµÑĢ": 3434,
      "ĠÐ¡Ð°Ð¼": 3435,
      "Ð¿ÑĤÐ¾Ð¼": 3436,
      "ÐµÑģ": 3437,
      "ĠÐºÐ¾Ð¼Ð°Ð½Ð´Ñĭ": 3438,
      "Ð¾Ð¼ÐµÑĢ": 3439,
      "Ð²ÑĪÐµÐ¹": 3440,
      "ĠÐ¾ÑģÐ²Ð¾Ð±": 3441,
      "ĠÐ´ÑĥÑħÐ¾Ð²": 3442,
      "ĠÑĦÐ¸Ð»Ð¾Ñģ": 3443,
      "ĠÑģÑĤÐ¾Ñı": 3444,
      "ÑģÐ°Ð´": 3445,
      "Ð¼Ð°ÑĢ": 3446,
      "ĠÑĤÐ¾Ð½": 3447,
      "ĠÐ»ÐµÐ³ÐºÐ¾": 3448,
      "ĠÑģÐ²Ð¸Ð´ÐµÑĤÐµ": 3449,
      "ÑĥÑĩÐ°": 3450,
      "ĠÐºÐ½Ñı": 3451,
      "ĠÐ¿Ð°ÑĢÑĤÐ¸Ð¸": 3452,
      "ĠÐ¿ÑĢÐ¾Ð¼ÑĭÑĪ": 3453,
      "Ð²Ð¸Ð½": 3454,
      "ĠÐĲÐ¼ÐµÑĢÐ¸": 3455,
      "ÑģÐ¾Ð»": 3456,
      "ĠÐ¾ÑīÑĥ": 3457,
      "Ð¢Ð°Ðº": 3458,
      "ĠÐ¥Ð°": 3459,
      "ĊĠĠĠ": 3460,
      "ÑĤÐµÑģÑĮ": 3461,
      "ĠÑģÐ½Ð°": 3462,
      "Ð»ÑıÑħ": 3463,
      "ÑĤÐ¸Ð²Ð½ÑĭÐµ": 3464,
      "ĠÐ½Ð°Ð¿Ð¸": 3465,
      "ĠÐ½Ð°ÑĩÐ°Ð»": 3466,
      "ĠÐ²Ð¾Ð¾Ð±ÑīÐµ": 3467,
      "ĠÐ¾ÑĤÐµ": 3468,
      "ĠÐºÐ°ÑĤÐ°": 3469,
      "Ġ21": 3470,
      "ÑģÑĤÐ¾Ð¹ÑĩÐ¸": 3471,
      "ĠÑĢÐ°Ð·Ð¼ÐµÑĢ": 3472,
      "ĠÐ¾Ð¿ÑĭÑĤ": 3473,
      "ĠÐĴÐ»Ð°Ð´Ð¸": 3474,
      "ÑģÑĤÐ²ÐµÐ½Ð½Ð¾Ðµ": 3475,
      "ĠÐ½Ð°Ð³": 3476,
      "Ð¼Ð¾Ð²": 3477,
      "40": 3478,
      "ÑĤÐ½ÑĭÑħ": 3479,
      "ĠÐ´Ð¾Ð³Ð¾Ð²": 3480,
      "ĠÐ¼ÑĥÐ·ÑĭÐºÐ°": 3481,
      "Ð¿ÑĢÐ°Ð²": 3482,
      "ĠÐ·Ð°ÑıÐ²": 3483,
      "Ð¾Ð´ÐµÐ¹ÑģÑĤÐ²Ð¸": 3484,
      "ĠÐ¶ÐµÐ»ÐµÐ·": 3485,
      "ĠÐºÐ°ÑĢÑĤÐ¸": 3486,
      "ĠÑģÐ¼Ð¾Ð¶": 3487,
      "Ð·Ð¸Ñı": 3488,
      ".:": 3489,
      "ĠÐ¾Ð´Ð½Ñĥ": 3490,
      "ĠÐºÐ°ÑĤÐµÐ³Ð¾": 3491,
      "ĠÐºÐ¾ÑĢÐ°Ð±": 3492,
      "ÑħÐ¾Ð¼": 3493,
      "ÐľÑĭ": 3494,
      "ĠÐ¼Ð°ÐºÑģÐ¸": 3495,
      "ĠÑĥÑģÐ»Ð¾Ð²Ð¸ÑıÑħ": 3496,
      "ĠÐºÐ¾Ð¼Ð°Ð½Ð´": 3497,
      "ĠÑģÑģÑĭ": 3498,
      "ĠÑĦÐµÐ²ÑĢÐ°Ð»Ñı": 3499,
      "ĠÐ¾ÑĢÑĥÐ¶Ð¸": 3500,
      "ĠÑģÐ¸Ð³": 3501,
      "ĠÐ¿ÑĢÐ¾ÑĤÐµ": 3502,
      "ĠÐĿÑĮÑİ": 3503,
      "ÑīÐµÐ¼Ñĥ": 3504,
      "Ð¼Ð¸Ð¸": 3505,
      "ĠÑģÐ°Ð¼ÑĭÐ¼": 3506,
      "Ð³Ð¸Ñı": 3507,
      "ĠÐ½ÐµÐ¾Ð±ÑħÐ¾Ð´Ð¸Ð¼Ñĭ": 3508,
      "ĠÐ¿ÑĢÐ¾ÑĤÑı": 3509,
      "Ð²Ð°ÑĢÐ¸": 3510,
      "ĠÐ·Ð°Ð¼Ðµ": 3511,
      "60": 3512,
      "Ð»Ð¸Ð²Ð¾": 3513,
      "ÑĨÐµÐ¿": 3514,
      "Ð¼Ð¸ÑĢÐ°": 3515,
      "av": 3516,
      "Ġ60": 3517,
      "ĠÑĢÐ°Ð²Ð½Ð¾": 3518,
      "ĠÐ²ÐµÐº": 3519,
      "ĠÑģÑİ": 3520,
      "ĠÐ¿ÑĢÐ¾Ð²ÐµÑĢ": 3521,
      "ÑĤÐ°Ñı": 3522,
      "ÑĨÐ¸Ð¾Ð½Ð½ÑĭÑħ": 3523,
      "ĠÑıÐ·ÑĭÐº": 3524,
      "Ð¼ÐµÐ½Ð°": 3525,
      "ĠÐ¿ÑĢÐ°Ð²Ð¸Ð»Ð¾": 3526,
      "ĠÐ½Ð¾Ð²ÑĭÐ¹": 3527,
      "ĠÑĩÐ°ÑģÑĤÐ½Ð¾ÑģÑĤÐ¸": 3528,
      "ĠÐ°Ð²Ð¸Ð°": 3529,
      "ÑĢÐ¾Ð²ÐºÐ¸": 3530,
      "ĠÐ¿Ð¾Ð·Ð´": 3531,
      "Ð»ÐµÐ½Ð½Ð¾": 3532,
      "ÑĤÑĥÑĢÑĥ": 3533,
      "ĠÑģÐ²Ð¾ÐµÐ¼": 3534,
      "Ð±ÑĢÐ°Ð½": 3535,
      "ĠÐºÐ°Ð·Ð°": 3536,
      "ĠÑıÑĢ": 3537,
      "199": 3538,
      "ĠÐ²Ð¾ÑģÐ¿ÑĢÐ¸": 3539,
      "ĠÐ´Ð¾Ð²Ð¾Ð»ÑĮÐ½Ð¾": 3540,
      "ĠÐ¿ÑĢÐµÐ·Ð¸Ð´ÐµÐ½": 3541,
      "Ġg": 3542,
      "ÑĤÐµÐ»ÑıÐ¼": 3543,
      "ĠÐºÐ¾Ð»Ð»ÐµÐº": 3544,
      "ÑģÐºÐ¾Ð»ÑĮÐºÐ¾": 3545,
      "ĠÐ¡ÑĤ": 3546,
      "Ð»Ð°Ð½Ð´": 3547,
      "ĠÐ¼Ð¸Ð½Ñĥ": 3548,
      "Ð½Ð½ÑĭÑħ": 3549,
      "Ð¸Ð»Ð°": 3550,
      "ĠÑģÐ²Ð¾Ð¸Ð¼Ð¸": 3551,
      "ĠÐ´ÑĢ": 3552,
      "ĠÐ½Ð¸Ð¼Ð¸": 3553,
      "ĠÐ¤ÑĢÐ°Ð½ÑĨÐ¸Ð¸": 3554,
      "Ð¿Ð»Ð¸": 3555,
      "Ð¾ÑĤÑĭ": 3556,
      "ĠÑģÐ¾ÑģÑĤÐ°Ð²Ðµ": 3557,
      "ĠÑĥÑĤÐ²ÐµÑĢÐ¶Ð´Ð°": 3558,
      "Ð¹ÑĤÐµÑģÑĮ": 3559,
      "ĠÐ¿Ð¾ÑĤÐµÑĢÑı": 3560,
      "ÑĩÐµÐ½Ð¸ÐµÐ¼": 3561,
      "ĠÐºÑĥÐ»ÑĮÑĤÑĥÑĢ": 3562,
      "ĠÑģÐ¾ÐµÐ´Ð¸Ð½": 3563,
      "ĠÑĤÐ°ÐºÐ¾Ð³Ð¾": 3564,
      "ĠÐ²ÑĭÐ±ÑĢÐ°": 3565,
      "ĠÑģÐµÑĢÑĮÐµÐ·": 3566,
      "ÐŁÐ¾Ð´": 3567,
      "ĠÐ±Ð»Ð¾Ðº": 3568,
      "ess": 3569,
      "ĠÐ°Ð»ÑĮÐ±Ð¾Ð¼": 3570,
      "ĠÑħÑĥÐ´Ð¾Ð¶": 3571,
      "Ð¶Ð´ÐµÐ½Ð¸Ðµ": 3572,
      "ĠÐĵÐµÐ½": 3573,
      "ÐºÐ¾ÑĤÐ¾ÑĢÑĭÐµ": 3574,
      "ÐµÐ½Ð½Ð¾Ð¹": 3575,
      "ĠÐ¾ÑĤÐ²Ðµ": 3576,
      "Ð½Ð¸ÑĨÐµ": 3577,
      "ÑıÐ±ÑĢÐµ": 3578,
      "Ġ(Â«": 3579,
      "ĠÑĤÐ¾Ð¹": 3580,
      "ĠÐ·Ð°Ð²Ð¸ÑģÐ¸Ð¼Ð¾ÑģÑĤÐ¸": 3581,
      "Ð¾ÑģÐ¿": 3582,
      "Ð¾ÐµÐ´Ð¸Ð½": 3583,
      "ÑĨÐ¸ÑıÑħ": 3584,
      "ĠÐĶÑĥ": 3585,
      "ĠÑĥÐ´Ð°Ð»Ð¾ÑģÑĮ": 3586,
      "ĠÐ´Ð²Ð¾ÑĢ": 3587,
      "ĠÐ·Ð°Ð¿Ð°Ð´": 3588,
      "Ġ28": 3589,
      "ĠÑįÐ¿Ð¸": 3590,
      "ĠÐ±Ð»Ð°Ð³Ð¾Ð´Ð°ÑĢÑı": 3591,
      "Ð¾Ð±Ð¸Ð»ÑĮ": 3592,
      "ĠÐ§ÑĤÐ¾Ð±Ñĭ": 3593,
      "ap": 3594,
      "ĠÐ²Ð»Ð¸ÑıÐ½Ð¸Ðµ": 3595,
      "ĠÐ²Ð´": 3596,
      "Ġ//": 3597,
      "ĠÐ½Ð°ÑģÑĤÐ¾ÑıÑīÐµÐµ": 3598,
      "ĠÑĥÐ¿ÑĢÐ°Ð²Ð»Ñı": 3599,
      "ÑģÑĤÐµÐ¿": 3600,
      "ÑĨÐ¸Ð¾Ð½Ð½Ð¾Ð¹": 3601,
      "Ð½ÑİÑİ": 3602,
      "ÑģÐ»ÑĥÐ¶Ð¸": 3603,
      "ĠÐ´Ð°Ð»ÑĮÐ½ÐµÐ¹": 3604,
      "Ð±Ð¾Ð²": 3605,
      "ĠÑģÐ°Ð¼Ð¾Ð³Ð¾": 3606,
      "ĠÑĥÑĩÐµÐ½": 3607,
      "ĠÐºÐ¾Ð¼Ð½Ð°": 3608,
      "ĠÐ²ÑĭÐ·Ð²Ð°": 3609,
      "ÑĤÐµÐ»ÑĮÐ½ÑĥÑİ": 3610,
      "Ð½Ð¾Ð²ÑĢÐµÐ¼ÐµÐ½Ð½Ð¾": 3611,
      "ĠÑĥÑģÐ»Ñĥ": 3612,
      "Ġv": 3613,
      "Ġx": 3614,
      "Ð¼ÐµÐ½ÑĤÐ¾Ð²": 3615,
      "ĠÐ½Ð°ÑĪÐµÐ¹": 3616,
      "ĠÐ³Ð»Ñĥ": 3617,
      "Ð²ÑĢÐ¾Ð¿ÐµÐ¹": 3618,
      "ĠÑĥÐ½Ð¸ÑĩÑĤ": 3619,
      "ĠÐ²Ð¾Ð¾ÑĢÑĥ": 3620,
      "com": 3621,
      "ĠÑĤÐµÐ±Ñı": 3622,
      "ÑĩÐµÑģÑĤÐ²Ð¾": 3623,
      "ĠÐ½ÐµÑģ": 3624,
      "ĠÐ²ÑģÑİ": 3625,
      "ĠÐŃÑĤÐ°": 3626,
      "ĠÐ¾Ð´Ð½Ð¾Ð¼": 3627,
      "Ð·Ð¸Ð½": 3628,
      "ÑĦÐ¾Ð½": 3629,
      "ĠÐºÐ¾Ð½ÑĦÐ»Ð¸Ðº": 3630,
      "ĠÐ¿Ð¾Ð¿Ð°": 3631,
      "ĠÑĥÐºÐ°Ð·ÑĭÐ²Ð°": 3632,
      "ĠÑĤÑĢÐµÐ½Ð¸": 3633,
      "ĠÑģÑĤÐ°Ð½Ð´Ð°ÑĢ": 3634,
      "ÑįÑĢ": 3635,
      "ĠÐ³ÑĢÑĥÐ¿Ð¿": 3636,
      "ĠÐ¸Ð½Ð´Ð¸Ð²Ð¸": 3637,
      "ĠÐ´ÑĢÑĥÐ³Ð¸Ð¼": 3638,
      "Ġi": 3639,
      "Ð»ÐµÐ³": 3640,
      "ĠÐ¿ÑĢÐ¸Ð²ÐµÑģÑĤÐ¸": 3641,
      "Ð´Ð¸Ð¹": 3642,
      "Ð¶Ð°Ð»": 3643,
      "ÑĤÑĭÐ¼": 3644,
      "ĠÐ¸Ð·ÑĥÑĩ": 3645,
      "ĠÐ²Ð¾ÐºÑĢÑĥÐ³": 3646,
      "Ð³Ð¾ÑĢ": 3647,
      "ĠÑģÑĥÑīÐµ": 3648,
      "ĠÐ¢Ð°ÐºÐ¶Ðµ": 3649,
      "ÑĤÐ½ÑĭÐ¹": 3650,
      "Ġ:": 3651,
      "Ð¶Ð°ÐµÑĤ": 3652,
      "Ð§ÑĤÐ¾": 3653,
      "Ð¶ÐµÑĤ": 3654,
      "ĠÑĢÐ°Ð·ÑĢÑĥ": 3655,
      "Ð²Ð¸Ð»": 3656,
      "ĠÐ¸Ð½Ð¾Ð³Ð´Ð°": 3657,
      "ĠÐ¸Ð¼Ð¿Ðµ": 3658,
      "ĠÐļÑĢÐ°Ñģ": 3659,
      "ÑģÑıÑĤ": 3660,
      "ĠÐ·Ð°Ð¿ÑĢÐµ": 3661,
      "ÑĤÐ¾ÑĢÐ¾Ðµ": 3662,
      "ÑĤÐµÑĢÐµÑģ": 3663,
      "ĠÑģÐ¾Ð²ÐµÑĢÑĪÐµÐ½Ð½Ð¾": 3664,
      "Ð²ÐµÐ¹": 3665,
      "ĠÑĢÐ°Ð·Ð»Ð¸ÑĩÐ½ÑĭÐµ": 3666,
      "Ġ27": 3667,
      "ĠÐ¾ÑĩÐµÑĢÐµÐ´ÑĮ": 3668,
      "ÑİÐ·Ð°": 3669,
      "ĠÐĹÐµÐ¼": 3670,
      "ĠÑģÑħ": 3671,
      "Ġ**": 3672,
      "ĠÐ¾ÑĤÐ´Ðµ": 3673,
      "Ð®": 3674,
      "ĠÐ²Ð¾Ð·Ð´ÐµÐ¹ÑģÑĤÐ²Ð¸": 3675,
      "ĠÐ¿ÑĢÐ¾Ð³ÑĢÐ°Ð¼Ð¼Ñĭ": 3676,
      "ĠÐ²ÑĭÑħÐ¾Ð´": 3677,
      "ÑĤÐ¸Ð²Ð¸": 3678,
      "ĠÐ·Ð°ÐºÐ»ÑİÑĩÐ°": 3679,
      "Ð¼Ð°Ñı": 3680,
      "ÐŀÑģ": 3681,
      "ĠÐ¿ÐµÑĢÐ²Ð¾Ð³Ð¾": 3682,
      "ĠÐĶÐ¶Ð¾Ð½": 3683,
      "ĠÐ»ÑİÐ±Ð¾Ð¹": 3684,
      "ĠÐ¿Ð¾Ð¿ÑĭÑĤ": 3685,
      "ĠÐ¢Ð°ÐºÐ¸Ð¼": 3686,
      "ĠÐ½ÐµÐ²Ð¾Ð·": 3687,
      "ĠÐ¸Ð·Ð±Ðµ": 3688,
      "ĠÑĦÐ¾Ð½": 3689,
      "ĠÐ°ÑĤ": 3690,
      "ĠÐ¼Ð½Ð¾Ð³": 3691,
      "ov": 3692,
      "ĠÐ½Ð°Ð³ÑĢÐ°": 3693,
      "ĠÐ¾ÑĤÐ½Ð¾ÑĪÐµÐ½Ð¸Ð¸": 3694,
      "ĠÑģÐ¾Ð·Ð´Ð°Ð½Ð¸Ñı": 3695,
      "Ð¢ÐµÐ¿ÐµÑĢÑĮ": 3696,
      "Ð¾ÐºÐ¸": 3697,
      "ĠÐ¿ÑĢÐ¾Ð¸Ð·Ð²Ð¾Ð´ÑģÑĤÐ²Ð°": 3698,
      "ĠÐ½ÐµÐºÐ¾": 3699,
      "ÑĥÐ±Ð»Ð¸ÐºÐ¾Ð²Ð°": 3700,
      "ĠÐºÐ¾Ð½ÐµÑĩÐ½Ð¾": 3701,
      "Ð»ÑĥÐ¹": 3702,
      "ĠÐ¶ÐµÐ½ÑīÐ¸Ð½": 3703,
      "Ð¾ÑĦÐ¸": 3704,
      "ĠÐ¾ÑģÐ½Ð¾Ð²Ð½Ð¾Ð¼": 3705,
      "ÐºÐ¸Ð½": 3706,
      "ĠÐ³Ð¾Ð²Ð¾ÑĢ": 3707,
      "ÑĤÐ¸Ñİ": 3708,
      "ĠÑĦÑĥÐ½ÐºÑĨÐ¸Ð¸": 3709,
      "ÑĦÑĢÐ¸": 3710,
      "Ġ2010": 3711,
      "ĠÐ¾Ð±ÑĢÐ°Ð·Ð¾Ð²Ð°Ð½Ð¸Ñı": 3712,
      "Ð¾Ð±ÑĢÐ°Ð·Ð¾Ð²Ð°": 3713,
      "ĠÑģÐ¿Ñĥ": 3714,
      "ÑĩÐµÐ½Ð¸Ð¸": 3715,
      "Ð±Ð¾Ð¹": 3716,
      "est": 3717,
      "24": 3718,
      "ĠÑģÐ¸Ð»": 3719,
      "ĠÐ·Ð½Ð°ÑĩÐµÐ½Ð¸Ñı": 3720,
      "ĠÐ¿ÑĢÐ¸Ð²Ðµ": 3721,
      "Ð¾Ð³ÑĢÐ°ÑĦÐ¸Ð¸": 3722,
      "ĠÐĵÐµÑĢÐ¼Ð°Ð½Ð¸Ð¸": 3723,
      "ĠÑĥÐ½Ð¸Ð²ÐµÑĢÑģÐ¸ÑĤÐµÑĤÐ°": 3724,
      "ĠÐ¿Ð»Ð°Ð½Ð¸": 3725,
      "ĠÐ¿ÑĢÑıÐ¼Ð¾": 3726,
      "ĠÐ¿Ð¾ÑģÑĤÐ°Ð²": 3727,
      "ĠÑıÐ·ÑĭÐºÐµ": 3728,
      "ĠÐĳÐ¸": 3729,
      "ĠÐľÐ°Ð¹": 3730,
      "ĠÐ¾ÑĤÐºÐ°Ð·Ð°": 3731,
      "ÑĢÐ¸Ñģ": 3732,
      "ĠÐ¿ÑıÑĤÑĮ": 3733,
      "ĠÑģÐµÐ¼ÐµÐ¹": 3734,
      "ÑģÑģÐ¸Ð²": 3735,
      "ĠÐ´Ð¾ÐºÐ°Ð·Ð°": 3736,
      "ÑĤÐµÑĪÐµ": 3737,
      "ĠÐ´Ð¾Ð¿Ñĥ": 3738,
      "ĠÐºÐ½Ð¸Ð³Ð¸": 3739,
      "ÐµÐ½Ð½Ð¾ÑģÑĤÐ¸": 3740,
      "ĠÐĳÑĢÐ°": 3741,
      "ind": 3742,
      "Ð»ÐµÐ½Ð½ÑĭÐ¹": 3743,
      "ĠÐ¿Ð¾ÑģÐ²Ñı": 3744,
      "ĠÑĢÐ¾Ð»Ð¸": 3745,
      "Ġ26": 3746,
      "ĠÑĦÑĥÑĤÐ±": 3747,
      "ĠÐ¿Ð¾ÑıÐ²Ð»Ñı": 3748,
      "ĠÑĢÑĥÐºÐ¾Ð²Ð¾Ð´Ð¸": 3749,
      "ĠÑĢÐ°Ð·Ð²Ð¸ÑĤÐ¸Ðµ": 3750,
      "ĠÐ²Ð¾Ð¹ÑģÐºÐ°": 3751,
      "Ð¾Ð²Ð°Ð»": 3752,
      "ĠÐ´ÐµÐ»Ð°ÐµÑĤ": 3753,
      "ĠÐºÐ¾Ð¼Ð¿Ð°Ð½Ð¸Ñı": 3754,
      "ĠÑģÑĤÐ¾ÑĢÐ¾Ð½": 3755,
      "Ð°Ð½ÑĤÐ°": 3756,
      "ĠÑĢÐ°Ð±Ð¾ÑĤÐ°ÐµÑĤ": 3757,
      "ĠÐ¿ÑĢÐ¾Ð³ÑĢÐ°Ð¼Ð¼": 3758,
      "ĠÑģÐµÑĤ": 3759,
      "ĠÑģÐ¾ÑģÑĤÐ¾Ð¸ÑĤ": 3760,
      "ĠÐ¼Ð¾Ð»Ð¾Ð´": 3761,
      "ÑĢÐ¸ÑĤÑĮ": 3762,
      "}{": 3763,
      "ĠÐ´Ð¸ÑĢÐµÐº": 3764,
      "ĠÑģÐ¾Ð·Ð´Ð°ÑĤÑĮ": 3765,
      "ĠÐ¼Ð°ÑĤÐµ": 3766,
      "ĠÐ¾ÑģÑĥÑīÐµÑģÑĤÐ²Ð»Ñı": 3767,
      "Ð¾Ð½Ð°ÑĩÐ°": 3768,
      "ĠÐ²ÐµÑĢÑħ": 3769,
      "Ð½Ð¾Ð³Ð¸": 3770,
      "ĠÐ¼Ð¾Ð´ÐµÐ»Ð¸": 3771,
      "Ð½ÑıÐµÑĤÑģÑı": 3772,
      "Ð¾Ð¼Ð°": 3773,
      "ĠÑĢÑĥÐºÐ¸": 3774,
      "ÐºÐ»Ð°Ð´": 3775,
      "ÑĬÐµÐº": 3776,
      "Ð¾Ñı": 3777,
      "Ð¾ÑĤÐ¸": 3778,
      "ĠÐ¾Ð¿ÑĥÐ±Ð»Ð¸ÐºÐ¾Ð²Ð°": 3779,
      "ĠÐ¿ÑĢÐ¾ÑĦÐµÑģÑģÐ¸Ð¾Ð½Ð°Ð»ÑĮ": 3780,
      "ĠÐĹÐ°ÑĤÐµÐ¼": 3781,
      "Ð´Ð°ÑĤ": 3782,
      "ĠÐ¿Ð¾Ð½ÑıÑĤÑĮ": 3783,
      "ĠÑĤÐµÐ¿": 3784,
      "Ð¼Ð¸ÑĢ": 3785,
      "ĠÐ´ÐµÐ²Ñĥ": 3786,
      "ÐĽÐ¸": 3787,
      "ĠXV": 3788,
      "ĠÑģÑĤÑĢÐ°Ð½Ðµ": 3789,
      "ÑĢÐ¾Ð½Ð¸": 3790,
      "Ð¾Ð¶Ð´ÐµÐ½Ð¸Ðµ": 3791,
      "ĠÑĤÑĥÑĤ": 3792,
      "ĠÐ²ÐºÑĥ": 3793,
      "80": 3794,
      "ÑĩÐ½Ð¾ÑģÑĤÑĮ": 3795,
      "ÐºÐ¾Ð²Ð¾Ð¹": 3796,
      "ĠÐºÑĥÐ»ÑĮÑĤÑĥÑĢÑĭ": 3797,
      "ĠÑĥÑĩÐµÐ±": 3798,
      "ĠÐ±ÑĥÐº": 3799,
      "ĠÐ¿ÑĢÐ¾ÑĨÐµÑģÑģÐ°": 3800,
      "ĠÑĦÐ¾ÑĢÐ¼Ñĭ": 3801,
      "ÑĩÐµÐ½Ñĭ": 3802,
      "Ð°Ð½Ð´": 3803,
      "Ð»ÑĮÐ·Ñı": 3804,
      "ÑĩÑĤÐ¾": 3805,
      "ĠÐ³Ð³": 3806,
      "ĠÐ¾ÑģÑĤÑĢÐ¾Ð²": 3807,
      "ĠÐ¼Ð½Ð¾Ð¶ÐµÑģÑĤÐ²Ð¾": 3808,
      "ĠÐ½Ð¸Ð¶Ðµ": 3809,
      "Ð¶ÐµÐ¹": 3810,
      "Ð¾Ð¿ÑĢÐ¸": 3811,
      "ĠÐºÐ°Ð¶ÐµÑĤÑģÑı": 3812,
      "ĠÑģÐ¾Ð²ÑģÐµÐ¼": 3813,
      "ĠÐ¿ÑĢÐ¸ÑħÐ¾Ð´Ð¸": 3814,
      "ĠÐºÐ»Ð°ÑģÑģ": 3815,
      "ĠÑĤÐ°Ð¹": 3816,
      "ĠÑĢÐµÐ»Ð¸Ð³Ð¸": 3817,
      "ÑĪÐ¸Ð¼Ð¸": 3818,
      "ĠÑĨÐµÐ»ÑĮÑİ": 3819,
      "ĠÑĢÐ¸Ñģ": 3820,
      "ĠÐºÐ¾ÑĢÐ¾ÑĤ": 3821,
      "ĠÑģÐ¾Ð¾Ð±ÑīÐ¸": 3822,
      "ĠÐłÐµÑģÐ¿ÑĥÐ±Ð»Ð¸": 3823,
      "Ð½Ð¸Ð½": 3824,
      "ÑĨÐµÐ¹": 3825,
      "ÐµÐ´ÐµÐ½Ð¸Ðµ": 3826,
      "ĠÐºÐ¾ÑĢÐ¿Ñĥ": 3827,
      "ĠÐ»ÑİÐ´": 3828,
      "ĠÐ¿ÑĢÐµÐ´Ð¿ÑĢÐ¸Ñı": 3829,
      "ĠÑĢÐ°Ð¹Ð¾Ð½": 3830,
      "ÑģÐºÐ¾ÑĢÐµ": 3831,
      "ĠÑģÐ¸Ð½": 3832,
      "ÐºÐ¾Ð±ÑĢÐ¸ÑĤÐ°": 3833,
      "ÑİÑīÐ¸Ð¼Ð¸": 3834,
      "ĠÐ¿Ð¾Ð´Ð²ÐµÑĢ": 3835,
      "ĠÐ¼ÐµÐ´Ð¸ÑĨÐ¸Ð½": 3836,
      "ĠÐ¿ÑıÑĤ": 3837,
      "Ð¾Ð³Ð»Ð°ÑģÐ½Ð¾": 3838,
      "Ð¼Ð¾Ñģ": 3839,
      "ÑĢÐ¸ÑģÑĤ": 3840,
      "ĠÐ´Ð°Ð½Ð½ÑĭÐ¼": 3841,
      "Ð»Ð¾Ð³": 3842,
      "ĠÑĨÐ¸ÑĦ": 3843,
      "frac": 3844,
      "ĠÐ¼ÐµÐ»": 3845,
      "ĠÑģÐ»Ð¾Ð²Ð¾": 3846,
      "ĠÐ²Ð¿ÐµÑĢÐ²ÑĭÐµ": 3847,
      "ec": 3848,
      "ĠÐĶÐ¾": 3849,
      "Ð³Ð¾Ð¼": 3850,
      "ÑİÑīÐ¸ÑħÑģÑı": 3851,
      "ĠÑįÐ½ÐµÑĢÐ³Ð¸Ð¸": 3852,
      "ÑİÑīÑĥÑİ": 3853,
      "ĠÑģÑĢÐµÐ´ÑģÑĤÐ²": 3854,
      "Ð·Ð¸ÑĢÐ¾Ð²Ð°Ð½": 3855,
      "ĠÑħÐ¾Ð´Ðµ": 3856,
      "Ð¾Ð¶Ð°Ð»ÑĥÐ¹": 3857,
      "ÑĪÐµÐº": 3858,
      "Ð¿ÐµÑĩÐ°ÑĤ": 3859,
      "ĠÐ¾ÑĤÐº": 3860,
      "ĠÐľÐ¸ÑħÐ°": 3861,
      "ÑĤÐ½ÑĭÐµ": 3862,
      "ĠÐ±ÑĢÐ¸ÑĤÐ°Ð½": 3863,
      "ĠÐ§Ð°": 3864,
      "ÑĢÐ¸Ðº": 3865,
      "Ð´Ð°Ð¼Ð¸": 3866,
      "ÑīÐµÐ½Ð¸Ð¸": 3867,
      "ĠÑĤÐµÐ±Ðµ": 3868,
      "ĠÑģÐ¾Ð¾ÑĤÐ²ÐµÑĤÑģÑĤÐ²Ð¸Ð¸": 3869,
      "ĠÐ·Ð°ÑıÐ²Ð¸Ð»": 3870,
      "ĠÐ½ÐµÐ´Ð°": 3871,
      "Ð´Ð¶Ð°": 3872,
      "ĠÐ¿ÑĢÐ¾Ð´Ð¾Ð»Ð¶Ð¸": 3873,
      "ĠÐ¤ÐµÐ´Ðµ": 3874,
      "ÐµÐ½Ð½Ð¾Ð³Ð¾": 3875,
      "ab": 3876,
      "ĠÐ¸Ð½Ð¾": 3877,
      "ĠÐ¿Ð¾ÑģÑĤÐ¾ÑıÐ½Ð½Ð¾": 3878,
      "ÐµÑĢÐ²": 3879,
      "//": 3880,
      "ĠÐ²Ð°ÑĪÐµÐ³Ð¾": 3881,
      "ĠÐ½Ð°ÑģÑĤÑĢÐ¾": 3882,
      "ĠÐ¿ÑĢÐ¸Ð±Ð»Ð¸": 3883,
      "ĠÑģÐ»ÐµÐ´ÑĥÑİÑīÐ¸Ð¹": 3884,
      "ĠÑģÐ¸ÑĤÑĥÐ°ÑĨÐ¸Ð¸": 3885,
      "ĠÑĢÐ°Ð½ÐµÐµ": 3886,
      "ĠÐ·Ð°Ð¼": 3887,
      "ĠÐĺÐ²Ð°": 3888,
      "Ð¾ÑģÐ¸": 3889,
      "Ð½Ð½ÑĭÐ¹": 3890,
      "ĠÑĩÐ¸ÑģÐ»Ð°": 3891,
      "ĠÐ½ÐµÐ´Ðµ": 3892,
      "Ð»Ð»": 3893,
      "ÑģÑĤÑĥÐ¿Ð¸Ð»": 3894,
      "ĠÐ¼Ð¾Ð¹": 3895,
      "ĠÐ²ÑĭÐ·ÑĭÐ²Ð°": 3896,
      "ĠÑĤÐ¾Ð¿": 3897,
      "ÑģÐ°Ð¼Ð¸": 3898,
      "ĠÐ¾ÑĤÐ½Ð¾ÑģÐ¸ÑĤÐµÐ»ÑĮÐ½Ð¾": 3899,
      "Ð´Ð¸Ð¼": 3900,
      "ĠÐ¿ÑĢÐ¸Ð¼ÐµÐ½Ñı": 3901,
      "ÐµÐ¼Ð¾Ð¹": 3902,
      "ĠÑģÐ¾Ð±ÑĭÑĤÐ¸Ñı": 3903,
      "ĠÐ¿ÑģÐ¸ÑħÐ¸": 3904,
      "ist": 3905,
      "ÑĢÐ¾Ð²Ð°Ð»": 3906,
      "ĠÐºÐ°Ð¶Ð´Ð¾Ð¹": 3907,
      "ĠÐ¼Ð¾Ð´ÐµÐ»ÑĮ": 3908,
      "ÐµÐ½ÑĤÐ¸": 3909,
      "Ð½Ð¾Ð¿": 3910,
      "Ð½ÐµÐ½Ð¸Ñİ": 3911,
      "ĠÐ¿ÑĢÑıÐ¼": 3912,
      "ĠÐ±Ð°Ð»": 3913,
      "Ð²ÑĪÐ°Ñı": 3914,
      "ub": 3915,
      "ĠÑĤÑĢÐ°Ð²": 3916,
      "ĠÐ¼Ð°Ð»Ð¾": 3917,
      "ĠÑģÐ»ÐµÐ´Ð¾Ð²Ð°": 3918,
      "Ð»ÑĭÑĪÐ°": 3919,
      "Ð½Ð¾Ðº": 3920,
      "ĠÐĴÐµ": 3921,
      "all": 3922,
      "Ð´ÐµÐ½Ð¸Ðµ": 3923,
      "ĠÐ¿Ð°ÑĤ": 3924,
      "ÑĢÐµÐ¼Ñı": 3925,
      "ĠÑĢÑıÐ´Ð¾Ð¼": 3926,
      "ĠÐ¿ÑĢÐ¸Ð²Ð¾Ð´Ð¸ÑĤ": 3927,
      "ĠÑģÐ¸Ð¼Ð²Ð¾Ð»": 3928,
      "ĠÐ¾Ð¿ÑĤÐ¸": 3929,
      "ĠÐ²Ð¾Ð²": 3930,
      "ÐļÐ¾Ð³Ð´Ð°": 3931,
      "Ð¼ÐµÐ½Ð½Ð¾": 3932,
      "ĠÐ´Ð¾ÑģÑĤÐ¸Ð³": 3933,
      "ĠÑģÐ¸Ð¼Ð¿ÑĤÐ¾Ð¼": 3934,
      "ĠÑģÑĦ": 3935,
      "ĠÐ¼Ð¸ÑĢÐ¾Ð²Ð¾Ð¹": 3936,
      "Ġth": 3937,
      "ĠÐ¾ÑĤÐ²ÐµÑĤÑģÑĤÐ²ÐµÐ½": 3938,
      "ĠÑĥÑĢÐ°Ð²": 3939,
      "ÑĢÑĥÐ³Ð¸": 3940,
      "Ġ()": 3941,
      "ÐĴÑģÐµ": 3942,
      "ĠÑĢÐµÐºÐ»Ð°": 3943,
      "ĠÐ²ÑĭÐ³Ð»Ñı": 3944,
      "ĠÐ¸Ð³ÑĢÐ¾Ðº": 3945,
      "ĠÐ¾ÑĤÐ¿ÑĢÐ°Ð²Ð¸": 3946,
      "Ð³Ð¾Ðµ": 3947,
      "Ð¾Ð²Ð°Ð½Ð¸Ðµ": 3948,
      "ĠÑģÑĤÐ°ÑĤÑĥ": 3949,
      "ĠÐ¿ÐµÑĢÐµÐ²Ð¾Ð´": 3950,
      "ĠÑĢÐ°Ð·Ð½Ð¾": 3951,
      "Ð·Ð¾Ð½": 3952,
      "ÑģÐ¿Ð¾ÑģÐ¾Ð±": 3953,
      "ĠY": 3954,
      "ĠÐ¸ÑģÐ¿Ð¾Ð»ÑĮÐ·ÑĥÐµÑĤÑģÑı": 3955,
      "Ð´Ð°Ðº": 3956,
      "ĠÐ¢ÐµÐ¼": 3957,
      "ĠÐĲÐ½Ð´": 3958,
      "ÑĢÐµÑģÑĤ": 3959,
      "ĠÐ·Ð½Ð°ÐºÐ¾Ð¼": 3960,
      "ÑĨÐ¸Ð¾Ð½Ð½ÑĭÐµ": 3961,
      "ÐľÐ¸": 3962,
      "ĠÐ¿ÑĥÑĤÑĮ": 3963,
      "ĠÑģÐ¾ÑģÑĤÐ¾ÑıÐ½Ð¸Ð¸": 3964,
      "ĠÐ½Ð¾Ð²Ð¾Ð³Ð¾": 3965,
      "ÑģÐ¸Ñı": 3966,
      "ĠÐ¿Ð¾ÐºÑĥ": 3967,
      "ĠÐ¾Ð±Ð²Ð¸": 3968,
      "ĠÐºÑĢÐ¾Ð²Ð¸": 3969,
      "ĠÑģÐ¸Ð»ÑĮÐ½Ð¾": 3970,
      "ÑģÐµÐ½": 3971,
      "ĠÑģÐµÑĤÐ¸": 3972,
      "ĠÐ¿Ð¾Ð»Ðµ": 3973,
      "ÑĤÐ¾ÑĢÐ¾Ð¹": 3974,
      "ĠÐ½ÐµÐ¿Ð¾ÑģÑĢÐµÐ´": 3975,
      "ĠÐĴÐµÐ»Ð¸ÐºÐ¾Ð±ÑĢÐ¸ÑĤÐ°": 3976,
      "ĠÑĢÐ°Ð·Ð´Ðµ": 3977,
      "ĠÑĥÐ¿Ð¾ÑĤÑĢÐµÐ±": 3978,
      "Ð¾Ð»Ð¸ÑĤÐ¸": 3979,
      "ÑĤÐ¸Ð²Ð½Ð¾Ð¹": 3980,
      "ĠÐ¾Ð¿Ñĥ": 3981,
      "ĠÑĥÐ±Ð¸Ð¹": 3982,
      "ÐºÐ½Ñĥ": 3983,
      "ĠÑįÐºÑģÐ¿ÐµÑĢÐ¸": 3984,
      "ĠÑĨÐµÑĢÐºÐ¾Ð²": 3985,
      "Ð»ÐµÐ²": 3986,
      "Ð²Ð¸Ð»Ð¸": 3987,
      "Ð¾Ð±Ðµ": 3988,
      "ĠÐºÑĥÐ¿Ð¸": 3989,
      "ÑģÐ°Ñħ": 3990,
      "ĠÐĽÐµÐ½Ð¸": 3991,
      "ĠÐ¸Ð¼Ð¿ÐµÑĢÐ°": 3992,
      "ĠÐ±Ñİ": 3993,
      "Ð»ÑĮÐ½ÑĥÑİ": 3994,
      "ĠÐ»Ð¸ÑĨÐ°": 3995,
      "ÑĩÐ¸ÑĤ": 3996,
      "ĠÐ²Ð¼ÐµÑģÑĤÐ¾": 3997,
      "ĠÑĤÑĥÑĢÐ½Ð¸": 3998,
      "Ġ2014": 3999,
      "ĠÐºÐ¾Ð½ÑĤ": 4000,
      "ĠÐ´Ð¾Ð±Ð°Ð²": 4001,
      "ĠÐ¸Ð·Ð´Ð°": 4002,
      "ĠXI": 4003,
      "Ð¾ÑģÑĭ": 4004,
      "ĠÐ¢Ð¸": 4005,
      "ĠÐ¾ÑĨÐµÐ½Ð¸": 4006,
      "ĠÐ¼Ð°Ð³Ð°": 4007,
      "Ð¿Ð¾Ð»Ð½Ðµ": 4008,
      "ĠÑģÐ¾Ð¾ÑĤÐ²ÐµÑĤÑģÑĤÐ²ÑĥÑİÑīÐ¸": 4009,
      "Ð¿Ð¾Ð¼": 4010,
      "ĠÐ¿Ð¾ÑıÐ²": 4011,
      "ÐļÐ¾Ð¼": 4012,
      "ĠÐ³ÑĥÐ±ÐµÑĢ": 4013,
      "Ð¸ÑĤÑĮÑģÑı": 4014,
      "ÑĢÐ¸Ð½Ð°": 4015,
      "ĠÐºÐ²Ð°ÑĢ": 4016,
      "ĠÐ¿ÑĢÐ¾Ð¶Ð¸": 4017,
      "ĠÑģÐ»ÑĥÑĩÐ°ÑıÑħ": 4018,
      "ÑģÑĥÐ¶": 4019,
      "ĠÑĢÐ°ÑģÑģÐºÐ°Ð·Ð°": 4020,
      "ĠÑĤÐµÐ½": 4021,
      "Ð½Ð¾Ð²ÑĮ": 4022,
      "ĠÐŁÐ¾Ñĩ": 4023,
      "Ð¿ÑĥÑĤÐ°": 4024,
      "ĠÐ¿ÑĢÐ°ÐºÑĤÐ¸ÑĩÐµÑģÐºÐ¸": 4025,
      "ÑĭÐ½Ðµ": 4026,
      "ĠÐ°ÑĢÑħÐ¸ÑĤÐµÐº": 4027,
      "ĠÑģÐ°Ð¼Ð¾Ð¹": 4028,
      "Ð¾ÑĢÑĤÐ°": 4029,
      "ĠÑģÑĤÐ¾Ð»Ð¸": 4030,
      "Ð³Ð¾Ð´Ñĥ": 4031,
      "ĠÐ²ÐµÐ´ÑĮ": 4032,
      "ĠÑģÐ¾ÑģÑĤÐ¾ÑıÐ½Ð¸Ðµ": 4033,
      "ÑģÑĥÐ»ÑĮ": 4034,
      "ÑĦÐµÑĢÐµÐ½": 4035,
      "ĠÐ¾ÑĤÑĢÐ¸ÑĨÐ°": 4036,
      "ĠÐ½Ð¾Ð²Ð¾Ð¹": 4037,
      "ĠÐ»ÑİÐ±Ñĭ": 4038,
      "ĠÑģÐ²Ð¸Ð´ÐµÑĤÐµÐ»ÑĮ": 4039,
      "ĠÐ¸Ð½Ð´Ð¸Ð²Ð¸Ð´Ñĥ": 4040,
      "Ð³Ð¾Ð²Ð¾ÑĢ": 4041,
      "ĠÐ²Ð¾ÑģÐ¿": 4042,
      "ĠÑĥÑĢÐ¾Ð²Ð½Ðµ": 4043,
      "ĠÑģÐ¾Ð¼": 4044,
      "ĠÐ¿Ð¾ÑĤÑĢÐµ": 4045,
      "ĠÐłÐ¾ÑģÑģÐ¸Ð¹ÑģÐºÐ¾Ð¹": 4046,
      "ĠÐºÑĢÐ¾Ð¼Ðµ": 4047,
      "``": 4048,
      "Ð½Ð¸Ð»Ð¸": 4049,
      "ĠÑĢÐµÐ±ÐµÐ½ÐºÐ°": 4050,
      "ÑĩÐºÐ°": 4051,
      "ÑĪÑĳÐ»": 4052,
      "Ð½Ð¸ÑĤ": 4053,
      "ÑģÑĤÐ²ÐµÐ½Ð½Ð°Ñı": 4054,
      "ÑģÐ¾Ð»ÑİÑĤ": 4055,
      "ĠÐĶÐ¶ÐµÐ¹": 4056,
      "Ð·Ð¸ÑĤÑĮ": 4057,
      "Ġ000": 4058,
      "ĠÐĳÐ°ÑĢ": 4059,
      "Ð´Ð°Ñħ": 4060,
      "tp": 4061,
      "ĠÐ´ÐµÐ¹ÑģÑĤÐ²Ð¸Ð¹": 4062,
      "ĠÐ¿ÑĥÑĤÐµÑĪÐµ": 4063,
      "Ð»Ð°Ð¼": 4064,
      "ĠÐ·Ð½Ð°Ñİ": 4065,
      "ĠÑģÐºÐ¾ÑĢÐ¾ÑģÑĤÑĮ": 4066,
      "ĠÐºÐ¾Ð½ÑĨÐ°": 4067,
      "ĠÑģÑĨÐµÐ½Ð°": 4068,
      "ĠÐ½ÐµÐ±Ð¾Ð»ÑĮÑĪ": 4069,
      "Ð´ÑĢÐ¸": 4070,
      "ĠÐķÐ²ÑĢÐ¾Ð¿Ñĭ": 4071,
      "ĠÐ¿Ð¾Ð»Ñı": 4072,
      "ĠÐ¼ÐµÑĤÑĢÐ¾Ð²": 4073,
      "ĠÐ§ÐµÑĢ": 4074,
      "ĠÐ¿ÑĢÐµÐ´Ð»Ð¾Ð¶ÐµÐ½Ð¸Ñı": 4075,
      "ĠÐ¸ÑģÐ¿Ð¾Ð»ÑĮÐ·Ð¾Ð²Ð°Ð½Ð¸Ðµ": 4076,
      "ÑĤÐ¸Ð»Ð¸": 4077,
      "ĠÐ¡Ð»Ðµ": 4078,
      "ĠÐ¿Ð°ÑĢÑĤ": 4079,
      "ĠÐŁÐ¾Ð»": 4080,
      "Ð´ÐµÐ±": 4081,
      "ÑĪÐµÐ´": 4082,
      "Â°": 4083,
      "Ð´Ð°Ð¼": 4084,
      "ĠÑĢÐ¾Ð´Ð°": 4085,
      "ĠÐļÐ¾Ð»": 4086,
      "Ð°Ð»ÑĮÐ½Ð¾Ð¹": 4087,
      "ĠÐĵÑĥ": 4088,
      "ĠÐºÐ¾Ð½ÑģÑĤÑĢÑĥÐº": 4089,
      "Ġ2012": 4090,
      "Ð½ÐµÐ¼Ñĥ": 4091,
      "ĠÐ²Ð°ÑĪÐµÐ¹": 4092,
      "ĠÐ¿ÐµÑĢÐ²ÑĥÑİ": 4093,
      "--------": 4094,
      "ĠÑĨÐµÐ½ÑĤÑĢÐ°Ð»ÑĮ": 4095,
      "ĠÐºÐ¸ÑĤÐ°": 4096,
      "Ġ2009": 4097,
      "\\[": 4098,
      "ĠÑĢÐµÑģÐ¿ÑĥÐ±Ð»Ð¸": 4099,
      "ÑĨÐµÐ¼": 4100,
      "ÑĤÐ°ÐºÐ¸": 4101,
      "Ġ2013": 4102,
      "ÑĳÑħ": 4103,
      "ĠÐŁÐ¾ÑĤ": 4104,
      "ĠÐ´ÐµÐ½ÑĮÐ³Ð¸": 4105,
      "ÐĳÐ¸": 4106,
      "ĠÑģÐ¸Ð»Ñĥ": 4107,
      "Ð»ÑıÑĨÐ¸Ð¸": 4108,
      "ĠÑĢÐ°Ð·Ð°": 4109,
      "ĠÐ´ÑĥÐ¼Ð°Ñİ": 4110,
      "ĠÐµÐ²ÑĢÐ¾Ð¿ÐµÐ¹": 4111,
      "ĠÐ»Ð¸Ð´ÐµÑĢ": 4112,
      "Ð½Ð¾Ñģ": 4113,
      "ĠÑģÐ¾ÑĤÑĢÑĥÐ´Ð½Ð¸": 4114,
      "ĠÐ¼ÑĭÑģÐ»Ð¸": 4115,
      "ĠÐ¿ÑĢÐµÐ´Ð¼ÐµÑĤ": 4116,
      "ĠÑģÐµÐºÑĥ": 4117,
      "ĠÐ¿Ð¾Ð±ÐµÐ´Ð¸": 4118,
      "Ð°Ñħ": 4119,
      "ĠÑĥÐ¿ÑĢÐ°Ð¶": 4120,
      "ĠÐ½ÐµÐ»ÑĮÐ·Ñı": 4121,
      "ĠÑģÑĤÐ¾ÑĢÐ¾Ð½Ñĥ": 4122,
      "ĠÐ½Ñĥ": 4123,
      "Ð»Ð°Ð²Ð°": 4124,
      "ĠÑģÐ¾Ð²Ð¼ÐµÑģÑĤ": 4125,
      "ĠÐ±Ð°Ð·": 4126,
      "ĠÐ¾ÑģÐ¾Ð·Ð½Ð°": 4127,
      "Ð»ÐµÐ½Ð½Ð¾ÑģÑĤÐ¸": 4128,
      "ĠÑģÐ»Ð¾Ð²Ð°Ð¼": 4129,
      "ĠÐ¿Ð¾Ð´ÑĢÐ¾Ð±": 4130,
      "ĠÐ¿Ð¾Ð´ÑħÐ¾Ð´": 4131,
      "ĠÑįÐ»ÐµÐºÑĤÑĢÐ¾Ð½": 4132,
      "ÑĨÐ¸Ð¾Ð½Ð°": 4133,
      "ard": 4134,
      "ĠÐ¸Ð½Ð¾ÑģÑĤÑĢÐ°Ð½": 4135,
      "ĠÐ¶ÐµÑĢÑĤ": 4136,
      "ÑĨÐ¸Ð¾Ð½Ð¸": 4137,
      "ĠÐ²Ð¾Ð¹ÑģÐº": 4138,
      "ĠÐ´ÑĢÑĥÐ³Ð¾Ð¼": 4139,
      "Ġ'": 4140,
      "ÑĤÐ¸Ð²Ð½Ð¾Ð³Ð¾": 4141,
      "ÑĥÐ²": 4142,
      "Ð¼Ð¸Ð½Ð°": 4143,
      "ĠÐ¾Ð´Ð½Ð¾Ð²ÑĢÐµÐ¼ÐµÐ½Ð½Ð¾": 4144,
      "ĠÐ¦ÐµÐ½ÑĤ": 4145,
      "ĠÐ´Ð²Ð¾": 4146,
      "ĠÐµÐ¶Ðµ": 4147,
      "ÐµÐ¼Ð¾Ð³Ð¾": 4148,
      "ĠÐ¿ÑĢÐ¸Ð³Ð¾ÑĤÐ¾Ð²": 4149,
      "ĠÐ´ÐµÐ¼Ð¾Ð½": 4150,
      "ÑĨÐµÑĢ": 4151,
      "ĠÑĥÐ¿Ð¾Ð¼Ð¸Ð½Ð°": 4152,
      "ĠÐºÐ¾Ð½ÑĤÐ°Ðº": 4153,
      "ĠÑĥÑĩÐ¸ÑĤÑĭ": 4154,
      "ĠÑĥÐ´Ð¾Ð²Ð»ÐµÑĤ": 4155,
      "ÑĢÐ¸ÑģÑĤÐ¸Ð°Ð½": 4156,
      "ĠÑĦÐ¾ÑĢÐ¼Ðµ": 4157,
      "ÑĥÑģÐ°": 4158,
      "ÐŀÐ½": 4159,
      "ev": 4160,
      "ĠÑĤÐµÐ¾": 4161,
      "ÑĤÐ¸Ð²Ð½Ð¾": 4162,
      "ĠÑĪÐºÐ¾Ð»Ñĭ": 4163,
      "ĠÑĢÐ°Ð¼ÐºÐ°Ñħ": 4164,
      "ĠÐ¿Ð¾ÑĤÐµÐ½ÑĨÐ¸Ð°Ð»ÑĮ": 4165,
      "ĠÐºÐ¾Ð³Ð¾": 4166,
      "ĠÑĤÑĢÐµÐ½": 4167,
      "ĠÑģÐ°Ð¼Ð¾Ð»": 4168,
      "ĠÐ¾Ð¿ÑĢÐµÐ´ÐµÐ»Ð¸ÑĤÑĮ": 4169,
      "ÑĥÐ³Ð¾Ð»ÑĮ": 4170,
      "ĠÐ½Ð°ÑħÐ¾Ð´": 4171,
      "ÑĤÐ¸Ð²Ð½ÑĭÐ¹": 4172,
      "Ġ2008": 4173,
      "ĠÐ²ÐºÐ»ÑİÑĩÐ°ÐµÑĤ": 4174,
      "Ð½Ð½Ð¾Ð¹": 4175,
      "ĠÐ°Ð²ÑĤÐ¾ÑĢ": 4176,
      "III": 4177,
      "Ð¾Ð½ÐµÑĩÐ½Ð¾": 4178,
      "ÑĨÐ¸ÑıÐ¼Ð¸": 4179,
      "Ð¼Ð¸ÑĤÐµ": 4180,
      "ĠÐºÐ¾Ð»Ð¸ÑĩÐµÑģÑĤÐ²Ð°": 4181,
      "ĠÑĩÐ°ÑģÑĤÑĮÑİ": 4182,
      "ÑĤÐ¸ÑĢÑĥ": 4183,
      "ÑĪÐµÐ¼Ñĥ": 4184,
      "Ġ2011": 4185,
      "ĠÐ¾Ð±Ð¾": 4186,
      "ĠÐºÐ¾Ð»Ðµ": 4187,
      "ĠÐ¾ÑĢÐ´ÐµÐ½": 4188,
      "Ġ189": 4189,
      "ĠÐ¥Ð¾ÑĤÑı": 4190,
      "ĠÐ´ÐµÑıÑĤÐµÐ»ÑĮÐ½Ð¾ÑģÑĤÑĮ": 4191,
      "ÑĢÐµÑĨ": 4192,
      "ÐłÐ°Ð·": 4193,
      "Ð±Ð°ÑĢ": 4194,
      "ĠÐ³Ð¾Ð½": 4195,
      "ĠÐ´Ð»Ð¸Ð½": 4196,
      "ÑĤÐ¸ÑĢÐ¾Ð²Ð°ÑĤÑĮ": 4197,
      "Ð³ÐµÑĢ": 4198,
      "ĠÐºÐ¾Ð¼Ð¿Ð¾Ð·Ð¸": 4199,
      "ÑīÐ°ÑĤÑĮ": 4200,
      "ĠÐ¿ÑĥÑĤÐµÐ¼": 4201,
      "ĠÑģÐ¾ÑĩÐµÑĤÐ°": 4202,
      "ÑħÐ°Ð½": 4203,
      "Ġ29": 4204,
      "ÐŀÐĿ": 4205,
      "ĠÐ·Ð½Ð°ÑĩÐ¸ÑĤ": 4206,
      "ĠÑģÐµÐ¼ÑĮÐ¸": 4207,
      "ĠÐļÐ¾": 4208,
      "ĠÐ£ÐºÑĢÐ°Ð¸Ð½Ñĭ": 4209,
      "Ð½Ð¾ÑģÐ¸": 4210,
      "ĠÐ¿Ð¾ÑģÐ»ÐµÐ´Ð½Ð¸Ðµ": 4211,
      "ĠÑĤÑİ": 4212,
      "Ð´Ð¾Ñħ": 4213,
      "ĠÑģÐ¸ÑģÑĤÐµÐ¼Ñĥ": 4214,
      "Ð«": 4215,
      "Ð¾Ð»Ð°Ð³Ð°": 4216,
      "ĠÐ¾Ð±ÑĥÑĩÐµÐ½Ð¸Ñı": 4217,
      "ĠÑģÐºÑĢÑĭ": 4218,
      "ĠÑĥÐ´Ð¾Ð±": 4219,
      "Ð¾Ð»Ð¾Ð³": 4220,
      "Ð¶Ð½ÑĭÑħ": 4221,
      "ĠÐºÐ¾Ð¼Ð¿Ð¾Ð½": 4222,
      "ĠÐ»Ð¾Ð³Ð¸": 4223,
      "ĠÐĶÐ¶Ðµ": 4224,
      "ĠÑģÐ¾Ð´ÐµÑĢÐ¶Ð¸ÑĤ": 4225,
      "ĠÐ°ÐºÐ°Ð´ÐµÐ¼Ð¸": 4226,
      "ĠÐ¿Ð¸ÑĪ": 4227,
      "ĠÐ²Ð½Ð¾Ð²ÑĮ": 4228,
      "ak": 4229,
      "ĠÑģÐ°Ð¼Ð¾Ðµ": 4230,
      "og": 4231,
      "ĠÐ¾ÑĢÐ³Ð°Ð½": 4232,
      "ĊĠĠĠĠĠĠ": 4233,
      "ĠÐ»ÑİÐ±Ð¾Ð²": 4234,
      "ĠÐ¸ÑģÐºÐ°": 4235,
      "28": 4236,
      "ĠÐ¾ÑĢÐ³Ð°": 4237,
      "ĠÐ¿ÑĢÐµÐ´Ð½Ð°": 4238,
      "ĠÐ»Ð¸Ð½Ð¸Ð¸": 4239,
      "ĠÐ´Ð²ÑĥÐ¼Ñı": 4240,
      "Ð¾Ð²Ð°Ð»Ð¸": 4241,
      "ĠÑģÐ¾ÑİÐ·": 4242,
      "ĠÐ¾Ð±ÑģÑĥÐ¶": 4243,
      "ĠÐ¼Ð½ÐµÐ½Ð¸Ñİ": 4244,
      "ĠÑģÐ°Ð¼Ð¾ÑģÑĤÐ¾Ñı": 4245,
      "ÑħÐ°ÑĢ": 4246,
      "ĠÐ¿Ð¾Ð¼Ð¾ÑīÑĮ": 4247,
      "ww": 4248,
      "Ð»ÐµÐºÐ¾": 4249,
      "ĠÑĥÑĩÐµÐ½Ð¸": 4250,
      "Ð¾ÑĤÐ²ÑĢÐ°": 4251,
      "Ð¼ÑĭÑħ": 4252,
      "ÐµÐ·Ð´Ð°": 4253,
      "ĠÐ¿Ð¾ÐºÑĢÑĭ": 4254,
      "ÑĤÐµÐ»ÑĮÐ½ÑĭÐ¼Ð¸": 4255,
      "qu": 4256,
      "ĠÐ¿ÐµÑĢÐµÐ¼Ðµ": 4257,
      "ĠÑģÑĤÐ°ÑĤÑĮÐ¸": 4258,
      "ĠÐ³Ð¾Ð²Ð¾ÑĢÐ¸ÑĤÑĮ": 4259,
      "Ð¾ÐºÑģÐ¸": 4260,
      "ÐĴÐ°": 4261,
      "ĠÐĲÐ»": 4262,
      "ĠÐķÑģÑĤÑĮ": 4263,
      "ĠÑģÐ»ÑĥÐ¶Ð¸": 4264,
      "194": 4265,
      "ĠÐ·Ð°ÐºÐ¾": 4266,
      "ĠÐºÐ°Ð½Ð´Ð¸": 4267,
      "ĠÐ¿ÑĢÐµÐ´Ð»Ð¾Ð¶ÐµÐ½Ð¸Ðµ": 4268,
      "ĠÐ¼ÐµÑģÑıÑĨÐµÐ²": 4269,
      "ĠÑģÐ¿Ð¸ÑģÐ¾Ðº": 4270,
      "ĠÑĢÐµÐ·ÑĥÐ»ÑĮÑĤÐ°ÑĤÑĭ": 4271,
      "ĠÑħÐ¸Ð¼Ð¸": 4272,
      "ĠÑģÐ»Ð¾": 4273,
      "ĠÑģÐºÐ¾ÑĢÐµÐµ": 4274,
      "if": 4275,
      "ÑģÐµÐ»": 4276,
      "Ð»Ð¸Ð¼Ð¿Ð¸Ð¹": 4277,
      "ĠÑĤÐºÐ°": 4278,
      "Ð½Ð¸ÐµÐ¹": 4279,
      "ĠÐ·Ð°Ð±Ð¾Ð»ÐµÐ²Ð°Ð½Ð¸Ñı": 4280,
      "ĠÐ¿Ð¾Ð¼Ð¾Ð³": 4281,
      "ÑĤÐµÑĢÐ½Ð°": 4282,
      "Ð¿ÑĢ": 4283,
      "ĠÑĢÐµÐºÐ¸": 4284,
      "ÑħÐ¾Ð´Ð¸ÑĤÑĮ": 4285,
      "our": 4286,
      "ÐºÑĥÑİ": 4287,
      "ÑģÑĤÑĮÑı": 4288,
      "ÑģÐ¸Ð²": 4289,
      "26": 4290,
      "pp": 4291,
      "ÐµÐ²Ð°": 4292,
      "ÑĨÐ¸Ð¾Ð½Ð½Ð¾Ð³Ð¾": 4293,
      "Ð±Ð¸Ð½": 4294,
      "Ð²ÑĪÐ¸Ð¼": 4295,
      "ÑĢÐ¸Ð¼": 4296,
      "ĠÐ²Ð¿Ð¾Ð»Ð½Ðµ": 4297,
      "ĠÐ·Ð°Ð±Ñĭ": 4298,
      "Ġ2000": 4299,
      "ĠÐĻ": 4300,
      "ĠÐ¿ÑĢÐ°Ð·Ð´": 4301,
      "ĠÐ±ÑĢÐ¾": 4302,
      "ÑİÑīÐ¸ÐµÑģÑı": 4303,
      "ĠÑģÑĭÐ³ÑĢÐ°": 4304,
      "ÐŁÑĢÐµ": 4305,
      "ĠÐ·ÐµÐ¼Ð»Ð¸": 4306,
      "ĠÑıÐ¿Ð¾Ð½": 4307,
      "ĠÐ¸Ð´ÐµÑĤ": 4308,
      "ĠÐ½Ð°ÑĩÐ°Ð»ÑĮ": 4309,
      "ĠÐ¸Ð·Ð²ÐµÑģÑĤÐ½Ð¾": 4310,
      "Ð¾Ð¿ÑĢÐ¸Ñı": 4311,
      "ĠÐ¿ÐµÑĢÐ²ÑĭÑħ": 4312,
      "ĠÐ¯Ð¿Ð¾": 4313,
      "ĠÐºÐ¾Ð´": 4314,
      "ĠÐ¢Ñĥ": 4315,
      "ĠÐ²ÑĭÐ½Ñĥ": 4316,
      "ĠÑģÑĤÐµÐ½": 4317,
      "ÑģÑģÐ¾ÑĢ": 4318,
      "Ġr": 4319,
      "://": 4320,
      "ĠÐ¿Ð»Ð°ÑĤ": 4321,
      "ÑĩÐµÐ½Ð¸Ð¹": 4322,
      "Ð½ÑĮÑĪÐµ": 4323,
      "Ð³Ð°ÑĢ": 4324,
      "ĠÑģÐ½Ñı": 4325,
      "ĠÐ¡Ðº": 4326,
      "ĠÐ¼Ð°ÐºÑģÐ¸Ð¼Ð°": 4327,
      "ĠÐ¿ÑĢÐµÐ¿Ð°ÑĢÐ°": 4328,
      "ĠÐºÐ¾Ð»Ð»Ðµ": 4329,
      "ĠÑħÐ°ÑĢÐ°ÐºÑĤÐµÑĢÐ¸ÑģÑĤÐ¸": 4330,
      "ĠÑĥÐ½Ð¸ÐºÐ°": 4331,
      "Ð¾Ð¿Ð¾Ð»Ð¾Ð¶": 4332,
      "ĠÐ²ÑĭÐ²Ð¾Ð´": 4333,
      "ĠÐŀÑĤÐµ": 4334,
      "Ð¾ÑĢÑĥÐ´Ð¾Ð²Ð°": 4335,
      "Ð½Ð°Ð»Ð¾Ð³Ð¸": 4336,
      "ĠÑģÐ¿ÑĢÐ¾ÑģÐ¸": 4337,
      "art": 4338,
      "Ð°Ð»ÑĮÐ½ÑĭÑħ": 4339,
      "ĠÐ¸ÑģÐ¿Ñĭ": 4340,
      "ÑĳÐ·": 4341,
      "ĠÐ´Ð°ÑĤÑĮ": 4342,
      "ÑģÑģÐ¸Ñı": 4343,
      "ÑĤÐ¸ÐºÐ°": 4344,
      "ĠÑģÐ²Ðµ": 4345,
      "ĠÑĩÑĢÐµÐ·": 4346,
      "ĠÐ¿ÑĢÐ¾Ñģ": 4347,
      "ĠÐ±Ð»Ð°": 4348,
      "ĠÐŀÐ¿": 4349,
      "Ð½Ð¸ÐºÑĥ": 4350,
      "ort": 4351,
      "ĠÑĢÐ°ÑģÐ¿ÑĢÐµÐ´Ðµ": 4352,
      "Ð¼Ð¾ÑĢ": 4353,
      "ĠÐķÐ²": 4354,
      "ĠÐ¿Ð¾Ð·Ð½Ð°": 4355,
      "ÑĢÐ¾Ð²Ð°Ð»Ð¸": 4356,
      "ĠÐ·Ð°Ð¼ÐµÑĤÐ¸": 4357,
      "ĠÐ»Ñĥ": 4358,
      "ĠÑģÐ¾Ð¿ÑĢÐ¾Ð²": 4359,
      "ine": 4360,
      "ĠÑĢÐ°Ð±Ð¾ÑĤÐ°Ð»": 4361,
      "ĠÐ¿Ð¾Ð»Ð¾Ð¶ÐµÐ½Ð¸Ðµ": 4362,
      "ĠÑģÐ»ÐµÐ´ÑĥÑİÑīÐ¸Ðµ": 4363,
      "ĠÐľÐµÐ¶Ð´Ñĥ": 4364,
      "ĠÑģÐµÑĢÐµÐ´Ð¸": 4365,
      "ĠÐºÐ²Ð°": 4366,
      "Ð¾Ð·Ñĭ": 4367,
      "ÑĢÐµÐ½Ð¸Ðµ": 4368,
      "ĠÑĤÐ¾ÑĩÐ½Ð¾": 4369,
      "Ð±Ð¸Ð»Ð¸": 4370,
      "ĠÑģÐ¾Ð³Ð»Ð°ÑģÐ½Ð¾": 4371,
      "ÑĢÑĭÐ¹": 4372,
      "ĠÐĿÑĥ": 4373,
      "ÑģÑĤÐ°Ð½Ð°Ð²Ð»Ð¸": 4374,
      "ĠÐ±Ð¾Ð»ÑĮÑĪÐ¸Ð½ÑģÑĤÐ²Ð¾": 4375,
      "ĠÐ·Ð²ÐµÐ·": 4376,
      "ĠÐ¿Ð¾ÐºÑĥÐ¿Ð°": 4377,
      "ĠÑĥÑģÑĤÐ¾Ð¹ÑĩÐ¸": 4378,
      "Ð§ÑĤÐ¾Ð±Ñĭ": 4379,
      "ĠÐºÐ»ÑĥÐ±": 4380,
      "ÑĩÐ¸ÐºÐ¾Ð²": 4381,
      "ĠÐ²Ð¾Ð·ÑĢÐ°ÑģÑĤÐµ": 4382,
      "Ð²ÑıÑĤ": 4383,
      "Ð¬": 4384,
      "ĠÐ²ÐµÑģ": 4385,
      "ĠÐ½ÑĭÐ½Ðµ": 4386,
      "ÑīÐµÑģÑĤÐ²Ð¾": 4387,
      "ĠÐ½Ð°ÑĪÐ¸": 4388,
      "ĠÐ²ÐµÐ´Ñĥ": 4389,
      "ÐŁÑĢÐµÐ´": 4390,
      "ĠÐ¿Ð¾Ð¶": 4391,
      "Ð·ÑĮÑı": 4392,
      "ÐĿÐĺ": 4393,
      "ÐµÑĤÐµÑĢ": 4394,
      "ÑĪÐºÑĥ": 4395,
      "ĠÐ¿ÐµÑĢÐ²ÑĭÐ¼": 4396,
      "ie": 4397,
      "ĠÐ¿ÑĢÐ°Ð²Ð¸ÑĤÐµÐ»ÑĮÑģÑĤÐ²Ð°": 4398,
      "ĠÐ°ÑĥÐ´Ð¸": 4399,
      "Ð½Ð¾Ð³Ð¸Ðµ": 4400,
      "ĠÐ¿ÑĢÐ¾ÑıÐ²Ð»Ñı": 4401,
      "ĠÐ¼Ð°ÑĤÐµÐ¼Ð°ÑĤÐ¸": 4402,
      "27": 4403,
      "ĠÐ°Ð¿Ð¿Ð°ÑĢÐ°": 4404,
      "ĠÐ¿ÑĢÐ¾ÑĤÑıÐ¶ÐµÐ½Ð¸Ð¸": 4405,
      "Ð»Ð»Ðµ": 4406,
      "ĠÐ¸Ð³ÑĢÑĥ": 4407,
      "ĠÐ¿ÑĢÐµÐ´Ð¿Ð¾Ñĩ": 4408,
      "ÑģÐ»Ð¾Ð²": 4409,
      "Ð¾Ð»Ð¾Ð³Ð¸Ñı": 4410,
      "ĠÐ¾Ð±Ð¾Ð·Ð½Ð°": 4411,
      "ĠÑĤÐµÐ¾ÑĢÐ¸Ð¸": 4412,
      "ĠÑĢÐ°Ð½ÑĮÑĪÐµ": 4413,
      "Ġ80": 4414,
      "ĠÑģÑĤÐ¾Ð¸Ð¼Ð¾ÑģÑĤÑĮ": 4415,
      "ĠÐ¿ÐµÑĢÐµÑģÐµ": 4416,
      "ĠÐ²ÑĭÐ´Ð°": 4417,
      "ĠÐ¿ÑĢÐµÐ´Ð¾ÑģÑĤÐ°Ð²": 4418,
      "ĠÐ°Ñį": 4419,
      "ill": 4420,
      "Ġ2007": 4421,
      "ĠÐ¾ÑģÑĤÐ°Ð²": 4422,
      "ĠÐŁÐ¾Ð»ÑĮ": 4423,
      "ĠÐ²ÐµÑģÑĮÐ¼Ð°": 4424,
      "ĠÐ¼Ð°Ð»ÑĮ": 4425,
      "ĠÑģÐ°Ð¼ÑĭÐ¹": 4426,
      "Ð¾Ð»Ñİ": 4427,
      "ÑįÑĤ": 4428,
      "ĠÑĨÐµÐ½ÑĤÑĢÐ°": 4429,
      "ĠÐ¿ÑĢÐ¾ÑĨ": 4430,
      "ÑģÐ»": 4431,
      "ĠÐ°Ð²ÑĤÐ¾Ð¼Ð¾Ð±Ð¸": 4432,
      "ĠÐ¿ÑıÑĤÐ¸": 4433,
      "ĠÐºÐ»Ñĥ": 4434,
      "Ġ\\)": 4435,
      "ĠÑģÐ¾Ð²ÐµÑĢÑĪÐµÐ½": 4436,
      "ĠÐ»ÐµÑĩÐµÐ½Ð¸Ñı": 4437,
      "ĠÐ¿ÑĢÐµÐ´Ð¾ÑĤÐ²ÑĢÐ°": 4438,
      "ĠÐ¢ÑĥÑĢ": 4439,
      "Ð°Ð»ÑĮÐ½Ð¾Ð³Ð¾": 4440,
      "ĠÐ½Ð°Ðº": 4441,
      "Ð²Ð°Ð»Ð°ÑģÑĮ": 4442,
      "ĠÐ»Ð¾Ð¶": 4443,
      "ĠÐ¸ÑģÑħÐ¾Ð´": 4444,
      "Ð³Ð¸Ð½Ð°": 4445,
      "ĠÐ±Ð¾Ð¹": 4446,
      "ĠÑĢÐ¾Ð¼Ð°Ð½": 4447,
      "ÐĺÑģÑĤÐ¾ÑĢÐ¸Ñı": 4448,
      "ĠÑįÐ»ÐµÐºÑĤÑĢÐ¾": 4449,
      "ĠÑĤÐµÐ°": 4450,
      "ĠÐ±ÑĥÐ¼Ð°": 4451,
      "ĠÑĤÑĢÑĥÐ´Ð°": 4452,
      "ĠÐ±Ð¸ÑĤ": 4453,
      "ĠÑħÐ¾ÑĤÐµÐ»": 4454,
      "ĠÐ¸ÑģÐ¿ÑĭÑĤÐ°": 4455,
      "Ð±Ð»Ð¸Ð¾ÑĤÐµ": 4456,
      "ĠÐ¿ÑĢÐµÐ´Ñĭ": 4457,
      "ĠÑģÐ¾ÑģÑĢÐµÐ´": 4458,
      "Ð½Ð¸ÐºÐ°Ð¼": 4459,
      "ĠÐ¾ÑĤÐ½Ð¾ÑģÐ¸ÑĤÑģÑı": 4460,
      "ĠÐ¾ÑĤÐ²ÐµÑĢ": 4461,
      "ord": 4462,
      "ĠÐ¼ÐµÑĢÐ¾Ð¿ÑĢÐ¸Ñı": 4463,
      "Ð»ÑĭÐ¼": 4464,
      "ĠÐ¾ÑĤÐ½Ð¾ÑĪÐµÐ½Ð¸Ð¹": 4465,
      "ÐĻÐ¾ÑĢ": 4466,
      "Ð¾ÑģÐ»ÐµÐ´": 4467,
      "ĠÐľÐ¾Ð½": 4468,
      "ĠÐ¸ÑģÑĤÐ¾ÑĢÐ¸Ñı": 4469,
      "ĠÑģÑĤÑĢÐ°Ð½Ð°Ñħ": 4470,
      "ĠÑĨÐµÑĢÐºÐ²Ð¸": 4471,
      "ĠÐ¼Ð°ÑģÑĤÐµÑĢ": 4472,
      "ĠÐ¿ÑĢÐµÐ´Ð½Ð°Ð·Ð½Ð°": 4473,
      "ĠÐ´Ð°ÐµÑĤ": 4474,
      "ĠÐ¾ÑĢÐ³Ð°Ð½Ð¸Ð·Ð¾Ð²Ð°": 4475,
      "Ð½Ð¾Ð²ÐµÐ½Ð¸Ñı": 4476,
      "ÑĢÐ°ÑĤ": 4477,
      "ĠÑģÐ²Ð¾ÐµÐ¼Ñĥ": 4478,
      "âĢ¢": 4479,
      "ĠÐ´ÐµÐ¼Ð¾ÐºÑĢÐ°": 4480,
      "ÑįÐ¼": 4481,
      "ĠÐ³Ð°ÑĢÐ°Ð½": 4482,
      "ĠÐ½ÐµÑĦ": 4483,
      "ĠÑģÐ¾ÑģÑĤÐ°Ð²Ð¸": 4484,
      "Ð¾Ð»Ð¸ÑĤ": 4485,
      "ÐµÑĢÐµÐ´": 4486,
      "ĠÑģÐ½Ð°ÑĩÐ°Ð»Ð°": 4487,
      "ĠÐ·Ð½Ð°Ð¼ÐµÐ½Ð¸": 4488,
      "ĠÑĢÐµÐ»Ð¸Ð³Ð¸Ð¾Ð·": 4489,
      "Ð´Ð°Ð»ÑĮ": 4490,
      "ĠÑĢÐµÑĩÑĮ": 4491,
      "Ð¾ÑģÑĤÑĮ": 4492,
      "Ð¶Ð°Ð¹": 4493,
      "ĠÐ¼Ð¾ÑĢÑı": 4494,
      "ĠÐ¿Ð¾Ð´ÑĥÐ¼Ð°": 4495,
      "Ð³Ð¸Ð¿": 4496,
      "ÐĲÑĢ": 4497,
      "ĠÐºÐ¾Ð½ÐºÑĥÑĢ": 4498,
      "Ð¾Ð²ÑĭÐ¼Ð¸": 4499,
      "Ð¡Ð¾": 4500,
      "ĠÐ·Ð½Ð°ÑĩÐ¸ÑĤÐµÐ»ÑĮÐ½Ð¾": 4501,
      "ĠÐ´Ð¾Ð¼Ð°ÑĪ": 4502,
      "ĠÑĥÐ·Ð½Ð°ÑĤÑĮ": 4503,
      "Ġre": 4504,
      "ĠÑģÐ²ÑıÐ·ÑĮ": 4505,
      "ĠÐ¸Ð´": 4506,
      "Ð»Ð°Ð¹Ð½": 4507,
      "Ð½ÐµÐ½Ð¸Ð¹": 4508,
      "ĠÐ¼ÐµÑĩ": 4509,
      "Ð½Ð°Ð¿ÑĢÐ¸Ð¼ÐµÑĢ": 4510,
      "ĠÐ¾Ð±ÑīÐµÐµ": 4511,
      "ĠÐ»ÑİÐ´ÑıÐ¼": 4512,
      "ĠÐ¿ÑĢÐ¸Ð²Ñĭ": 4513,
      "ĠÐ¿ÑĢÐ°Ð²Ð¸ÑĤÐµÐ»ÑĮ": 4514,
      "ÐµÐ´ÐµÐ½": 4515,
      "Ð¶ÐµÐ¼": 4516,
      "ÑĩÐµÐ½ÑĮ": 4517,
      "ĠÑĩÑĤ": 4518,
      "ĠÐ¿Ð¾Ð´Ð½Ñı": 4519,
      "se": 4520,
      "nd": 4521,
      "ĠÐ½Ð°ÑĪÐ¸Ñħ": 4522,
      "Ð¸Ð½Ð³": 4523,
      "ÑĦÐ¸ÐºÐ°ÑĨÐ¸Ð¸": 4524,
      "ĠÑĨÐ²ÐµÑĤÐ°": 4525,
      "Ð»Ð¾Ðµ": 4526,
      "ĠÐ½Ð°Ð¸": 4527,
      "ĠÐ¾Ð±ÑĬÐµÐ´Ð¸Ð½": 4528,
      "ĠÐ¾ÑĤÐ½Ð¾ÑģÑı": 4529,
      "ĠÐ¿ÐµÑĢÐµÐ¶Ð¸": 4530,
      "ĠÐ¶Ð¸Ð²Ð¾ÑĤÐ½ÑĭÑħ": 4531,
      "ĠÐĿÐµÑĤ": 4532,
      "ĠÐ·Ð°Ð²Ð¸ÑģÐ¸ÑĤ": 4533,
      "ĠÐ¿Ð»Ðµ": 4534,
      "ĠÐ°Ð²ÑĤ": 4535,
      "Ð³Ð°ÑĤÑĮ": 4536,
      "ÑĢÐ¸Ð°": 4537,
      "Ð±ÑĢÐ¾": 4538,
      "Ð½Ð¸ÑıÑħ": 4539,
      "Ð²Ð¸Ð´ÐµÑĤÑĮ": 4540,
      "ik": 4541,
      "ĠÐ¿ÑĢÐµÐ·Ð¸Ð´ÐµÐ½ÑĤ": 4542,
      "ĠÐ²Ð¸Ð´Ð¾Ð²": 4543,
      "ĠÑģÐ´ÐµÐ»Ð°Ð»": 4544,
      "ÑĥÑİÑīÐ¸Ñħ": 4545,
      "Ð»Ð¾Ð¼ÐµÑĤ": 4546,
      "ĠÑĤÐµÐºÑģÑĤ": 4547,
      "Ð¶ÐµÐ½Ð¸ÐµÐ¼": 4548,
      "ĠÐ²ÑĭÐ±Ð¾ÑĢÐ°": 4549,
      "Ġ2015": 4550,
      "Ð¾ÑĤÐ°": 4551,
      "ĠÑħÐ¾ÑĤÐ¸ÑĤÐµ": 4552,
      "29": 4553,
      "Ð·Ð²Ð°ÑĤÑĮ": 4554,
      "ĠÐ·Ñĥ": 4555,
      "ÑĩÐµÐ½Ð¾": 4556,
      "ĠÐ¸Ð·Ð¾Ð±ÑĢÐµÑĤ": 4557,
      "ĠÐ¾Ð¿ÐµÑĢÐ°ÑĨÐ¸Ð¸": 4558,
      "Ġ--": 4559,
      "Ð½Ð°Ð´ÑĨÐ°": 4560,
      "Ð´Ð¾Ñĩ": 4561,
      "ĠÐ¿Ð¾Ð·Ð¶Ðµ": 4562,
      "ÐµÐ²Ð¸Ñĩ": 4563,
      "ĠÐĵÐµ": 4564,
      "ĠÐ¿Ð¾ÐºÐ¸": 4565,
      "ĠXX": 4566,
      "ĠÐĺÐ¼": 4567,
      "Ð³Ð¾ÑĢÐ¾Ð´": 4568,
      "Ð¾Ð½ÐµÑĨ": 4569,
      "ĠÐ¢Ñĭ": 4570,
      "Ð¾Ð¶Ð°Ð»ÑĥÐ¹ÑģÑĤÐ°": 4571,
      "ĠÐ¸ÑĤÐ¾Ð³Ðµ": 4572,
      "ĠÑĥÐºÑĢÐ°Ð¸Ð½": 4573,
      "70": 4574,
      "ÑħÐ¾Ð¶Ð´ÐµÐ½Ð¸Ñı": 4575,
      "ĠÑģÑĤÑĢÐµÐ¼Ð¸": 4576,
      "ÐĺÐ³": 4577,
      "ĠÐ¸ÑģÐ¿Ð¾Ð»Ð½Ð¸": 4578,
      "ĠÐ¿ÑĢÐ¾Ð²Ð¸Ð½": 4579,
      "ĠÑĥÐ´Ð°ÑĢ": 4580,
      "Ð¾ÐµÐ´Ð¸": 4581,
      "ĠÑħÐ¾ÑĩÐµÑĤ": 4582,
      "ĠÐ³Ð¾Ð²Ð¾ÑĢÑıÑĤ": 4583,
      "ÑĤÐ¸ÑĩÐµÑģÐºÐ¸": 4584,
      "ĠÐ½Ð°Ð±Ð»ÑİÐ´Ð°": 4585,
      "ĠÐ½Ð°Ð²Ñĭ": 4586,
      "Ð±Ð¸Ð½Ð°": 4587,
      "Ð¾Ð¿ÑĢÐ¾Ñģ": 4588,
      "ĠÐ¿ÑĢÐ¸ÐµÐ¼": 4589,
      "ĠÐ½Ð¸Ð¶": 4590,
      "ĠÐ¶ÐµÐ½ÑīÐ¸Ð½Ñĭ": 4591,
      "ÑĨÐ°Ð¼": 4592,
      "ÑĤÐ¸Ð½Ð°": 4593,
      "ÑĭÐ¼Ð¸": 4594,
      "33": 4595,
      "ĠÐ¾Ð·": 4596,
      "Ð»ÐµÐ½Ð½Ð¾Ð³Ð¾": 4597,
      "ĠÐ¢Ð¾": 4598,
      "ĠÑĥÑĩÑĢÐµ": 4599,
      "ĠÐ¿ÑĢÐµÐ´ÐµÐ»Ð°": 4600,
      "ĠÐ¿ÑĢÐµÐ´ÑĭÐ´Ñĥ": 4601,
      "ĠÑģÐ¾ÑĨÐ¸Ð°Ð»ÑĮÐ½ÑĭÑħ": 4602,
      "ĠÐ»ÐµÐ²": 4603,
      "ĠÐ½ÐµÑģÐ¼Ð¾ÑĤÑĢÑı": 4604,
      "ĠÐ¾Ð±ÑīÐµÐ¹": 4605,
      "Ð½Ð¸ÐºÐµ": 4606,
      "ÑĩÐ¸Ð½Ñĭ": 4607,
      "ĠÐ³ÐµÐ½ÐµÑĢÐ°Ð»": 4608,
      "ĠÑĥÑģÑĤÑĢÐ¾Ð¹ÑģÑĤÐ²Ð°": 4609,
      "ĠÑģÐµÑĢÐ´": 4610,
      "ĠÐºÐ°ÑĩÐµÑģÑĤÐ²Ð°": 4611,
      "ook": 4612,
      "ÑģÑĤÑĥÐ¿Ð»ÐµÐ½Ð¸Ñı": 4613,
      "ĠÐ²Ð·Ð°Ð¸Ð¼Ð¾Ð´ÐµÐ¹ÑģÑĤÐ²Ð¸": 4614,
      "ĠÐ¾Ð±ÑĢÐ°Ð±Ð¾ÑĤ": 4615,
      "ÑĢÐ°Ð·Ð´Ð¾": 4616,
      "ĠÐľÐ¾ÑģÐºÐ¾Ð²": 4617,
      "Ð²Ð¾Ð³Ð¾": 4618,
      "Ð²Ð°Ð»Ð¾ÑģÑĮ": 4619,
      "Ð»ÑĮÐ½Ð¾Ð¼": 4620,
      "ĠÑĢÐµÐ³ÑĥÐ»ÑıÑĢ": 4621,
      "ĠÐºÐ¾Ð½ÑĨÐµÐ¿": 4622,
      "Ġ2006": 4623,
      "ĠÑĢÐµÑĪÐ°": 4624,
      "Ð´ÑĥÐ¼Ð°": 4625,
      "ĠÐ±ÐµÐ´": 4626,
      "ĠÐĹÐ°Ð¿Ð°Ð´": 4627,
      "ĠÐĺÑĤÐ°": 4628,
      "ĠÐ¿ÑĢÐ°Ð²Ð¸Ð»ÑĮÐ½Ð¾": 4629,
      "ÑĤÐ¸ÑĤÑĮÑģÑı": 4630,
      "eb": 4631,
      "ĠÐ½Ð°ÑģÑĤ": 4632,
      "Ð¾Ð¶Ð´Ð°": 4633,
      "ĠÐ¡Ð¾Ð»": 4634,
      "ĠÑĤÐµÐ»Ð¾": 4635,
      "âĢĻ": 4636,
      "Ð°Ð½ÑĮ": 4637,
      "Ð¼ÑĭÐµ": 4638,
      "ĠÐłÐ¾Ð±": 4639,
      "ĠÐ¾ÑĤÐ¼ÐµÑĩÐ°": 4640,
      "ĠÐºÐ¾Ð¼Ð°Ð½Ð´Ð¸": 4641,
      "Ð»ÑıÑĤÑĮ": 4642,
      "Ð¢Ðŀ": 4643,
      "ÑĤÐ¾Ð½Ð°": 4644,
      "ÐµÑĤÐµÑģÑĮ": 4645,
      "ĠÐºÑĥÐ´Ð°": 4646,
      "75": 4647,
      "Ð½Ð¸Ð·": 4648,
      "ĠÐ½Ð°ÑĥÐº": 4649,
      "ĠÐ¾ÑĤÐ»Ð¸Ñĩ": 4650,
      "ĠÐ²ÑĭÑģÐºÐ°": 4651,
      "ĠÐ¾Ð±Ð½Ð°ÑĢÑĥ": 4652,
      "ĠÐºÐ¾Ð½ÑĤÐµÐº": 4653,
      "ÑĦÐ¸Ð»ÑĮ": 4654,
      "ÐŁÐ°": 4655,
      "ÑģÑĤÑĭÐµ": 4656,
      "ĠÐ¿Ð°Ð»ÑĮ": 4657,
      "ĠÐŁÐ°ÑĢÐ¸": 4658,
      "ĠÐºÐ»ÑİÑĩÐµ": 4659,
      "Ð¾ÑĢÐ¾ÑĤ": 4660,
      "ĠÐ¿ÑĢÐ¾ÑĨÐµÑģÑģÐµ": 4661,
      "Ð¾Ð²Ð¾Ð³Ð¾": 4662,
      "ĠÐ¿Ð¾Ð»ÑĮ": 4663,
      "ĠÐĽÐ¾Ð½Ð´": 4664,
      "ĠÐ¸ÑģÑĤÐ¾ÑĢÐ¸Ñİ": 4665,
      "ĠÑģÐ¸ÑģÑĤÐµÐ¼Ðµ": 4666,
      "ĠÐ¼Ð°ÑĤÐµÑĢÐ¸Ð°Ð»Ð°": 4667,
      "Ð´ÑĮÐ¼Ð¸": 4668,
      "ĠÑĢÐ°Ð·Ð½ÑĭÐµ": 4669,
      "ĠÐ¾Ð±Ð¾ÑĢÑĥÐ´Ð¾Ð²Ð°": 4670,
      "ĠÑĥÑģÐ»Ð¾Ð²Ð¸Ñı": 4671,
      "ÑĩÐºÑĥ": 4672,
      "ĠÐĳÐ¾Ð³": 4673,
      "ĠÐ¿Ð¾Ð»Ð¸ÑĤÐ¸ÐºÐ¸": 4674,
      "ÐŀÐ´Ð½Ð°ÐºÐ¾": 4675,
      "ĠÑįÐ¿Ð¾": 4676,
      "ĠÐ¾Ð±ÐµÑģÐ¿ÐµÑĩÐµÐ½Ð¸Ñı": 4677,
      "ĠÐ²ÐµÑĢÐ¾ÑıÑĤÐ½Ð¾": 4678,
      "ĠÐ²ÐµÑīÐ¸": 4679,
      "ĠÑģÐ¾ÑģÑĢÐµÐ´Ð¾ÑĤÐ¾": 4680,
      "ĠÑĦÑĢÐ°": 4681,
      "ÑīÐ°ÑĤÑĮÑģÑı": 4682,
      "ÑĢÑĭÐ²Ð°": 4683,
      "Ġ2016": 4684,
      "ĠÐ³Ð¾Ñģ": 4685,
      "ĠÑħÐ¾ÑĩÑĥ": 4686,
      "ÑĤÐ¾ÑĢÐ¸Ð¸": 4687,
      "ĠÐ¿Ð¾Ð»ÑĮÐ·Ñĥ": 4688,
      "ĠÑħÑĥÐ´Ð¾Ð¶Ðµ": 4689,
      "ÐµÐ½Ð½ÑĭÐ¼": 4690,
      "Ð»Ð°Ñı": 4691,
      "ĠÐ´ÐµÑĢÐ¶Ð°": 4692,
      "ĠÐ¿Ð¾Ð³Ð¸Ð±": 4693,
      "ĠÐ±Ð¾Ñı": 4694,
      "ÑĩÑĳ": 4695,
      "Ð¢Ð°ÐºÐ¸Ð¼": 4696,
      "ĠÐ´ÐµÐ½ÐµÐ³": 4697,
      "ĠÐ´Ð°Ð½Ð½Ð¾Ð¹": 4698,
      "ÑĪÐ¸ÑĤÐµ": 4699,
      "ĠÑĤÐ²Ð¾": 4700,
      "ĠÐ½Ð°Ð·Ð²Ð°Ð½Ð¸ÐµÐ¼": 4701,
      "ĠÑįÐ»ÐµÐºÑĤÑĢÐ¸": 4702,
      "ĠÑĥÐ¿Ð°": 4703,
      "ĠÐľÐ½Ðµ": 4704,
      "ĠÑħÐ¾Ð»Ð¾Ð´": 4705,
      "Ġfor": 4706,
      "Ð»Ð¸Ð²Ð°": 4707,
      "ÑĨÐ¸Ð¾Ð½Ð½ÑĭÐ¹": 4708,
      "ÐľÐµ": 4709,
      "ĠÐ¿ÐµÑĢÐ²ÑĭÐµ": 4710,
      "ĠÑĨÐµÐ½ÑĤÑĢ": 4711,
      "ĠÑĩÐ°ÑīÐµ": 4712,
      "Ð·Ð¾ÑĢ": 4713,
      "ĠÐ½Ð¸ÐºÑĤÐ¾": 4714,
      "ĠÐľÐ¾Ð¶": 4715,
      "ĠÐ¿Ð¾ÑģÐµÑĤÐ¸": 4716,
      "ĠÐ²Ð¸Ð·": 4717,
      "ĠÐ¼Ð¾ÑĢÐµ": 4718,
      "Ð²Ð¾Ð»ÑĮ": 4719,
      "Ð°Ð»ÑĮÐ½Ð¾": 4720,
      "ĠÐ¿Ð¾Ð²ÑĢÐµ": 4721,
      "ĠÐ´Ð¾ÑģÑĤÐ¸Ð¶ÐµÐ½Ð¸Ñı": 4722,
      "ĠÐĿÐ¸ÐºÐ¾Ð»Ð°": 4723,
      "ĠÐ¾Ð±ÑīÐµÑģÑĤÐ²": 4724,
      "Ð³Ð¾Ð½": 4725,
      "ĠÐ·Ð²": 4726,
      "ĠÐ¿Ð¾Ð»ÑĥÑĩÐµÐ½Ð¸Ñı": 4727,
      "198": 4728,
      "ÑģÐ¼": 4729,
      "ĠÐ¸Ð·Ð¼ÐµÑĢ": 4730,
      "Ð¡Ðµ": 4731,
      "ÑħÐ¾Ð´Ð¾Ð²": 4732,
      "ĠÐ¿ÑĢÐ¸Ð´": 4733,
      "ĠÐ¼Ð¸Ð»Ð»Ð¸Ð¾Ð½Ð¾Ð²": 4734,
      "Ġk": 4735,
      "ĠÐ¿Ð¸ÑģÐ°Ð»": 4736,
      "ĠÐ¥Ð°ÑĢ": 4737,
      "ÑģÐµÐ¹": 4738,
      "ĠÐ¿ÑĢÐ°Ð²Ð¸ÑĤÐµÐ»ÑĮÑģÑĤÐ²Ð¾": 4739,
      "ĠÐ²Ð¸Ð´ÐµÐ¾": 4740,
      "ĠÑĤÐµÑĢÐ°": 4741,
      "Ð´ÐµÑĢÐ¶": 4742,
      "ĠÑģÐ¾Ð¾Ð±ÑīÐ°ÐµÑĤ": 4743,
      "Ð»Ð°ÑĤ": 4744,
      "ĠÐ´ÑĢÑĥÐ³Ð¾Ð³Ð¾": 4745,
      "Ð³Ð¾Ñģ": 4746,
      "Ð°Ð»ÑĮÐ½ÑĭÐµ": 4747,
      "ĠÐ±Ð°ÑĢ": 4748,
      "ÑĩÐ¸ÐºÐ°": 4749,
      "ĠÐ°Ð²ÑĤÐ¾Ð¼Ð°ÑĤÐ¸": 4750,
      "ÑĤÐ°Ð»ÑĮÑıÐ½": 4751,
      "ĠÑģÐ°Ð¹ÑĤÐµ": 4752,
      "ĠÐ²ÑĭÐ¸Ð³ÑĢÐ°": 4753,
      "ĠÐĹÐ´ÐµÑģÑĮ": 4754,
      "ĠÐļÐ°Ð·Ð°": 4755,
      "ĠÑĤÑĢÐµÐ±ÑĥÐµÑĤ": 4756,
      "ĠÐ²Ð·ÑĢÐ¾Ñģ": 4757,
      "ant": 4758,
      "Ð°Ð½ÑĤ": 4759,
      "Ð»ÑıÐ½": 4760,
      "ĠÐ²Ð¿ÐµÑĩÐ°ÑĤ": 4761,
      "ĠÐºÐ¾Ð½ÑĨÐµÐ½ÑĤ": 4762,
      "ĠÐ¸ÑģÐºÑĥÑģÑģÑĤÐ²Ð°": 4763,
      "ĠÐ³Ð¾Ð²Ð¾ÑĢÑı": 4764,
      "ĠÐ¸Ð¼Ð¸": 4765,
      "ÑĢÐ¾ÑģÑĤ": 4766,
      "Ð´Ð½ÐµÐ²": 4767,
      "ĠÑĢÑĥÐº": 4768,
      "ĠÐ½ÐµÐ¾Ð±ÑħÐ¾Ð´Ð¸Ð¼Ð¾ÑģÑĤÐ¸": 4769,
      "ĠÐ¼ÐµÑĤÐ¾Ð´Ñĭ": 4770,
      "ÑĩÐµÐ½Ð°": 4771,
      "ĠÑĢÐµÐ³ÑĥÐ»Ð¸": 4772,
      "ĠÐ¾ÑĩÐ¸": 4773,
      "ĠÐ²Ð°ÑĪÐ¸": 4774,
      "ÑĥÑĩÐ¸": 4775,
      "ĠÐ¼ÑĭÑģ": 4776,
      "Ð¡ÑĤÐ°": 4777,
      "ĠCh": 4778,
      "Ð½ÐµÑĨ": 4779,
      "ÑĩÐµÐ½Ð¸Ñİ": 4780,
      "ĠÐĿÐµÐºÐ¾ÑĤÐ¾ÑĢÑĭÐµ": 4781,
      "ĠÐºÐ¸ÑĤÐ°Ð¹": 4782,
      "Ð±Ð¾ÑĤÐ°Ð½": 4783,
      "Ð´ÐµÐ½ÑĤÐ¸": 4784,
      "ĠÐ¾Ð¿Ð¸ÑģÑĭ": 4785,
      "ĠÐ¸ÑģÐºÐ»ÑİÑĩÐ¸": 4786,
      "ÐºÐ¾Ð²ÑĭÑħ": 4787,
      "ĠÐ¿Ð¾ÑģÑĤ": 4788,
      "ĠÐ·Ð°Ð²Ð¾Ð´": 4789,
      "ĠÑĦÐµÑĢ": 4790,
      "ÑĳÑĤÑģÑı": 4791,
      "ĠÐºÐ»Ð°ÑģÑģÐ°": 4792,
      "ĠÑģÑĤÐ°Ð²": 4793,
      "ĠÐ¿ÐµÑĢÐ²Ð¾Ð¼": 4794,
      "ĠÐ»ÑİÐ´ÑĮÐ¼Ð¸": 4795,
      "Ð²Ð°ÑıÑģÑĮ": 4796,
      "ĠÐ¿Ð¾Ð¼Ð¾Ð³Ð°ÐµÑĤ": 4797,
      "ĠÐ¿Ð¾Ð¹": 4798,
      "ĠÐ±Ð¾Ð»ÑĮÑĪÐ¾Ðµ": 4799,
      "ÑģÑĤÐ²Ð¾Ð²Ð°Ð»Ð¸": 4800,
      "Ð¿Ð°Ð½": 4801,
      "ĠÐºÐ¸Ð»Ð¾Ð¼ÐµÑĤ": 4802,
      "ĠÐ³Ð¾ÑĢÐ°Ð·Ð´Ð¾": 4803,
      "ĠÐ¾Ð±ÑıÐ·Ð°ÑĤÐµÐ»ÑĮÐ½Ð¾": 4804,
      "ÑĢÐ¾Ð²Ð°Ð½Ð½ÑĭÑħ": 4805,
      "ĠÐ²Ð¾Ð·ÑĢÐ°ÑģÑĤÐ°": 4806,
      "Ð»Ð¾ÑĤÐ°": 4807,
      "ĠÐ·Ð½Ð°ÑĤÑĮ": 4808,
      "ĠÑĤÑĢÐ°Ð½Ñģ": 4809,
      "Ð½Ð°Ð»Ðµ": 4810,
      "ĠÑħÐ²Ð°": 4811,
      "ĠÐ¿ÑĢÐ¸Ð³Ð»Ð°": 4812,
      ".).": 4813,
      "ĠÐ¤Ð¸": 4814,
      "ĠÑĤÐµÑĢÑĢÐ¾": 4815,
      "ÐµÐ½Ð½Ð¾Ðµ": 4816,
      "ĠÐ¿Ð¾Ð»Ð°Ð³Ð°": 4817,
      "ĠÐ±Ð¾Ð¼": 4818,
      "ĠÐ¾Ð±Ð»Ð°ÑģÑĤÑĮ": 4819,
      "ĠÐ¾ÑģÐ½Ð¾Ð²Ð½ÑĭÑħ": 4820,
      "Ġ70": 4821,
      "ĠÐĺÐ·ÑĢÐ°": 4822,
      "Ġ\\]": 4823,
      "ĠÐ²ÑĭÑģÐ¾ÐºÐ¸": 4824,
      "ĠÑģÐ¼Ð¾ÑĤ": 4825,
      "ĠÐ½Ð°ÑĢÐ¾Ð´Ð°": 4826,
      "ĠÑĤÐµÐºÑĥ": 4827,
      "Ð´Ð¶Ð¸": 4828,
      "ĠÐ´Ð²Ð¸Ð¶ÐµÐ½Ð¸Ðµ": 4829,
      "ĠÐ¿Ð¾ÑģÑĢÐµÐ´": 4830,
      "Ð¼Ð°Ñħ": 4831,
      "ĠÑĥÐ²ÐµÐ»Ð¸": 4832,
      "ĠÐ¿Ð¾Ð²ÐµÑĢÑħÐ½Ð¾ÑģÑĤÐ¸": 4833,
      "ĠÐ¨ÑĤÐ°": 4834,
      "ĠÐ¿Ð¾ÑģÑĤÐµÐ¿": 4835,
      "ĠÐ²ÑĭÑıÑģ": 4836,
      "ĠÐ¸ÑģÑĩÐµ": 4837,
      "ĠÐ·Ð°Ð´": 4838,
      "ÑĪÐ»Ð¾ÑģÑĮ": 4839,
      "ĠÐ´ÐµÑĤÐ¸": 4840,
      "Ð³ÑĢÐµ": 4841,
      "ĠÐ°Ð±ÑģÐ¾Ð»ÑİÑĤ": 4842,
      "ĠÐ¾Ð±ÑģÑĤÐ¾Ñı": 4843,
      "ĠÑĢÐµÐ´Ð°Ðº": 4844,
      "ĠÑĢÐ¸ÑģÐº": 4845,
      "ĠÑģÐ¿Ð¾ÑĢÑĤ": 4846,
      "ĠÐ½Ð°ÑħÐ¾Ð´ÑıÑĤÑģÑı": 4847,
      "ÑĥÑİÑīÐ¸Ðµ": 4848,
      "ĠÐºÐ¾ÑĤÐ¾ÑĢÐ¾Ð¼Ñĥ": 4849,
      "ĠÑģÑĥÐ´ÑĮ": 4850,
      "ÑģÑİ": 4851,
      "ate": 4852,
      "ÑĩÐ½ÑĭÐ¼Ð¸": 4853,
      "ĠÐ·Ð°ÑĤ": 4854,
      "Ġ2005": 4855,
      "ĠÐŁÐ°ÑĢ": 4856,
      "Ð½ÐµÑĢÐ°": 4857,
      "Ġ%": 4858,
      "ĠÐ»ÐµÐºÐ°ÑĢ": 4859,
      "ÑīÐ¸ÑħÑģÑı": 4860,
      "ĠÐ¿ÑĢÐ¾Ð´Ð²Ð¸": 4861,
      "ĠÐ½Ð°ÑĩÐ°Ð»Ð¸": 4862,
      "ĠÐ´Ð¸Ð°Ð³": 4863,
      "Ð±Ð°Ð¹": 4864,
      "ĠÑģÐ¾Ð±Ð°": 4865,
      "ĠÐºÑĢÑĥÐ³": 4866,
      "ĠÐ½ÐµÐ³Ð°": 4867,
      "ÑģÑĤÑĮÑıÐ½": 4868,
      "ĠÐ¢Ð°Ð¼": 4869,
      "ĠÑĢÐ°ÑģÑģÐ¼Ð¾ÑĤ": 4870,
      "ÑģÐ¾ÑĢ": 4871,
      "ĠÐ¿Ð¾Ð´ÑĩÐµÑĢ": 4872,
      "Ð¿Ð¾Ð·Ð¸": 4873,
      "ĠÑĤÐµÐ¾ÑĢÐ¸": 4874,
      "Ð½ÐµÑģÑĤÐ¸": 4875,
      "ĠÐ¿ÑĢÐ¸ÑĩÐ¸Ð½Ð°": 4876,
      "ĠÐ¸ÑģÑģÐ»ÐµÐ´Ð¾Ð²Ð°Ð½Ð¸Ð¹": 4877,
      "ĠÑĤÑĭÑģ": 4878,
      "ĠÑĩÐ°ÑģÐ°": 4879,
      "ĠÑģÐ¾ÑģÐµÐ´": 4880,
      "ĠÐĹÐ½Ð°": 4881,
      "ĠÑĩÐ»ÐµÐ½Ð¾Ð²": 4882,
      "ĠÐºÑĢÐ°ÑĤ": 4883,
      "Ð½Ð½Ð¾Ð³Ð¾": 4884,
      "ĠÐ²ÑĭÑĢÐ°Ð¶": 4885,
      "ĠÐ²ÑģÐµÐ¼Ð¸": 4886,
      "ĠÐĴÐµÐ»Ð¸ÐºÐ¾Ð±ÑĢÐ¸ÑĤÐ°Ð½Ð¸Ð¸": 4887,
      "ĠÐ¼Ð¾Ðµ": 4888,
      "ÐļÐ¾Ð½": 4889,
      "Ð¶Ð¸ÑĤÐµ": 4890,
      "ĠÑģÐ¾ÑģÑĤÐ¾ÑıÐ½Ð¸Ñı": 4891,
      "ĠÐ°Ð²ÑĤÐ¾": 4892,
      "ĠÐ·Ð°ÑīÐ¸ÑĤÑĭ": 4893,
      "ĠÑĥÐ²Ð°": 4894,
      "ĠÐ²Ð°ÑĢÐ¸Ð°Ð½ÑĤ": 4895,
      "ction": 4896,
      "ĠÐ¿ÑĢÐ¾Ð·": 4897,
      "ĠÐ¿ÑĢÐ¾Ð´ÑĥÐºÑĤÐ¾Ð²": 4898,
      "ĠÑĩÐ°Ñģ": 4899,
      "Ð²Ð¾Ñĩ": 4900,
      "ĠÐ¿Ð¾ÑĢÐ°": 4901,
      "ĠÑģÐ¾ÑħÑĢÐ°Ð½": 4902,
      "ĠÐłÐ¤": 4903,
      "ÑĤÐ¾Ðµ": 4904,
      "ĠÐ¿ÐµÑĢÐµÐ¼ÐµÐ½": 4905,
      "ĠÐ¾ÑģÑĤÑĢÐ¾Ð²Ð°": 4906,
      "ĠÑĦÐ¸ÑĢ": 4907,
      "ĠÐ´ÑĢÑĥÐ·ÑĮÑı": 4908,
      "ĠÑĥÐ²Ð¸Ð´ÐµÑĤÑĮ": 4909,
      "Ð²Ð¾Ñģ": 4910,
      "ĠÐĲÐ±": 4911,
      "ĠÐ¿ÑĢÐµÐ¿Ð¾Ð´Ð°": 4912,
      "Ð½Ð¾Ð·": 4913,
      "Ð»Ð¾ÑĢ": 4914,
      "ÑįÐ»ÑĮ": 4915,
      "ĠÐ¸Ð½Ð²ÐµÑģÑĤÐ¸": 4916,
      "ÑģÑĤÑĭÑħ": 4917,
      "ĠÐ±Ð¸Ð·Ð½ÐµÑģ": 4918,
      "ĠÑģÐµÐ¼ÑĮÐµ": 4919,
      "ĠÐ¸Ð¼ÐµÐ»": 4920,
      "ĠÐ·Ð°Ð¼ÐµÑĩÐ°": 4921,
      "ÑģÐ¸Ð»ÑĮ": 4922,
      "ĠÐ¢Ð¾Ð³Ð´Ð°": 4923,
      "ĠÐ±Ð¾Ðº": 4924,
      "Ġ<": 4925,
      "ĠÐ¿Ð¾Ð²Ðµ": 4926,
      "ĠÑĤÑĢÐµÐ±Ð¾Ð²Ð°Ð½Ð¸Ñı": 4927,
      "35": 4928,
      "ÐµÐ½Ð½Ð°Ñı": 4929,
      "ĠÑģÑĢÐ°Ð²Ð½ÐµÐ½Ð¸Ñİ": 4930,
      "ĠÐ³ÑĢÐ°ÑĦÐ¸": 4931,
      "ĠÐ¢ÐµÐ¿ÐµÑĢÑĮ": 4932,
      "Ð²ÐµÐ´ÐµÐ½Ð¸Ñı": 4933,
      "ĠÐ¾Ð±ÐµÑģÐ¿ÐµÑĩÐ¸ÑĤÑĮ": 4934,
      "ĠÐ²Ð»Ð°ÑģÑĤÑĮ": 4935,
      "ĠÐ´Ð¸ÑģÐº": 4936,
      "ĠÐ·Ð°Ð´Ð°ÑĩÐ¸": 4937,
      "Ð¿Ð¾ÑĢ": 4938,
      "ĠÐ¿Ð°ÑĢÐ°Ð¼ÐµÑĤ": 4939,
      "Ð¶Ð´Ð°Ñı": 4940,
      "ĠÐ¾Ð±ÑĬÐµÐ¼": 4941,
      "ÑĢÐ¸Ð¿": 4942,
      "ĠÑģÐ¸Ñħ": 4943,
      "Ð»Ð¾Ð´": 4944,
      "ĠÐ¿Ð°Ðº": 4945,
      "ĠÐ¶ÑĥÑĢÐ½Ð°Ð»Ð¸": 4946,
      "ĠÐ¿Ð°ÑĢÐ»Ð°": 4947,
      "ĠÐ¿ÑĢÐ¾ÐµÐºÑĤÐ°": 4948,
      "ĠÐ¸Ð½ÑĦÐ¾ÑĢÐ¼Ð°ÑĨÐ¸Ñı": 4949,
      "ÑĤÐ¾ÑĢÐ°Ñı": 4950,
      "ĠÐ°Ð¼": 4951,
      "ĠÐ´ÑĭÑħÐ°": 4952,
      "ĠÑĢÐ°ÑģÐ¿Ð¾Ð»Ð°Ð³Ð°": 4953,
      "Ð°Ð½Ð³": 4954,
      "ĠÐ¾Ð´Ð¸Ð½Ð°": 4955,
      "ĠÐ¿Ð°Ð¼ÑıÑĤ": 4956,
      "ÑĢÐ¾Ð¶": 4957,
      "ÐĺÑĤÐ°Ðº": 4958,
      "ÑĢÐ°Ð¹": 4959,
      "ĠÑĢÐµÐ·ÑĥÐ»ÑĮÑĤÐ°ÑĤ": 4960,
      "ĠÐºÐ¾Ð»Ð¾": 4961,
      "ight": 4962,
      "Ð¼ÑĥÐ»Ð¸": 4963,
      "ĠÐ²ÑģÐµÐ¼Ñĥ": 4964,
      "Ð²ÐµÐ»Ð¸": 4965,
      "ĠÐ¿Ð»ÐµÐ¼": 4966,
      "ĠÐ¿ÑĢÐ¾Ð¸Ð·Ð¾ÑĪÐ»Ð¾": 4967,
      "ĠÐ±Ð¾Ð»ÑĮÑĪÑĥÑİ": 4968,
      "ĠÐ¿Ð¾Ð»ÑĥÑĩÐ¸Ð»Ð¸": 4969,
      "ÑĤÐµÑħ": 4970,
      "ĠÐ°ÑģÐ¿ÐµÐº": 4971,
      "ĠÐ¾Ð±Ð½Ð¾Ð²": 4972,
      "ĠÐ·Ð°ÑĤÑĢÐ°": 4973,
      "ĠÑĢÐ°ÑģÐ¿ÑĢÐ¾ÑģÑĤÑĢÐ°": 4974,
      "ÑĤÐ¾Ð»Ð¸": 4975,
      "ĠÐ´Ð°Ð»ÑĮÑĪÐµ": 4976,
      "ÑĪÐµÐ½Ð¸Ñİ": 4977,
      "ĠÑģÐ¾Ð¿ÑĢÐ¾": 4978,
      "ĠÐ½ÐµÐ¼Ñĥ": 4979,
      "ĠÑĢÐ¾Ð´Ð¸Ð»ÑģÑı": 4980,
      "ĠÑĥÐ¶Ð°": 4981,
      "Â»)": 4982,
      "ÑĤÐ½Ð¾Ð³Ð¾": 4983,
      "ĠÐĶÑį": 4984,
      "ÐµÑĢÐ¾Ð¼": 4985,
      "ĠÐ·Ð°Ð²Ð¾Ðµ": 4986,
      "ĠÑĥÑĩÑĳ": 4987,
      "ĠÐºÐ¾Ð½ÑĤÑĢÐ¾Ð»Ð¸": 4988,
      "ĠÐ¾ÐºÐµ": 4989,
      "ĠÐ¿Ð¾ÐºÐ°Ð·ÑĭÐ²Ð°": 4990,
      "ĠÐ½Ð°ÑħÐ¾Ð´Ñı": 4991,
      "ÐºÐ¾Ð½ÐµÑĨ": 4992,
      "ĠÐ¸Ð½Ð¶ÐµÐ½": 4993,
      "Ð¾ÑģÐ°": 4994,
      "Ð½ÑĥÐ»ÑģÑı": 4995,
      "ĠÑĥÐ±ÐµÐ´Ð¸": 4996,
      "ĠÐ¼Ð¾Ð·Ð³Ð°": 4997,
      "ĠÐ²Ð¾Ð·Ð³Ð»Ð°": 4998,
      "ĠÑĤÐ¸Ð¿": 4999,
      "Ð»ÑıÐ¼Ð¸": 5000,
      "ĠÐ¸ÑģÐ¿ÑĭÑĤÑĭ": 5001,
      "ĠÐ¾Ð±ÑıÐ·Ð°Ð½": 5002,
      "ĠÐĵÐ°ÑĢ": 5003,
      "ĠÑģÑĢÐ¾Ðº": 5004,
      "ÑīÐ¸Ð¼Ð¸": 5005,
      "ĠÐĲÐ»ÐµÐºÑģÐ°Ð½Ð´ÑĢ": 5006,
      "ĠÐºÐ¾Ð¼Ð°Ð½Ð´Ð¾Ð²Ð°": 5007,
      "ĠÐ²ÑĢÐµÐ¼ÐµÐ½ÐµÐ¼": 5008,
      "ĠÑĥÐ´Ð¾Ð²Ð»ÐµÑĤÐ²Ð¾ÑĢ": 5009,
      "ÑĤÐ¸ÐµÐ¼": 5010,
      "ÑģÑĤÐ¸Ð»": 5011,
      "ell": 5012,
      "ĠÑģÑĢÐµÐ´Ñĭ": 5013,
      "ĠÐĵÐ¾ÑģÑĥÐ´Ð°ÑĢ": 5014,
      "ĠÐ²Ð¾ÑģÑĤÐ¾": 5015,
      "ĠÑģÑĤÑĢÐ°ÑĤÐµÐ³Ð¸": 5016,
      "ÑĢÑĭÐ¼": 5017,
      "36": 5018,
      "Ð´ÑĢÐ¾Ð²": 5019,
      "ĠÐ½Ð°Ð¼ÐµÑĢ": 5020,
      "ĠÐ½ÐµÐ½Ð°": 5021,
      "ĠÐ²ÐµÐ»Ð¸ÑĩÐ¸": 5022,
      "Ð¾Ñī": 5023,
      "ĠÐ²ÐµÑĩÐµÑĢ": 5024,
      "ĠÑĦÐ¾ÑĤÐ¾": 5025,
      "ÑģÐºÐ¾Ð¿": 5026,
      "ĠÐºÐ½Ð¸Ð³Ð°": 5027,
      "ĠÐ´ÐµÑĢÐµÐ²Ð½Ñı": 5028,
      "ĠÑĤÐ°Ð±Ð»Ð¸": 5029,
      "ĠÑģÐ²ÐµÑĢÑħ": 5030,
      "ĠÐºÑĢÐ°ÑģÐ¸": 5031,
      "ÐµÐ½Ð½Ð¾ÑģÑĤÑĮ": 5032,
      "Ð¿Ð»Ð¾Ð¼": 5033,
      "ĠÐ¼Ð°Ð³Ð°Ð·Ð¸": 5034,
      "Ð´Ð¾ÑĢ": 5035,
      "Ð»ÑĮÑı": 5036,
      "ĠÐľÐ¾ÑģÐºÐ²Ðµ": 5037,
      "ĠÐ¼Ð»Ð½": 5038,
      "Ð±ÐºÐ°": 5039,
      "ĠÐºÐ¾ÑĤÐ¾ÑĢÑĭÐ¼Ð¸": 5040,
      "ĠÐ¿Ð¾Ð·Ð¸ÑĨÐ¸Ð¸": 5041,
      "ÑĤÐ¸ÑģÑĤÐ¸": 5042,
      "ÑĤÑĢÐµ": 5043,
      "ĠÐ¾ÑĩÐµÐ²Ð¸Ð´": 5044,
      "Ð²ÑĪÐ¸ÐµÑģÑı": 5045,
      "ÑĤÐµÐ»Ñİ": 5046,
      "ĠÐ¾ÑĢÐ³Ð°Ð½Ð¸Ð·Ð°ÑĨÐ¸Ñı": 5047,
      "Ġ2004": 5048,
      "ĠÐ»ÑĮ": 5049,
      "ĠÐ½ÐµÐ²Ð¾Ð·Ð¼Ð¾Ð¶Ð½Ð¾": 5050,
      "Ð¾Ð½Ð¾Ð¼": 5051,
      "ĠÐ·Ð´Ð¾ÑĢÐ¾Ð²ÑĮÑı": 5052,
      "ĠÐ¿Ð°Ð¼ÑıÑĤÐ¸": 5053,
      "ÑīÐµÐ½Ð¸Ð¹": 5054,
      "ĠÑģÑĭÐ½": 5055,
      "ĠÐºÐ¾Ð¼Ð¸": 5056,
      "ÑĩÐ½Ð¸Ðº": 5057,
      "Ġ35": 5058,
      "ĠÐĵÐ¾ÑĢ": 5059,
      "Ð¡Ð¢": 5060,
      "ÑħÐ¾Ð´Ñĭ": 5061,
      "ĠÑĢÐµÑĪÐ¸Ð»": 5062,
      "ĠÐłÑĥÑģ": 5063,
      "ĠÐ¾ÑĤÐ½Ð¾ÑĪÐµÐ½Ð¸Ðµ": 5064,
      "ĠÑģÑĤÐ°ÑĢÐ°": 5065,
      "Ð²ÑĪÐ¸ÑħÑģÑı": 5066,
      "Ġ90": 5067,
      "ĠÐ¿ÑĢÐ¸Ð²Ð»ÐµÐºÐ°": 5068,
      "ĠÐ·Ð°ÐºÐ»ÑİÑĩÐ°ÐµÑĤÑģÑı": 5069,
      "Ð¶Ð¸Ð¼": 5070,
      "Ð¶Ð½ÑĭÐ¹": 5071,
      "ĠÐ´Ð¾ÐºÑĥÐ¼ÐµÐ½ÑĤÐ°": 5072,
      "ob": 5073,
      "ÑĪÐ°ÐµÑĤÑģÑı": 5074,
      "ĠÐ¾Ð±ÑĬÑıÐ²Ð¸": 5075,
      "ÑĢÐ°Ð²Ð¾": 5076,
      "ĠÐ·Ð°Ð¼ÐµÐ½": 5077,
      "Ð¼ÑĭÐ¼": 5078,
      "ĠÐ±Ð¸Ð±Ð»Ð¸Ð¾ÑĤÐµ": 5079,
      "ĠÐ±ÑĢÐ¾Ð½": 5080,
      "ĠÐ¾ÑĤÐ´Ð°": 5081,
      "ĠÑĥÐºÑĢÐµÐ¿": 5082,
      "ĠÐ¼Ð½Ð¾Ð³Ð¾ÑĩÐ¸Ñģ": 5083,
      "ĠÐºÐ°ÑģÐ°ÐµÑĤÑģÑı": 5084,
      "ĠÐ½ÑĢÐ°Ð²Ð¸": 5085,
      "ĠÐ¾Ð±ÑĢÐ°Ð·Ð¾Ð²Ð°Ð½Ð¸Ðµ": 5086,
      "ĠÐ¿Ð¾Ð¿ÑĢÐ¾Ð±": 5087,
      "ĠÑĢÐµÑĩÐ¸": 5088,
      "ĠÐ¢Ð¾Ð¼": 5089,
      "ÑĢÐ¾Ð²Ð°Ð½Ð½ÑĭÐµ": 5090,
      "ĠÐ¸ÑģÐ¿Ð¾Ð»ÑĮÐ·ÑĥÑı": 5091,
      "ast": 5092,
      "ÑĢÐ¸ÑģÑĤÐ°": 5093,
      "Ð³Ð°ÐµÑĤ": 5094,
      "ĠÐ·Ð°ÐºÐ¾Ð½Ð¾Ð´Ð°": 5095,
      "ĠÐŁÐµ": 5096,
      "ÐºÐ¾Ð³": 5097,
      "ÑĤÐ¸ÐºÐ¸": 5098,
      "ĠÐ¾ÑĤÐ»Ð¸ÑĩÐ¸Ðµ": 5099,
      "ÑģÐ¸Ð»": 5100,
      "ĠÐ³Ð»Ð°Ð²Ð½ÑĭÐ¼": 5101,
      "ĠÐºÐ°ÐºÐ¸Ñħ": 5102,
      "ud": 5103,
      "ĠÐºÐ¾Ð¼Ð¸ÑĤ": 5104,
      "ĠÐºÐ¾Ð½ÑĤÑĢÐ¾Ð»ÑĮ": 5105,
      "ÑĢÐ¾Ð²Ð°Ð½Ñĭ": 5106,
      "ĠÐ¼Ð°Ð½": 5107,
      "ÑģÑĤÑĢÐ°Ð¸": 5108,
      "ĠÐ¾ÑĤÐµÑĨ": 5109,
      "Ð»ÐµÐ½Ð½Ð¾ÑģÑĤÑĮ": 5110,
      "ĠÐ½ÐµÐ´ÐµÐ»Ñİ": 5111,
      "ĠÑģÐ¿Ð¾ÐºÐ¾Ð¹": 5112,
      "ĠÑģÐ¾Ð³Ð»Ð°ÑģÐ¸": 5113,
      "ÐºÐ»Ð°Ð´Ñĭ": 5114,
      "ĠÐ±ÐµÐ·Ñĥ": 5115,
      "ĠÑģÐ¾ÑĢÐµÐ²": 5116,
      "Ð»Ð¸Ð·Ð°": 5117,
      "ĠÑĢÐ¾ÑģÑĤÐ°": 5118,
      "ĠÐ»Ð¸ÑĨÐ¾": 5119,
      "ÑĪÐ½Ð¾": 5120,
      "ÐµÐ³Ð¾": 5121,
      "ĠÐ¾Ð½Ð»Ð°Ð¹Ð½": 5122,
      "ĠÐ¿ÑĢÐµÐ·Ð¸Ð´ÐµÐ½ÑĤÐ°": 5123,
      "Ð¾ÑģÐ»ÐµÐ´ÑģÑĤÐ²Ð¸Ð¸": 5124,
      "ĠÐ¿Ð»Ð¾ÑĤ": 5125,
      "Ð½Ð¸Ð¼Ð¸": 5126,
      "ĠÐ±ÑĥÑĢ": 5127,
      "ÑĢÐ¸Ð´Ð¸": 5128,
      "ĠÐ¶Ð¸ÑĤÐµÐ»ÐµÐ¹": 5129,
      "ĠÐĴÐ°Ð¼": 5130,
      "ĠÐ¾ÑģÑĤÐ°Ð½Ð¾Ð²": 5131,
      "ĠÐĲÐ½Ð³Ð»Ð¸Ð¸": 5132,
      "ĠÐ¿ÑĢÐ¸Ð½ÑıÑĤÑĮ": 5133,
      "ĠÐ¿Ð¾Ð²Ð¾Ð´Ñĥ": 5134,
      "ĠÑģÐµÑĢÐ¸Ð¸": 5135,
      "ĠÐ¡Ð¾ÐµÐ´Ð¸Ð½": 5136,
      "ĠÐ¿ÑĢÐ¾Ð²Ð¾Ð´": 5137,
      "ĠÐºÐ¾Ð¼Ð¿ÑĮÑİÑĤÐµÑĢ": 5138,
      "ĠÐĵÐ»Ð°Ð²": 5139,
      "ĠÐ¸ÑģÐ¿Ð¾Ð»ÑĮÐ·ÑĥÑİÑĤ": 5140,
      "ĠÑģÐ²Ð¾Ð¹ÑģÑĤÐ²Ð°": 5141,
      "Ð¶ÐµÐ½Ð¸Ð¹": 5142,
      "ĠÐ°ÑģÑģ": 5143,
      "ĠÐ²ÑĭÐ½ÑĥÐ¶Ð´ÐµÐ½": 5144,
      "ĠÐºÐ°Ð¼Ð¿Ð°": 5145,
      "int": 5146,
      "ÑĮÐµÑĢÐ°": 5147,
      "ĠÑĦÐµÐ´Ðµ": 5148,
      "ĠÑģÐµÐ²ÐµÑĢÐ¾": 5149,
      "ĠÑģÐ¾Ð¾Ð±ÑīÐµÐ½Ð¸Ñı": 5150,
      "ĠÐ¡Ð¾ÑİÐ·Ð°": 5151,
      "Ð¾ÑĤÑĥ": 5152,
      "ĠÐ¼ÑĥÐ¶ÑĩÐ¸Ð½": 5153,
      "ÑĢÐ¸Ð»": 5154,
      "ĠÐĴÐ¾Ð»": 5155,
      "66": 5156,
      "ĠÐ½ÐµÐ²ÐµÑĢ": 5157,
      "ĠÑĥÑĤ": 5158,
      "ĠÐ¿Ð¸ÑīÐµ": 5159,
      "ĠÐ¸Ð¼Ð¿ÐµÑĢÐ¸Ð¸": 5160,
      "ĠÐºÐ²Ð°Ð´ÑĢÐ°": 5161,
      "ÑĤÐ¸Ð²Ñĭ": 5162,
      "ÑĢÐ°Ð±Ð¾ÑĤ": 5163,
      "ĠÑĢÐµÐºÐ¾Ð¼ÐµÐ½Ð´Ð°": 5164,
      "ĠÑĢÐµÐ¶Ð¸ÑģÑģ": 5165,
      "ĠÐ·Ð½Ð°Ð½Ð¸Ñı": 5166,
      "Ð·Ð¸ÑĢÐ¾Ð²Ð°ÑĤÑĮ": 5167,
      "ĠÑĢÐ¾Ð¶Ð´ÐµÐ½Ð¸Ñı": 5168,
      "ÐµÐ¼Ð°Ñı": 5169,
      "ĠÐŀÑģÐ½Ð¾Ð²": 5170,
      "Ð»Ð¾ÐºÐ°": 5171,
      "ĠÑħÐ¾Ð´": 5172,
      "ĠÐ½Ð°Ð·ÑĭÐ²Ð°ÐµÑĤÑģÑı": 5173,
      "ext": 5174,
      "ĠÐ¾Ð±ÑīÐµÐ³Ð¾": 5175,
      "ĠÐ¨Ð°": 5176,
      "Ð»ÐµÑĤÐ¸": 5177,
      "____": 5178,
      "ĠÑģÑĤÐ°Ð½ÐµÑĤ": 5179,
      "ĠXIX": 5180,
      "ĠÐ·Ð¾Ð»Ð¾ÑĤ": 5181,
      "ang": 5182,
      "ĠÃ": 5183,
      "one": 5184,
      "ĠÐłÐ¾ÑģÑģÐ¸Ñı": 5185,
      "ĠÐ¿ÑĤÐ¸": 5186,
      "ĠÐ¤ÐµÐ´ÐµÑĢÐ°ÑĨÐ¸Ð¸": 5187,
      "78": 5188,
      "ĠÑĢÐ¾ÑģÑĤ": 5189,
      "end": 5190,
      "ĠÐ¸Ð³ÑĢ": 5191,
      "ĠÐ¿ÑĢÐµÐ´Ð¾ÑģÑĤÐ°Ð²Ð»Ñı": 5192,
      "ĠÑģÐ²Ð¸": 5193,
      "ÑĥÐ»": 5194,
      "ĠÐķÐ²ÑĢÐ¾Ð¿Ðµ": 5195,
      "ĠÐ¿Ð¾ÐµÐ·Ð´": 5196,
      "ĠÐľÐ¾ÑĢ": 5197,
      "ĠÐ²Ð¸Ð´Ñĥ": 5198,
      "ĠÐ¼Ð¾Ð³Ð»Ð°": 5199,
      "ĠÐ¼ÑıÐ³": 5200,
      "ĠÑĤÑĢÑĥÐ´Ð½Ð¾": 5201,
      "Ð¶Ð°Ð»Ð¸": 5202,
      "ÐľÐĺ": 5203,
      "ĠÐ¿ÑĢÐ¾Ð±Ð»ÐµÐ¼Ð°": 5204,
      "ÑīÐµÐ½Ñĭ": 5205,
      "ows": 5206,
      "ĠÐ´Ð¾Ð»Ð³Ð¾": 5207,
      "Ð³ÐµÐ¹": 5208,
      "ÑĢÑıÐ·": 5209,
      "ĠÑģÑĤÐ°Ð½Ð¾Ð²": 5210,
      "ĠÐ·ÐµÐ¼Ð»Ðµ": 5211,
      "ĠÑĥÑĤÑĢÐ°": 5212,
      "Ð±ÐµÑĢÐ¸ÑĤÐµ": 5213,
      "34": 5214,
      "Ð¶Ð½ÑĭÐµ": 5215,
      "ĠÐ°Ð³ÑĢÐµ": 5216,
      "ĠÐ½ÐµÐ´Ð¾ÑģÑĤÐ°": 5217,
      "Ð·Ð°ÑĤÑĮ": 5218,
      "ĠÐ¼Ð°ÑģÑĪÑĤÐ°": 5219,
      "ĠÑħÑĢÐ¸ÑģÑĤÐ¸Ð°Ð½": 5220,
      "ÑģÑĤÑĥÐ¿Ð»ÐµÐ½Ð¸Ðµ": 5221,
      "ĠÐľÐ°Ð½": 5222,
      "Ð»Ð°Ð³Ð¾Ð´Ð°": 5223,
      "ÑĩÐµÑģÑĤÐ²ÐµÐ½Ð½Ð¾Ð¹": 5224,
      "ĠÑģÐ°Ð½": 5225,
      "ÑĩÐ¸ÐºÐ¸": 5226,
      "ĠÐ½Ð°ÑĩÐ°Ð»Ð¾": 5227,
      "ĠÐ±Ð»Ñİ": 5228,
      "ÑģÑĤÑıÑħ": 5229,
      "Ð»Ð»Ñİ": 5230,
      "ip": 5231,
      "ĠÑĤÐ°ÐºÐ°Ñı": 5232,
      "ĠÐ½Ð°ÑĩÐ°ÑĤÑĮ": 5233,
      "ÑģÐ¸Ð»Ð¸": 5234,
      "ĠÐ¼Ð¾Ð»Ð¾Ð´Ñĭ": 5235,
      "ĠÐ¿Ð¾ÑģÑĤÐ°Ð½Ð¾Ð²": 5236,
      "ĠÐ¿Ð¾Ð¼Ð¾Ð¶ÐµÑĤ": 5237,
      "ĠÑįÐºÑĢÐ°": 5238,
      "ĠÑĤÑĢÐ°Ð½ÑģÐ¿Ð¾ÑĢÑĤ": 5239,
      "ĠÐ°Ð½Ð°Ð»Ð¾Ð³Ð¸": 5240,
      "ÑĩÐ¸ÑĤÑĮÑģÑı": 5241,
      "ĠÑĨÐµÐ»ÐµÐ¹": 5242,
      "ĠÑģÐ¿ÐµÐº": 5243,
      "ĠÐ¸ÑĤÐ°Ð»ÑĮÑıÐ½": 5244,
      "ĠÐ½Ð°ÑĪÐµÐ³Ð¾": 5245,
      "ĠÑĤÐµÑħÐ½Ð¾Ð»Ð¾Ð³Ð¸Ð¸": 5246,
      "........": 5247,
      "ĠÐ´Ð°Ð½Ð½Ð¾Ð¼": 5248,
      "ĠÐ±Ð¾Ð»ÐµÐ·Ð½Ð¸": 5249,
      "Ð¸Ð½ÑĤÐµÑĢÐµÑģ": 5250,
      "ÑĥÐ»ÑĮ": 5251,
      "ĠÐ·Ð°Ð¼ÐµÑĤ": 5252,
      "ĠÐ¿ÑĢÐµÐ¾Ð´": 5253,
      "ĠÐ¾Ð±ÑĬÐµÐ´Ð¸": 5254,
      "ĠÐ½Ð°ÐºÐ¾Ð½ÐµÑĨ": 5255,
      "Ð¿ÐµÑĢÐµ": 5256,
      "Ð´Ð°Ð¿": 5257,
      "ĠÐ³Ð°ÑĢ": 5258,
      "ÑħÐ¾Ð´Ð¸Ð»Ð¸": 5259,
      "ĠÑįÐ»ÐµÐ¼ÐµÐ½ÑĤÐ°": 5260,
      "Ð²ÑĭÐ¼Ð¸": 5261,
      "ĠÑĢÑĥÐ±": 5262,
      "ÑĤÐµÐ»ÑĮÐ½Ð¾Ð¼": 5263,
      "ÐļÐĲ": 5264,
      "ĠÐ½Ð°ÑĩÐ¸Ð½Ð°ÐµÑĤ": 5265,
      "ĠÑįÐ¼Ð¾ÑĨÐ¸Ð¾Ð½Ð°Ð»ÑĮ": 5266,
      "ÐĶÐµ": 5267,
      "ĠÑĦÐ¸Ð½Ð°Ð½ÑģÐ¾Ð²": 5268,
      "Ð¾Ð²Ðµ": 5269,
      "ĠÐ¿Ð¸ÑĪÐµÑĤ": 5270,
      "ÐµÐ¼ÑģÑı": 5271,
      "ÑģÑĤÐ°Ð»": 5272,
      "ĠÐ¿Ð¾Ð¿ÑĢÐ¾": 5273,
      "Ġ188": 5274,
      "ĠÑĨÐµÐ½ÑĤÑĢÐµ": 5275,
      "ĠÑģÐ¾Ð±ÑĭÑĤÐ¸Ð¹": 5276,
      "ĠÐ¼Ð³": 5277,
      "ĠÐ²Ð¾ÐµÐ½Ð½Ð¾": 5278,
      "are": 5279,
      "ĠÑģÐ¾ÑĢ": 5280,
      "ĠÑģÐ¾ÑĢÐµÐ²Ð½Ð¾Ð²Ð°": 5281,
      "ĠÐ¾Ð±Ð°": 5282,
      "ĠÐ¾Ð±ÑģÐ»ÑĥÐ¶Ð¸": 5283,
      "ĠÐ¿ÑĢÐµÐ²Ñĭ": 5284,
      "ĠÐĺÑħ": 5285,
      "ĠÑĩÐµÑģÑĤÑĮ": 5286,
      "ĠÐĺÐ¼ÐµÐ½Ð½Ð¾": 5287,
      "ĠÐºÐ°Ð½Ð´Ð¸Ð´Ð°": 5288,
      "ÐĺÐ³ÑĢÐ¾ÐºÐ¸": 5289,
      "Ð¡Ð¸": 5290,
      "ĠÐ¿ÑĢÐ¾ÑĤÐ¸Ð²Ð¾ÑĢÐµ": 5291,
      "ĠÐ¿Ð¾ÐºÐ¾Ð»": 5292,
      "Ð½Ð°ÑĩÐµ": 5293,
      "ÑīÐµÐ½Ð°": 5294,
      "ĠÐ²ÐµÑīÐµÑģÑĤÐ²Ð°": 5295,
      "ĠÐĺÑģ": 5296,
      "Ð³Ð°Ð¼Ð¸": 5297,
      "ĠÐĿÐ¾ÑĢ": 5298,
      "ÐºÐ»Ð¸": 5299,
      "ÑĤÐ¸Ð»Ð»Ðµ": 5300,
      "ĠÑģÐ»ÑĥÐ¶Ð±Ñĭ": 5301,
      "ĠÐ¼Ð°ÑĪÐ¸Ð½": 5302,
      "Ð¼Ð¾Ð¼": 5303,
      "ĠÐ¸Ð½ÑĤÐµÐ»Ð»ÐµÐºÑĤÐ°": 5304,
      "Ð»ÐµÐ½Ð½Ð°Ñı": 5305,
      "ÑģÑģÑĭ": 5306,
      "ĠÐ¸Ð½ÑĦÐµÐº": 5307,
      "Ġe": 5308,
      "ĠÐ§ÐµÐ¼": 5309,
      "ĠÐ±ÑĭÑģÑĤ": 5310,
      "ĠÐĺÐ½ÑĤÐµÑĢ": 5311,
      "Ð´Ð¾Ð¹": 5312,
      "ĠÑĢÐµÐ°": 5313,
      "ĠÐ¸Ð·Ð³Ð¾ÑĤÐ¾Ð²": 5314,
      "ive": 5315,
      "ĠÑįÐ»ÐµÐ¼ÐµÐ½ÑĤÐ¾Ð²": 5316,
      "ĠÑĢÐ°Ð´Ð¸Ð¾": 5317,
      "ĠÐ´ÐµÐ»": 5318,
      "ĠÑĥÐ³ÑĢÐ¾Ð·": 5319,
      "ĠÐ¼Ð¾Ð½Ð°ÑģÑĤÑĭ": 5320,
      "Ð¾ÐºÐ¾Ð¼": 5321,
      "ĠÐ½Ð¾Ð¼ÐµÑĢ": 5322,
      "Ġ1990": 5323,
      "Ð»Ñĳ": 5324,
      "ÑĥÑİÑīÐ¸Ð¹": 5325,
      "ĠÐ¼Ð¾ÐµÐ¹": 5326,
      "ÑĤÐ¸ÑĩÐµÑģÐºÐ¾Ð¹": 5327,
      "ÑĦÐµÐ¹": 5328,
      "ĠÐĵÑĢÐµ": 5329,
      "ĠÐ¼Ð¾Ð¼ÐµÐ½ÑĤÐ°": 5330,
      "ĠÑĢÐµÐ´": 5331,
      "ĠIII": 5332,
      "ĠÑĤÑĢÐµÐ±Ð¾Ð²Ð°": 5333,
      "ĠÐ²Ð¾Ð¹Ð½Ðµ": 5334,
      "ĠÐºÐ½Ð¸Ð³": 5335,
      "ĠÐ¿Ð¾ÐºÑĥÐ¿": 5336,
      "ĠÐĿÐ°ÑĨÐ¸Ð¾Ð½Ð°Ð»ÑĮ": 5337,
      "ĠÐ²Ð½Ð¸Ð¼Ð°Ð½Ð¸Ñı": 5338,
      "imes": 5339,
      "ÑİÑīÐ¸Ð¹ÑģÑı": 5340,
      "ĠÐ·Ðµ": 5341,
      "ĠÐ¿Ð¾Ð¸ÑģÐºÐ°": 5342,
      "Ð½Ð¾Ð´": 5343,
      "ÑĩÐµÑģÐºÐ¾Ð¼Ñĥ": 5344,
      "ĠÐ¿ÑĢÐ¾ÑıÐ²": 5345,
      "ÑģÑĤÑıÐ¼Ð¸": 5346,
      "ĠÐ¾ÑģÑĤÐ°ÐµÑĤÑģÑı": 5347,
      "ĠÑįÐ½ÐµÑĢÐ³Ð¸": 5348,
      "ĠÐ·ÑĢÐ¸": 5349,
      "ĠÐ¿Ð¾Ð»ÑĥÑĩÐ¸Ð»Ð°": 5350,
      "ĠÑģÐºÐ°Ð·Ð°Ð»Ð°": 5351,
      "Ġ1941": 5352,
      "Ð²ÑĪÐ¸Ð¹ÑģÑı": 5353,
      "ĠÐ´Ð°Ð½Ð½ÑĭÐ¹": 5354,
      "ĠÐºÐ°ÐºÐ¾Ðµ": 5355,
      "ĠÐ¶Ð¸Ð´ÐºÐ¾": 5356,
      "ĠÐ³Ð¾Ð²Ð¾ÑĢÐ¸Ð»": 5357,
      "ĠÐŁÑĢÐ°Ð²Ð¸": 5358,
      "Ð¾Ð¼Ñı": 5359,
      "ĠÐ½Ð°ÑĪ": 5360,
      "ÑĩÐ°Ð»": 5361,
      "ĠÑģÐµÐ¼ÑĮ": 5362,
      "ĠÑģÑĩÐ¸ÑĤÐ°ÐµÑĤ": 5363,
      "ĠÐŁÐ¾Ð·": 5364,
      "ÑħÐ¾Ð´Ð¸Ð»": 5365,
      "ĠÐ¸Ð´ÐµÐ¸": 5366,
      "ity": 5367,
      "ĠÑģÑĩÐ¸ÑĤÐ°ÐµÑĤÑģÑı": 5368,
      "ĠÐ¸Ð·Ð±Ð¸ÑĢÐ°": 5369,
      "ÑįÑĤÐ¾": 5370,
      "ÑĢÐ¾Ð²Ð¸": 5371,
      "45": 5372,
      "ĠÐ¸Ð´ÐµÐ½ÑĤÐ¸": 5373,
      "ÑįÐº": 5374,
      "ĠÐĺÑģÐ¿Ð¾Ð»ÑĮÐ·Ñĥ": 5375,
      "ĠÐ¿ÑĢÐµÐ¾Ð±ÑĢÐ°Ð·Ð¾Ð²Ð°": 5376,
      "Ġ2002": 5377,
      "ÐºÑĥÐ´Ð°": 5378,
      "ĠÑģÐµÑĢÐ´Ðµ": 5379,
      "Ð¾ÑĨÐ¸Ð°": 5380,
      "ĠÐ·ÐµÑĢ": 5381,
      "ÑĤÐ¸Ð¼": 5382,
      "ÐµÐ¹Ð½": 5383,
      "ÑĥÐ´Ð¾Ð²": 5384,
      "ĠÐ´Ð°Ð²Ð°Ð¹ÑĤÐµ": 5385,
      "Ð¾Ð²Ð°ÑĢÐ¸": 5386,
      "ĠÐ¿Ð¾Ð´Ð¿Ð¸": 5387,
      "ĠÐļÐ°Ð½Ð°": 5388,
      "ĠÐºÐ¾ÑĢÐ¾Ð»ÐµÐ²": 5389,
      "ĠÑĦÐ°ÐºÑĤ": 5390,
      "ĠÐ·Ð°Ð´Ð°ÑĩÐ°": 5391,
      "ĠÐ±Ð¾ÑĢÑĮÐ±Ñĭ": 5392,
      "ĠÐ²ÑĭÐ¿Ð¾Ð»Ð½Ñı": 5393,
      "ÑĪÐ¸Ð»": 5394,
      "ĠÐ¿ÑĢÐ¾Ð¿Ñĥ": 5395,
      "ĠÐ»Ð¾": 5396,
      "ÑĦÐ¾ÑĢÐ¼": 5397,
      "ÑĢÐµÐ²Ð°": 5398,
      "ĠÐ¡ÑĢÐµÐ´Ð¸": 5399,
      "ĠÐ¿ÑĢÐµÐ´ÑģÐµÐ´Ð°": 5400,
      "ĠÐ´Ð¾ÑĢÐ¾Ð³Ð¸": 5401,
      "ĠÑĥÐ½Ð¸Ð²ÐµÑĢÑģÐ¸ÑĤÐµÑĤ": 5402,
      "ĠÑģÐ»ÑĥÑĩÐ°ÐµÐ²": 5403,
      "ÑĥÐº": 5404,
      "ĠÐºÐ¾Ð¶": 5405,
      "Ð»Ð¸ÑĤ": 5406,
      "ĠÐ¿ÐµÑĢÐ²Ð¾Ð½Ð°ÑĩÐ°": 5407,
      "ĠÐ´ÐµÐ¹ÑģÑĤÐ²Ð¸Ðµ": 5408,
      "ĠÐ²Ð¾ÑģÐº": 5409,
      "ĠÐ½Ð¸ÐºÐ°ÐºÐ¸Ñħ": 5410,
      "ĠÐ¿ÑĢÐ¾ÑĨÐµÐ´Ñĥ": 5411,
      "ĠÐ¿ÑĢÐ¸ÑĪÐ»Ð¾ÑģÑĮ": 5412,
      "Ð¾Ð»Ð¾Ð³Ð¸ÑĩÐµÑģÐºÐ¸Ñħ": 5413,
      "ĠÐĵÑĢÐ¸": 5414,
      "Ð²ÐµÑĢÑħ": 5415,
      "ĠÐ²ÑĤÐ¾ÑĢÐ¾Ð³Ð¾": 5416,
      "ĠÐ¾ÑĤÐ¼Ðµ": 5417,
      "ĠÐ±Ð°Ðº": 5418,
      "ÑĢÐ¾Ð²Ð¾Ð¹": 5419,
      "ĠÐ¸Ð·Ð¾Ð±ÑĢÐ°Ð¶": 5420,
      "ĠÐ¼Ð°Ð³": 5421,
      "Ð¾Ð±Ð°": 5422,
      "ĠÐºÐ¾Ð¼Ð°Ð½Ð´Ð°": 5423,
      "ĠÑįÐ½": 5424,
      "ĠÑģÐ¸Ð»ÑĮ": 5425,
      "ĠÑģÑĥÐ±ÑĬÐµÐº": 5426,
      "ĠÐ²Ð¾Ð·Ð´ÑĥÑħÐ°": 5427,
      "ĊĠ": 5428,
      "Ð¸Ð¼Ð¾": 5429,
      "ÐºÐ¾Ð²ÑĭÐµ": 5430,
      "ĠÐºÐ¾ÑĦÐµ": 5431,
      "ĠÐºÑĢÐµÐ¿Ð¾": 5432,
      "ĠÐ²ÑĭÐ´ÐµÐ»Ñı": 5433,
      "ĠÐ²Ð¸Ð½": 5434,
      "Ġst": 5435,
      "Ð»Ð°Ñħ": 5436,
      "ĠÐĺÑģÐ¿Ð°": 5437,
      "ĠÑģÑĤÐ¾Ð»ÑĮ": 5438,
      "ĠÐ»ÐµÐ¹": 5439,
      "Ð¾ÑģÐ½Ð¾Ð²Ð°": 5440,
      "Ġis": 5441,
      "ĠÐ½Ð°Ð¿ÑĢÐ°Ð²Ð»ÐµÐ½Ð¸Ð¸": 5442,
      "ĠÐ¼ÐµÐ¶": 5443,
      "Ð»Ð¾Ð¿": 5444,
      "ĠÑĢÐ°Ð·Ð³": 5445,
      "ĠÐ¿Ð¾Ð²ÐµÐ´ÐµÐ½Ð¸Ñı": 5446,
      "ĠÐļÐ°Ð»Ð¸": 5447,
      "Ð»Ð°Ð½Ð´Ð¸Ð¸": 5448,
      "Ġ)": 5449,
      "ĠÐ¸Ð³ÑĢÐ°ÑĤÑĮ": 5450,
      "ep": 5451,
      "ĠÐ¿Ð¾Ð´Ð¾Ð·": 5452,
      "ĠÐºÑĢÐ¸Ð·Ð¸": 5453,
      "Ð»Ð¸ÑĩÐ¸Ñı": 5454,
      "ĠÐ¿ÑĢÐµÐ¼": 5455,
      "ĠÐ¿Ð¾Ð²ÐµÐ´ÐµÐ½Ð¸Ðµ": 5456,
      "ĠÐ³ÑĢÑĥÐ¿Ð¿Ðµ": 5457,
      "ÑīÑĳÐ½": 5458,
      "ĠÐ·Ð½Ð°ÐµÑĤ": 5459,
      "ÑĢÐ¾Ð²Ð°Ð½Ð½ÑĭÐ¹": 5460,
      "ĠÐ²ÐµÐ±": 5461,
      "ĠÐ¿ÑĢÐ¾ÑĪÐ»Ð¾Ð¼": 5462,
      "ĠÐ²ÑĭÑģÑĤÐ°Ð²": 5463,
      "ĠÑģÑĤÑĢÐµÐ¼": 5464,
      "ĠÐ»Ð¸ÑĩÐ½Ð¾": 5465,
      "Ð»ÐµÐ½Ð½ÑĭÐ¼": 5466,
      "ĠÐºÐ¾Ð¼Ð¼ÐµÐ½ÑĤÐ°": 5467,
      "Ġ45": 5468,
      "ĠÐ¿ÐµÑĩÐ°": 5469,
      "ĠÐ°ÑĤÐ¼Ð¾Ñģ": 5470,
      "Ð´Ð¾Ðº": 5471,
      "ĠÐºÐ¸Ð½": 5472,
      "Ð²Ð°Ð¹": 5473,
      "Ð¼Ð°Ð½Ð°": 5474,
      "ĠÑģÐ±Ð¾ÑĢÐ½Ð¾Ð¹": 5475,
      "ĠÐ²ÑĭÐ±Ð¸ÑĢÐ°": 5476,
      "ĠÑģÐ¾ÐµÐ´Ð¸": 5477,
      "64": 5478,
      "ĠÐ³Ð»Ð¾Ð±": 5479,
      "ĠÐ¾ÑĤÑĨÐ°": 5480,
      "Ð½ÑĥÐ»Ð°": 5481,
      "ÐĲÐ²": 5482,
      "ĠÐ¸Ð½Ð´Ñĥ": 5483,
      "Ð²ÐµÐ´ÐµÐ½Ð¸Ðµ": 5484,
      "ĠÑİÐ³Ð¾": 5485,
      "ĠÑģÐ¼ÑĭÑģÐ»": 5486,
      "Ġ31": 5487,
      "ĠÐ±Ð¾Ð»ÑĮÑĪÐ¸Ð¼": 5488,
      "ĠÐļÐ¾Ð½ÐµÑĩÐ½Ð¾": 5489,
      "ÑĤÑĭÐ¼Ð¸": 5490,
      "ĠÐ½Ð°ÑģÑĤÐ¾Ð»ÑĮÐºÐ¾": 5491,
      "Ð¶ÐµÑĢ": 5492,
      "ĠÑĢÐ°Ð²Ð½Ð°": 5493,
      "ĠÐ²Ð¾ÐµÐ½Ð½ÑĭÑħ": 5494,
      "ÑģÐºÐ¾ÑĢ": 5495,
      "ĠÐ¿Ð¾Ð»Ð½Ð¾Ð¼": 5496,
      "Ð»ÑıÐµÑĤ": 5497,
      "ĠÐŁÐ¾ÑģÐºÐ¾Ð»ÑĮÐºÑĥ": 5498,
      "ÑģÑĭÐ»ÐºÐ¸": 5499,
      "ĠÑĪÐ°Ð½": 5500,
      "ĠÐ½ÐµÑĢÐ²": 5501,
      "ĠÐ¡Ð¾Ð²ÐµÑĤÐ°": 5502,
      "ĠÐ½Ð°Ð¿Ð¾Ð¼Ð¸Ð½Ð°": 5503,
      "ĠÐ¿ÐµÑĢÐ¸Ð¾Ð´Ð°": 5504,
      "ĠÐ¿Ð¾Ð´Ð¿Ð¸ÑģÐ°": 5505,
      "ÑĦÑĭ": 5506,
      "ĠÐ²ÑģÐ¿Ð¾Ð¼": 5507,
      "ĠÐ´Ð¾Ð¼Ðµ": 5508,
      "ĠÐºÐ°ÐºÐ¸Ð¼": 5509,
      "Ð¶ÐµÐ½Ð¸Ñİ": 5510,
      "ĠÑģÐµÑĢÐ´ÑĨÐµ": 5511,
      "Ð´ÐµÐ¼": 5512,
      "ĠÐ±Ð»Ð¸Ð¶Ð°Ð¹": 5513,
      "ĠÐ´Ð¸Ð·Ð°": 5514,
      "ĠÑĢÐ°Ð·ÑĢÐ°Ð±Ð¾ÑĤÐ°": 5515,
      "ĠÐºÐ¸ÑģÐ»Ð¾ÑĤ": 5516,
      "Ð¼ÑĭÑĪ": 5517,
      "!!": 5518,
      "ĠÐ¶ÐµÐ»": 5519,
      "ĠÑĦÐ¸Ð»ÑĮÐ¼Ðµ": 5520,
      "ÐµÑħÐ°Ð»": 5521,
      "ĠÐ²ÑĭÐ¿ÑĥÑģÐºÐ°": 5522,
      "ĠÐ½Ð°Ð³ÑĢÑĥÐ·": 5523,
      "Ġ500": 5524,
      "Ð°Ð»ÑĮÐ½ÑĭÐ¹": 5525,
      "ĠÐ¿ÑĢÐ¾ÐµÐºÑĤ": 5526,
      "Ġ2003": 5527,
      "ÑĥÐ·": 5528,
      "ĠÐ½ÐµÐ¸Ð·Ð²ÐµÑģÑĤ": 5529,
      "Ġ2018": 5530,
      "ĠÐ½Ð°ÑĥÐºÐ¸": 5531,
      "ĠÐºÐ¾Ð¿Ð¸": 5532,
      "ÐºÐ¼": 5533,
      "ĠÑĤÐ¸ÑĤÑĥ": 5534,
      "Ìģ": 5535,
      "ĠÐ¿ÑĢÐµÐºÑĢÐ°Ñģ": 5536,
      "ĠÐ²ÐµÑĢÑģÐ¸Ð¸": 5537,
      "ĠÐ²Ð·Ð³Ð»ÑıÐ´": 5538,
      "ĠÑģÐ°Ð¼ÑĭÐµ": 5539,
      "ĠÐĳÐµÐ»": 5540,
      "ĠÐ²Ð¾Ð´Ñĥ": 5541,
      "Ġ2001": 5542,
      "ÑģÐ¸Ð¸": 5543,
      "ĠÐĺÑĢÐ°": 5544,
      "ĠÐ¿Ð¾Ð²ÑĤÐ¾ÑĢ": 5545,
      "38": 5546,
      "ĠÐ¾ÑħÑĢÐ°": 5547,
      "Ð±ÐµÑĢÐµ": 5548,
      "ĠÐ²Ð¸Ð´ÐµÑĤÑĮ": 5549,
      "Ð½Ð½Ð°Ñı": 5550,
      "Ð²ÑĮÑİ": 5551,
      "ĠÐ°Ð»ÑĮÑĤÐµÑĢÐ½Ð°": 5552,
      "ĠÑģÐ²ÑıÐ·Ð°Ð½Ð¾": 5553,
      "ĠÑģÐ¿ÑĢÐ°Ð²ÐµÐ´": 5554,
      "ĠÐĴÑĤÐ¾ÑĢÐ¾Ð¹": 5555,
      "ĠÐĵÐ¾Ð»": 5556,
      "ĠÑģÑĤÐ°ÑĤÑĮÐµ": 5557,
      "indows": 5558,
      "ĠÐ¿Ð¾Ð¿ÑĭÑĤÐ°": 5559,
      "ĠÑģÐµÐ·Ð¾Ð½Ð°": 5560,
      "Ð¼Ð°ÑĤ": 5561,
      "ĠÐ¶Ð¸ÑĤÑĮ": 5562,
      "ĠÐ±Ð»Ð°Ð³Ð¾": 5563,
      "ĠÐ³Ð¾Ð»Ð¾Ð²Ñĥ": 5564,
      "ĠÐ¿Ð¾ÑģÐ»ÐµÐ´Ð½Ð¸Ð¹": 5565,
      "ĠÐ±ÑĥÐ´ÑĤÐ¾": 5566,
      "ĠÐ°Ð½Ð°Ð»Ð¸Ð·Ð°": 5567,
      "ĠÐ½Ð°Ð·ÑĭÐ²Ð°ÑİÑĤ": 5568,
      "Ð²Ð°Ð½Ð¸Ð¹": 5569,
      "ÑĪÐµÐ½Ð¸Ð¸": 5570,
      "ĠÐ¸ÑģÐºÑĥÑģÑģÑĤÐ²ÐµÐ½Ð½Ð¾Ð³Ð¾": 5571,
      "ĠÐŁÐ¾Ð¼": 5572,
      "ĠÐ¾ÑģÐ½Ð¾Ð²Ð½ÑĭÐµ": 5573,
      "Ð¿Ð°Ð´Ð°": 5574,
      "ĠÐ¡Ð¿": 5575,
      "ĠÐ²ÑĭÑĪÐµÐ»": 5576,
      "ÑģÑĤÐ¾ÐºÐµ": 5577,
      "ĠÑģÐ¿Ð¾ÑģÐ¾Ð±Ð½Ð¾ÑģÑĤÑĮ": 5578,
      "ĠÑģÐµÑĢÐ´ÑĨÐ°": 5579,
      "ĠÐ»Ð°Ð³": 5580,
      "ĠÐ´ÐµÑĤÐ°": 5581,
      "ÐĴÐ¾Ð·": 5582,
      "ĠÐ½Ð°Ð·Ð½Ð°ÑĩÐµÐ½": 5583,
      "ĠÐ¿ÑĢÐ¾Ð¸Ð·Ð²ÐµÐ´ÐµÐ½Ð¸Ñı": 5584,
      "ĠÑĢÐ°ÑģÑĤÐ¸": 5585,
      "ĠÐ¿Ð¸ÑĤÐ°Ð½Ð¸Ñı": 5586,
      "ĠÐ²ÑģÐºÐ¾ÑĢÐµ": 5587,
      "ÐºÐ°Ðº": 5588,
      "Ð²ÐµÐ»": 5589,
      "ÑģÐ°Ð¹": 5590,
      "ĠÑĪÐºÐ¾Ð»Ðµ": 5591,
      "ÐµÐºÑģÐ¸": 5592,
      "ÑĢÐ¾Ð²ÐµÑĢ": 5593,
      "Ð¸ÑģÐ¿": 5594,
      "Ð¾ÑģÐ»Ð°Ð²": 5595,
      "ĠÐ¿ÑĢÐ¸Ð½Ð¸Ð¼Ð°ÑĤÑĮ": 5596,
      "ĠÑĢÐ°Ð±Ð¾ÑĩÐ¸Ñħ": 5597,
      "ĠÐ³Ð²Ð°ÑĢ": 5598,
      "ĠÑĢÐ°ÑģÐºÑĢÑĭ": 5599,
      "ÑĤÐ¸ÑĤ": 5600,
      "ĠÑĤÐµÐ°ÑĤÑĢÐ°": 5601,
      "ĠÐ¿ÐµÑĢÐµÐ³Ð¾Ð²": 5602,
      "ÑĤÐ¸Ð²Ð½Ð¾Ðµ": 5603,
      "ĠÐ²ÑĭÑģÐ¾ÐºÐ¾Ð¹": 5604,
      "ĠÐ¿ÑĢÐ¾ÑĤÐ¸Ð²Ð½Ð¸ÐºÐ°": 5605,
      "Ð¡Ð»Ðµ": 5606,
      "ĠÐ´Ð¾Ð±Ð°Ð²Ð»Ñı": 5607,
      "ÑģÑĤÐ°Ð¼Ð¸": 5608,
      "ĠÐ¶ÐµÐ½Ð°": 5609,
      "ÐłÐĲ": 5610,
      "ĠÐłÐµÑģÐ¿ÑĥÐ±Ð»Ð¸ÐºÐ¸": 5611,
      "ĠÑĩÐµÐ»Ð¾Ð²ÐµÐºÐ¾Ð¼": 5612,
      "Ð²Ð¸Ð¸": 5613,
      "ĠÐĴÐ¼Ðµ": 5614,
      "ĠÐĽÐµÐ½Ð¸Ð½": 5615,
      "ĠÐ¼Ð¾Ð´Ñĥ": 5616,
      "Ð´ÑĢÐ¾": 5617,
      "ÐŁÐµÑĢÐµ": 5618,
      "Ð¶Ð°ÑĤ": 5619,
      "ĠÑįÐ»ÐµÐ¼ÐµÐ½ÑĤÑĭ": 5620,
      "Ð¾Ð»ÐµÐºÑĥ": 5621,
      "ĠÑģÐ¾Ð¾ÑĤÐ²ÐµÑĤÑģÑĤÐ²ÑĥÐµÑĤ": 5622,
      "Ð¼Ð¸ÑĤÑĢÐ¸": 5623,
      "Ð´ÑĭÑħÐ°": 5624,
      "ĠÐ±Ð¾Ð»ÑĮÑĪÐµÐ¹": 5625,
      "Ð¡Ð¡": 5626,
      "32": 5627,
      "ĠÐ¸ÑģÐ¿Ð¾Ð»ÑĮÐ·ÑĥÑİÑĤÑģÑı": 5628,
      "ĠÐ¿Ð¾ÑģÑĤÐµÐ¿ÐµÐ½Ð½Ð¾": 5629,
      "ĠÐ³ÑĢÐ¾Ð¼": 5630,
      "ĠÐ¿ÑĢÐ¸Ð·": 5631,
      "ĠÐĴÐµÐ½": 5632,
      "Ð¶ÑĥÑĤ": 5633,
      "ĠÑĩÑĥÐ²ÑģÑĤÐ²Ð°": 5634,
      "ĠÑĤÐµÐ»ÐµÑĦÐ¾Ð½": 5635,
      "ĠÐ¾ÑģÐ½Ð¾Ð²Ð½Ð¾Ð¹": 5636,
      "Ð¶Ð°ÐµÑĤÑģÑı": 5637,
      "ÑĢÐ¾Ð´Ðµ": 5638,
      "Ð³ÐµÑĤÐ¸": 5639,
      "ĠÐ´Ð¸Ð¿Ð»Ð¾Ð¼": 5640,
      "ÐºÑģÐ°": 5641,
      "ĠÐ´ÐµÑıÑĤÐµÐ»ÑĮ": 5642,
      "ĠÑĤÐ°ÐºÐ¸Ð¼Ð¸": 5643,
      "ly": 5644,
      "Ð¾ÑĢÐ´Ð¸Ð½Ð°": 5645,
      "Ð¶Ð´ÐµÐ½Ð¸Ð¹": 5646,
      "ÑģÐ¼ÐµÐ½": 5647,
      "Ð¾Ð»Ð¾Ñĩ": 5648,
      "Ð¶Ð½Ð¾Ð³Ð¾": 5649,
      "ĠÐ¿ÑĢÐ¾Ð´ÑĥÐºÑĤÑĭ": 5650,
      "ĠÐ´Ð½Ð¸": 5651,
      "ĠÐ¼Ð¸ÐºÑĢÐ¾": 5652,
      "ĠÐĲÑĦÑĢÐ¸": 5653,
      "ĠÐ¼Ð°ÑĤÐµÑĢÐ¸Ð°Ð»Ð¾Ð²": 5654,
      "ĠÐ´ÑĢÑĥÐ³Ð¾Ðµ": 5655,
      "ĠÑĤÐµÑĢÐ¼Ð¸": 5656,
      "ib": 5657,
      "ÐĿÐ°ÑģÐµ": 5658,
      "ĠÐ¾ÑĤÐ¼ÐµÑĤÐ¸ÑĤÑĮ": 5659,
      "ĠÑģÐ¿ÑĥÑģÑĤÑı": 5660,
      "ĠÐ¾ÑĢÑĥ": 5661,
      "ÐµÐ½ÑĤÐ¾Ð¼": 5662,
      "ÑĪÐµÐ½Ð¸ÐµÐ¼": 5663,
      "Ð¼ÐµÐ½Ð¸ÑĤÑĮ": 5664,
      "ĠÐ²ÐµÐºÐµ": 5665,
      "Ð»Ð°Ð±": 5666,
      "ĠÐĴÐµÐ»Ð¸ÐºÐ¾Ð¹": 5667,
      "ĠÐ¿Ð¾Ð´Ð´ÐµÑĢÐ¶ÐºÑĥ": 5668,
      "ĠÐĴÐ¸Ðº": 5669,
      "ÐŁÐµÑĤÐµÑĢ": 5670,
      "ĠÐ²ÑĢÐµÐ´": 5671,
      "ĠÑĦÐ¸Ð½Ð°Ð½Ñģ": 5672,
      "ĠÐºÐ°ÑĤÐµÐ³Ð¾ÑĢÐ¸Ð¸": 5673,
      "ÐĿÐŀ": 5674,
      "Ð±ÐµÐ»ÑĮ": 5675,
      "Ð·Ð¸ÑĢÑĥ": 5676,
      "Ð²ÐµÑĤÐ°": 5677,
      "ĠÐ¿Ð¾Ð´Ð´ÐµÑĢÐ¶ÐºÐ¸": 5678,
      "ĠÑģÐ¾Ð¿ÑĢÐ¾ÑĤÐ¸Ð²": 5679,
      "ĠÑģÑĩÐ¸ÑĤÐ°ÑİÑĤ": 5680,
      "ĠÐºÑĢÑĥÐ¿Ð½ÐµÐ¹": 5681,
      "ĠÐłÐ°Ñģ": 5682,
      "ĠÐľÐµÐ¶Ð´ÑĥÐ½Ð°ÑĢÐ¾Ð´": 5683,
      "Ð²Ð»Ð°": 5684,
      "ĠÐ½Ð°Ñĩ": 5685,
      "ĠÐ½Ð°ÑģÐºÐ¾Ð»ÑĮÐºÐ¾": 5686,
      "Ð¿ÑĥÑģÐº": 5687,
      "ĠÐ¸ÑģÐ¿Ð¾Ð»ÑĮÐ·Ð¾Ð²Ð°Ð½Ð¸ÐµÐ¼": 5688,
      "ĠÐ¿Ð¾ÑĤÑĢÐµÐ±Ð¸": 5689,
      "ĠÐ¿ÑĢÐ¾Ð³ÑĢÐµ": 5690,
      "ĠÐµÐ²ÑĢÐµÐ¹": 5691,
      "ĠÑģÑĤÑĢÐµÐ»": 5692,
      "ĠÐ´Ð°Ð»ÐµÐµ": 5693,
      "ÐºÐ¾Ð²Ð¾Ð³Ð¾": 5694,
      "ĠÐĲÐ´": 5695,
      "ĠÐ»Ð¸ÑĩÐ½Ð¾ÑģÑĤÐ¸": 5696,
      "ĠÐ¸Ð½ÑĤÐµÐ½": 5697,
      "Ġ1999": 5698,
      "ĠÐ²Ð¾Ð¹Ð½Ð°": 5699,
      "Ġ2017": 5700,
      "Ð½ÐµÐ½Ð¸Ð¸": 5701,
      "Ð´ÑĨÐ°ÑĤÑĮ": 5702,
      "ÑĨÐ¾Ð¼": 5703,
      "Ð¿ÑĢÐ°Ð²Ð¸ÑĤÑĮ": 5704,
      "ÐĳÐ¸Ð¾Ð³ÑĢÐ°ÑĦÐ¸Ñı": 5705,
      "ĠÐ³Ð»Ð°Ð·": 5706,
      "Ð¾Ð¶Ð¸ÑĤÑĮ": 5707,
      "ĠÑģÐ¾Ð±Ð»Ñİ": 5708,
      "37": 5709,
      "ĠÑģÐ²ÐµÑĢ": 5710,
      "ĠÐ½ÐµÐ¿ÑĢÐµ": 5711,
      "ĠÑģÑĤÑĢ": 5712,
      "ĠÐ¿Ð¾Ð´ÑĢÐ°Ð·": 5713,
      "05": 5714,
      "ĠÐŁÐ¾Ñģ": 5715,
      "ĠÑĪÐ°Ð³": 5716,
      "ĠÐ²Ð¾Ð·Ð½Ð¸ÐºÐ°ÐµÑĤ": 5717,
      "ĠÐ¸Ð½Ð¸ÑĨÐ¸": 5718,
      "ĠÐ²Ð°ÑĪÐ¸Ñħ": 5719,
      "Ġde": 5720,
      "ĠÐ²ÐµÑĢÐ¾ÑıÑĤÐ½Ð¾ÑģÑĤÑĮ": 5721,
      "ÑģÑĤÐ²Ð¸ÐµÐ¼": 5722,
      "65": 5723,
      "ĠÑģÐ¾Ð¾ÑĤÐ²ÐµÑĤÑģÑĤÐ²ÑĥÑİ": 5724,
      "ĠÐĴÐµÑĢÑħÐ¾Ð²": 5725,
      "ÑīÐ¸Ðº": 5726,
      "ĠÐ²ÐµÑīÐµÑģÑĤÐ²": 5727,
      "ĠÐºÑĢÐµÑģÑĤÑĮÑıÐ½": 5728,
      "ĠÐ·Ð°Ð¿Ð¾Ð»": 5729,
      "ĠÐ¿ÑĢÐµÐ¼Ð¸": 5730,
      "ĠÐĺÑģÑĤÐ¾": 5731,
      "Ð³ÑĢÐ°Ð´": 5732,
      "ĠÐ¾Ð³ÑĢÐ°Ð½Ð¸ÑĩÐµÐ½": 5733,
      "ĠÐ¸ÑģÐ¿Ð°Ð½": 5734,
      "ÐµÐ¼ÑĭÐ¼": 5735,
      "Ð¾ÑĢÐ¾ÑĪÐ¾": 5736,
      "ĠÑıÐ´ÐµÑĢ": 5737,
      "Ð¿Ð¾ÑĤÐµ": 5738,
      "ĠÐ¶ÐµÑģÑĤ": 5739,
      "Ð¿ÑĢÐ¾Ð¸Ð·": 5740,
      "ÑĢÐ°ÐºÑĤ": 5741,
      "Ð²ÑģÐµ": 5742,
      "ÑģÑĤÐ½Ð¾": 5743,
      "Ð¼ÑĭÐ¹": 5744,
      "ĠÐ¯Ð¿Ð¾Ð½Ð¸Ð¸": 5745,
      "Ð´Ð¸Ð»": 5746,
      "ĠÐ±Ð¾Ð»ÑĮÑĪÐ¸Ñħ": 5747,
      "ĠÐ½Ð¾ÑĩÑĮ": 5748,
      "ĠÐ½ÐµÑĥÐ´Ð°": 5749,
      "ĠÐ²Ð¾Ð´Ð¾Ð¹": 5750,
      "Ð¼ÐµÐ¹": 5751,
      "ĠÐ¾ÑĤÐ´ÐµÐ»ÑĮÐ½ÑĭÑħ": 5752,
      "ĠÐ²ÑĭÐ·ÑĭÐ²Ð°ÐµÑĤ": 5753,
      "ĠÐĹÐ°Ðº": 5754,
      "ĠÑĤÐ¾ÑĢÐ³": 5755,
      "ÑĤÐ¸Ð»ÑģÑı": 5756,
      "ĠÐ³Ð¾ÑĢÑı": 5757,
      "ÑĪÑĢÑĥ": 5758,
      "Ð´ÐµÑĢÐ¶Ð°": 5759,
      "Ð´Ð¾Ð»": 5760,
      "ĠÑĦÐ¸Ð»Ð¾ÑģÐ¾ÑĦÐ¸": 5761,
      "ĠÐºÐ¾Ð½ÑĦÐ¸": 5762,
      "Ð³Ð¾ÑĢÐ¸ÑĤ": 5763,
      "ox": 5764,
      "ĠÐĿÐ°ÑĢ": 5765,
      "ĠÑģÐ²Ð¾Ñĳ": 5766,
      "ĠÑĥÑģÑĤÐ°Ð½Ð°Ð²Ð»Ð¸": 5767,
      "ÑĪÐ°Ð½": 5768,
      "ĠÐ°ÑĢÑĤÐ¸Ð»Ð»Ðµ": 5769,
      "ĠÐ¾ÑħÐ²Ð°": 5770,
      "ĠÑĢÐ°ÑģÑģÐºÐ°Ð·ÑĭÐ²Ð°": 5771,
      "ĠÐ°Ð½Ð°Ð»Ð¸Ð·": 5772,
      "ĠÐ´Ð°Ð½Ð½Ð¾Ð³Ð¾": 5773,
      "ĠÐºÐ»Ð¸ÐµÐ½ÑĤÐ¾Ð²": 5774,
      "Ð²Ð°Ð»Ð¾": 5775,
      "Ð¾Ð½Ñĥ": 5776,
      "ÐºÐ¾ÑģÑĤÑĮ": 5777,
      "ĠÐĵÐ¸": 5778,
      "ĠÐ¿ÑĢÐ¾Ð²ÐµÐ´ÐµÐ½": 5779,
      "ĠÑģÐ¾Ð¶": 5780,
      "ĠÐ¿Ð¾Ð²Ð»Ð¸Ñı": 5781,
      "ĠÐ½Ð°Ð¿Ð¸ÑģÐ°Ð»": 5782,
      "ĠÐ²ÐµÑģÑĤÐ¸": 5783,
      "ĠÐ´Ð¸Ñģ": 5784,
      "ÑĤÑĢÐ¾Ð¿": 5785,
      "Ð½Ð¸Ð½Ð°": 5786,
      "ĠÐĺÑĢ": 5787,
      "ĠÑĤÑĢÐµÐ±ÑĥÐµÑĤÑģÑı": 5788,
      "Ġ`": 5789,
      "ĠÑģÐ²ÐµÑĤÐ°": 5790,
      "04": 5791,
      "ĠÐ¿Ð¾Ð»Ð¾Ð¶ÐµÐ½Ð¸Ñı": 5792,
      "ÐĶÐ¸": 5793,
      "ÑĬÐµÐ¼": 5794,
      "ĠÐºÐ½Ð¸Ð³Ðµ": 5795,
      "Ð¾Ð±ÑĢÐ°Ð·Ð¸": 5796,
      "ĠÑģÐ¿ÐµÑĨÐ¸": 5797,
      "ÑħÐ°Ð¼": 5798,
      "ÑĩÐ¸Ð¹": 5799,
      "ĠÐĶÐ°Ð½": 5800,
      "ĠÐĶÐ¶Ð¾ÑĢ": 5801,
      "ĠÐ²Ð¾Ð·Ð´ÑĥÑĪ": 5802,
      "ĠÐ¿ÑĢÐµÐ´Ð¼": 5803,
      "ĠÐºÐ°ÑĢÑĤÐ¾": 5804,
      "ĠÐŁÑĢ": 5805,
      "ĠÑģÐ½Ðµ": 5806,
      "ĠÑģÑĢÐ°Ð²Ð½Ð¸": 5807,
      "ÑīÐ¸ÐºÐ¾Ð²": 5808,
      "ĠÐ¸Ð¼ÐµÐ»Ð¸": 5809,
      "ĠÐ±ÐµÑĢÐµÐ³Ñĥ": 5810,
      "ÑĤÐ¾ÑĢÑı": 5811,
      "ĠÑģÐ¾Ð·Ð´Ð°Ð½Ð¸Ðµ": 5812,
      "ĠÐ¿Ð¾ÑĢÑıÐ´ÐºÐµ": 5813,
      "Ð¾Ð¶Ð´Ðµ": 5814,
      "ĠÑģÐ°Ð¼Ð°": 5815,
      "ÑĩÐ¸Ð½Ð°Ñı": 5816,
      "ĠÑĥÐ½Ð¸ÑĩÑĤÐ¾Ð¶": 5817,
      "ĠÐ´ÐµÐ¿ÑĥÑĤÐ°": 5818,
      "ĠÐºÐ¾Ð¶Ð¸": 5819,
      "ÑģÑĤÐ°ÑĤÐ¸": 5820,
      "ĠÐ¼Ð°ÑĤÐµÑĢÐ¸Ð°Ð»": 5821,
      "99": 5822,
      "Ð±Ð¸Ð»": 5823,
      "ĠÐ±Ð»Ðµ": 5824,
      "ĠÐ¿ÐµÑĢÑģÐ¿ÐµÐº": 5825,
      "Ð´Ð°Ð³": 5826,
      "))": 5827,
      "ÐµÐ´ÑĮ": 5828,
      "ĠÑĢÐ°Ð·Ð´ÐµÐ»Ð¸": 5829,
      "31": 5830,
      "%.": 5831,
      "up": 5832,
      "Ð½Ð¸ÑĨÐ¸Ð¿Ð°": 5833,
      "ĠÐ¾ÑĢÐ³Ð°Ð½Ð¾Ð²": 5834,
      "ĠÐľÐ¾Ð»": 5835,
      "ĠÐŀÐ»Ð¸Ð¼Ð¿Ð¸Ð¹": 5836,
      "ÑĩÐ°Ñı": 5837,
      "ĠÐ¿ÑĢÐµÐ´ÑĥÐ¿ÑĢÐµ": 5838,
      "ĠÐ¿Ð¾Ð´ÑĩÐ¸": 5839,
      "ÐļÑĢÐ¾Ð¼Ðµ": 5840,
      "ĠÐ¿Ð»ÐµÐ½": 5841,
      "Ð½Ð¸ÑĨÐµÐ¹": 5842,
      "ĠÐĺÑĤÐ°Ðº": 5843,
      "ĠÐ½Ð¾Ð²ÑĥÑİ": 5844,
      "ĠÐļÑĢÐ¸": 5845,
      "ĠÐ²Ð¾Ð´Ð°": 5846,
      "ĠÐĴÐ¾ÑģÑĤÐ¾": 5847,
      "ĠÐ¿ÑĢÐ¸ÑģÐ¾ÐµÐ´Ð¸": 5848,
      "ĠÐ¿ÐµÑĢÐµÑħÐ¾Ð´": 5849,
      "ĠÐ½Ð¾Ð²Ð¾Ðµ": 5850,
      "01": 5851,
      "ÑĢÑħÐ¸": 5852,
      "Ð±Ð°Ð½": 5853,
      "ĠÑģÑĤÐµÐ¿ÐµÐ½ÑĮ": 5854,
      "Ð»Ð°Ð¹": 5855,
      "Ð²Ð°Ð½Ð¸Ð¸": 5856,
      "ĠÑĥÐ¼Ðµ": 5857,
      "ÐĽÐµ": 5858,
      "ĠÑĤÐµÐºÑģÑĤÐ°": 5859,
      "ĠÑģÑĤÐ¾ÑĢÐ¾Ð½Ðµ": 5860,
      "ĠÐ¿ÑĢÐ¾Ð²ÐµÐ´ÐµÐ½Ð¸Ñı": 5861,
      "ĠÑģÐºÐ¾ÑĢÐ¾ÑģÑĤÐ¸": 5862,
      "ĠÐļÑĥÑĢ": 5863,
      "ĠÐ´Ð°Ð»ÐµÐºÐ¾": 5864,
      "ĠÐ¾Ð±ÑīÐ¸": 5865,
      "ÑģÑĤÐ¾ÑĢÐ¾Ð½": 5866,
      "ĠÐ½Ð°Ð±Ð¾ÑĢ": 5867,
      "Ð´Ð¾Ð²Ð°ÑĤÐµÐ»ÑĮÐ½Ð¾": 5868,
      "ÑģÑĥÐ»ÑĮÑĤÐ°": 5869,
      "ĠÑģÐµÑĢÐµÐ´Ð¸Ð½Ðµ": 5870,
      "ĠÑĤÐ²ÐµÑĢ": 5871,
      "Ð¿Ð¸ÑĤÐ°Ð½": 5872,
      "ame": 5873,
      "Ð»ÐµÐ½Ð½Ð¾Ðµ": 5874,
      "ĠÐºÐ°Ð¶Ð´Ð¾Ð¼": 5875,
      "ĠÐ°Ð´Ð°Ð¿": 5876,
      "ÑīÐ°ÑİÑĤ": 5877,
      "ĠÑįÐºÐ¾Ð½Ð¾Ð¼Ð¸ÐºÐ¸": 5878,
      "ĠÐ½ÐµÐ¾Ð±ÑħÐ¾Ð´Ð¸Ð¼": 5879,
      "ĠÐ¿ÑĢÐ¸Ð²Ð»Ðµ": 5880,
      "ÐµÑĢÐ¸ÑĤÑĮ": 5881,
      "ĠÐ³Ð¸Ð¿ÐµÑĢ": 5882,
      "ĠÐ¿ÑĢÐµÐ´Ð¿ÑĢÐ¸Ð½Ð¸Ð¼Ð°": 5883,
      "ĠÑģÐ¾ÑħÑĢÐ°Ð½Ð¸": 5884,
      "her": 5885,
      "ÑĪÐµÐ²": 5886,
      "Ð·Ð¼Ðµ": 5887,
      "ĠÐºÑĢÐ°Ð¹Ð½ÐµÐ¹": 5888,
      "Ð´ÐºÐ°": 5889,
      "ĠÐ¾Ð¿Ñĭ": 5890,
      "ĠÐ²ÑħÐ¾Ð´": 5891,
      "Ð¼Ð¼": 5892,
      "ÐºÐ¾Ð¼Ñĥ": 5893,
      "Ð¾Ð¶Ð¸Ð´Ð°Ð½": 5894,
      "ĠÐ¾Ð±ÑĬÑıÐ²": 5895,
      "ĠÑĩÑĥÐ²ÑģÑĤÐ²Ð¾": 5896,
      "ĠÑĤÑĢÐµÐ²": 5897,
      "ĠÐ¸ÑģÑĤÐ¸Ð½": 5898,
      "ĠÐ³ÑĢÐ¸": 5899,
      "ĠÐ¼Ð°ÑĤÑĮ": 5900,
      "ĠÐ³Ð¾ÑģÑĥÐ´Ð°ÑĢÑģÑĤÐ²Ð¾": 5901,
      "ĠÐ¶ÐµÐ½ÑīÐ¸Ð½Ð°": 5902,
      "ĠÐ±Ð¾ÑĢÑĮÐ±Ðµ": 5903,
      "ĠÐ½ÐµÐ¿Ð¾ÑģÑĢÐµÐ´ÑģÑĤÐ²ÐµÐ½Ð½Ð¾": 5904,
      "ĠÑħÑĥ": 5905,
      "Ð¾Ð²Ð¸Ñĩ": 5906,
      "Ð¾Ð»Ð¾Ð³Ð¸ÑĩÐµÑģÐºÐ¸Ðµ": 5907,
      "ĠÑĤÑĢÑĳÑħ": 5908,
      "ĠÐ²ÑĭÐ¶Ð¸": 5909,
      "ĠÐ¿ÑĢÐ¾ÑĦÐ¸": 5910,
      "ĠÐ²Ð°Ð¼Ð¸": 5911,
      "Ð¾Ð¼ÐµÑĤ": 5912,
      "ĠÐ¾ÑģÐ½Ð¾Ð²Ñĭ": 5913,
      "ĠÐ¶Ð°Ð½": 5914,
      "ĠÑĥÑĩÐµÑĤ": 5915,
      "ĠÐ¿ÑĢÐ¸Ð½ÑıÐ»": 5916,
      "ĠÑĩÐ°ÑģÑĤÐµÐ¹": 5917,
      "ĠÐ¸Ð·Ð¼ÐµÐ½Ð¸ÑĤÑĮ": 5918,
      "ĠWindows": 5919,
      "Ð»ÑĳÐ½Ð½ÑĭÐµ": 5920,
      "eg": 5921,
      "ĠÐ³Ð¾Ð²Ð¾ÑĢÐ¸ÑĤÑģÑı": 5922,
      "ont": 5923,
      "ĠÐ¿ÑĢÐµÐ´Ð²Ð°ÑĢÐ¸": 5924,
      "ĠÐĴÐ¾Ð·Ð¼Ð¾Ð¶Ð½Ð¾": 5925,
      "ÑģÑĤÐµÑĢÐ°": 5926,
      "ÑĪÐµÐ½Ð¸Ð¹": 5927,
      "ĠÐ¤Ð¾ÑĢ": 5928,
      "ĠÐ½ÐµÐ´ÐµÐ»Ð¸": 5929,
      "ĠÑģÑĥÐ¿": 5930,
      "ĠÐ¿ÑĢÐ¾ÑģÑĤ": 5931,
      "ÑİÑĢ": 5932,
      "ĠÐ¿ÑĢÐ¸ÑĩÐµÐ¼": 5933,
      "ÑģÑĤÐ²ÐµÐ½Ð½ÑĥÑİ": 5934,
      "55": 5935,
      "ÑģÑĤÑĢÐ¾Ð²": 5936,
      "ĠÐ·Ð°Ð¿Ð¸ÑģÐ¸": 5937,
      "ĠÐ·Ð¸Ð¼": 5938,
      "ĠÐ½Ð°Ð²ÐµÑĢ": 5939,
      "ÑĢÐ¾Ð²Ð°Ð½Ð¸Ð¸": 5940,
      "ĠÐ²Ð¸Ð´Ñĭ": 5941,
      "ÑĤÐ¸ÑĩÐµÑģÐºÐ¸Ñħ": 5942,
      "ĠÐ±ÑĥÐ´ÑĥÑīÐµÐ¼": 5943,
      "ĠÐ½Ð°Ð¿Ð°Ð´": 5944,
      "ĠÐºÐ¾Ð½ÐµÑĩÐ½Ð¾Ð¼": 5945,
      "ĠÐ³Ð»Ð°Ð²Ðµ": 5946,
      "ĠÑĪÐµÑģÑĤÑĮ": 5947,
      "ian": 5948,
      "ÑģÑĤÐ½Ð¾Ð¹": 5949,
      "Ð»Ð¾Ð¶ÐµÐ½Ð¸Ðµ": 5950,
      "ass": 5951,
      "ÐĴÐ¾ÑĤ": 5952,
      "Ð²ÑĭÑĩÐ°Ð¹": 5953,
      "ĠÐľÑį": 5954,
      "Ð²ÐµÑĢÐµ": 5955,
      "Ð¡Ð°Ð¼": 5956,
      "ĠÐ±ÑĢÐ°ÑĤ": 5957,
      "ĠÐŁÐ¾ÑĩÐµÐ¼Ñĥ": 5958,
      "ĠÑĢÐ°Ð·ÑĥÐ¼": 5959,
      "ĠÐ±ÑĥÐ´ÐµÑĤÐµ": 5960,
      "ĠÐ²Ð¸Ð´Ð°": 5961,
      "ĠÐ¿ÐµÑĢÐ²Ð¾Ðµ": 5962,
      "ĠÐ¼ÐµÑģÑıÑĨÐ°": 5963,
      "ĠÐ¾ÑĤÐ¿ÑĢÐ°Ð²Ð»Ñı": 5964,
      "Ð¸Ð²": 5965,
      "Ð±ÑĢÐµ": 5966,
      "ĠÐ¾ÐºÑĢÑĥÐ³Ð°": 5967,
      "ld": 5968,
      "ĠÑĥÐ´Ð¸Ð²Ð¸": 5969,
      "ĠÑĩÑĥÑĤÑĮ": 5970,
      "ĠÐ¿ÐµÑĢÐµÐ´Ð°ÑĩÐ¸": 5971,
      "ĠÐ¿ÑĥÐ½ÐºÑĤÑĭ": 5972,
      "ĠÑĥÐ»Ñĭ": 5973,
      "Ð¾Ð±Ð»Ð°": 5974,
      "ĠÐ´ÐµÐ»Ð¸": 5975,
      "ĠÐ¾Ð¿ÑĭÑĤÐ°": 5976,
      "ĠÐ¼Ð°ÑĪÐ¸Ð½Ñĭ": 5977,
      "ĠÑĢÐµÑĨÐµÐ¿": 5978,
      "ĠÐ¿ÑĢÐ¾ÑĤÐ¸Ð²Ð¾": 5979,
      "ĠÐ¿ÑĢÐ¸Ð¼ÐµÐ½ÐµÐ½Ð¸Ñı": 5980,
      "ĠÑĢÐµÐ²Ð¾Ð»ÑİÑĨÐ¸Ð¸": 5981,
      "ĠÐ¿Ð¾Ð´ÑħÐ¾Ð´Ñı": 5982,
      "ĠÐºÐ¾Ð¼Ð¿Ð»ÐµÐºÑģ": 5983,
      "ÑĢÑĭÐµ": 5984,
      "ÑĩÑĳÑĤ": 5985,
      "ÑĦÐ¾ÑĢÐ¼Ñĭ": 5986,
      "ĠÐ§Ð¸": 5987,
      "ĠÐ¼Ð¾Ð¸": 5988,
      "ÑĩÐ¸ÑĤÐ°ÑĤÑĮ": 5989,
      "ĊĠĠĊ": 5990,
      "ĠÐ¸ÑģÐ¿Ð¾Ð»ÑĮÐ·ÑĥÐµÑĤ": 5991,
      "ĠÐ¸Ð½Ð°ÑĩÐµ": 5992,
      "ĠÐ¿ÑĢÐµÐ´Ð¿ÑĢÐ¸ÑıÑĤÐ¸Ñı": 5993,
      "ÑģÐ¸Ð½": 5994,
      "ĠÑģÑĦÐ¾ÑĢÐ¼Ð¸": 5995,
      "ĠÐ¾ÑĤÐ½Ð¾ÑģÑıÑĤÑģÑı": 5996,
      "ĠÐ¾ÑģÐ¾Ð±Ñĭ": 5997,
      "ÐºÐ²Ð°": 5998,
      "ÑĢÐ¾Ð²Ð°ÑĤÑĮÑģÑı": 5999,
      "ÐĳÐ°": 6000,
      "Ġ2019": 6001,
      "ÑĤÐºÐ¾Ð²": 6002,
      "ĠÐ¿ÑĢÐ¸Ð²ÐµÐ´ÐµÐ½": 6003,
      "ÐŀÑģÐ½Ð¾Ð²": 6004,
      "Ġht": 6005,
      "ĠÐ²ÑĭÐ±ÑĢÐ°ÑĤÑĮ": 6006,
      "ĠÐ²ÐºÑĥÑģ": 6007,
      "ÐµÑĢÐµÐ¶": 6008,
      "Ð¿ÐµÑĢÐ²ÑĭÑħ": 6009,
      "ĠÐ¾Ð¿ÑĢÐµÐ´ÐµÐ»ÐµÐ½Ð¸Ñı": 6010,
      "ĠÐľÐ¸Ð½Ð¸": 6011,
      "Ð»Ð°ÐºÑĤÐ¸": 6012,
      "ÑĩÐµÑĢÐ°": 6013,
      "ÑĳÐ½Ð½ÑĭÑħ": 6014,
      "ĠÐ·Ð°Ð´Ð°Ñĩ": 6015,
      "ĠÐŃÐ½": 6016,
      "ĠÑĥÑģÐ¸Ð»Ð¸Ñı": 6017,
      "ĠÑĦÐ¸Ð»Ð¾ÑģÐ¾ÑĦ": 6018,
      "ĠÐ°Ð³ÐµÐ½ÑĤ": 6019,
      "ĠÑģÐ²ÑıÑīÐµÐ½": 6020,
      "ĠÐ²Ð·ÑıÑĤÑĮ": 6021,
      "ÑĢÐ¾Ð²Ð°Ð½Ð½Ð¾Ð¹": 6022,
      "ĠÑģÐ¼ÑĭÑģÐ»Ðµ": 6023,
      "ĠÐĵÐ¾Ñģ": 6024,
      "ĠÐ¾Ð±Ð»Ð°Ð´Ð°": 6025,
      "Ð´ÐµÑĢÐ°": 6026,
      "ĠÑĤÐµÑħÐ½Ð¸ÐºÐ¸": 6027,
      "Ð²Ð¸Ð³Ð°": 6028,
      "ĠÑģÐ¾Ð¾ÑĤÐ²ÐµÑĤÑģÑĤÐ²ÐµÐ½Ð½Ð¾": 6029,
      "ÑĤÐºÐ°": 6030,
      "ĠÑĪÐ¸ÑĢÐ¾ÐºÐ¾": 6031,
      "ĠÐ²Ð¸Ð´Ð¸": 6032,
      "ĠÑģÐ¾Ð²ÐµÑĤÑģÐºÐ¸Ð¹": 6033,
      "ĠÐ¡ÑĢÐµÐ´": 6034,
      "ĠÐ¿ÑĢÐ¾ÑħÐ¾Ð´Ð¸ÑĤ": 6035,
      "Ð±Ð¸ÑĤÑĮ": 6036,
      "Ð¿Ð°ÑĢÑĤÐ°": 6037,
      "ÑģÐ»ÐµÐ´Ð¾Ð²Ð°Ð½Ð¸Ñı": 6038,
      "ĠÐºÑĢÐµÐ´Ð¸": 6039,
      "ĠÐ¶Ð°": 6040,
      "ĠÐ°ÐºÑĤ": 6041,
      "ÑĢÑĭÑħ": 6042,
      "ĠÑĤÐ°ÐºÐ¾Ð¼": 6043,
      "ĠÐ»ÑİÐ±Ð²Ð¸": 6044,
      "ĠÐ´Ð°Ð²Ð½Ð¾": 6045,
      "âĢĿ.": 6046,
      "ĠÐ±Ð¾Ð»ÑĮÑĪÐ¸Ðµ": 6047,
      "ÑĩÐ¸ÑģÐ»Ð¸": 6048,
      "ĠÐºÐ¾Ð¼Ð¼ÑĥÐ½Ð¸ÐºÐ°": 6049,
      "39": 6050,
      "ĠÐ¼ÐµÑĢÑĭ": 6051,
      "ÑĢÐ¾Ð½Ð°": 6052,
      "ĠÐ±Ð¾Ð»ÑĮÑĪÐ°Ñı": 6053,
      "ĠÑģÐ¾Ð´ÐµÑĢÐ¶Ð°Ð½Ð¸Ðµ": 6054,
      "Ð½Ð¾Ð²ÐµÐ½Ð¸Ðµ": 6055,
      "ĠÐ¿ÑĢÐ°Ð²Ð¸Ð»Ð°": 6056,
      "ĠÑģÑĥÑīÐµÑģÑĤÐ²Ð¾Ð²Ð°": 6057,
      "ĠÑĥÑģÐ¸Ð»Ð¸": 6058,
      "ĠÑĦÐ¸Ð³Ñĥ": 6059,
      "ĠÑģÐ¾Ð¾Ð±ÑīÐµÐ½Ð¸Ðµ": 6060,
      "ĠÐ¿Ð¾Ð»ÐºÐ¾Ð²": 6061,
      "Ð¾Ð·Ðµ": 6062,
      "ĠÑĤÐµÐ¾ÑĢÐµ": 6063,
      "ĠÑĢÐµÑĪÐµÐ½Ð¸Ð¹": 6064,
      "Ð»ÐµÑĢÐ°": 6065,
      "ĠÑģÐ¾ÑĨÐ¸Ð°Ð»Ð¸": 6066,
      "ÐĽÑİ": 6067,
      "ĠÐ°Ð²ÑĤÐ¾ÑĢÐ°": 6068,
      "ĠÐ·Ð¾Ð»Ð¾": 6069,
      "ÑĨÐ¸ÑıÐ¼": 6070,
      "ĠÐ²ÑĭÐ¿Ð¾Ð»Ð½ÐµÐ½Ð¸Ñı": 6071,
      "Ð»Ð¸ÑģÑĤÐ¸": 6072,
      "ĠÑĤÐµÐ½Ð´ÐµÐ½": 6073,
      "ĠÑģÑĢÐ°": 6074,
      "Ð¡Ð°": 6075,
      "ÑģÑĤÐ²Ð¸Ð¹": 6076,
      "ĠÑģÐ»Ð¾Ð²Ð°Ð¼Ð¸": 6077,
      "Ð·ÑĥÐµÑĤÑģÑı": 6078,
      "ĠÐ¿Ð»Ð¾ÑīÐ°Ð´Ð¸": 6079,
      "ÑıÐ±ÑĢÑĮ": 6080,
      "ĠÐĲÐ²ÑģÑĤÑĢÐ°": 6081,
      "ĠÐ±ÑİÐ´Ð¶": 6082,
      "ĠÐŀÑĤÐµÑĩÐµÑģÑĤÐ²ÐµÐ½Ð½Ð¾Ð¹": 6083,
      "ĠÐŁÑĢÐ°Ð²": 6084,
      "ĠÐ¿Ð¾Ð»Ð¸ÑĤÐ¸ÑĩÐµÑģÐºÐ¾Ð¹": 6085,
      "ĠÐ¸Ð·Ð±ÐµÐ¶Ð°ÑĤÑĮ": 6086,
      "Ð¼ÐµÑĢÑĭ": 6087,
      "ĠÑĩÐµÑĤÑĭÑĢÐµÑħ": 6088,
      "ĠÐ¾ÑĢÐ¸Ð³Ð¸Ð½Ð°": 6089,
      "ÑĢÐ¸ÐºÐ°": 6090,
      "ĠÐ±ÐµÑģÑģ": 6091,
      "ĠÐ¿ÐµÑģÐ½Ð¸": 6092,
      "ĠÐ¿Ð¾ÑģÑĢÐµÐ´ÑģÑĤÐ²Ð¾Ð¼": 6093,
      "Ð²Ð¸ÑĤ": 6094,
      "ĠÑĥÑĩÐ°ÑģÑĤÐ½Ð¸ÐºÐ¾Ð²": 6095,
      "ĠÐ¾Ð¶Ð¸Ð´Ð°": 6096,
      "ĠQ": 6097,
      "ĠÐ£Ð½Ð¸": 6098,
      "ĠÐ±Ð¾Ð»Ð¸": 6099,
      "ĠÐ¼ÐµÑĤÐ¾Ð´Ð°": 6100,
      "ĠÐ¡Ð²Ñı": 6101,
      "ĠÐ°Ð»ÐºÐ¾Ð³": 6102,
      "ĠÐ´Ð¾Ð»Ð»Ð°ÑĢÐ°": 6103,
      "Ð¶Ð½ÐµÐ¼Ñĥ": 6104,
      "ĠÐ²ÑĤÐ¾ÑĢÐ¾Ð¼": 6105,
      "ĠÑģÐ¾Ð³Ð»Ð°Ñģ": 6106,
      "Ġon": 6107,
      "Ð»ÐµÑĤÐ°": 6108,
      "ĠÐ¿ÑĢÐ¸ÑĩÐ¸Ð½": 6109,
      "Ð¶Ð½Ð¾ÑģÑĤÐ¸": 6110,
      "ĠÐ¿ÑĢÐ¸Ð±Ð»Ð¸Ð·Ð¸": 6111,
      "ĠÐ¶Ð°Ð»": 6112,
      "ÐµÐ¼Ð¾Ðµ": 6113,
      "ĠÐŁÑĢÐµÐ·Ð¸": 6114,
      "ail": 6115,
      "Ð¿ÐµÐ½": 6116,
      "ĠÐ½ÐµÐ¿ÑĢÐ°Ð²Ð¸": 6117,
      "ĠÐ·Ð°Ð¸Ð½ÑĤÐµÑĢÐµÑģ": 6118,
      "ĠÑİÑĢÐ¸Ð´Ð¸": 6119,
      "ĠÑĤÑīÐ°": 6120,
      "ĠÑħÐ¾Ð´Ð¸": 6121,
      "ÑĤÐ¸Ð²Ð½ÑĭÐ¼": 6122,
      "ÑĢÑĥÐ³Ð¸Ðµ": 6123,
      "77": 6124,
      "ĠÑģÐ½Ð¸Ð¼Ð°": 6125,
      "ÑģÑĤÑĢÐ¾Ð¹ÐºÐ¸": 6126,
      "Ð½Ð¾Ð²Ð¸Ñĩ": 6127,
      "ĠÐ¿ÑĢÐµÐ¿ÑıÑĤ": 6128,
      "ĠÑĢÑĥÐºÑĥ": 6129,
      "ĠÐŀÐ¿ÑĢÐµÐ´Ðµ": 6130,
      "ÑĩÑĮÑİ": 6131,
      "ĠÐ½ÐµÐ¾Ð±Ñĭ": 6132,
      "ÑĤÐµÐ»ÑĮÑģÑĤÐ²": 6133,
      "ĠÑĪÐºÐ¾Ð»ÑĮ": 6134,
      "Ġhttp": 6135,
      "ĠÐľÐ½Ð¾Ð³Ð¸Ðµ": 6136,
      "ĠÐºÐ¾Ð½ÑĨÐ¾Ð²": 6137,
      "ĠÑĢÐµÐ°ÐºÑĨÐ¸Ð¸": 6138,
      "ĠÐºÐ°Ð·": 6139,
      "ĠÐĿÐĲ": 6140,
      "ĠÑĢÐµÐ·ÑĥÐ»ÑĮÑĤÐ°ÑĤÐ¾Ð²": 6141,
      "ĠÐ¦ÐµÑĢ": 6142,
      "ĠÐ¢Ð¾Ð»ÑĮÐºÐ¾": 6143,
      "ĠÐĺÑĤÐ°Ð»Ð¸Ð¸": 6144,
      "ĠÑĥÑģÑĤÐ°": 6145,
      "ĠÐ½ÐµÐºÐ¾ÑĤÐ¾ÑĢÐ¾Ðµ": 6146,
      "ĠÐ¿ÑĢÐ¸Ð»Ð¾Ð¶ÐµÐ½Ð¸Ñı": 6147,
      "ĠÐ²ÑĢÐµÐ¼ÐµÐ½Ð°": 6148,
      "Ð¶Ð¸Ð½": 6149,
      "ÑıÐ·": 6150,
      "ĠÐ²ÐºÐ»Ð°Ð´": 6151,
      "ĠÐľÐ¸Ð½": 6152,
      "Ð»Ð°Ð´Ñĭ": 6153,
      "ĠÐ¾ÑĤÐ½Ð¾ÑĪÐµÐ½Ð¸Ñİ": 6154,
      "ĠÐ´Ð²ÐµÑĢ": 6155,
      "ĠÐºÐ¾Ð½ÑĦÐµÑĢÐµÐ½": 6156,
      "ĠÑģÐ¾Ð»Ð½Ðµ": 6157,
      "ĠÐµÐ²ÑĢÐµ": 6158,
      "ĠÐ²ÐµÑĢÐ½ÑĥÐ»ÑģÑı": 6159,
      "Ð²Ð¾ÑĢÐ¸": 6160,
      "ÑģÐµÑĢÐ²Ð°": 6161,
      "ĠÐ²ÐºÐ»ÑİÑĩÐ°ÑİÑĤ": 6162,
      "âĢ¦âĢ¦": 6163,
      "Ð±Ñİ": 6164,
      "ÑĢÐ¾Ð¼Ð°": 6165,
      "ÐĳÐ¾Ð»ÑĮ": 6166,
      "ĠÑįÐ¿Ð¸Ð·": 6167,
      "ÑħÐ¾Ð¹": 6168,
      "ĠÐ½ÐµÐ·Ð½Ð°": 6169,
      "ĠÐ¼ÐµÐ½ÑĮÑĪÐµÐ¹": 6170,
      "ĠÐ½Ð°ÑģÐ»ÐµÐ´": 6171,
      "ÑģÐ¿Ð¸": 6172,
      "ÑģÑĤÐ²ÐµÐ½Ð½Ð¾Ð¼": 6173,
      "ĠÐ¿ÑĢÐµÐ´Ð»Ð°Ð³Ð°ÐµÑĤ": 6174,
      "ĠÐ¿Ð¾Ð´Ð½Ð¸Ð¼Ð°": 6175,
      "ÐĺÑģÐ¿": 6176,
      "ÐµÐ»Ð°": 6177,
      "ĠÐ¾ÑģÐ²Ðµ": 6178,
      "ĠÐ°Ð²ÑĤÐ¾Ð¼Ð¾Ð±Ð¸Ð»ÑĮ": 6179,
      "ÑĢÐµÐ³Ð¸": 6180,
      "gle": 6181,
      "ĠÐ¼Ð¸ÑĢÑĥ": 6182,
      "ĠÐ´Ð¸Ð½Ð°Ð¼Ð¸": 6183,
      "ĠÑĤÐµÐ¼Ñĥ": 6184,
      "ĠÐ½Ð°Ð¿ÑĢÐ°Ð²Ð»ÐµÐ½Ð¸Ñı": 6185,
      "ĠÑģÐ»ÑĥÑĪÐ°": 6186,
      "ĠÑĤÑĥÐ´Ð°": 6187,
      "ĠÐ¿Ð¾ÑģÑĤÑĥÐ¿Ð°": 6188,
      "pe": 6189,
      "ĠÐ·Ð°ÐºÐ¾Ð½ÑĩÐ¸": 6190,
      "ĠÑģÐ¼Ð¾Ð¶ÐµÑĤ": 6191,
      "Ð´Ð¸Ð½Ð¾": 6192,
      "ĠÐ¸Ð·ÑĥÑĩÐ°": 6193,
      "Â»).": 6194,
      "ĠÐ¼ÐµÑģÑıÑĨ": 6195,
      "ĠÐ±ÐµÑĢÐµÐ¼ÐµÐ½": 6196,
      "ĠÐ¼Ð°ÑĢÑĪÑĢÑĥ": 6197,
      "ÐŀÑĤÐ²ÐµÑĤ": 6198,
      "ĠÐ·Ð°Ð¿ÑĢÐ¾": 6199,
      "07": 6200,
      "ĠÐ¾ÑģÐ¾Ð±ÐµÐ½Ð½Ð¾ÑģÑĤÐ¸": 6201,
      "ĠÑĥÑģÑĤÐ°Ð½Ð¾Ð²Ð¸ÑĤÑĮ": 6202,
      "ĠÑģÐ¾Ð»Ð´Ð°ÑĤ": 6203,
      "Ð¼ÐµÑĢÐ°": 6204,
      "ÐµÐ½Ð¾Ñģ": 6205,
      "ĠÐºÐ½Ð¾Ð¿": 6206,
      "ĠÑĥÐ²ÐµÑĢÐµÐ½": 6207,
      "ĠÐ±ÑĢÐµÐ½": 6208,
      "ĠÑĪÐºÐ¾Ð»Ð°": 6209,
      "ĠÐ¡ÐµÐ²ÐµÑĢÐ½Ð¾Ð¹": 6210,
      "ĠÐ²ÑģÐ»ÐµÐ´": 6211,
      "ÑĢÐ¾Ð²ÐºÐ°": 6212,
      "ĠÑģÑĩÐ¸ÑĤÐ°ÑĤÑĮ": 6213,
      "Ð¾ÑħÑĢÐ°Ð½": 6214,
      "ĠÐ·Ð½Ð°Ð»": 6215,
      "ĠÐ¼Ð¸Ð½Ð¸Ð¼Ñĥ": 6216,
      "ros": 6217,
      "ĠÑģÐ¼ÐµÑĢÑĤÑĮ": 6218,
      "ĠÐ±ÑĢÐ¸Ð³Ð°": 6219,
      "ĠÐ¾ÑĨÐµÐ½ÐºÐ¸": 6220,
      "ĠÐ¿ÑĢÐ¾Ð²ÐµÑģÑĤÐ¸": 6221,
      "Ð¨Ð°Ð³": 6222,
      "ÑģÐ»ÐµÐ´Ð¾Ð²Ð°Ð½Ð¸Ðµ": 6223,
      "ĠÐ¿ÑĢÐ¾ÑģÐ¼Ð¾ÑĤ": 6224,
      "ĠÑģÐºÐ»Ð¾Ð½": 6225,
      "Ð°Ð½Ð´Ð¸": 6226,
      "ĠÐ½Ð°Ð¿Ð¾Ð»": 6227,
      "ĠÑģÐ¾ÑĨÐ¸Ð°Ð»ÑĮÐ½Ð¾Ð¹": 6228,
      "ĠÐ°ÑĤÐ¾Ð¼": 6229,
      "Ġ1945": 6230,
      ".),": 6231,
      "Ð¡Ð¾Ð²": 6232,
      "ĠÐ´Ð¾Ð±Ñĭ": 6233,
      "ĠÑģÐ¿Ð¾ÑģÐ¾Ð±Ð½Ð¾ÑģÑĤÐ¸": 6234,
      "Ð¶Ð½Ð°Ñı": 6235,
      "ÐļÐŀ": 6236,
      "ĠÐ¾Ð±ÑīÐµÑģÑĤÐ²Ð¾": 6237,
      "ĠÐ¾ÑĤÐ¿ÑĢÐ°Ð²": 6238,
      "ĠÐ²Ð¾Ð»Ð¾Ñģ": 6239,
      "ĠÐ²Ð¾Ð¿ÑĢÐ¾ÑģÐ¾Ð²": 6240,
      "ĠÑĢÐµÑĪÐ¸ÑĤÑĮ": 6241,
      "48": 6242,
      "ĠÐ¾Ð±Ð¼ÐµÐ½": 6243,
      "Ġ300": 6244,
      "ĠÑģÐµÐ»ÑĮÑģÐºÐ¾Ð³Ð¾": 6245,
      "ĠÐ¦ÐµÐ½ÑĤÑĢÐ°Ð»ÑĮ": 6246,
      "ĠÐĴÑģ": 6247,
      "ÑĨÐ¾": 6248,
      "ĠÐ¡Ð²ÑıÑĤ": 6249,
      "ĠZ": 6250,
      "ĠÐ¿Ð°ÑĢÑĤÐ½ÐµÑĢ": 6251,
      "Ð¸ÑĤÐµ": 6252,
      "ĠÑģÑĥÐ´ÐµÐ±": 6253,
      "ĠÐ²Ð°ÑĢ": 6254,
      "Ð»ÑĮÐ½ÑĭÐ¼Ð¸": 6255,
      "ĠÐ½ÐµÐ²": 6256,
      "ĠÐ³Ð¸Ð±": 6257,
      "ĠÐ±Ð¸Ð·Ð½Ðµ": 6258,
      "ĠÂ": 6259,
      "ÑģÐ¾Ð²ÐµÑĤ": 6260,
      "ĠÑĪÐµÑģÑĤÐ¸": 6261,
      "ĠÐ»Ð¾ÑĪÐ°": 6262,
      "ost": 6263,
      "ĠÑĥÑģÐ»Ð¾Ð²Ð¸Ð¹": 6264,
      "ĠÐ¿ÑĢÐ¸ÑıÑĤ": 6265,
      "ĠÐºÐ³": 6266,
      "ĠÑĢÑĥÑģÑģÐºÐ¸Ð¹": 6267,
      "Ð´Ð²Ð°": 6268,
      "ÑīÐµÐ½Ð¸Ñİ": 6269,
      "ĠÑĢÐ°ÑģÐ¿Ð¾Ð»Ð¾Ð¶ÐµÐ½": 6270,
      "ĠÐ¼Ð½ÐµÐ½Ð¸Ðµ": 6271,
      "Ð²ÐµÑĢÐ°": 6272,
      "],": 6273,
      "ÑĦÑĥ": 6274,
      "ĠÐ¿ÑĢÐ¾ÑĦÐµÑģÑģÐ¾ÑĢ": 6275,
      "ne": 6276,
      "ĠÑĢÐ¸Ð¼": 6277,
      "ĠÐ¼Ð»Ð°Ð´": 6278,
      "ĠÐ¾Ð¿Ð»Ð°": 6279,
      "ref": 6280,
      "ĠÐ¡Ð°Ð½ÐºÑĤ": 6281,
      "ĠÐ¿ÑĢÐ¾Ðº": 6282,
      "ĠÐĳÐ¾Ð»ÐµÐµ": 6283,
      "Ð»ÑİÐ±": 6284,
      "ĠÐ¡ÑĤÐµ": 6285,
      "ĠÐ²Ð¸Ð´ÐµÐ»": 6286,
      "ack": 6287,
      "Ð°Ð½Ð°Ð»Ð¸": 6288,
      "Ð¡ÑģÑĭÐ»ÐºÐ¸": 6289,
      "ĠÐ¾Ð±Ð¾ÑĢÐ¾Ð½Ñĭ": 6290,
      "ĠÐ²ÐµÐ½": 6291,
      "ĠÐ½ÑĭÐ½ÐµÑĪ": 6292,
      "ĠÑĢÐ¾Ð·": 6293,
      "Ġ#": 6294,
      "ĠÑģÐ¾Ð»Ð½": 6295,
      "ĠÐºÐ°Ð½Ð°": 6296,
      "Ð»Ð¾Ð²ÐµÐº": 6297,
      "ÑĢÐµÑģÑģÐ°": 6298,
      "ĠÐ±ÑĥÐ´ÐµÐ¼": 6299,
      "Ð¼Ð°Ð¹": 6300,
      "ĠÐ²Ð¾ÑģÐ¿ÑĢÐ¸Ð½Ð¸Ð¼Ð°": 6301,
      "ĠÐ¡ÑĤÐ¾": 6302,
      "ÐĵÐ»Ð°Ð²Ð°": 6303,
      "ĠÐ½Ð¾Ð³": 6304,
      "Ð¼Ð°Ð½Ð¸": 6305,
      "ĠÐ°Ð¼ÐµÑĢÐ¸ÐºÐ°Ð½ÑģÐºÐ¸Ð¹": 6306,
      "ĠÐ·Ð½Ð°ÐµÐ¼": 6307,
      "ÑĤÐ½Ð°Ñı": 6308,
      "90": 6309,
      "Ð¿ÐµÐ²": 6310,
      "ĠÑĦÐ¸Ð³": 6311,
      "ĠÐ½Ð°Ð»Ð¸ÑĩÐ¸Ðµ": 6312,
      "ÑģÑĤÐ²Ð¾Ð²Ð°Ð»Ð°": 6313,
      "ĠÑĩÐµÑĢÐµ": 6314,
      "Ð»ÑĮÐµ": 6315,
      "ÑīÐ°Ð»": 6316,
      "ĠÐ¸Ð¼Ð¼Ñĥ": 6317,
      "ĠÑĢÐ°ÑģÐ¿Ð¾ÑĢÑı": 6318,
      "ĠÐ¿ÑĢÐ¾Ð±Ð»ÐµÐ¼Ñĥ": 6319,
      "ĠÑģÐµÐºÑģÑĥ": 6320,
      "ĠÑĤÐµÑĢÐ°Ð¿Ð¸": 6321,
      "ĠÐ¿ÑĢÐ¾Ð¸Ð·Ð²Ð¾Ð´ÑģÑĤÐ²Ð¾": 6322,
      "ĠÑĤÑĢÐ¾": 6323,
      "ĠÐ¸Ð·Ñĥ": 6324,
      "ĠÑģÑĤÐ°Ð±Ð¸": 6325,
      "ĠÐ½Ð¾Ð¼": 6326,
      "ĠÐ¿Ð»Ð°ÑģÑĤÐ¸": 6327,
      "Ð¼ÐµÑĢÐµ": 6328,
      "ĠÐ¾ÑĢÐ³Ð°Ð½Ð¸Ð·Ð¼Ð°": 6329,
      "ĠÐ¼Ð°ÑĤÐµÑĢÐ¸Ð°Ð»Ñĭ": 6330,
      "ĠÑĨÐµÑĢÐºÐ¾Ð²ÑĮ": 6331,
      "ĠÑĥÑģÐ¿ÐµÑħÐ°": 6332,
      "ĠÐ»Ð¸ÑĤÐµÑĢÐ°ÑĤÑĥÑĢ": 6333,
      "ĠÐ¿Ð¾Ð»ÑĮÐ·Ð¾Ð²Ð°ÑĤÐµÐ»ÐµÐ¹": 6334,
      "ĠÐ¿ÑĥÐ±Ð»Ð¸ÐºÐ°": 6335,
      "ĠÑĢÐ¸ÑģÑĥÐ½": 6336,
      "ĠÐ½ÑĢÐ°Ð²Ð¸ÑĤÑģÑı": 6337,
      "ure": 6338,
      "ÑĨÐ°ÑĢ": 6339,
      "ĠÐ¿ÑĢÐ¸ÑĩÐ¸Ð½Ð¾Ð¹": 6340,
      "ĠÐ½Ð°ÐºÐ°Ð·Ð°": 6341,
      "ĠÐ¡Ð¾Ð³Ð»Ð°ÑģÐ½Ð¾": 6342,
      "ĠÐ¸Ð»Ð»Ñİ": 6343,
      "ĠÑģÐ¾Ðº": 6344,
      "ĠÑģÑĩÐ°ÑģÑĤ": 6345,
      "ĠÐ±Ð¾Ð»": 6346,
      "Ð´Ð¾Ð½": 6347,
      "ĠÐ¿ÑĢÐ¾Ð³ÑĢÐ°Ð¼Ð¼Ð°": 6348,
      "Ġ36": 6349,
      "ĠÐ»ÐµÑģ": 6350,
      "ĠÑĢÐ°Ð´Ð¾": 6351,
      "ĠÐ°ÐºÑĤÐ¸Ð²Ð½Ð¾": 6352,
      "ĠÐ±ÐµÑģ": 6353,
      "ĠÐ¸Ð·Ð²ÐµÑģÑĤÐ½ÑĭÐ¹": 6354,
      "ÐºÐ¾Ñģ": 6355,
      "ÑĤÐ¸ÑĩÐµÑģÐºÐ¸Ðµ": 6356,
      "ÐłÐŀ": 6357,
      "ĠÑĥÐ¶": 6358,
      "ĠÐ¿Ð¾ÐºÐ°Ð·ÑĭÐ²Ð°ÐµÑĤ": 6359,
      "iz": 6360,
      "Ð·Ð¼Ð¾Ð¼": 6361,
      "ĠÐĴÐ»Ð°Ð´Ð¸Ð¼Ð¸ÑĢ": 6362,
      "ĠÑĥÐ¿Ð¾Ð¼Ñı": 6363,
      "ĠÐ½Ð°Ð¼Ð¸": 6364,
      "Ð²Ð°Ñİ": 6365,
      "ÐºÐ¾Ð²Ð¾": 6366,
      "76": 6367,
      "ĠÐ¸Ð³ÑĢÐ°ÐµÑĤ": 6368,
      "ÑīÐµÑĢ": 6369,
      "oogle": 6370,
      "ĠÐ¹": 6371,
      "ĠÐ²Ð¾Ð¿": 6372,
      "ÑįÐºÐ¾Ð½Ð¾Ð¼Ð¸": 6373,
      "ĠÐºÐ¾Ð»ÑĮ": 6374,
      "ÑĤÐ¸Ð²Ð½Ð°Ñı": 6375,
      "ĠÐ³ÑĢÑĥÐ·": 6376,
      "ĠÐ¾Ð±Ð»ÐµÐ³": 6377,
      "ĠÐºÐ½Ð¸Ð³Ñĥ": 6378,
      "ÑĪÐºÐµ": 6379,
      "ĠÑģÑĤÑĢÑĥÐºÑĤÑĥÑĢÑĭ": 6380,
      "ĠÐ¿Ð¸ÑģÐ°ÑĤÐµÐ»ÑĮ": 6381,
      "ĠÐĳÐ¾Ð³Ð°": 6382,
      "ĠÐ¼ÑĥÐ»ÑĮ": 6383,
      "pt": 6384,
      "ĠÐ¿Ð¾Ð½": 6385,
      "ĠÐ¼Ð¾ÑĤÐ¸Ð²Ð°": 6386,
      "ÑĤÐ°ÑĨÐ¸Ñı": 6387,
      "ĠÐ¸Ð·Ð±Ð°": 6388,
      "ĠÐ´Ð¾Ð±Ð°Ð²Ð¸ÑĤÑĮ": 6389,
      "ĠÐ¸ÑģÐºÐ»ÑİÑĩÐ¸ÑĤÐµÐ»ÑĮÐ½Ð¾": 6390,
      "Ð´Ð½Ð¾": 6391,
      "ĠÐ¸Ð½ÑģÑĤÑĢÑĥÐº": 6392,
      "ĠÐļÐ¾Ð½ÑģÑĤÐ°Ð½": 6393,
      "ĠÐ½Ð°ÑĩÐ¸Ð½Ð°ÐµÑĤÑģÑı": 6394,
      "ĠÐ¿ÐµÐ½": 6395,
      "ĠÐ¶ÐµÐ»Ñĥ": 6396,
      "ĠÐ¿ÐµÑĢÐ²Ð°Ñı": 6397,
      "ĠÑģÐ²ÑıÐ·Ð°Ð½Ð½ÑĭÐµ": 6398,
      "Ð½ÑĥÐ»Ð¸": 6399,
      "ĠÐ¿Ð¾Ð²ÑĤÐ¾ÑĢÑı": 6400,
      "ĠÑĢÑıÐ´Ð°": 6401,
      "ĠÑĢÑĥÑģÑģÐºÐ¸Ñħ": 6402,
      "ĠÑĥÐ»ÑĥÑĩÑĪÐ¸ÑĤÑĮ": 6403,
      "ĠÑĢÐµÑģÑĤÐ¾": 6404,
      "ĠÐ¿ÑĢÐµÐ¼Ð¸Ð¸": 6405,
      "ĠÑħÑĢÐ°Ð½": 6406,
      "ĠÐ¿Ð¾Ð´Ñģ": 6407,
      "ĠÐ¡Ð¾Ð·": 6408,
      "ĠÐ¾Ð±ÑīÐµÐ¼": 6409,
      "ĠÑģÐ¿Ð°Ñģ": 6410,
      "ĠÐ¿ÑĢÐ¾ÑĤÐ¸Ð²Ð¾Ð¿Ð¾Ð»Ð¾Ð¶": 6411,
      "ĠÐ¾ÑĢÑĥÐ¶Ð¸Ñı": 6412,
      "ĠÑģÑĭÐ½Ð°": 6413,
      "ĠÐ»Ð¾Ð´": 6414,
      "ĠÐ²ÑĭÐ´Ðµ": 6415,
      "Ð¾Ð¿Ð¾": 6416,
      "ĠÐ±ÑĢÐ¾ÑģÐ¸": 6417,
      "ĠÐ¸ÑģÑĩÐµÐ·": 6418,
      "ÐºÐµÑĢ": 6419,
      "Ð»ÐµÑĤÐ½Ð¸Ð¹": 6420,
      "ĠÑħÐ»Ðµ": 6421,
      "ĠÑĥÑģÑĤÑĢÐ¾": 6422,
      "ĠÐĶÐ°Ð¶Ðµ": 6423,
      "ÑģÑĤÐ¾Ð½": 6424,
      "ĠÑĦÐ°Ð¼Ð¸": 6425,
      "ĠÐ¿ÑĢÐµÐ´ÑģÑĤÐ°Ð²Ð¸ÑĤÐµÐ»ÐµÐ¹": 6426,
      "ĠÐ¢ÐµÑĢ": 6427,
      "ĠÑģÐ»ÑĥÑĩÐ¸": 6428,
      "ĠÐ±ÑĢÐ°ÑĤÑĮ": 6429,
      "ÑĮÐµÐ²": 6430,
      "ĠÐŃÐ´": 6431,
      "ĠÐ²Ð½Ð¸Ð·": 6432,
      "ĠÐ¼ÐµÑģÑĤÐ°Ñħ": 6433,
      "ain": 6434,
      "ÑĢÐ¾Ð²Ð¾Ð´": 6435,
      "ith": 6436,
      "ĠÐºÐ¾ÑģÑĤ": 6437,
      "ĠÐ¿Ð¾Ð²ÑĭÑĪÐµÐ½": 6438,
      "ll": 6439,
      "ÐºÐ¾Ð²Ð°Ñı": 6440,
      "ĠÐ½Ð°Ð¹Ð´ÐµÐ½": 6441,
      "ĠÐ½Ð°ÑĢÑĥÑĪÐµÐ½Ð¸Ñı": 6442,
      "ĠÐ¼Ð¾Ð»ÐµÐºÑĥ": 6443,
      "Ð·Ð°Ð¿": 6444,
      "03": 6445,
      "ĠÐ½ÐµÐ¾Ð¶Ð¸Ð´Ð°Ð½": 6446,
      "ĠÐĲÐ¼ÐµÑĢÐ¸ÐºÐ¸": 6447,
      "Ð°Ð»ÑĮÐ½Ð°Ñı": 6448,
      "ĠÐ¼Ð¼": 6449,
      "Ð¿Ð¸ÑģÐºÐ¾Ð¿": 6450,
      "ĠÐ¸Ð³ÑĢÐµ": 6451,
      "ĠÑģÐ°Ð¼Ð¾Ð»ÐµÑĤ": 6452,
      "ĠÑĦÐ°ÐºÑĤÐ¾ÑĢÐ¾Ð²": 6453,
      "ĠÑįÐºÑģÐ¿ÐµÑĢ": 6454,
      "ry": 6455,
      "ĠÑĥÐ¿ÑĢÐ°Ð¶Ð½ÐµÐ½Ð¸Ñı": 6456,
      "Ð»ÑĥÐ°": 6457,
      "ĠÐ²Ð¾ÐµÐ½Ð½Ð¾Ð¹": 6458,
      "ĠÐ¸Ð½ÑĤÐµÑĢÐ²ÑĮÑİ": 6459,
      "ĠÐ¾Ð³ÑĢÐ°Ð½Ð¸ÑĩÐ¸": 6460,
      "Ð¾Ð°Ð½": 6461,
      "ĠÐºÐ¾Ð¼Ð¼ÐµÑĢ": 6462,
      "ĠÐ¤Ðļ": 6463,
      "ĠÐ´Ð¸Ð²Ð¸Ð·Ð¸": 6464,
      "ĠÐ¡ÑĤÑĢÐ°": 6465,
      "ĠÐļÐ¾ÑĢÐµ": 6466,
      "ĠÐĺÐ·ÑĢÐ°Ð¸": 6467,
      "Ð¿ÑĥÐ»ÑĮ": 6468,
      "ĠÑĢÐ°Ð²ÐµÐ½": 6469,
      "ĠÐ¿Ð°Ð¼ÑıÑĤÑĮ": 6470,
      "Ð³ÑĢÐ¸": 6471,
      "Ð¿Ð¸ÑģÑĭ": 6472,
      "ĠÐºÐ¾Ð¼Ð°Ð½Ð´Ñĥ": 6473,
      "ĠÐ¿Ð¾ÑģÐ»Ð°": 6474,
      "pr": 6475,
      "ĠÑģÐ°Ð¹ÑĤ": 6476,
      "Ð°Ð»ÑĮÐ½Ð¾Ðµ": 6477,
      "Ġ1944": 6478,
      "44": 6479,
      "ĠÐ¾ÐºÐ°Ð·Ð°Ð»ÑģÑı": 6480,
      "Ð°ÐºÐ¾Ð½ÐµÑĨ": 6481,
      "ĠÐ¿Ð¾ÑĢÑĤ": 6482,
      "ĠÐ¿Ð»Ð¾ÑīÐ°Ð´ÑĮ": 6483,
      "ĠÐ°Ð´ÑĢÐµÑģ": 6484,
      "The": 6485,
      "ĠÐ¿ÑĢÐ¸Ð·Ð²Ð°": 6486,
      "ĠÐĲÐ·Ð¸Ð¸": 6487,
      "ĠÑĥÑģÑĤÑĢÐ¾Ð¹ÑģÑĤÐ²Ð¾": 6488,
      "ĠÑĢÐµÐ³Ð¸Ð¾Ð½Ð°": 6489,
      "ph": 6490,
      "ÑĢÐ¾ÑģÑĤÑĮ": 6491,
      "ĠÑģÐ¾Ð¿ÐµÑĢ": 6492,
      "ĠÑģÐ¾ÑĨÐ¸": 6493,
      "ĠÐ¸ÑģÑģÐ»ÐµÐ´Ð¾Ð²Ð°Ð½Ð¸Ðµ": 6494,
      "ĠÑģÐ¾ÑħÑĢÐ°Ð½Ð¸ÑĤÑĮ": 6495,
      "ÑĢÐ¾Ð´Ð¸": 6496,
      "Ð»ÑıÐµÑĤÑģÑı": 6497,
      "ÑģÑĤÐ°Ñı": 6498,
      "Ð´ÐµÑĤÑĮ": 6499,
      "ÑĩÐ¸Ðµ": 6500,
      "ĠÐ³ÑĢÐ°Ð¶Ð´Ð°": 6501,
      "ÑģÑĤÑĭÐ¼": 6502,
      "ĠÐ°Ð»Ð³Ð¾ÑĢÐ¸ÑĤ": 6503,
      "ĠÐ¿ÑĢÐ¸ÑĢÐ¾Ð´Ñĭ": 6504,
      "ÐµÐ½ÑĤÑĥ": 6505,
      "ĠÑĥÐ´Ð¾Ð²Ð¾Ð»ÑĮ": 6506,
      "Ð´Ð¾ÑĢÐ¾Ð²": 6507,
      "ĠÐ¾ÑĤÑģÑĥÑĤÑģÑĤÐ²Ð¸Ðµ": 6508,
      "Ð²ÑĳÑĢ": 6509,
      "ĠÐºÐ»ÑĥÐ±Ð°": 6510,
      "ÐļÐ°ÑĢ": 6511,
      "Ð½Ð½Ð¾Ðµ": 6512,
      "ĠÐ¾Ð±ÑĥÑģ": 6513,
      "ĠÐĵÑĢÑĥ": 6514,
      "ĠÐĴÐ°ÑĢ": 6515,
      "out": 6516,
      "ĠÐ²Ð¿ÐµÑĢÐµÐ´": 6517,
      "ÐĵÐµ": 6518,
      "ĠÐ¿Ð°ÑĢÑĤÐ¸Ð¹": 6519,
      "ÐºÐ¾Ð½ÑĩÐ°": 6520,
      "ĠÐ´Ð°Ð²Ð»ÐµÐ½Ð¸Ðµ": 6521,
      "ĠÐ¿ÑĢÐ°Ð²Ð¸ÑĤÑĮ": 6522,
      "ĠÑģÑĤÐ°ÑĤÐ¸ÑģÑĤÐ¸": 6523,
      "ĠÑĤÐµÑĢÑı": 6524,
      "âĢĿ,": 6525,
      "Ð¹ÑģÐºÐ¾Ð³Ð¾": 6526,
      "ÑģÑģÑĥ": 6527,
      "ĠÐ¿Ð°ÑĢÑĥ": 6528,
      "ĠÑģÑĤÑĥÐ´ÐµÐ½ÑĤÐ¾Ð²": 6529,
      "ĠÐ»ÐµÐ³ÐµÐ½": 6530,
      "ĠÑĩÑĢÐµÐ·Ð²ÑĭÑĩÐ°Ð¹": 6531,
      "ĠÐ²Ð°Ð½": 6532,
      "ĠÐļÐŁ": 6533,
      "ĠÐľÐ¾Ð¶ÐµÑĤ": 6534,
      "Ð¸Ð±Ð¾Ð»ÑĮ": 6535,
      "ĠÑģÐ¸Ð³Ð½Ð°": 6536,
      "ĠÐ¿Ð°ÑĢÐ°Ð»Ð»Ðµ": 6537,
      "ÑĤÐ¾Ð»": 6538,
      "ĠÑĤÐµÑħÐ½Ð¾Ð»Ð¾Ð³Ð¸Ð¹": 6539,
      "Ð²Ð°Ð»Ðµ": 6540,
      "ĠÑģÐ¿Ð¾ÑģÐ¾Ð±Ð¾Ð²": 6541,
      "ÑĢÐ¸ÑģÑĤÐ¾Ð²": 6542,
      "ĠÐ¿ÑĢÐ¾Ð¹": 6543,
      "ĠÐ»ÑĥÑĩÑĪÐ¸Ñħ": 6544,
      "ĠÐĳÐµÐ½": 6545,
      "ĠÐ´ÐµÐ»Ð°ÑİÑĤ": 6546,
      "ĠÐ´Ð¾Ð¼Ð¾Ð¹": 6547,
      "ĠÐ¿Ð¾ÑĤÐµÐ½ÑĨÐ¸": 6548,
      "ĠÐºÑĢÐ°Ñı": 6549,
      "ĠÐ¿ÑĢÑıÐ¼Ð¾Ð¹": 6550,
      "ÑĢÐµÐ»Ð¸": 6551,
      "ÑĢÐ½Ð¾Ð¹": 6552,
      "ĠÐ¿Ð¾ÑĤÐµÑĢ": 6553,
      "ĠÑĤÐ°Ð»Ð°Ð½": 6554,
      "ĠÑĢÑĥÑģÑģÐºÐ¾Ð³Ð¾": 6555,
      "ĠÐ³Ð»ÑĥÐ±Ð¸": 6556,
      "ĠÐ¿Ð¾Ð´ÐºÐ»Ñİ": 6557,
      "ÑĩÐµÐ½Ð½ÑĭÑħ": 6558,
      "ĠÐ³ÑĢÐ°Ð½Ð¸ÑĨÑĭ": 6559,
      "ĠÐ¸Ð·Ð¼ÐµÐ½ÐµÐ½Ð¸Ð¹": 6560,
      "ĠNew": 6561,
      "ĠÐŀÐ´Ð¸Ð½": 6562,
      "ĠÑģÑĤÐµÐº": 6563,
      "ĠÐ¶ÐµÐ»Ðµ": 6564,
      "ĠÐ²Ð´Ð¾Ñħ": 6565,
      "Ð¾ÑĢÐ¾Ð¼": 6566,
      "ĠÐ½Ð°ÑģÐµÐ»ÐµÐ½Ð¸Ðµ": 6567,
      "ÑıÐµÑĤ": 6568,
      "ĠÐ°ÐºÑĤÐ¸Ð²Ð¸": 6569,
      "ĠÐ´Ð¸Ð²Ð¸Ð·Ð¸Ð¸": 6570,
      "ĠÐ§ÐµÑĢÐµÐ·": 6571,
      "ĠÐ¾ÑģÑĤÐ°Ð»Ð¾ÑģÑĮ": 6572,
      "ĠÑģÐ¾Ð²ÐµÑĤÐ°": 6573,
      "ĠÐºÐ»ÐµÑĤÐ¾Ðº": 6574,
      "ĠÑģÑģÑĭÐ»": 6575,
      "ĠÐ¾Ð±Ð¸ÑĤÐ°": 6576,
      "ĠÐ¾Ð±ÑĢÐ°ÑĤÐ½Ð¾": 6577,
      "ĠÐĴÐ°ÑĪÐ¸": 6578,
      "ÑĢÐ³Ð¸": 6579,
      "ĠÐ²Ð¾ÑģÑģÑĤÐ°": 6580,
      "Ð¿ÑĢÐµÐ¶Ð½ÐµÐ¼Ñĥ": 6581,
      "ÐºÐ°ÐµÑĤ": 6582,
      "ĠÐ¿ÑĢÐ¸ÑĩÐ¸Ð½Ñĭ": 6583,
      "ÑģÑĤÑĢÐµÐµ": 6584,
      "ÑĦÐµÐº": 6585,
      "ÐºÐ°Ð½ÑĩÐ¸": 6586,
      "age": 6587,
      "Ð¾ÑĢÐ¸ÑĤÑĮ": 6588,
      "ĠÐ³ÑĢÑĥÐ¿Ð¿Ñĥ": 6589,
      "ge": 6590,
      "ĠÐ³ÑĢÐ°ÑĦ": 6591,
      "Ð¾Ð»Ð°Ð¹": 6592,
      "ÑħÐ¾ÑĢÐ¾": 6593,
      "ĠÐ²Ð°ÑĪÐµ": 6594,
      "ĠÐ¸Ð´ÐµÑı": 6595,
      "ĠÐ¾ÑĤÐ²ÐµÑĤÐ¸Ð»": 6596,
      "ĠÑĤÑİÑĢÑĮ": 6597,
      "ĠÐ¾ÑĤÐ²ÐµÑĤÐ°": 6598,
      "ÑģÐ¸Ð±Ð¾": 6599,
      "ĠÐ»ÑİÐ±Ð¾Ð³Ð¾": 6600,
      "ÐłÐ¾Ð´Ð¸": 6601,
      "Ð±Ð¸ÑĤ": 6602,
      "ĠÐ¤Ð°": 6603,
      "Ð¸Ð¼ÐµÐ½": 6604,
      "ĠÑģÑĥÐ´Ð°": 6605,
      "ĠÐ½ÐµÑĳ": 6606,
      "Ġ1998": 6607,
      "ĠÑĤÐ¾Ð²Ð°ÑĢÐ¸": 6608,
      "ĠÐ½ÐµÐ±Ð¾Ð»ÑĮÑĪÐ¾Ð¹": 6609,
      "ĠÐ·Ð´Ð°Ð½Ð¸Ñı": 6610,
      "Ð¿Ð¾ÑĢÐ°": 6611,
      "ĠÑģÑĩÐ°": 6612,
      "ĠÑģÐµÐ»Ð¾": 6613,
      "ĠÐ¿ÑĢÐ¾Ð²ÐµÐ´": 6614,
      "ĠÑĢÐµÑģÑĥÑĢÑģÐ¾Ð²": 6615,
      "ĠÐºÐ¾Ð¼Ð¼ÑĥÐ½Ð¸": 6616,
      "ÑĤÐµÐºÑģÑĤ": 6617,
      "ĠÐ´Ð¾Ð±Ð¸": 6618,
      "ĠÐºÑĢÐ°Ð¹Ð½Ðµ": 6619,
      "ĠÐ°ÑĢÑĤÐ¸": 6620,
      "ĠÐ½ÐµÐ´ÐµÐ»ÑĮ": 6621,
      "ĠÐ´Ð°Ð»": 6622,
      "ĠÐºÐ°ÑĢÑĮÐµÑĢ": 6623,
      "ĠÐ¼ÑĥÐ½Ð¸ÑĨÐ¸Ð¿Ð°": 6624,
      "ĠÐ¾ÐºÑĢÑĥÐ¶Ð°ÑİÑīÐµÐ¹": 6625,
      "ÑģÑĤÑĥÐ¿Ð¸ÑĤÑĮ": 6626,
      "ĠÑĢÑĥÐºÐ¾Ð²Ð¾Ð´ÑģÑĤÐ²Ð¾Ð¼": 6627,
      "Ð¾Ð±Ð¾ÑĢÐ¾ÑĤ": 6628,
      "ĠÐ¿Ð¾Ð»ÑĥÑĩÐ°ÐµÑĤ": 6629,
      "ĠÐ°ÑĢÐµÑģÑĤ": 6630,
      "SB": 6631,
      "ÑĦÐµÐ´": 6632,
      "ĠÑģÑĢÐµÐ´Ñĥ": 6633,
      "ĠÐ»ÑİÐ±Ð¾Ð²ÑĮ": 6634,
      "ĠÐļÑĢÐ°": 6635,
      "Ġ...": 6636,
      "ĠÑĦÐ°Ð½ÑĤÐ°": 6637,
      "ÐĳÐµ": 6638,
      "ĠÑĪÑĤÐ°ÑĤ": 6639,
      "02": 6640,
      "Ð¾Ð¿ÑĢÐµÐ´Ðµ": 6641,
      "ĠÐ¿Ð¾Ð±ÐµÑĢÐµÐ¶": 6642,
      "68": 6643,
      "ĠÑģÐ¿Ð¾ÑĢÑĤÑģÐ¼ÐµÐ½": 6644,
      "ĠÐ²ÐµÑģÐµ": 6645,
      "ÑĤÐ¸Ð»Ð°": 6646,
      "195": 6647,
      "ĠÑģÐµÐ·Ð¾Ð½": 6648,
      "ĠÐ´Ð¾ÑĩÑĮ": 6649,
      "ĠÐºÐ¾Ð½ÑĤÑĢÐ¾Ð»Ñı": 6650,
      "ĠÑģÐ´Ð°": 6651,
      "Ð¶ÐµÐ½Ñĭ": 6652,
      "ĠÑĥÐ¿ÑĢÐ°Ð²Ð»ÐµÐ½Ð¸Ðµ": 6653,
      "ĠÐ°Ð½Ð°": 6654,
      "ĠÐ´ÐµÐ¼Ð¾Ð½ÑģÑĤÑĢÐ¸": 6655,
      "ĊĠĠĠĠĠĠĠ": 6656,
      "ÑĩÐ¸ÑĤÑĭÐ²Ð°Ñı": 6657,
      "ran": 6658,
      "ĠÐłÐ¾Ð´": 6659,
      "ÐĴÐ¸": 6660,
      "ĠÑĪÐºÐ¾Ð»Ñĥ": 6661,
      "ĠÐ¸Ð·Ð´Ðµ": 6662,
      "ĠÐ´ÑĢÑĥÐ·ÐµÐ¹": 6663,
      "ĠÐ´Ð¸Ð°Ð¿Ð°": 6664,
      "ĠÐ¡Ð¸Ð½": 6665,
      "ÑĨÐ¸Ð¾Ð½Ð½Ð°Ñı": 6666,
      "ĠÐºÐ¾ÑĢÑĢÐµÐº": 6667,
      "Ð±ÑĢÑı": 6668,
      "ÐĴÐ¡": 6669,
      "Ð½Ð¸ÑıÐ¼Ð¸": 6670,
      "ĠÐºÑĢÑĥÐ¿Ð½ÑĭÑħ": 6671,
      "ĠÐ¼Ð¸Ð½Ð¸Ð¼Ð°": 6672,
      "ork": 6673,
      "Ð»Ð¸ÑĤÐµ": 6674,
      "ĠÐ¿ÑĢÐ¸Ð²Ð¾Ð´": 6675,
      "ĠÐ´Ð°Ð²Ð»ÐµÐ½Ð¸Ñı": 6676,
      "Ð¸Ð³ÑĢÑĭ": 6677,
      "ÑĢÐ¾Ð²Ð°Ð½Ð°": 6678,
      "Ġ1991": 6679,
      "ĠÐ¼ÐµÑĤÐ¾Ð´Ð¾Ð²": 6680,
      "ĠÐ¸Ð·Ð¾Ð±ÑĢÐ°Ð¶ÐµÐ½Ð¸Ñı": 6681,
      "ÑħÐ¾Ð·ÑıÐ¹": 6682,
      "Ð²ÐµÐ´Ð¾Ð¼": 6683,
      "ĠÐ¼ÑĥÐ¶ÑĩÐ¸Ð½Ð°": 6684,
      "ĠÑģÐ¾ÑĤÑĢÑĥÐ´Ð½Ð¸ÐºÐ¾Ð²": 6685,
      "ÐĴÐµ": 6686,
      "ĠÐºÐ²Ð°Ð»Ð¸": 6687,
      "ĠÐ¾ÐºÑĢÐ°": 6688,
      "Ð½ÐµÐ½Ð½Ð¾": 6689,
      "ĠÐ¿Ð¾ÑģÐ»ÐµÐ´Ð½Ð¸Ñħ": 6690,
      "ĠÐ´Ð¾ÐºÑĤÐ¾ÑĢ": 6691,
      "ĠÐ¸Ð½ÑĤÐµÐ½ÑģÐ¸Ð²": 6692,
      "Ð½Ð¾Ð´Ð¾ÑĢÐ¾Ð¶": 6693,
      "ÑģÐ¸ÑģÑĤ": 6694,
      "ÐŁÐ¾Ñĩ": 6695,
      "ĠÐ´ÐµÐ²Ñı": 6696,
      "ĠÐºÐ»ÐµÑĤÐºÐ¸": 6697,
      "ĠÐ¿ÑĢÐ¸ÑħÐ¾Ð´Ð¸ÑĤÑģÑı": 6698,
      "ĠÐ¿Ð°ÑģÑģÐ°": 6699,
      "ĠÑģÐ¿Ð¾ÑĢÑĤÐ°": 6700,
      "ĠÐ¿ÑĢÐµÑĤÐµÐ½": 6701,
      "ĠÑĤÑĢÑĥÐ±": 6702,
      "ĠÐºÐ»Ð°Ð´": 6703,
      "ĠÑģÐ²ÑıÐ·Ð°Ð½Ð½ÑĭÑħ": 6704,
      "ĠÐ°ÑĢÐ¼Ð¸Ñı": 6705,
      "ust": 6706,
      "ĠÐ½ÐµÐ¾Ð´": 6707,
      "ĠÐ¿Ð¾ÑĢÑĥ": 6708,
      "ĠÐŁÐ¾ÑģÐ»ÐµÐ´": 6709,
      "Ð·ÑĭÐ²": 6710,
      "ĠÑģÐµÐ¼ÑĮÑı": 6711,
      "ÑĥÑĢÐµ": 6712,
      "Ð»ÐµÐ¶Ð°": 6713,
      "ĠÐºÐ¾Ð½ÐµÑĨ": 6714,
      "ÐŀÐ½Ð°": 6715,
      "ĠÑģÐ²ÐµÐ´ÐµÐ½Ð¸Ñı": 6716,
      "ĠÐ¼Ð¾Ñı": 6717,
      "ĠÑĢÑĭÐ½ÐºÐµ": 6718,
      "ĠÐ¿Ð¾ÑģÐ»Ñĥ": 6719,
      "ĠÑģÐ²ÑıÐ·Ð°Ð½Ñĭ": 6720,
      "ĠÑģÐ¿ÐµÑĨÐ¸ÑĦÐ¸": 6721,
      "ĠÑħÐ¾ÑĤ": 6722,
      "Ð¾Ð¿ÑĢÐ¸ÑıÑĤ": 6723,
      "Ð¾Ð²Ð¾Ðµ": 6724,
      "ĠÑĦÐ°ÐºÑĥÐ»ÑĮ": 6725,
      "ÐĿÐļ": 6726,
      "ĠÑĢÐ°ÑģÑģÑĤÐ¾ÑıÐ½Ð¸Ðµ": 6727,
      "ĠÐ¾Ð¿ÑĤÐ¸Ð¼Ð¸": 6728,
      "ĠÐ½ÐµÐ¾Ð±ÑħÐ¾Ð´Ð¸Ð¼Ð¾ÑģÑĤÑĮ": 6729,
      "nt": 6730,
      "ĠÐ¨Ð¸": 6731,
      "Ġ1980": 6732,
      "ĠÐ³Ð»ÑĥÐ±Ð¾Ðº": 6733,
      "ĠÐ²ÐµÑĢÑĪÐ¸": 6734,
      "ĠÐ¿Ð¾ÑħÐ¾Ð¶Ðµ": 6735,
      "ĠÐ½Ð¾ÑģÐ¸": 6736,
      "?Â»": 6737,
      "ĠÐ´Ð¾Ð»Ð¸": 6738,
      "ĠÐ´ÐµÐ²Ð¾Ñĩ": 6739,
      "ÑĢÐµÐ»": 6740,
      "ĠÐ¾Ð±ÐµÑģÐ¿ÐµÑĩÐ¸Ð²Ð°ÐµÑĤ": 6741,
      "Ġ1943": 6742,
      "ĠÑģÑĥÑĤ": 6743,
      "ĠÐ½ÐµÐ¼ÐµÐ´": 6744,
      "ĠÑĩÐµÐ¼Ð¿Ð¸Ð¾Ð½Ð°ÑĤÐ°": 6745,
      "ÑĤÐ¾ÑĢÐ°Ð¼Ð¸": 6746,
      "ÑĢÑĥÑİÑĤÑģÑı": 6747,
      "ĠÐ³Ð¾ÑģÑĥÐ´Ð°ÑĢÑģÑĤÐ²ÐµÐ½Ð½Ð¾Ð³Ð¾": 6748,
      "ĠÐ¾Ð²Ð¾": 6749,
      "ĠÐ½Ð°ÑħÐ¾Ð´Ð¸Ð»ÑģÑı": 6750,
      "ÐĲÐ½": 6751,
      "ĠÑģÐ¾Ð¾ÑĢÑĥ": 6752,
      "ĠÐºÐ¾ÑģÐ¼Ð¸": 6753,
      "ĠÑĥÑħ": 6754,
      "ÑĤÐµÑĤÐ°": 6755,
      "ÑģÐ¸Ð¼": 6756,
      "ÑĪÐ¸Ð½ÑģÑĤÐ²Ð¾": 6757,
      "ÑīÐµÐ½Ð¸ÐµÐ¼": 6758,
      "ĠÐ±ÐµÑģÐº": 6759,
      "ĠÐ¿Ð¾Ð»Ð½Ð¾": 6760,
      "ĠÐ²Ð¾Ð¹Ð½Ñĥ": 6761,
      "ÐºÑĥÐ»ÑĮÐ¿": 6762,
      "Ġ32": 6763,
      "ĠÐĿÐµÑģÐ¼Ð¾ÑĤÑĢÑı": 6764,
      "ĠÐŀÐŀÐĿ": 6765,
      "ĠÑĦÑĢÑĥÐº": 6766,
      "ĠÐ¤ÐµÑĢ": 6767,
      "ĠÑĢÐ°Ð±Ð¾ÑĤÐ°ÑİÑĤ": 6768,
      "ĠÐ´Ð¾Ð»Ð¶Ð½Ð¾ÑģÑĤÑĮ": 6769,
      "ĠÑģÐ»Ñĭ": 6770,
      "ĠÐ¸Ð±Ð¾": 6771,
      "ĠÐ³Ð¾ÑģÑĥÐ´Ð°ÑĢÑģÑĤÐ²": 6772,
      "Ð¿Ð°Ð½Ð¸Ñı": 6773,
      "ĠÐ¾Ð¿ÑıÑĤÑĮ": 6774,
      "ÐĶÐ¶": 6775,
      "ĠÐºÑĥÐ¿Ð¸ÑĤÑĮ": 6776,
      "ÐºÑĢÐµÐ¿Ð¸": 6777,
      "ĠÑĤÐµÐ¼Ð¿ÐµÑĢÐ°ÑĤÑĥÑĢÑĭ": 6778,
      "ĠÐ¿Ð¾ÑĤÐ¾Ðº": 6779,
      "ĠÐ²ÑĢÐ¾Ð´Ðµ": 6780,
      "ĠÐ½Ð°ÑĢÐ¾Ð´Ð¾Ð²": 6781,
      "ĠÑģÐ²ÑıÐ·ÑĭÐ²Ð°": 6782,
      "ĠÐ¿ÑĢÐµÐ±Ñĭ": 6783,
      "ĠÐ¾ÑħÐ¾ÑĤ": 6784,
      "ĠÐ¾ÑģÐ½Ð¾Ð²Ð°Ð½Ð¸Ð¸": 6785,
      "ĠâĨ": 6786,
      "ĠÑģÑĤÐ°Ð½ÑĨÐ¸Ð¸": 6787,
      "Ð±Ð¾Ð»Ð¸": 6788,
      "ÑĤÐ¸ÑĩÐµÑģÐºÐ¾Ð³Ð¾": 6789,
      "ĠCom": 6790,
      "ĠÐ¸ÑģÑĤÐ¾ÑĩÐ½Ð¸ÐºÐ¾Ð²": 6791,
      "ĠÐĵÐµÐ½ÑĢÐ¸": 6792,
      "ÐĳÑĭ": 6793,
      "Ġ185": 6794,
      "ĠÑģÐµÐ·Ð¾Ð½Ðµ": 6795,
      "ĠÐ°ÐºÑĤÑĢÐ¸": 6796,
      "ĠÑįÐºÑģÐ¿ÐµÑĢÐ¸Ð¼ÐµÐ½ÑĤÐ°": 6797,
      "ĠÐ¿Ð¾Ð´ÑħÐ¾Ð´Ð¸ÑĤ": 6798,
      "ÑĮÐµÑĤ": 6799,
      "ĠÐ½Ð¾Ð³Ð¸": 6800,
      "ĠÐ¿Ð¾Ð»Ð¸ÑĤÐ¸ÑĩÐµÑģÐºÐ¸Ñħ": 6801,
      "ĠÐĺÐ»Ð¸": 6802,
      "ÐĶÐ¾": 6803,
      "Ð½ÑĮÑİ": 6804,
      "ĠÐ½Ð°Ð¿ÑĢÐ°Ð²Ð»Ñı": 6805,
      "ĠÐ¼ÑĥÐ·ÑĭÐºÐ¸": 6806,
      "ÑĦÑĦÐµÑĢ": 6807,
      "ÑĤÑĮÐµ": 6808,
      "ÑĥÐ½Ðº": 6809,
      "ĠÐ²Ð¿Ð¾ÑģÐ»ÐµÐ´ÑģÑĤÐ²Ð¸Ð¸": 6810,
      "ĠÑħÐ¾Ð·ÑıÐ¹ÑģÑĤÐ²Ð°": 6811,
      "49": 6812,
      "ĠÐ¿Ð¾ÑģÑĤÑĢÐ°": 6813,
      "ÑĤÐµÑĢÐµ": 6814,
      "Ð½Ð°ÑģÑĤÐ¸": 6815,
      "ĠÑĢÐµÐ¹": 6816,
      "ĠÐºÐ¾Ð¼Ð±Ð¸Ð½Ð°": 6817,
      "ĠÑĨÐµÐ»Ðµ": 6818,
      "ĠÑģÐ¾Ð²ÑĢÐµÐ¼ÐµÐ½Ð½Ð¾Ð¹": 6819,
      "ÑħÐ¾Ð¶Ð´ÐµÐ½Ð¸Ðµ": 6820,
      "ĠÐ´Ð¸Ð°Ð³Ð½Ð¾ÑģÑĤÐ¸": 6821,
      "Ð¶Ð½Ð¾ÑģÑĤÑĮ": 6822,
      "ĠÐ¿ÑĢÐµÐ²Ð¾Ñģ": 6823,
      "```": 6824,
      "ĠÐºÐ°Ð¶Ð´Ñĭ": 6825,
      "ĠÐ¿ÑĢÐ¸Ð¾ÑĢÐ¸": 6826,
      "Ð±Ð¸Ð¹": 6827,
      "ĠÑĢÑĥÑģÑģÐºÐ¾Ð¹": 6828,
      "ĠÐľÐ¾Ð¶Ð½Ð¾": 6829,
      "ĠÐ¶ÐµÑģÑĤÐ¾Ðº": 6830,
      "ĠÐ¿ÑĢÐ¾Ð¼ÑĭÑĪÐ»ÐµÐ½Ð½Ð¾ÑģÑĤÐ¸": 6831,
      "ĠÐ·Ð°Ð¼ÐµÑģÑĤÐ¸": 6832,
      "ĠÐ®Ð¶Ð½Ð¾Ð¹": 6833,
      "ĠÐ½Ð°Ð»": 6834,
      "ĠÐ¿Ð¾ÑģÑĤÐ°Ð²Ð¸": 6835,
      "ĠÐ½Ð°Ð¿Ð¸ÑģÐ°Ð½": 6836,
      "ĠÐ¿Ð¾ÑıÐ²Ð»ÑıÐµÑĤÑģÑı": 6837,
      "ÐľÑĥ": 6838,
      "ĠÐ½ÐµÐ±Ðµ": 6839,
      "ĠÐļÑĤÐ¾": 6840,
      "ies": 6841,
      "ĠÐ·Ð°Ðº": 6842,
      "ĠÐĶÐ¼Ð¸ÑĤÑĢÐ¸": 6843,
      "ĠÐ¿ÑĢÐ°Ð²Ð´Ð°": 6844,
      "ĠÐ¼Ð°ÑĤÑĩÐ°": 6845,
      "ĠÑĢÐ°Ð·Ð½Ð¾Ð¾Ð±ÑĢÐ°Ð·": 6846,
      "Ð¾Ð½ÑĮ": 6847,
      "ĠÐ°ÑĤÐ°Ðº": 6848,
      "ĠÑĩÐ»ÐµÐ½Ð¾Ð¼": 6849,
      "09": 6850,
      "67": 6851,
      "ĠÐ¾Ð±ÑĬÐµÐºÑĤÐ¾Ð²": 6852,
      "ĠÐ¼ÐµÑģÑĤÐ½ÑĭÑħ": 6853,
      "ĠÐ¿Ð¾ÑģÑĤÐ°": 6854,
      "ĠÐ¢ÑĢÐµ": 6855,
      "Ð¶Ð°ÑİÑĤ": 6856,
      "ĠÑĥÑģÐ»ÑĥÐ³": 6857,
      "ÑĢÐ¸ÑĦ": 6858,
      "ĠÑĢÐµÐ°Ð»Ð¸Ð·Ð°ÑĨÐ¸Ð¸": 6859,
      "ĠÑģÐ¼Ð¾Ð¶ÐµÑĤÐµ": 6860,
      "ĠÐ°ÑįÑĢÐ¾Ð¿": 6861,
      "Ð¼Ñģ": 6862,
      "Ð²ÑĪÐµÐµ": 6863,
      "ĠÑĢÐ°ÑģÑģÑĤÑĢÐ¾Ð¹": 6864,
      "ĠÐ²Ð¾ÑģÑĮ": 6865,
      "ĠÑĥÑģÐ¿ÐµÑĪÐ½Ð¾": 6866,
      "ĠÑģÑĤÑĢÐ°Ñħ": 6867,
      "ĠÑģÐºÑĥ": 6868,
      "ĠÐ½Ð°ÑĪÐµ": 6869,
      "ÑģÑĤÐ²ÐµÐ½Ð½ÑĭÐ¼Ð¸": 6870,
      "ĠÑģÐµÐºÑĥÐ½Ð´": 6871,
      "ÑĢÐ°Ð²Ð¾Ð¾ÑħÑĢÐ°Ð½": 6872,
      "ĠÐ·Ð°Ð²": 6873,
      "ĠÑģÑĤÐ¾Ð»ÑĮÐºÐ¾": 6874,
      "ĠÑĦÑĢÐ¾Ð½ÑĤÐ°": 6875,
      "ĠÑįÑĦÑĦÐµÐºÑĤ": 6876,
      "ĠÐ¿ÑĢÐ¾ÑĨÐµÑģÑģÐ¾Ð²": 6877,
      "ĠÑĨÐ°": 6878,
      "ÑģÐ»ÐµÐ¶Ð¸": 6879,
      "ĠÑģÐ»ÑĭÑĪÐ°": 6880,
      "ĠÐķÐ³Ð¸Ð¿": 6881,
      "ĠÐ¾Ð±Ð»Ð°Ð´Ð°ÐµÑĤ": 6882,
      "ĠÐ¿ÑĢÐµÐ´ÑģÑĤÐ°Ð²Ð»ÐµÐ½Ð¸Ðµ": 6883,
      "ĠÐļÐ¸ÑĤÐ°Ñı": 6884,
      "ÑĤÐ¸ÑĢÐ¾Ð²Ð°Ð»": 6885,
      "ÑĤÑĥÐ³Ð°": 6886,
      "ĠÐ´Ð¾ÑģÑĤÐ°ÑĤÐ¾": 6887,
      "Ð³ÐµÐ»ÑĮ": 6888,
      "ĠÐ»ÑİÐ±Ð¾Ð¼": 6889,
      "ĠÑģÐµÐºÑĢÐµÑĤÐ°": 6890,
      "ĠÑĢÑĥÐºÐ°Ñħ": 6891,
      "Ð¿Ð¸ÑģÐ¸": 6892,
      "ĠÐºÐ°ÑĢÑĮ": 6893,
      "ĠÑģÑĥÑīÐµÑģÑĤÐ²ÑĥÑİÑĤ": 6894,
      "ÑģÑĤÐ¾Ð»": 6895,
      "ĠÑģÑĢÐµÐ´Ðµ": 6896,
      "ĠÑĥÐº": 6897,
      "ĠÐ¿Ð»Ð¾ÑħÐ¾": 6898,
      "ĠÐ³Ð°Ð·Ð°": 6899,
      "ĠÑĢÑĭÐ½ÐºÐ°": 6900,
      "ĠÑĥÑĩÐ¸Ð»Ð¸": 6901,
      "ĠÐºÐ¾Ð¼Ñĥ": 6902,
      "ĠÑģÐ¾Ð¾ÑĤÐ½Ð¾": 6903,
      "100": 6904,
      "ĠÐľÐµÐ½": 6905,
      "ÑĦÐµÑĢÐ°": 6906,
      "Ð¾Ð¿ÑĭÑĤ": 6907,
      "ĠÐĳÐ°Ð»": 6908,
      "ĠÐ¼Ð¾Ð³Ð»Ð¾": 6909,
      "ĠÑĥÐ³Ð»Ðµ": 6910,
      "ĠÐ·Ð°Ð½Ð¸Ð¼Ð°ÑĤÑĮÑģÑı": 6911,
      "ĠÑģÐ²Ð¾Ð±Ð¾Ð´Ñĭ": 6912,
      "ĠÑĤÐµÐ¼Ð¿ÐµÑĢÐ°ÑĤÑĥÑĢÐ°": 6913,
      "ÑĳÐ²": 6914,
      "ĠÐ¿Ð¾Ð±ÐµÐ´Ñĥ": 6915,
      "ÑģÑĤÐ½ÑĭÑħ": 6916,
      "ĠÐ±ÑĥÐºÐ²Ð°": 6917,
      "06": 6918,
      "ĠÐ³Ð¾ÑĢÐ¸": 6919,
      "ĠÐ²ÑĭÐ´Ð²Ð¸": 6920,
      "ĠÐ¾ÐºÐ¾Ð½ÑĩÐ°Ð½Ð¸Ñı": 6921,
      "ĠÐºÐ°ÑĩÐµÑģÑĤÐ²Ð¾": 6922,
      "oft": 6923,
      "ÑĳÐ½Ð½ÑĭÐµ": 6924,
      "ĠÐ²Ð¾ÑģÐ¿Ð¸ÑĤÐ°": 6925,
      "ĠÐ±Ð°ÑĤÐ°Ð»ÑĮ": 6926,
      "ĠÐ·Ð°Ð¿Ð»Ð°": 6927,
      "ĠÐºÐ¾Ð¾ÑĢÐ´Ð¸Ð½Ð°": 6928,
      "ÑĤÐ¾Ñĩ": 6929,
      "ĠÐ½ÐµÐ´Ð°Ð²Ð½Ð¾": 6930,
      "ĠÐ¿Ð¾Ð½ÑıÑĤÐ¸Ñı": 6931,
      "ĠÑģÐ¾Ð»Ð¸": 6932,
      "ĠGoogle": 6933,
      "ĠÑĩÐµÐ»Ð¾Ð²ÐµÐºÑĥ": 6934,
      "ĠÑģÐ¸ÑĤÑĥÐ°ÑĨÐ¸Ñİ": 6935,
      "az": 6936,
      "ĠÐ¿ÑĢÐ¾Ð²Ð¸Ð½ÑĨÐ¸Ð¸": 6937,
      "Ð·Ð°ÑĨÐ¸Ñİ": 6938,
      "Ġ1960": 6939,
      "ĠÐľÐ¾ÑģÐºÐ²Ð°": 6940,
      "Ð»ÐµÑĨ": 6941,
      "ÑīÐ¸ÐµÑģÑı": 6942,
      "ĠÐ°ÑģÑģÐ¾ÑĨÐ¸Ð°": 6943,
      "ĠÑĢÐµÐ¹ÑĤÐ¸": 6944,
      "ĠÐ¿Ð¾Ð´ÑĤÐ²ÐµÑĢÐ¶Ð´Ð°": 6945,
      "ĠÐºÐ¾ÑĢÐ¾Ð»Ñı": 6946,
      "ĠÑĤÑĢÐµÑĥÐ³Ð¾Ð»ÑĮ": 6947,
      "ĠÐ¿Ð¾ÑĩÑĥÐ²": 6948,
      "ĠÐľÐ¾ÑģÐºÐ²Ñĭ": 6949,
      "ÑĤÐ¾Ð²Ð¾Ð¹": 6950,
      "ĠÐĳÐ¾Ð»ÑĮÑĪ": 6951,
      "ÐĴÐĲ": 6952,
      "Ð²Ð°ÑİÑīÐ¸Ñħ": 6953,
      "ĠÐ±Ð°Ð»Ð°Ð½": 6954,
      "ĠÐ²Ð¾Ð´Ðµ": 6955,
      "Ð¾Ð¶Ð´ÐµÐ½Ð¸Ð¸": 6956,
      "ĠÐ»Ð°Ð±Ð¾ÑĢÐ°": 6957,
      "ĠÐ¿Ð¾Ð»ÐºÐ°": 6958,
      "ÑĪÐ¸ÑĢ": 6959,
      "ĠÐ±Ð¾Ð»ÑĮÑĪÐ¾Ð³Ð¾": 6960,
      "ĠÑĦÑĥÐ½ÐºÑĨÐ¸Ð¹": 6961,
      "ĠÐĲÐ½Ð°": 6962,
      "ÑĪÐ°ÑİÑĤ": 6963,
      "ÑģÑĤÑĢÐ°ÑĨÐ¸Ð¸": 6964,
      "ĠÐ±ÐµÑģÐ¿Ð»Ð°": 6965,
      "ĠÐ·ÐµÐ¼Ð»Ñİ": 6966,
      "ĠÑģÑĥÐ¼Ðµ": 6967,
      "Ð¾ÑĢÐ³Ð°Ð½Ð¸": 6968,
      "ĠÑĢÐ°ÑģÑģÑĤÐ¾ÑıÐ½Ð¸Ð¸": 6969,
      "ÐľÐ°ÑĢ": 6970,
      "Ð¼ÑıÐ½": 6971,
      "ĠÐ¿Ð¾Ð»Ð½Ð¾Ð¹": 6972,
      "ĠÐ¿Ð°ÑģÑģÐ°Ð¶Ð¸": 6973,
      "Ġ1996": 6974,
      "ĠÐ±ÑĭÑģÑĤÑĢÐµÐµ": 6975,
      "ĠÑģÑĥÐ¼Ð¼Ñĥ": 6976,
      "ĠÐ¡Ð¾Ð²ÐµÑĤÑģÐºÐ¾Ð³Ð¾": 6977,
      "ĠÐĲÐ»Ð¸": 6978,
      "ĠÐ¢Ð°Ð¹": 6979,
      "ÐµÐ½ÑĤÐ°Ð¼Ð¸": 6980,
      "ĠÑħÐ°ÑĢÐ°ÐºÑĤÐµÑĢÐ°": 6981,
      "08": 6982,
      "Ð½ÑıÑİÑĤ": 6983,
      "ÐºÐ°ÑĤÐµÑĢÐ¸": 6984,
      "ĠÐ³Ð»Ð°Ð²Ð½ÑĭÐ¹": 6985,
      "ÑĩÐ°ÑģÑĤÐ¸": 6986,
      "ĠÑĦÑĥÑĤÐ±Ð¾Ð»Ð¸": 6987,
      "Ð½ÐµÑĤÑģÑı": 6988,
      "ÑĪÐ½Ð¸Ð¹": 6989,
      "ĠÑģÐ¿Ð¾ÑģÐ¾Ð±Ð¾Ð¼": 6990,
      "ĠÐ»Ð¸ÑĤÐµÑĢÐ°ÑĤÑĥÑĢÑĭ": 6991,
      "ĠÐŀÐ»Ð¸Ð¼Ð¿Ð¸Ð¹ÑģÐºÐ¸Ñħ": 6992,
      "'s": 6993,
      "ĠÐłÐ¸Ð¼": 6994,
      "ĠÐ¸ÑģÐ¿Ð¾Ð»ÑĮÐ·Ð¾Ð²Ð°Ð½Ð¸Ð¸": 6995,
      "ÑħÐ°ÑĢÐ°": 6996,
      "ĠÐ·Ð°Ð±Ð¾Ð»ÐµÐ²Ð°Ð½Ð¸Ð¹": 6997,
      "ĠÑĢÐµÐ·Ð¸": 6998,
      "ĠÐĺÑģÐ¿Ð¾Ð»ÑĮÐ·ÑĥÐ¹ÑĤÐµ": 6999,
      "Ġ1970": 7000,
      "ĠÐ¾Ð´Ð¸Ð½Ð¾": 7001,
      "ÑĢÑıÐ´Ñĥ": 7002,
      "ÑħÐ¾Ð´Ð¸Ð»Ð°": 7003,
      "ÐµÑĤÐ¸Ñı": 7004,
      "Ð»Ð¾Ð²Ðµ": 7005,
      "ĠÑģÐ°Ð¹ÑĤÐ°": 7006,
      "ire": 7007,
      "Ð°Ð½Ðµ": 7008,
      "ĠÐ¿Ð¾ÑģÐ¼Ð¾ÑĤÑĢÐµÑĤÑĮ": 7009,
      "ĠÐ¿ÑĢÐ¾Ð´ÑĥÐºÑĤÐ°": 7010,
      "âĤ": 7011,
      "ĠÐºÐ°ÑĢÑĤÐ¸Ð½": 7012,
      "ĠÑĦÐ¾ÑĤÐ¾Ð³ÑĢÐ°ÑĦÐ¸": 7013,
      "ĠÑģÑĦÐµÑĢÐµ": 7014,
      "ue": 7015,
      "ĠÐºÐ¾ÑĢÐ¸": 7016,
      "ĠÑĢÐ°Ð·Ð³Ð¾Ð²": 7017,
      "ĠÑĤÐ°ÐºÑĥÑİ": 7018,
      "ĠÑĢÐµÐºÐ¾Ð¼ÐµÐ½Ð´Ñĥ": 7019,
      "ĠÐ¿ÑĢÐ¸Ð´ÐµÑĤÑģÑı": 7020,
      "ĠÐ°ÑĤÐ°": 7021,
      "ĠÐ²ÑħÐ¾Ð´Ð¸ÑĤ": 7022,
      "ÑĪÐµÐ½Ñĭ": 7023,
      "ÐºÐ¾ÑģÑĤÐ¸": 7024,
      "ĠÐ¿Ð¾Ð¸ÑģÐº": 7025,
      "ĠÐ²Ð¾Ð¾ÑĢÑĥÐ¶ÐµÐ½": 7026,
      "ĠÐ¡ÐµÐ¼": 7027,
      "ÐĲÐ»ÑĮ": 7028,
      "ĠÐ²ÑĭÑħÐ¾Ð´Ð°": 7029,
      "ĠÑģÑĤÐ°Ð´Ð¸": 7030,
      "Ð¾Ð´ÐµÐ¹": 7031,
      "ĠÑģÑĤÑĥ": 7032,
      "ĠÐ¶Ð¸Ð»Ð¸": 7033,
      "ĠÑıÑģÐ½Ð¾": 7034,
      "ĠÐ²Ð°ÑĢÐ¸Ð°Ð½ÑĤÑĭ": 7035,
      "ĠÐ³Ð¾ÑģÑĤÐ¸": 7036,
      "ĠÐºÐ¾ÑĢÐ¾Ð±": 7037,
      "ĠÐ¼Ð¾Ð±Ð¸Ð»ÑĮ": 7038,
      "Ġ1997": 7039,
      "74": 7040,
      "ĠÐ¿Ð»Ð¾ÑīÐ°Ð´": 7041,
      "ment": 7042,
      "ĠÑĢÐ°Ð·Ð²ÐµÐ´": 7043,
      "ĠÑįÑĤÐ°Ð¿Ðµ": 7044,
      "ĠÐºÑĢÐ¾": 7045,
      "Ġ1995": 7046,
      "ÐŁÑĥ": 7047,
      "ÑĤÑĥÑĢÐ¾Ð¹": 7048,
      "Ð¿ÑĢÐ¾ÑĩÐµÐ¼": 7049,
      "ĠÐ¿ÑĢÐµÐ´ÑģÑĤÐ°Ð²Ð»ÑıÑİÑĤ": 7050,
      "Ð·ÐµÑĢÐ±Ð°Ð¹": 7051,
      "ĠÐ¿ÑĢÐµÐ´Ð¿Ð¾": 7052,
      "ĠÑģÑĥÐ¿ÐµÑĢ": 7053,
      "ĠÐŁÐ¾ÑĢ": 7054,
      "ĠÐ¾ÑĤÐ²ÐµÑĤÑģÑĤÐ²ÐµÐ½Ð½Ð¾ÑģÑĤÑĮ": 7055,
      "Ð³Ð°Ñħ": 7056,
      "ĠÐ¿Ð¾Ð´Ð´ÐµÑĢÐ¶Ð°": 7057,
      "%,": 7058,
      "ĠÐ¼Ð°Ð³Ð¸": 7059,
      "Ð¶Ð¼Ð¸ÑĤÐµ": 7060,
      "ÑīÐ°ÑİÑĤÑģÑı": 7061,
      "ĠÑĤÐºÐ°Ð½Ð¸": 7062,
      "ĠÐ´ÐµÑģÑıÑĤÐ¸": 7063,
      "ĠÐ¼ÑĭÑģÐ»ÑĮ": 7064,
      "ĠÐ·Ð°Ð½Ð¸Ð¼Ð°ÐµÑĤ": 7065,
      "Ġ&": 7066,
      "ĠÑĪÑĤÐ°ÑĤÐ°": 7067,
      "ÑģÑģÐµÑĢ": 7068,
      "ĠÐ¸Ð·Ð±ÑĢÐ°Ð½": 7069,
      "ĠÐ¼Ð°ÑĤÑĩÐµ": 7070,
      "Ð³Ð°Ð¼": 7071,
      "ĠÐ²ÑĭÑģÐ¾ÐºÐ¾": 7072,
      "ĠÐ¿ÑĢÐµÐ¼ÑĮÐµÑĢ": 7073,
      "ÑĢÑĥÑı": 7074,
      "Ð¾ÑĩÐ½Ð¾Ð¹": 7075,
      "ĠÑĤÐ¾Ð²Ð°ÑĢÐ¾Ð²": 7076,
      "ĠÑĢÐµÐ´ÐºÐ¾": 7077,
      "ĠÐ¿ÑģÐ¸ÑħÐ¾Ð»Ð¾Ð³Ð¸": 7078,
      "ĠÐ²ÑĭÑĪÐ»Ð°": 7079,
      "ĠÐ¡ÐŁ": 7080,
      "ĠÐ°ÑĢÐ³Ñĥ": 7081,
      "ĠÐ¿Ð¾Ð´Ð´ÐµÑĢÐ¶Ð¸Ð²Ð°ÑĤÑĮ": 7082,
      "ĠÐ·Ð°ÑģÐ»Ñĥ": 7083,
      "Ð»Ð¸Ð·Ð¾Ð²Ð°": 7084,
      "ĠÐºÑĥÑħ": 7085,
      "Ð½Ð³Ðµ": 7086,
      "ĠÐ²Ð»Ð°Ð´ÐµÐ»ÑĮ": 7087,
      "ÑĩÐ¸Ð¼": 7088,
      "ĠÐ·Ð½Ð°ÐµÑĤÐµ": 7089,
      "Ð´Ð¸Ð²": 7090,
      "ĠÐ¼ÐµÐ½ÐµÐ´": 7091,
      "Ð±ÐµÑĢÐ³": 7092,
      "ĠÎ": 7093,
      "ĠÑĦÐ¸Ð½Ð°Ð½ÑģÐ¸": 7094,
      "Ð¾ÑĩÐ½ÑĭÑħ": 7095,
      "Ġ2020": 7096,
      "ĠÐ¿ÑĢÐµÐ´Ð¿Ð¾Ð»Ð°Ð³Ð°ÐµÑĤ": 7097,
      "ĠÐ²Ð¸Ð·Ñĥ": 7098,
      "Ð»Ð¸ÑĩÐ½Ð¾": 7099,
      "ĠÐŀÑģÐ¾Ð±": 7100,
      "ĠÐ¾ÑĢÐ³Ð°Ð½Ð¸Ð·Ð¼": 7101,
      "lection": 7102,
      "ĠÑįÑĤÐ¸Ð¼Ð¸": 7103,
      "ĠÐ¿ÑĢÐµÐ´ÑģÑĤÐ°Ð²Ð»ÐµÐ½Ð¸Ñı": 7104,
      "Ð²Ð°ÑİÑīÐ¸Ðµ": 7105,
      "ĠÐ¿Ð¾ÑıÑģ": 7106,
      "ĠÐ²Ð¾Ð»Ð¾": 7107,
      "ĠÐºÐ°ÐºÐ°Ñı": 7108,
      "ĠÑħÐ¾Ð·Ñı": 7109,
      "ĠÐĳÐ¾Ð»": 7110,
      "ĠÑĢÐµÐ±ÐµÐ½Ð¾Ðº": 7111,
      "ĠÐ¿Ð¾Ð´Ð²ÐµÑĢÐ³Ð°": 7112,
      "Ð¾Ð¼ÐµÐ½": 7113,
      "ÐļÑĥ": 7114,
      "ĠÐ¿Ð¾Ð´Ð³Ð¾ÑĤÐ¾Ð²ÐºÐ¸": 7115,
      "ĠÑĢÑĭÐ±": 7116,
      "ĠÐ¿Ð¾ÑģÐµÐ»ÐµÐ½Ð¸Ñı": 7117,
      "ĠÑĢÐ°Ð·ÑĢÐ°Ð±Ð¾ÑĤÐºÐ¸": 7118,
      "ĠÐĺÑģÐ¿Ð°Ð½Ð¸Ð¸": 7119,
      "ÑĤÐ°Ð»": 7120,
      "ĠÐ¸Ð½ÑĤÐµÑĢÐ½ÐµÑĤ": 7121,
      "ĠÐłÐ°Ð¹": 7122,
      "ĠÑĤÐµÐ»ÐµÐ²Ð¸": 7123,
      "ÑĢÐ¾Ð²Ð°Ð½Ð½Ð¾Ð³Ð¾": 7124,
      "ĠÐ¿Ð¾ÑģÐ»ÐµÐ´ÑģÑĤÐ²Ð¸Ñı": 7125,
      "ĠÑĤÑĭÑģÑıÑĩÐ¸": 7126,
      "ÑĢÐ¾Ð²Ð°Ð½Ð¾": 7127,
      "ĠÐ¾Ð±ÐµÐ·": 7128,
      "ĠÐ¾Ð´Ð½Ð¾Ð¼Ñĥ": 7129,
      "Ð¾ÐºÑĥÐ¿": 7130,
      "ĠÐ¼ÑĥÐ¶ÑĩÐ¸Ð½Ñĭ": 7131,
      "ĠÑĢÐ°Ð·Ð²Ðµ": 7132,
      "ber": 7133,
      "text": 7134,
      "ĠÐļÐ»Ð°": 7135,
      "ĠÐ·Ð´ÑĢÐ°Ð²Ð¾Ð¾ÑħÑĢÐ°Ð½": 7136,
      "ĠÐĳÐµÐ»Ð¾": 7137,
      "ÑĤÐµÑĢÐ¾Ð²": 7138,
      "ÑĨÐ¸ÐºÐ»": 7139,
      "ĠÐ¸Ð·Ð²ÐµÑģÑĤÐµÐ½": 7140,
      "ĠÐ¡ÐľÐĺ": 7141,
      "ĠÐĳÐ¾ÑĢÐ¸": 7142,
      "ĠÐ²ÑĢÐ°Ñĩ": 7143,
      "ĠÐ´Ð¾ÑĢÐ¾Ð³": 7144,
      "Ġbe": 7145,
      "Ð¼ÑĥÑİ": 7146,
      "ĠÑģÐºÐ¸": 7147,
      "io": 7148,
      "ĠÐºÐ¾ÑĢÐ¿ÑĥÑģÐ°": 7149,
      "ĠÐºÐ¾Ð¼Ð¿Ð°Ð½Ð¸Ð¹": 7150,
      "ĠÐ±ÑĭÐ²Ð°ÐµÑĤ": 7151,
      "Ð¼ÑĭÑģ": 7152,
      "ĠÑģÐ¸ÑĤÑĥÐ°ÑĨÐ¸Ñı": 7153,
      "ĠÐ¼Ð½Ð¾Ð¹": 7154,
      "ÑĪÑĤÐµÐ¹": 7155,
      "ĠÐ½Ð°ÑĨÐ¸Ð¾Ð½Ð°Ð»ÑĮÐ½Ð¾Ð¹": 7156,
      "ĠÐ¿ÐµÐ´Ð°Ð³": 7157,
      "ÑīÐµÐ½Ð¾": 7158,
      "ĠÐ¿ÑĢÐ¾ÑĤÐ¾Ðº": 7159,
      "ÑĨÐ°Ñħ": 7160,
      "ĠÐ²ÑĭÑĩÐ¸Ñģ": 7161,
      "ĠÐĳÑĥÐ´": 7162,
      "Ġ1992": 7163,
      "ĠÐ¿Ð¾ÑĢÑıÐ´ÐºÐ°": 7164,
      "ĠÐ²ÑĭÑģÐºÐ°Ð·ÑĭÐ²Ð°": 7165,
      "ĠÐ¾Ð±ÑĥÑĩÐµÐ½Ð¸Ðµ": 7166,
      "ĠÐ´Ð¸Ð·Ð°Ð¹": 7167,
      "ĠÑģÐ¾Ð¶Ð°Ð»": 7168,
      "ĠÐ¸Ð·Ð²ÐµÑģÑĤÐ½ÑĭÑħ": 7169,
      "Ð¿ÑĤÐ¸": 7170,
      "ĠÐ¿Ð¸ÑīÐ¸": 7171,
      "ĠÐŀÐ±ÑĢÐ°": 7172,
      "ĠÐ¸Ð¼ÐµÐµÑĤÑģÑı": 7173,
      "ĠÐ¿ÑĢÐµÐ¶": 7174,
      "ÑĢÐµÐ³Ð¸ÑģÑĤÑĢÐ¸": 7175,
      "Ð¡Ð¾Ð³Ð»Ð°ÑģÐ½Ð¾": 7176,
      "ĠÑĩÐ»ÐµÐ½Ð°": 7177,
      "Ð»Ð¾Ð¶ÐµÐ½Ð¸Ñı": 7178,
      "ĠÐ¿Ð¾Ð´Ð¾": 7179,
      "ĠÑĥÑĢÐ¾Ð²Ð½ÐµÐ¼": 7180,
      "ĠÐ¿ÑĢÐ¾Ð¸ÑģÑħÐ¾Ð¶Ð´ÐµÐ½Ð¸Ñı": 7181,
      "ĠÐ¼ÐµÑĢÐ¾Ð¿ÑĢÐ¸ÑıÑĤÐ¸Ñı": 7182,
      "ĠÐ²ÐµÐ»Ð¸Ðº": 7183,
      "ĠÐ²Ð²ÐµÑĢÑħ": 7184,
      "ĠÐºÐ°Ð¶Ð´Ð°Ñı": 7185,
      "ĠÐ¡ÑĥÑīÐµÑģÑĤÐ²": 7186,
      "ice": 7187,
      "ĠÐ¾Ð±ÑīÐ¸Ð¹": 7188,
      "ĠÐ³ÑĥÐ±ÐµÑĢÐ½Ð¸Ð¸": 7189,
      "ÐĺÑģ": 7190,
      "ĠÐ³ÑĢÑĥÐ¿Ð¿Ð¸": 7191,
      "ĠÐºÐ¸Ð»Ð¾Ð¼ÐµÑĤÑĢÐ¾Ð²": 7192,
      "ÑĢÐ¾Ð´Ð¾Ð»": 7193,
      "ĠÐ³Ð¾ÑĢÐ¾Ð´Ð¾Ð²": 7194,
      "ÐµÐ¼Ð¾Ð½": 7195,
      "ĠÐ¾Ð±ÑīÐµÑģÑĤÐ²Ðµ": 7196,
      "ÑħÐ»Ð°": 7197,
      "ĠÐ²Ð¾ÑģÐ¿Ð°": 7198,
      "ĠÑħÐ¾ÑĤÑĮ": 7199,
      "ĠÐļÐ°Ð·Ð°Ñħ": 7200,
      "rom": 7201,
      "ÐĿÐ¸": 7202,
      "ĠÑģÑĤÐ°Ð½Ð¾Ð²ÑıÑĤÑģÑı": 7203,
      "Ð»Ð°Ð³Ð¾Ð´Ð°ÑĢÑı": 7204,
      "ĠÐ£Ð¸Ð»ÑĮ": 7205,
      "ĠÐ¸Ð³ÑĢÐ°Ñħ": 7206,
      "ĠÐ½Ð¾Ð²ÑĭÐ¼": 7207,
      "Ð¼Ð¸ÑĤ": 7208,
      "Ð±Ð¸ÑĢ": 7209,
      "ĠÐ¤Ð¸Ð»Ð¸": 7210,
      "ĠÑĥÐ»Ð¸ÑĨÐµ": 7211,
      "ĠÐ¾Ð±ÑĢÐ°Ð±Ð¾ÑĤÐºÐ¸": 7212,
      "ĠÐ³Ð¸Ð¼": 7213,
      "ĠÐ¡Ð¸Ð¼": 7214,
      "ĠÐļÐ°Ð¼": 7215,
      "ĠÐ¤Ð¸Ð½": 7216,
      "ĠÐ¾Ð±ÑĥÑģÐ»Ð¾Ð²": 7217,
      "ĠÐ¿ÑĢÐ¾Ð´ÑĥÐºÑĤ": 7218,
      "Ð°Ð¼ÐµÑĤ": 7219,
      "ĠÐĳÑĢÐ¸": 7220,
      "ĠÐ¾ÑĢÐ³Ð°Ð½Ð¸Ð·Ð°ÑĨÐ¸Ð¹": 7221,
      "Ð»ÑĮÐ½Ð¾ÑģÑĤÐ¸": 7222,
      "ĠÐĲÐº": 7223,
      "ĠÑģÑĤÑĢÐ¾Ðº": 7224,
      "âĢľ": 7225,
      "ÑĤÐ½Ð¾Ðµ": 7226,
      "Ð»ÑĭÐ¼Ð¸": 7227,
      "ĠÑıÐ±": 7228,
      "ĠÑĦÑĥÐ½ÐºÑĨÐ¸Ð¾Ð½Ð¸": 7229,
      "ĠÐĲÐ¹": 7230,
      "ĠÐļÐ°Ð¶Ð´ÑĭÐ¹": 7231,
      "ĠÐ°Ð²ÑĤÐ¾ÑĢÐ¸": 7232,
      "ĠÐ»ÑİÐ±ÑĭÐµ": 7233,
      "Ð»ÑĮÐ½Ð¾ÑģÑĤÑĮ": 7234,
      "ĠÐ¸ÑģÑĤÑĢÐµ": 7235,
      "Ð·Ð¼Ñĭ": 7236,
      "Ð³ÑĢÑĥÐ¿": 7237,
      "Ġ1942": 7238,
      "ĠÑģÐ¿ÑĢÐ°ÑĪÐ¸": 7239,
      "ÑĩÐ°ÑİÑĤ": 7240,
      "ĠÐºÐ°ÐºÐ¾Ð³Ð¾": 7241,
      "ĠÐ¾ÑĤÐ»Ð¸ÑĩÐ°ÐµÑĤÑģÑı": 7242,
      "ÑĩÐµÑĤÐµ": 7243,
      "ĠÑĢÐ°ÑģÑĤÐ²": 7244,
      "ĠÐ²Ð°ÑĪÐµÐ¼": 7245,
      "ĠÐ¾ÑģÑĤÐ°Ð½Ð¾Ð²Ð¸": 7246,
      "ĠÑĩÐ°Ð¹": 7247,
      "ĠÐºÑĢÐµÐ¿": 7248,
      "ÑģÑĤÐ²ÑĥÑİÑīÐ¸Ñħ": 7249,
      "ĠÐ»Ð¾Ðº": 7250,
      "ÑģÑĤÐ½ÑĭÐµ": 7251,
      "ÑĤÐ¾Ð½Ð¸": 7252,
      "ÑĥÑİÑīÐ¸Ð¼": 7253,
      "ĠÐºÐ°ÑĢÑĤÑĭ": 7254,
      "ÐŃÑĤÐ¾ÑĤ": 7255,
      "ÑĤÐ½ÑĭÐ¼": 7256,
      "ĠÑģÐ¾Ð·Ð´Ð°Ð²Ð°ÑĤÑĮ": 7257,
      "ĠÐ¿Ð¾Ð»Ð¸ÑĨÐµÐ¹": 7258,
      "ĠÐ¾Ð¿Ð°": 7259,
      "ĠÐĶÐ¶Ð°": 7260,
      "ĠÑģÐ²ÑıÐ·": 7261,
      "ĠÐłÐ¾Ð¼": 7262,
      "ÑĩÐµÐ½Ð½ÑĭÐµ": 7263,
      "ÑģÐ»Ð°Ð²": 7264,
      "ÑĢÑĥÐ¹ÑĤÐµ": 7265,
      "69": 7266,
      "ĠÐ·Ð°ÐºÐ°Ð½ÑĩÐ¸": 7267,
      "ĠÑĦÑĥÐ½ÐºÑĨÐ¸Ð¾Ð½Ð°Ð»ÑĮ": 7268,
      "ÐµÑĤÐ¾Ð²": 7269,
      "ĠÐ¿Ð°ÑĤÑĢÐ¸": 7270,
      "ĠÐĲÐ»ÐµÐºÑģÐ°Ð½Ð´ÑĢÐ°": 7271,
      "ĠÐ²ÑĢÑĥ": 7272,
      "ÑĩÐµÑģÑĤÐ²Ðµ": 7273,
      "ĠÐ£Ð½Ð¸Ð²ÐµÑĢÑģÐ¸ÑĤ": 7274,
      "ĠÐĲÑĦ": 7275,
      "ĠÐ¶ÑĥÑĢÐ½Ð°Ð»Ð°": 7276,
      "!Â»": 7277,
      "ĠÐºÐ°ÐºÑĥÑİ": 7278,
      "ĠÑıÐ¹": 7279,
      "ĠÐ¸Ð´ÑĤÐ¸": 7280,
      "ĠÐ¼Ð°Ð¹": 7281,
      "ĠÑģÐ°Ð¼Ð¾ÑģÑĤÐ¾ÑıÑĤÐµÐ»ÑĮÐ½Ð¾": 7282,
      "ĠÐ¿ÑĢÐµÐ´ÐµÐ»Ð°Ñħ": 7283,
      "Ð¾Ð´ÐµÑĢÐ¶Ð°": 7284,
      "Ġ150": 7285,
      "ĠÐ¿ÑĢÐµÐ´ÑģÑĤÐ°Ð²Ð¸ÑĤÑĮ": 7286,
      "ĠÑĤÑĢÐµÐ½Ð¸ÑĢÐ¾Ð²": 7287,
      "Ġ38": 7288,
      "ÐµÑĤÑĥ": 7289,
      "ĠÐ¿Ð°ÑĨÐ¸ÐµÐ½ÑĤÐ¾Ð²": 7290,
      "ĠÐ³ÑĢÑĥÐ´": 7291,
      "ĠÑĥÐ¿ÑĢÐ¾": 7292,
      "ĠÐ¿ÑĭÑĤÐ°ÐµÑĤÑģÑı": 7293,
      "ĠÐ²Ð´Ð¾Ð»ÑĮ": 7294,
      "ĠÐ¼Ð¾ÐµÐ³Ð¾": 7295,
      "ĠÑĢÐ°Ð·Ð²Ð¸ÑĤÐ¸Ñİ": 7296,
      "ĠÑģÐ»Ð¾Ð¶Ð½Ð¾ÑģÑĤÐ¸": 7297,
      "ĠÑĢÐµÐ·ÐºÐ¾": 7298,
      "Ð»Ð¸Ñİ": 7299,
      "ĠÑģÑĥÑī": 7300,
      "ĠÐ»Ð¸Ð½ÐµÐ¹": 7301,
      "Ð¾ÑĤÐ²ÐµÑĤ": 7302,
      "ĠÐ¾Ð¿ÑĢÐ°Ð²": 7303,
      "ĠÐĹÐµÐ¼Ð»Ð¸": 7304,
      "ĠÐ²Ð¸ÑĤÐ°Ð¼Ð¸": 7305,
      "Ġyou": 7306,
      "ÑĢÑį": 7307,
      "ĠÐĴÐ¾Ð¿ÑĢÐ¾Ñģ": 7308,
      "ĠÐ·Ð´Ð°": 7309,
      "ĠÑģÐ¿ÑĢÐ¾ÑģÐ¸Ð»": 7310,
      "Ð³Ð°Ð»": 7311,
      "ĠÐ¼Ð°ÑģÑģÐ°": 7312,
      "Ð½Ð¸ÐºÐ°Ñħ": 7313,
      "pl": 7314,
      "ĠÐĺÐ¸Ñģ": 7315,
      "ĠÑĢÐ°Ð·Ð»Ð¸ÑĩÐ½ÑĭÐ¼Ð¸": 7316,
      "ĠÑĢÐ¾Ð´Ð¸ÑĤÐµÐ»ÐµÐ¹": 7317,
      "79": 7318,
      "ĠÐ½Ð°ÐºÐ°": 7319,
      "ĠÐ·Ð°Ð¿Ð¸ÑģÐ°": 7320,
      "ĠÑħÐ²Ð°ÑĤÐ°": 7321,
      "ĠÑĨÐµÐ½Ñĭ": 7322,
      "ĠÐ²ÐµÑĢÐ½ÑĥÑĤÑĮÑģÑı": 7323,
      "ĠÑģÐ¾Ð¾Ð±ÑīÐ¸Ð»": 7324,
      "ĠÐĵÐµÐ¾ÑĢ": 7325,
      "Ð¾ÑģÐ¾Ð±Ñĭ": 7326,
      "ĠÐ²ÑĭÐ´ÐµÐ»Ð¸": 7327,
      "Ð¼ÐµÐ½ÑĤÐµ": 7328,
      "ĠÐĽÐ¸Ð½": 7329,
      "ĠÐ²Ð´ÑĢÑĥÐ³": 7330,
      "ÐķÐł": 7331,
      "ĠÐ¡ÐºÐ¾Ð»ÑĮÐºÐ¾": 7332,
      "ĠÐ¿ÑĢÐµÐ¾Ð´Ð¾Ð»": 7333,
      "ĠÑĤÐµÐ¼Ñĭ": 7334,
      "ĠPro": 7335,
      "ĠÐ¿ÑĢÐ¾ÑĪÐ»Ð¾Ð³Ð¾": 7336,
      "ĠÐ½ÐµÐ´Ð¾ÑģÑĤÐ°ÑĤÐ¾": 7337,
      "ÐµÑĢÑĪÐµÐ½": 7338,
      "ĠÐ¾ÑĤÐ²ÐµÑĤÐ¸ÑĤÑĮ": 7339,
      "ÐºÐ¾Ð¼Ð°": 7340,
      "ĠÑģÐ¸Ð¼Ð¿ÑĤÐ¾Ð¼Ñĭ": 7341,
      "ĠÐ¾Ð¿Ð¿Ð¾Ð·Ð¸": 7342,
      "ĠÐ²Ð¾ÑģÐ¿ÑĢÐ¸Ñı": 7343,
      "Ð¾Ð¼Ð¸Ð¼Ð¾": 7344,
      "ĠÐ´ÑĢÑĥÐ³Ñĥ": 7345,
      "ÑĢÐ¾Ð²Ð°Ð»Ð°": 7346,
      "Ð»ÐµÐ½Ð½ÑĭÐ¼Ð¸": 7347,
      "ĠÑģÐ»ÐµÐ´ÑĥÑİÑīÐ¸Ð¼": 7348,
      "ĠÑħÐ¾ÑĤÑıÑĤ": 7349,
      "Ð»ÐµÐ½Ð½ÑĥÑİ": 7350,
      "ĠÐ½ÐµÐ¶Ðµ": 7351,
      "ĠÐ¿ÑĢÐ¾Ð´ÑĥÐºÑĨÐ¸Ð¸": 7352,
      "ĠÑģÐºÑĥÐ»ÑĮÐ¿": 7353,
      "ĠÐ¸Ð½Ð¾ÑģÑĤÑĢÐ°Ð½Ð½ÑĭÑħ": 7354,
      "ĠÑĦÑĥÐ½ÐºÑĨÐ¸Ñı": 7355,
      "ĠÐ·Ð´Ð¾ÑĢÐ¾Ð²ÑĮÐµ": 7356,
      "72": 7357,
      "Ð¼Ð¸Ñı": 7358,
      "ĠÑįÐ½ÐµÑĢÐ³ÐµÑĤÐ¸": 7359,
      "ÐºÐ¸Ð¿Ð°": 7360,
      "ĠÑĦÐ¾ÑĢÐ¼": 7361,
      "ĠÐ¿ÑĢÐ¾Ð³ÑĢÐ°Ð¼Ð¼Ð¸": 7362,
      "ear": 7363,
      "ÑģÑĤÐ½Ð¾Ð³Ð¾": 7364,
      "ĠÐ¾ÑĤÑĢÐµ": 7365,
      "Ð´ÐµÑģ": 7366,
      "ĠÐ¿Ð¾Ð²ÐµÑĢ": 7367,
      "ĠÐ¸Ð·Ð¼ÐµÐ½ÐµÐ½Ð¸Ðµ": 7368,
      "ĠÑģÐ»ÑĥÐ¶Ð±Ñĥ": 7369,
      "ĠÐ¼ÑĥÑģÑĥÐ»ÑĮ": 7370,
      "ĠÐ»ÐµÑĩÐµÐ½Ð¸Ðµ": 7371,
      "Ð¿ÑĢÐµÐ´": 7372,
      "Ð±Ð¾Ð»": 7373,
      "ult": 7374,
      "Ð¶ÐºÐ¸": 7375,
      "ĠÐ´Ð¾ÑģÑĤÑĥÐ¿Ð°": 7376,
      "ÑĨÐ¸Ð¾Ð½Ð½Ð¾": 7377,
      "ĠÐŃÑĢ": 7378,
      "ĠÐ¸Ð´ÐµÐ¹": 7379,
      "ĠÐºÐ¾Ð½ÑģÑĥÐ»ÑĮÑĤÐ°": 7380,
      "ĠÑģÐµÐºÑĥÐ½": 7381,
      "ÐµÑĢÐ°Ð¼Ð¸": 7382,
      "ĠÐ²ÐµÑīÐµÐ¹": 7383,
      "ĠÐ¾ÑģÑĤÐ°Ð²Ð°ÑĤÑĮÑģÑı": 7384,
      "ĠÑĪÐ°Ñħ": 7385,
      "ÐµÐ½Ð½ÑĭÐ¼Ð¸": 7386,
      "ĠÐ¾ÑĤÐ´ÑĭÑħÐ°": 7387,
      "ÑĩÐµÐ²": 7388,
      "ĠÐ¾ÑĪÐ¸Ð±ÐºÐ¸": 7389,
      "ĠÐºÐ¾Ð½ÐºÑĥÑĢÐµÐ½": 7390,
      "ĠÐ¼ÑĥÐ·ÑĭÐºÐ°Ð½": 7391,
      "Ð»ÑİÑĤ": 7392,
      "ĠÐ½ÑĳÐ¼": 7393,
      "ĠÐ¿Ð¾ÑıÐ²Ð¸Ð»Ð¸ÑģÑĮ": 7394,
      "ĠÐºÐ¾ÑĢÐ°": 7395,
      "ore": 7396,
      "ĠÐ¿Ð¸ÑģÑĮÐ¼Ð°": 7397,
      "ĠÐ¿Ð¾Ð´Ð²Ð¸": 7398,
      "ĠÑĨÐµÐ»ÑıÑħ": 7399,
      "ĠÑįÑĦÑĦÐµÐºÑĤÐ¸Ð²Ð½Ð¾": 7400,
      "ĠÐ²Ð¾Ð´Ð¸": 7401,
      "ÑĢÑıÑģ": 7402,
      "ĠÑĢÐ°ÑģÑĤÐµÐ½Ð¸Ð¹": 7403,
      "ff": 7404,
      "ĠÐ´ÑĢÑĥÐ³ÑĥÑİ": 7405,
      "ĠÐ¥Ð¾Ð»": 7406,
      "ĠÐ¿Ð°ÑĢÑĤÐ¸Ñı": 7407,
      ".\"": 7408,
      "Ð´ÑĳÑĤ": 7409,
      "ĠÐĺÐ³": 7410,
      "ĠÐļÐ¾Ð¼Ð¸": 7411,
      "ĠÑģÐµÐ»Ð°": 7412,
      "ÑĤÐ°ÑĨÐ¸Ñİ": 7413,
      "ĠÑįÐ²Ð¾Ð»Ñİ": 7414,
      "ÑİÑīÐµÐ¹ÑģÑı": 7415,
      "ĠÐ¾ÑĤÑĢÑı": 7416,
      "ÑĤÐµÐ»ÑĮÑģÑĤÐ²Ð¾Ð¼": 7417,
      "ĠÐ¾ÑĢÑĥÐ¶Ð¸Ðµ": 7418,
      "ĠÑĩÐ»ÐµÐ½Ñĭ": 7419,
      "ĠÐ¿ÐµÑĢÐµÑģÑĤÐ°": 7420,
      "Ð²Ð°Ð»ÑĮ": 7421,
      "ĠÑĩÐµÐ¼Ð¿Ð¸Ð¾Ð½Ð°ÑĤÐµ": 7422,
      "ÐºÐ¾Ð²Ñĭ": 7423,
      "ĠÐ¾Ð³ÑĢÐ°Ð½Ð¸ÑĩÐµÐ½Ð¸Ñı": 7424,
      "ĠÐ¿Ð¸ÑģÑĮÐ¼Ð¾": 7425,
      "Ð¿ÑĢÐ°": 7426,
      "ĠÐĲÑĤ": 7427,
      "ĠÐºÐ¾ÑĢÐ¾Ð»ÑĮ": 7428,
      "ĠÐ¿ÑĢÑĭ": 7429,
      "ĠÐĶÐ¾Ð±": 7430,
      "ĠÑĨÐ¸Ð²Ð¸Ð»Ð¸": 7431,
      "ÑĤÐ¾ÑĢÐµ": 7432,
      "ÑĤÐ¾ÑĢÑĥ": 7433,
      "ĠÐ±Ð°ÑĪ": 7434,
      "ĠÐ±Ð»Ð¾ÐºÐ¸": 7435,
      "ÑıÑĢ": 7436,
      "ĠÐ²Ð¸ÑĢ": 7437,
      "ĠÑģÐ´ÐµÐ»Ð°Ð»Ð¸": 7438,
      "ĠÐ¿ÑĢÐ¾ÑģÑĤÑĢÐ°Ð½ÑģÑĤÐ²Ð¾": 7439,
      "ĠÑĦÐ°ÐºÑĤÐ¾ÑĢÑĭ": 7440,
      "ĠÐ»Ð°Ð³ÐµÑĢ": 7441,
      "ĠÐ¼Ð°ÑĢÐºÐµÑĤ": 7442,
      "Ð¾Ð±Ð¸Ð»Ð¸": 7443,
      "ÑĥÑİÑīÐµÐ³Ð¾": 7444,
      "ĠÐ¿ÑĢÐµÐ´ÑĪÐµ": 7445,
      "ĠÐ´Ð¾Ð±Ð¸ÑĤÑĮÑģÑı": 7446,
      "ĠÑĦÑĥÐ½ÐºÑĨÐ¸Ñİ": 7447,
      "ĠÐ²ÑĭÐ·Ð²Ð°ÑĤÑĮ": 7448,
      "Ð¤Ð¸Ð»ÑĮ": 7449,
      "ĠÐ¿ÑĢÐ¾Ð¼Ðµ": 7450,
      "Ð³ÑĢÐ°Ð½": 7451,
      "ĠÐ¿Ð°Ð¿": 7452,
      "Ð¾ÑĤÐ½Ð¾": 7453,
      "Ġ{": 7454,
      "ĠÐ¿Ð¾ÑģÐ»ÐµÐ´Ð½ÐµÐµ": 7455,
      "ĠÐĺÐ½Ð´Ð¸Ð¸": 7456,
      "ĠÐ°ÐºÐ°Ð´ÐµÐ¼Ð¸Ð¸": 7457,
      "ĠÐ¶ÐµÐ»ÐµÐ·Ð½Ð¾Ð´Ð¾ÑĢÐ¾Ð¶": 7458,
      "ĠÐ¥Ñĥ": 7459,
      "ĠÐ¾ÑģÑĤÐ°Ð»ÑĮÐ½ÑĭÐµ": 7460,
      "Ð¡Ñĥ": 7461,
      "Ð¾Ð¼Ð¸Ð½Ð¸": 7462,
      "ĠÐºÑĥÑĢÑģ": 7463,
      "ĠÑħÑĢÐ¾Ð½Ð¸": 7464,
      "ĠÐ¿ÑĢÐ¸Ð²ÐµÐ»Ð¾": 7465,
      "ĠÐĴÐ¸Ð½": 7466,
      "ĠÐķÐ²ÑĢÐ¾Ð¿ÐµÐ¹": 7467,
      "ĠÐ¥Ð¾ÑĢÐ¾ÑĪÐ¾": 7468,
      "ĠÐ»ÐµÑĤÐ°": 7469,
      "ĠÑģÐ²Ð°": 7470,
      "Ð¤ÑĢÐ°Ð½": 7471,
      "ĠÐ¿Ð¾Ð½ÑıÐ»": 7472,
      "ĠÐ²Ð¾ÐµÐ½Ð½Ð¾Ð³Ð¾": 7473,
      "ĠÐ¾ÐºÐ°Ð·Ð°Ð»Ð¸ÑģÑĮ": 7474,
      "ĠÐ¾Ð±Ð¾ÑģÐ½Ð¾Ð²Ð°": 7475,
      "Ġ1920": 7476,
      "ĠÐ¡Ð¼": 7477,
      "ĠÐ¿ÑĢÐ¸ÑģÐ¾ÐµÐ´Ð¸Ð½Ð¸": 7478,
      "ĠÐ¶Ð¸Ð·Ð½ÐµÐ½": 7479,
      "ÐºÐ¾Ð²ÑĭÐ¹": 7480,
      "ĠÑĤÑĢÐ°Ðº": 7481,
      "ĠÑĥÑĢÐ°Ð²Ð½ÐµÐ½Ð¸Ðµ": 7482,
      "ĠÐ½Ð°Ð¼Ð½Ð¾Ð³Ð¾": 7483,
      "ĠÐ¾Ð¿ÑĢÐµÐ´ÐµÐ»ÑıÐµÑĤÑģÑı": 7484,
      "ĠÐ¾ÑģÐ½Ð¾Ð²Ð°Ð½Ð¸Ñı": 7485,
      "ĠÐŁÐ¾Ð²": 7486,
      "Ġ1917": 7487,
      "ĠÐµÐ¶ÐµÐ³Ð¾Ð´": 7488,
      "ĠÐ¾Ð±Ð¾Ð¸Ñħ": 7489,
      "Ð¼ÐµÑģÑĤÐ¸": 7490,
      "ÑģÑĤÐ°Ð²ÑĮÑĤÐµ": 7491,
      "ĠÐ¿Ð¾Ð»ÑĮÐ·Ð¾Ð²Ð°ÑĤÐµÐ»ÑĮ": 7492,
      "ĠÐ¿ÐµÑħÐ¾ÑĤ": 7493,
      "ĠÐ±Ð¾ÐµÐ²ÑĭÑħ": 7494,
      "ĠÐ²Ð¾ÑģÐµÐ¼": 7495,
      "ĠÑĢÐ°ÐºÐµÑĤ": 7496,
      "ens": 7497,
      "ĠÑģÑĤÐ°Ð´Ð¸Ð¸": 7498,
      "ĠÑĥÑĩÐ°ÑģÑĤÐ¸Ñı": 7499,
      "Ð±ÑĥÑĢÐ³Ðµ": 7500,
      "ĠÐ´Ð¾Ð³Ð¾Ð²Ð¾ÑĢ": 7501,
      "ĠÐ³Ð¾Ð»Ð¾Ð²Ñĭ": 7502,
      "ĠÐ¿ÑĢÐ¾ÑģÑĤÑĢÐ°Ð½ÑģÑĤÐ²Ð°": 7503,
      "ĠÐ»ÑĥÑĩÑĪÐ¸Ð¹": 7504,
      "ĠÐ¸Ð½ÑģÑĤÐ¸ÑĤÑĥÑĤÐ°": 7505,
      "ĠÐ¿ÑĢÐ°Ð²Ð¸Ð»": 7506,
      "ĠÑıÐ·ÑĭÐºÐ¾Ð²": 7507,
      "ĠÑĥÐºÐ°Ð·ÑĭÐ²Ð°ÐµÑĤ": 7508,
      "ĠÑĤÑıÐ¶": 7509,
      "ĠÐ²Ð°ÑĢÐ¸Ð°Ð½ÑĤÐ¾Ð²": 7510,
      "ĠÐ¾ÐºÐºÑĥ": 7511,
      "ĠÐ°ÑĢÐµÐ½": 7512,
      "Ð½ÑĥÐ»Ð°ÑģÑĮ": 7513,
      "88": 7514,
      "ĠÑģÐ»ÐµÐ´ÑĥÑİÑīÐ¸Ñħ": 7515,
      "ĠÐ¿ÑĢÐµÐ¿Ð¾Ð´Ð°Ð²Ð°": 7516,
      "ÐºÐ¾Ð»": 7517,
      "ĠÐ¼Ð°ÑģÑģÑĭ": 7518,
      "Ð½Ð½ÑĭÐ¼": 7519,
      "ĠBl": 7520,
      "Ð»Ð¸Ð½Ð³": 7521,
      "ĠÐ¸Ð¼Ñĥ": 7522,
      "ĠÐ¿ÑĢÐ¸Ð¾Ð±ÑĢÐµÑĤ": 7523,
      "ock": 7524,
      "ĠÑĢÐ°Ð·ÑĢÐ°Ð±Ð¾ÑĤÐ°Ð½": 7525,
      "ĠÐ½Ð°Ð»Ð¸ÑĩÐ¸": 7526,
      "ĠÑįÐ¼": 7527,
      "ĠÐºÐ¾Ð¼Ð°Ð½Ð´Ðµ": 7528,
      "ĠÐ³Ð»Ð°Ð²Ð½ÑĭÑħ": 7529,
      "ĠÐ²Ð»Ð¸ÑıÐ½Ð¸Ñı": 7530,
      "ĠÐ¾ÑĤÐ²ÐµÑĢÑģÑĤÐ¸": 7531,
      "ĠÐ¼ÐµÐ´Ð°Ð»ÑĮ": 7532,
      "ĠÐ¿ÑĢÐ¸Ð²ÐµÐ´": 7533,
      "ĠÐ¿Ð¾Ð»Ð¸ÑĨÐ¸Ð¸": 7534,
      "ver": 7535,
      "Ð²ÐµÑĢÑģÐ°": 7536,
      "ĠIV": 7537,
      "ect": 7538,
      "ĠÐºÐ¾Ð½ÑĤÑĢÐ°": 7539,
      "ĠÐ°ÑĢÐ°Ð±": 7540,
      "ĠÑģÑĤÐ°Ð»ÐºÐ¸": 7541,
      "ĠÑģÐ¾Ð¶Ð°Ð»ÐµÐ½Ð¸Ñİ": 7542,
      "ĠÐ¡ÐµÐ¹ÑĩÐ°Ñģ": 7543,
      "Ð¾Ð¿ÐµÐ´Ð¸": 7544,
      "Ð²ÑĪÐµÐ¹ÑģÑı": 7545,
      "ÑģÑĤÐ°Ð½ÑĨÐ¸Ð¸": 7546,
      "ĠÐŀÐ±ÑĬ": 7547,
      "ĠÐ½Ð°Ð¾Ð±Ð¾ÑĢÐ¾ÑĤ": 7548,
      "ĠÐ´ÐµÑģÑıÑĤÑĮ": 7549,
      "ĠÑĥÑģÐ¿": 7550,
      "Ð¾Ð»ÐµÐ¹": 7551,
      "ĠÑģÐ¾ÑģÑĤÐ°Ð²Ð°": 7552,
      "ĠÑģÑĤÐ°ÑĤÑĥÑģ": 7553,
      "ĠÐķÐµ": 7554,
      "Ġ75": 7555,
      "ĠÑĢÐµÐ±ÑĳÐ½": 7556,
      "ĠÐ¢ÑĢÐ°Ð¼": 7557,
      "Ð±Ð°ÑĢÐ´Ð¸": 7558,
      "Ð´Ð¸Ð»Ð¸": 7559,
      "ĠÐłÐµÐ¹": 7560,
      "ÑģÑĤÐ²ÐµÐ½Ð½Ð¾ÑģÑĤÐ¸": 7561,
      "Ð´ÑĨÐ°ÑĤÐ¸": 7562,
      "ĠÐ¿ÑĢÐ¸Ð½ÐµÑģ": 7563,
      "ĠÐ²Ð¼ÐµÑĪÐ°": 7564,
      "ÐĿÐĲ": 7565,
      "ĠÑįÐºÑģÐ¿Ð»ÑĥÐ°": 7566,
      "ĠÐ½ÐµÐ¿ÑĢÐ¸ÑıÑĤ": 7567,
      "ĠÑģÐ¾Ð±ÑģÑĤÐ²ÐµÐ½Ð½Ð¾Ð¹": 7568,
      "ĠÐºÑĥÐ¿": 7569,
      "ĠÐ¢ÑĢÐ¸": 7570,
      "Ġ1918": 7571,
      "ĠÑĥÑģÐ»ÑĥÐ³Ð¸": 7572,
      "Ð½ÑĥÐ²": 7573,
      "ĠÑĥÑģÐ¿ÐµÑħ": 7574,
      "ÑĦÐ°Ðº": 7575,
      "ÑģÑĤÐ¸ÑĩÐµÑģÐºÐ¾Ð¹": 7576,
      "ĠÐ±Ð°Ð·Ðµ": 7577,
      "ĠÐľÐµÑĢ": 7578,
      "ĠÐ¼Ð¸Ð»Ð»Ð¸Ð°ÑĢ": 7579,
      "ĠÐ¾Ð¿Ð¸ÑģÐ°Ð½": 7580,
      "ĠÑģÐ¾Ð·Ð½Ð°Ð½Ð¸Ñı": 7581,
      "ĠÑģÐ»ÐµÐ´ÑĥÑİÑīÐµÐ¼": 7582,
      "Ð»Ð¾Ð½Ð°": 7583,
      "Ð¾ÑĩÐ½ÑĭÐµ": 7584,
      "ĠÑĩÐµÐ¼Ñĥ": 7585,
      "ĠÐ¼ÑĥÐ·Ðµ": 7586,
      "ĠÐºÐµÐ¼": 7587,
      "ĠÑģÐ¸Ð»Ð°": 7588,
      "ĠÐŃÐº": 7589,
      "ĠÑĢÐ°ÑģÑĤÐµÐ½Ð¸Ñı": 7590,
      "ĠÐ¿Ð¾Ð´ÑĢÐ¾ÑģÑĤ": 7591,
      "ĠEn": 7592,
      "ÑģÑĤÑĢÐ¸Ð¸": 7593,
      "ĠÐļÐ°Ð»Ð¸ÑĦÐ¾ÑĢ": 7594,
      "Ð¾Ð»Ð¸ÑĩÐµÑģÑĤÐ²Ð¾": 7595,
      "Ġ1994": 7596,
      "ĠÐ°Ð±ÑģÐ¾Ð»ÑİÑĤÐ½Ð¾": 7597,
      "org": 7598,
      "ĠÐ¿ÐµÑĢÐµÐ½Ðµ": 7599,
      "ĠÑĦÐ°ÐºÑĤÐ¸ÑĩÐµÑģÐºÐ¸": 7600,
      "Ð±ÐµÐ·": 7601,
      "ĠÐºÐ²Ð°ÑĢÑĤÐ¸": 7602,
      "Â»),": 7603,
      "ĠÐĳÐµÐ·": 7604,
      "ĠÐ¾ÑģÑĤÐ¾ÑĢÐ¾Ð¶": 7605,
      "ĠÑģÑĤÑĢÑĥÐºÑĤÑĥÑĢ": 7606,
      "Ð³Ð³": 7607,
      "ĠÐ¿ÑĢÐ¸Ð½ÑıÑĤÐ¾": 7608,
      "ĠÑģÑĤÑĢÐ°ÑĤÐµÐ³Ð¸Ð¸": 7609,
      "ĠÐ²ÑĭÑĢÐ°Ð·Ð¸": 7610,
      "ÑĪÐºÐ¾Ð¹": 7611,
      "ĠÐ¸Ð½ÑĤÐµÑĢÐµÑģÐ½Ð¾": 7612,
      "ĠÐ¿Ð¾Ð±ÐµÐ´Ñĭ": 7613,
      "ĠÐ¿ÑĢÐ¾ÑģÑĤÐ¾Ð¹": 7614,
      "ĠÐ¿ÑĢÐµÐ´Ð¿Ð¾Ð»Ð¾Ð¶": 7615,
      "ĠÐ´Ð²Ð¾Ð¹": 7616,
      "ĠÐķÐºÐ°ÑĤÐµÑĢÐ¸": 7617,
      "ĠÐ²Ð¸ÐºÐ¸": 7618,
      "ĠÐ²ÑĭÐ¿Ð¾Ð»Ð½ÑıÑĤÑĮ": 7619,
      "ĠÐ¾Ð±ÐµÑģÐ¿ÐµÑĩÐµÐ½Ð¸Ðµ": 7620,
      "ĠÐ²Ð¾ÑģÐ¿Ð¾Ð¼Ð¸Ð½Ð°": 7621,
      "Ð±ÐµÑĤ": 7622,
      "ĠÐłÐ¡": 7623,
      "Ð±ÐµÐ¶": 7624,
      "Ð¾Ð´Ð½Ð¾": 7625,
      "ÑģÑĤÐ°Ð¸": 7626,
      "ĠÐ¿ÑĢÐ¾Ð²Ð¾Ð´Ð¸ÑĤÑĮ": 7627,
      "ĠÐ¼ÐµÑħÐ°Ð½Ð¸Ð·Ð¼": 7628,
      "ĠÐ¿Ð¾Ð½ÑĢÐ°Ð²Ð¸": 7629,
      "ĠÐ½ÐµÐ¾Ð´Ð½": 7630,
      "Ð±Ð¾Ðº": 7631,
      "ÑĢÐ¾Ð²Ð°Ð½Ð¸Ñİ": 7632,
      "ÑįÑĦ": 7633,
      "Ġ1993": 7634,
      "ĠÑģÐ»ÐµÐ´ÑĥÑİÑīÐµÐµ": 7635,
      "Ġ1000": 7636,
      "ĠÐ¿ÑĢÐ¾Ð³ÑĢÐ°Ð¼Ð¼Ñĥ": 7637,
      "ĠÐ¼Ð°ÑģÐ»Ð¾": 7638,
      "ĠÐ¾ÑĤÐ¿Ñĥ": 7639,
      "ĠÐ¼ÐµÐ¶Ð´ÑĥÐ½Ð°ÑĢÐ¾Ð´Ð½ÑĭÑħ": 7640,
      "ĠÐ¿Ð¾ÑĢÑıÐ´Ð¾Ðº": 7641,
      "ĠÐºÐ°ÑĦÐµÐ´": 7642,
      "ĠÐĴÐ°Ñģ": 7643,
      "ÐľÐĲ": 7644,
      "ĠÐ¿ÑĢÐµÐ¸Ð¼ÑĥÑīÐµÑģÑĤÐ²Ð°": 7645,
      "ĠÐ½Ð¸ÐºÐ°ÐºÐ¾Ð³Ð¾": 7646,
      "ĠÑģÑİÐ¶ÐµÑĤ": 7647,
      "ÑīÐµÑģÑĤÐ²ÐµÐ½Ð½Ð¾": 7648,
      "ĠÑģÐ°ÑħÐ°ÑĢ": 7649,
      "ĠÑģÑĢÐµÐ´ÑģÑĤÐ²Ð¾": 7650,
      "ĠÐ´Ð°Ð»ÑĮÐ½ÐµÐ¹ÑĪÐµÐ¼": 7651,
      "ĠÐ¿ÑĢÐµÐ´Ð¿Ð¾ÑĩÑĤ": 7652,
      "ĠÑĢÐµÐ°Ð³Ð¸": 7653,
      "ĠÐ·Ð´Ð°Ð½Ð¸Ðµ": 7654,
      "ĠÐ·Ð°Ð½ÑıÑĤÐ¸Ñı": 7655,
      "ÐĺÑģÑĤÐ¾ÑĩÐ½Ð¸Ðº": 7656,
      "rt": 7657,
      "ĠÑĩÐ¸ÑģÐµÐ»": 7658,
      "Ð¹ÑģÐºÐ¸Ð¹": 7659,
      "ĠÐ¸Ð·Ð½Ð°ÑĩÐ°": 7660,
      "Ð½ÐµÐ²Ðµ": 7661,
      "ÐĲÐ½Ð´": 7662,
      "ĠAm": 7663,
      "ĠÑĩÐ¸ÑģÑĤ": 7664,
      "ÐºÐ½Ð¾Ð²": 7665,
      "ĠÐ¾ÐºÐ°": 7666,
      "ĠÐ¾ÑģÑĤÐ°Ð²Ð»Ñı": 7667,
      "ĠÐ¿ÑĢÐ°Ð²Ð¾ÑģÐ»Ð°Ð²": 7668,
      "ĠÑĪÐ¸ÑĢÐ¾ÐºÐ¸": 7669,
      "ĠÐ³Ð¸Ð¿Ð¾ÑĤÐµ": 7670,
      "Ġ1989": 7671,
      "ĠÐ°ÐºÑĤÐ¸Ð²Ð½Ð¾ÑģÑĤÐ¸": 7672,
      "ÐŃÑĤÐ°": 7673,
      "ĠÐ³Ð»Ð°Ð²Ð½Ð¾Ðµ": 7674,
      "ĠÐ¼ÑıÑģ": 7675,
      "ĠÐ¿Ð°ÑĨÐ¸ÐµÐ½ÑĤÐ°": 7676,
      "ĠÐļÐ¸ÐµÐ²": 7677,
      "ĠÐ¿Ñı": 7678,
      "ĠÐ´Ð¾Ð»Ð¶Ð½Ð¾ÑģÑĤÐ¸": 7679,
      "ĠÑĥÐ²Ð¸Ð´ÐµÐ»": 7680,
      "ÐĴÐŀ": 7681,
      "73": 7682,
      "Ð²Ð¾ÑģÑĤÑĮ": 7683,
      "ĠÑģÑĢÐµÐ´Ð½ÐµÐ¹": 7684,
      "ĠÐºÐ»Ð°Ð´Ð±Ð¸": 7685,
      "ĠÐ·Ð½Ð°Ð½Ð¸Ð¹": 7686,
      "ĠÑĢÐ¾ÑģÑģÐ¸Ð¹ÑģÐºÐ¸Ð¹": 7687,
      "ÑĨÐºÐ¸Ð¹": 7688,
      "ĠÑĥÑĩÐµÐ½ÑĭÐµ": 7689,
      "ĠÐ¿ÑĢÐ¾ÑģÑĮ": 7690,
      "Ð½ÐµÑĤÐµ": 7691,
      "ĠÐ¿Ð¾Ð·Ð²Ð¾": 7692,
      "**:": 7693,
      "ĠÑģÐ¿ÐµÑĨÐ¸Ð°Ð»ÑĮÐ½Ð¾": 7694,
      "ÑĢÐ¾ÑĤÐ°": 7695,
      "Ġ(\"": 7696,
      "ĠÑĥÑĩÐ°ÑģÑĤÐ²Ð¾Ð²Ð°Ð»": 7697,
      "ĠÐ¿Ð¾ÑıÐ²Ð¸Ð»ÑģÑı": 7698,
      "ĠÐŁÐ»Ð°": 7699,
      "Ð±ÑĭÑĩÐ½Ð¾": 7700,
      "ÑĢÐ°ÑĩÐ¸": 7701,
      "ĠÐ¿ÑĢÐµÐ´ÑģÐºÐ°": 7702,
      "ĠÑģÐ¿ÑĢÐ°Ð²Ð¸": 7703,
      "Ð»ÑĥÑİ": 7704,
      "ĠÑĢÐ°ÑģÑĤÐ²Ð¾": 7705,
      "Ġ(;": 7706,
      "ĠÐ¿Ð¾Ð»Ð¾Ð²Ð¸Ð½Ðµ": 7707,
      "ÑĢÐ½Ð¾Ð³Ð¾": 7708,
      "ÑĤÐ¸ÑĢÑĥÐµÑĤ": 7709,
      "ĠÐ¿Ñĭ": 7710,
      "ÑĤÐµÑĢÐ¸Ð¸": 7711,
      "ĠÑģÐµÑĤÑĮ": 7712,
      "ĠÐ´Ð°ÑĤ": 7713,
      "ĠÐ»Ð¾Ð²": 7714,
      "ĠÑģÐµÑĢÐ¸": 7715,
      "ĠÑģÐºÐ¾ÑĢÐ¾ÑģÑĤÑĮÑİ": 7716,
      "ĠÐ²ÑĭÑıÐ²": 7717,
      "ÑģÑĤÑĮÐµ": 7718,
      "ĠÑĢÐµÐ¶Ð¸Ð¼": 7719,
      "ĠÐºÐ°ÑĢÑĤÐ¸Ð½Ñĭ": 7720,
      "ĠÐ¿Ð¾ÑģÑĭ": 7721,
      "ÑĥÐºÐ°": 7722,
      "ĠÐ¼Ð°ÑģÐ»Ð°": 7723,
      "Ð»Ð¾Ð²Ð¾Ð¹": 7724,
      "ĠÑģÐ¾ÐµÐ´Ð¸Ð½ÐµÐ½Ð¸Ñı": 7725,
      "ĠÑįÐºÐ¾Ð»Ð¾Ð³Ð¸": 7726,
      "ĠÐ¿Ð¾Ð½Ð¸Ð¼Ð°Ð½Ð¸Ðµ": 7727,
      "ĠÐ¸Ð·ÑĥÑĩÐµÐ½Ð¸Ñı": 7728,
      "ĠÑģÐ¿ÑĢÐ°Ð²ÐµÐ´Ð»Ð¸Ð²Ð¾": 7729,
      "ĠÑĥÐ³ÑĢ": 7730,
      "Ð¢Ð°ÐºÐ¶Ðµ": 7731,
      "ĠÐŁÐµÑĢÐ²ÑĭÐ¹": 7732,
      "ĠÑıÐ½Ð²Ð°ÑĢÐµ": 7733,
      "ĠÑĥÐ´Ð¾": 7734,
      "Ð¾Ð¿Ð¾Ð»ÑĮ": 7735,
      "Ð´Ð»Ñı": 7736,
      "ÑģÑĤÐ¾ÑĢ": 7737,
      "ĠÐ·ÐµÐ¼ÐµÐ»ÑĮ": 7738,
      "ĠÐ¿ÑĢÐ¸Ð½Ð¸Ð¼Ð°ÐµÑĤ": 7739,
      "Ð²Ð¾ÐºÐ°": 7740,
      "ÐµÐ½ÑĮÐµ": 7741,
      "ĠÐ¾ÑĤÐ²ÐµÑĤÑģÑĤÐ²ÐµÐ½Ð½Ð¾ÑģÑĤÐ¸": 7742,
      "ĠÐºÐ°ÐºÐ¾Ð¼": 7743,
      "ĠÐ¼Ð°Ðµ": 7744,
      "ÐľÐ¾": 7745,
      "ĠÐ³Ð»Ð°Ð²Ð½Ð¾Ð³Ð¾": 7746,
      "ĠÐĶÐ¾Ð½": 7747,
      "ĠÐ±Ð¾Ð»ÑĮÐ½ÑĭÑħ": 7748,
      "ĠÐ³Ð¾ÑģÑĥÐ´Ð°ÑĢÑģÑĤÐ²ÐµÐ½Ð½Ð¾Ð¹": 7749,
      "ĠÐ½ÐµÐ·Ð°Ð²Ð¸ÑģÐ¸Ð¼Ð¾": 7750,
      "Ð¿Ð¸ÑģÐ°Ð½Ð¸Ðµ": 7751,
      "ĠÐ½Ð°ÑĩÐ¸Ð½Ð°Ñı": 7752,
      "ĠÑĢÐ°Ð·Ð²ÐµÑĢ": 7753,
      "ĠÑģÐ¾Ð·Ð´Ð°Ð½Ð¸Ð¸": 7754,
      "ĠÐ½ÐµÐ¼Ð°": 7755,
      "ĠÐ¸Ð³ÑĢÐ¾ÐºÐ¾Ð²": 7756,
      "Â²": 7757,
      "Ð½Ð¾Ð¶": 7758,
      "Ð§Ð°": 7759,
      "ĠÐ²Ð¾Ð·Ð´ÑĥÑħ": 7760,
      "ĠÐĴÐµÐ½Ðµ": 7761,
      "ÑĢÐ¾Ð´Ð°": 7762,
      "ond": 7763,
      "ÑĪÐµÐ½Ð¾": 7764,
      "ĠÐ½Ð°Ð½ÐµÑģ": 7765,
      "Ð³Ð¾ÑĢÐ°": 7766,
      "ĠÐ´Ð¾ÑĩÐµ": 7767,
      "ĠÐ³Ð¾ÑĤÐ¾Ð²Ñĭ": 7768,
      "ĠÑĩÑĥÐ²ÑģÑĤÐ²Ð¸": 7769,
      "ĠÐ³Ð»Ð°Ð²Ð°": 7770,
      "ĠÑĢÑĭÐ½Ð¾Ðº": 7771,
      "62": 7772,
      "Ð¶Ð°Ð»Ð°": 7773,
      "ĠÐ´Ð¾ÑģÑĤÐ¸ÑĩÑĮ": 7774,
      "63": 7775,
      "ĠÐĴÐ°Ð½": 7776,
      "ĠÐŀÐ½Ð¾": 7777,
      "ĠÐłÐ¾": 7778,
      "ĠUn": 7779,
      "ĠÐ¾Ð¿Ð¸ÑģÐ°Ð½Ð¸Ðµ": 7780,
      "ĠÐ·Ð»Ð¾": 7781,
      "ĠÐ½Ð°ÑĥÑĩÐ½ÑĭÑħ": 7782,
      "ĠÐ¿ÑĢÐ¾ÑĨÐµÐ½ÑĤÐ¾Ð²": 7783,
      "ÐłÐ¾ÑģÑģÐ¸": 7784,
      "ĠÐ¿Ð¾Ð¶Ð°Ð»ÑĥÐ¹ÑģÑĤÐ°": 7785,
      "Ð¾Ð»ÑĮÐ·Ð¾Ð²Ð°Ð½Ð¸Ðµ": 7786,
      "ĠÑģÐ°Ð¼Ð°Ñı": 7787,
      "ĠÑģÑĢÐµÐ´Ð½ÐµÐ¼": 7788,
      "ĠÐ¿Ð¾ÐºÐ°Ð·Ð°ÑĤÑĮ": 7789,
      "Ġ400": 7790,
      "ĠÐŀÐº": 7791,
      "ĠÑĢÐµÑĪÐ¸Ð»Ð¸": 7792,
      "ĠÐºÐ¾Ð½ÑĨÑĥ": 7793,
      "ĠÐ±Ð¾Ð»ÑĮÑĪÐ¸Ð½ÑģÑĤÐ²Ðµ": 7794,
      "ĠÑįÑģÐºÐ°": 7795,
      "ĠÑģÑĤÐ¸ÑħÐ¸": 7796,
      "reflection": 7797,
      "ĠÐĴÐµÐ´ÑĮ": 7798,
      "Ð¼Ð¾Ð³Ð¾": 7799,
      "Ð½Ð³Ð°": 7800,
      "ĠÐ¿ÑĥÑĤ": 7801,
      "ĠÑĢÐ°Ðº": 7802,
      "ĠÑĩÐ¸Ð½Ð¾Ð²": 7803,
      "ÑģÑĤÐ¾ÑıÐ½Ð¸Ðµ": 7804,
      "ĠÐ²ÑģÐ»ÐµÐ´ÑģÑĤÐ²Ð¸Ðµ": 7805,
      "ÑģÐºÐ°ÑĤÑĮ": 7806,
      "ĠÐ¨Ð²Ðµ": 7807,
      "ĠÐ¾Ð±ÑģÑĤÐ¾ÑıÑĤÐµÐ»ÑĮÑģÑĤÐ²Ð°": 7808,
      "Ð²Ð¾ÑģÑĤÐ¾": 7809,
      "ĠÑģÑĥÑīÐµÑģÑĤÐ²Ð¾Ð²Ð°Ð½Ð¸Ñı": 7810,
      "ĠÑĦÐ¾ÑĤÐ¾Ð³ÑĢÐ°ÑĦÐ¸Ð¸": 7811,
      "ĠÐļÐ¾ÑĢÐ¾Ð»ÐµÐ²": 7812,
      "Ð¾Ð²ÐµÐ´": 7813,
      "ĠÑĦÐµÐ´ÐµÑĢÐ°Ð»ÑĮ": 7814,
      "ÐļÐ¾ÑĢ": 7815,
      "ĠÑįÐ»ÐµÐ¼ÐµÐ½ÑĤ": 7816,
      "ĠÐ´Ð¾Ð»Ð³": 7817,
      "ĠÑĥÐ»Ð¸ÑĨÑĭ": 7818,
      "Ð²ÑĪÐ¸Ð¼Ð¸": 7819,
      "ÑĤÐ¸ÑĩÐµÑģÐºÐ¸Ð¹": 7820,
      "Ð±ÐµÐ»Ð¸": 7821,
      "ĠÐ²ÐºÐ»ÑİÑĩÐ°ÑĤÑĮ": 7822,
      "ĠÐ¾ÑģÑĥÑīÐµÑģÑĤÐ²Ð»ÐµÐ½Ð¸Ñı": 7823,
      "ÐĴÐµÑĢ": 7824,
      "ĠÐ¿Ð¾Ð»ÑĥÑĩÐ°ÑĤÑĮ": 7825,
      "ÑĢÐ½ÑĭÑħ": 7826,
      "ĠÐ·Ð°ÑģÑĤÐ°Ð²Ð¸": 7827,
      "ÑĨÐ¸Ð¾Ð½Ð°Ð»Ð¸": 7828,
      "ĠÐ§Ð°ÑĢ": 7829,
      "ÐºÐ¾Ð²Ð¸": 7830,
      "ÑĪÐµÐ½Ð°": 7831,
      "?\"": 7832,
      "ÑĢÐµÑı": 7833,
      "ĠÐ¼Ð¸Ð»ÑĮ": 7834,
      "ĠÑģÑĥÑĤÐ¸": 7835,
      "ĠÐĺÐ²Ð°Ð½": 7836,
      "Ġ1939": 7837,
      "ĠÐ´Ð¸ÑĢÐµÐºÑĤÐ¾ÑĢ": 7838,
      "ÑģÐ½Ð¾Ð¹": 7839,
      "ĠÑģÐ¾Ð²ÐµÑĤÑĭ": 7840,
      "ĠÐ´Ð¾ÑģÑĤÐ°Ð²": 7841,
      "ĠÑĢÐ°Ð·Ð²Ð¸ÑĤÐ¸Ð¸": 7842,
      "ĠApp": 7843,
      "ĠÐ²Ð¾Ð»Ð¾ÑģÑĭ": 7844,
      "----------------": 7845,
      "ĠÐ²Ð¾Ð·Ð³Ð»Ð°Ð²Ð»Ñı": 7846,
      "ĠÐĿÐ¸ÐºÐ¾Ð»Ð°Ð¹": 7847,
      "Ġit": 7848,
      "ÐºÑĥÑĢ": 7849,
      "ĠÑĥÐ½Ð¸Ð²ÐµÑĢÑģÐ¸ÑĤÐµÑĤÐµ": 7850,
      "ĠÐ·Ð°Ð³ÑĢÑıÐ·": 7851,
      "ÑĢÐ°Ð¸Ð»ÑĮ": 7852,
      "ÑĢÑĥÐ³Ð°": 7853,
      "ÐŁÐ¾ÑģÐºÐ¾Ð»ÑĮÐºÑĥ": 7854,
      "ĠÐ²ÑĭÐ¿Ð¾Ð»Ð½Ð¸ÑĤÑĮ": 7855,
      "ĠÐ¿Ð¾Ð´ÑĩÐµÑĢÐºÐ¸": 7856,
      "ĠÐ¿ÐµÑģÐµÐ½": 7857,
      "ĠÐ²ÑĭÐ±ÑĢÐ°Ð½": 7858,
      "ĠÑģÐ¼Ð¾Ð³Ð»Ð¸": 7859,
      "ĠÐ²ÑģÑĤÐ°": 7860,
      "ÑĤÐ¸Ð½Ð³": 7861,
      "ĠÐ¢ÑĢÑĥ": 7862,
      "ĠÐ²Ð°ÑĪÐ°": 7863,
      "ÑħÐ¾Ð´Ð¸Ð»Ð¾": 7864,
      "ĠÐŁÐµÑĤÐµÑĢ": 7865,
      "ĠÑģÐ¼ÐµÐ½": 7866,
      "ĠÐ±Ð¸Ð·Ð½ÐµÑģÐ°": 7867,
      "71": 7868,
      "ĠÐ¿ÑĢÐ¾Ð¹ÑĤÐ¸": 7869,
      "ÐŁÐ¸": 7870,
      "Ð½ÑıÐ»": 7871,
      "Ð·Ð¸Ñİ": 7872,
      "ĠÑĢÐµÐ°Ð»Ð¸Ð·Ð¾Ð²Ð°": 7873,
      "ĠÐ¾Ð¿ÑĢÐµÐ´ÐµÐ»ÐµÐ½Ð¸Ðµ": 7874,
      "ĠÐ´ÐµÑģÑıÑĤÐ¸Ð»": 7875,
      "ĠÐ¼Ð¸Ð½": 7876,
      "ĠÐ¶ÐµÐ»Ð°Ð½Ð¸Ðµ": 7877,
      "ĠÐ°Ð²ÑĤÐ¾Ð½Ð¾Ð¼": 7878,
      ":**": 7879,
      "ĠÑĢÐµÐºÐ¾Ð¼ÐµÐ½Ð´Ð°ÑĨÐ¸Ð¸": 7880,
      "42": 7881,
      "ile": 7882,
      "ĠÐ¾Ð±ÑģÑĤÐ°Ð½Ð¾Ð²": 7883,
      "ĠÐ±ÐµÑĢ": 7884,
      "ÑĦÐ¸ÐºÐ°ÑĨÐ¸Ñı": 7885,
      "ĠÐ±Ð¾Ð»ÑĮÑĪÐ¸Ð½ÑģÑĤÐ²Ð°": 7886,
      "ÑįÑĦÑĦÐ¸ÑĨÐ¸": 7887,
      "ĠÐ¶Ð¸Ð»": 7888,
      "Ð¾Ð¿Ð¸Ñģ": 7889,
      "ĠÐ¿ÑĢÐ¸ÑĩÐ¸Ð½Ðµ": 7890,
      "ĠÐ¿Ð¾ÑĤÐµÑĢÐ¸": 7891,
      "ĠÐ·Ð°ÑĢÐµÐ³Ð¸ÑģÑĤÑĢÐ¸": 7892,
      "ĠÐ²Ð¾Ð·Ð´ÐµÐ¹ÑģÑĤÐ²Ð¸Ðµ": 7893,
      "ĠÐ·Ð°ÑĤÑĢÑĥÐ´": 7894,
      "ĠÐºÐ¾Ð»Ð¾Ð½": 7895,
      "Ð¸Ð»Ð»Ð¸": 7896,
      "ĠÐ·Ð´Ð¾ÑĢ": 7897,
      "ĠÐ²Ð¾Ð²ÑģÐµ": 7898,
[...]
